<pad>	0
<s>	0
</s>	0
<unk>	0
▁t	-0
▁a	-1
in	-2
he	-3
on	-4
re	-5
ti	-6
▁the	-7
er	-8
▁o	-9
en	-10
es	-11
an	-12
or	-13
al	-14
▁s	-15
▁p	-16
▁of	-17
▁c	-18
tion	-19
nd	-20
ed	-21
is	-22
▁in	-23
at	-24
it	-25
▁f	-26
ro	-27
ar	-28
▁and	-29
▁w	-30
ing	-31
▁to	-32
ent	-33
▁b	-34
ic	-35
ation	-36
▁d	-37
▁C	-38
▁m	-39
▁re	-40
le	-41
ou	-42
ec	-43
as	-44
om	-45
ment	-46
▁T	-47
▁A	-48
ve	-49
▁th	-50
▁e	-51
il	-52
▁S	-53
ce	-54
▁n	-55
st	-56
ad	-57
▁pro	-58
▁for	-59
▁h	-60
▁P	-61
▁I	-62
lo	-63
▁be	-64
id	-65
▁(	-66
ra	-67
ur	-68
ly	-69
se	-70
▁M	-71
ri	-72
▁on	-73
ct	-74
00	-75
▁con	-76
et	-77
ol	-78
▁1	-79
▁is	-80
ul	-81
▁2	-82
ers	-83
▁R	-84
▁that	-85
ion	-86
▁The	-87
im	-88
▁g	-89
▁l	-90
▁E	-91
ir	-92
▁D	-93
ot	-94
ch	-95
ate	-96
pp	-97
▁as	-98
▁u	-99
ort	-100
ith	-101
▁or	-102
ver	-103
ter	-104
▁F	-105
ity	-106
ut	-107
ab	-108
▁with	-109
ess	-110
ig	-111
▁su	-112
ge	-113
▁com	-114
▁N	-115
▁de	-116
▁an	-117
▁st	-118
qu	-119
anad	-120
▁B	-121
her	-122
res	-123
▁Canad	-124
▁ex	-125
▁O	-126
▁by	-127
ci	-128
ts	-129
▁In	-130
▁are	-131
el	-132
ay	-133
em	-134
ff	-135
▁al	-136
um	-137
▁H	-138
ations	-139
ere	-140
un	-141
th	-142
iti	-143
ill	-144
ist	-145
▁ac	-146
ain	-147
▁wh	-148
▁200	-149
am	-150
ud	-151
us	-152
od	-153
▁G	-154
▁it	-155
▁W	-156
ew	-157
ac	-158
ure	-159
tic	-160
▁L	-161
and	-162
os	-163
end	-164
du	-165
our	-166
nt	-167
ect	-168
▁res	-169
tive	-170
▁v	-171
if	-172
ld	-173
▁app	-174
orm	-175
rom	-176
port	-177
ated	-178
ow	-179
▁Canada	-180
▁at	-181
ore	-182
iv	-183
lic	-184
est	-185
▁par	-186
▁not	-187
ant	-188
ance	-189
per	-190
▁en	-191
omm	-192
▁y	-193
▁sh	-194
▁from	-195
ber	-196
age	-197
▁ad	-198
▁inc	-199
▁im	-200
ard	-201
form	-202
ther	-203
ans	-204
ments	-205
▁cont	-206
erv	-207
__	-208
ak	-209
▁comp	-210
ire	-211
▁he	-212
▁le	-213
ies	-214
ork	-215
▁was	-216
ational	-217
ear	-218
tions	-219
ary	-220
op	-221
able	-222
▁prov	-223
gra	-224
ould	-225
▁ha	-226
▁Re	-227
▁this	-228
▁•	-229
ities	-230
▁St	-231
rou	-232
▁19	-233
ich	-234
iz	-235
ub	-236
gh	-237
▁r	-238
all	-239
▁U	-240
▁will	-241
▁-	-242
▁ch	-243
sion	-244
▁Comm	-245
▁3	-246
▁int	-247
ian	-248
ice	-249
over	-250
▁have	-251
▁Pro	-252
ru	-253
▁which	-254
..	-255
▁comm	-256
lop	-257
low	-258
tiv	-259
ia	-260
ib	-261
▁per	-262
are	-263
velop	-264
pec	-265
ces	-266
cess	-267
tern	-268
so	-269
oc	-270
ult	-271
ence	-272
ust	-273
act	-274
▁reg	-275
nder	-276
pe	-277
▁cons	-278
ine	-279
ount	-280
▁has	-281
ue	-282
ost	-283
ee	-284
gram	-285
▁"	-286
▁J	-287
art	-288
ign	-289
ase	-290
formation	-291
igh	-292
ip	-293
ial	-294
ual	-295
ome	-296
ction	-297
▁imp	-298
▁other	-299
▁their	-300
▁me	-301
▁pl	-302
▁dis	-303
ates	-304
ide	-305
ap	-306
mp	-307
alth	-308
▁Con	-309
ition	-310
lud	-311
ord	-312
▁sub	-313
▁under	-314
▁ag	-315
cial	-316
▁man	-317
ical	-318
overn	-319
▁tr	-320
eral	-321
ree	-322
ision	-323
ag	-324
ublic	-325
▁work	-326
ail	-327
li	-328
ep	-329
▁its	-330
ry	-331
▁requ	-332
▁Th	-333
▁develop	-334
▁rec	-335
ices	-336
▁serv	-337
▁whe	-338
▁ab	-339
▁4	-340
▁were	-341
ission	-342
pon	-343
ous	-344
ast	-345
rib	-346
enti	-347
▁ne	-348
pport	-349
▁pre	-350
▁Canadian	-351
itt	-352
ection	-353
vi	-354
▁exp	-355
ell	-356
▁information	-357
oun	-358
▁un	-359
▁199	-360
▁all	-361
min	-362
ors	-363
ark	-364
▁V	-365
▁5	-366
▁includ	-367
▁year	-368
▁k	-369
____	-370
▁us	-371
▁been	-372
ven	-373
tit	-374
loy	-375
ility	-376
ach	-377
▁also	-378
ade	-379
▁eff	-380
ari	-381
).	-382
▁qu	-383
ative	-384
cy	-385
▁so	-386
▁produ	-387
ood	-388
ong	-389
uro	-390
▁can	-391
▁ind	-392
▁se	-393
out	-394
ose	-395
▁As	-396
ents	-397
▁more	-398
▁program	-399
▁pol	-400
ific	-401
ced	-402
fic	-403
ress	-404
overnment	-405
ater	-406
cip	-407
▁out	-408
ory	-409
▁acc	-410
▁inv	-411
▁am	-412
▁lo	-413
▁Ch	-414
gan	-415
yst	-416
▁ass	-417
ech	-418
ish	-419
ang	-420
ake	-421
ph	-422
ating	-423
ember	-424
ures	-425
vel	-426
▁may	-427
▁dec	-428
ef	-429
mploy	-430
ystem	-431
),	-432
gy	-433
pos	-434
▁appro	-435
red	-436
▁new	-437
▁Euro	-438
▁spec	-439
▁K	-440
▁This	-441
▁rel	-442
▁ob	-443
ive	-444
▁$	-445
ased	-446
lect	-447
▁provid	-448
▁6	-449
ject	-450
▁report	-451
olo	-452
▁part	-453
▁add	-454
ens	-455
und	-456
su	-457
▁fin	-458
▁j	-459
ax	-460
▁should	-461
int	-462
▁Ar	-463
▁Europe	-464
erson	-465
▁trans	-466
▁require	-467
aw	-468
ace	-469
ution	-470
▁bet	-471
▁He	-472
▁Res	-473
ass	-474
▁co	-475
ll	-476
▁Un	-477
▁such	-478
resent	-479
ild	-480
econ	-481
▁commun	-482
▁we	-483
▁Ag	-484
▁des	-485
ternational	-486
iron	-487
tain	-488
ren	-489
▁tim	-490
les	-491
ning	-492
rough	-493
▁cl	-494
ric	-495
agement	-496
▁any	-497
▁there	-498
▁conc	-499
lement	-500
200	-501
viron	-502
▁than	-503
▁these	-504
▁0	-505
ex	-506
▁Reg	-507
arch	-508
▁they	-509
▁No	-510
▁would	-511
▁ar	-512
we	-513
▁public	-514
ms	-515
au	-516
ency	-517
sib	-518
▁di	-519
▁It	-520
▁respon	-521
▁no	-522
hip	-523
▁ref	-524
▁ev	-525
vironment	-526
▁pri	-527
▁support	-528
▁applic	-529
▁tra	-530
ite	-531
▁over	-532
ied	-533
▁use	-534
▁do	-535
▁one	-536
ange	-537
▁employ	-538
▁health	-539
ings	-540
ollow	-541
▁9	-542
ks	-543
▁Act	-544
▁pos	-545
one	-546
.1	-547
ON	-548
roup	-549
echn	-550
▁system	-551
▁rep	-552
▁7	-553
▁need	-554
ries	-555
uring	-556
ural	-557
ight	-558
irst	-559
▁8	-560
▁who	-561
▁Commission	-562
hed	-563
ited	-564
▁En	-565
▁count	-566
ween	-567
umber	-568
ular	-569
▁services	-570
....	-571
▁person	-572
ile	-573
jec	-574
eneral	-575
▁organ	-576
its	-577
cal	-578
rate	-579
▁you	-580
▁An	-581
view	-582
uth	-583
ame	-584
▁development	-585
▁follow	-586
ound	-587
▁between	-588
icy	-589
tis	-590
-1	-591
▁det	-592
▁process	-593
irect	-594
▁–	-595
▁time	-596
▁incre	-597
▁For	-598
▁mark	-599
▁Min	-600
▁through	-601
reat	-602
me	-603
▁ins	-604
▁Ex	-605
▁activ	-606
tives	-607
old	-608
eren	-609
▁had	-610
als	-611
abl	-612
ered	-613
ants	-614
amp	-615
▁ro	-616
▁sa	-617
▁dep	-618
▁parti	-619
ack	-620
▁ter	-621
-0	-622
TI	-623
▁import	-624
uthor	-625
ER	-626
te	-627
get	-628
▁into	-629
now	-630
righ	-631
▁European	-632
▁inter	-633
por	-634
▁rese	-635
▁but	-636
ved	-637
▁pur	-638
▁oper	-639
oint	-640
▁off	-641
air	-642
ration	-643
ys	-644
▁Man	-645
ise	-646
▁Health	-647
▁Serv	-648
ted	-649
▁level	-650
cc	-651
▁must	-652
ty	-653
iness	-654
▁diff	-655
very	-656
ally	-657
▁Q	-658
▁form	-659
alu	-660
wo	-661
▁De	-662
ards	-663
pect	-664
ulation	-665
cil	-666
▁disc	-667
▁shall	-668
ittee	-669
ources	-670
▁.	-671
artment	-672
▁Y	-673
▁consid	-674
▁pe	-675
ss	-676
▁stud	-677
identi	-678
av	-679
ety	-680
tt	-681
▁Coun	-682
usiness	-683
graph	-684
▁up	-685
ata	-686
▁if	-687
ining	-688
ke	-689
ization	-690
uc	-691
ob	-692
▁col	-693
▁Al	-694
og	-695
cts	-696
▁only	-697
▁av	-698
▁pr	-699
cep	-700
▁Cont	-701
led	-702
rac	-703
der	-704
rit	-705
ister	-706
▁number	-707
▁est	-708
▁made	-709
sure	-710
▁sign	-711
▁where	-712
ocu	-713
▁10	-714
omp	-715
▁well	-716
▁Par	-717
▁Ad	-718
▁mon	-719
row	-720
▁years	-721
▁some	-722
AN	-723
▁fund	-724
▁righ	-725
iod	-726
▁sp	-727
▁government	-728
▁about	-729
▁[	-730
omic	-731
▁two	-732
eg	-733
▁within	-734
fore	-735
▁Off	-736
000	-737
▁effec	-738
ability	-739
▁research	-740
▁issu	-741
▁cap	-742
▁Council	-743
ases	-744
▁leg	-745
bers	-746
▁Am	-747
▁Ind	-748
ES	-749
▁used	-750
EN	-751
▁techn	-752
.2	-753
▁those	-754
ince	-755
ont	-756
ticle	-757
ivers	-758
▁Tr	-759
▁provide	-760
uman	-761
ever	-762
oth	-763
________	-764
▁group	-765
▁national	-766
▁management	-767
ww	-768
ays	-769
ov	-770
ines	-771
▁author	-772
▁establ	-773
lan	-774
▁Program	-775
ederal	-776
ality	-777
▁bec	-778
▁market	-779
▁set	-780
oard	-781
ok	-782
tim	-783
▁cost	-784
▁meas	-785
▁Dep	-786
ized	-787
ie	-788
▁op	-789
ble	-790
ners	-791
▁rem	-792
▁meet	-793
▁our	-794
ional	-795
fter	-796
▁prot	-797
itions	-798
▁econ	-799
hen	-800
▁including	-801
▁contin	-802
ruct	-803
ern	-804
EC	-805
▁sc	-806
ute	-807
▁met	-808
land	-809
▁environment	-810
ancial	-811
inal	-812
ulations	-813
▁li	-814
▁ra	-815
▁when	-816
▁implement	-817
▁international	-818
▁rece	-819
▁identi	-820
▁propos	-821
▁States	-822
▁policy	-823
sible	-824
▁main	-825
ivid	-826
▁ben	-827
▁service	-828
▁Committee	-829
▁plan	-830
▁Commun	-831
▁particip	-832
▁activities	-833
▁following	-834
▁equ	-835
▁min	-836
▁sur	-837
▁them	-838
▁>	-839
▁decision	-840
▁period	-841
▁access	-842
▁car	-843
▁2006	-844
▁avail	-845
aking	-846
ople	-847
rent	-848
ology	-849
▁know	-850
illion	-851
tice	-852
▁(1	-853
▁each	-854
ft	-855
soci	-856
▁2005	-857
▁indu	-858
▁initi	-859
▁cor	-860
earch	-861
▁first	-862
▁On	-863
ees	-864
▁def	-865
erest	-866
▁tax	-867
▁inf	-868
▁New	-869
OR	-870
▁We	-871
erence	-872
▁provided	-873
▁assess	-874
▁data	-875
▁partic	-876
ages	-877
▁Article	-878
▁adv	-879
embers	-880
▁ph	-881
▁att	-882
olog	-883
ving	-884
▁how	-885
▁mod	-886
ca	-887
▁impro	-888
▁exper	-889
▁Mr	-890
▁cur	-891
ran	-892
▁pay	-893
▁comple	-894
round	-895
utions	-896
IN	-897
▁App	-898
▁sec	-899
▁conf	-900
▁National	-901
▁indust	-902
▁docu	-903
AR	-904
ey	-905
▁2004	-906
▁ext	-907
ults	-908
▁12	-909
ished	-910
▁Public	-911
▁high	-912
▁Minister	-913
reement	-914
▁business	-915
▁both	-916
▁particular	-917
ix	-918
ause	-919
▁contrib	-920
▁most	-921
ract	-922
ividual	-923
▁non	-924
-2	-925
▁countries	-926
ties	-927
▁fact	-928
ital	-929
pr	-930
1,	-931
▁review	-932
▁available	-933
.3	-934
▁Ab	-935
▁Government	-936
ove	-937
ough	-938
ele	-939
▁deter	-940
▁vari	-941
▁ris	-942
▁bas	-943
ended	-944
▁vi	-945
▁interest	-946
ined	-947
minist	-948
▁people	-949
pri	-950
rol	-951
▁redu	-952
ily	-953
▁good	-954
▁project	-955
▁dist	-956
▁Dec	-957
▁indic	-958
▁2007	-959
vention	-960
▁addition	-961
▁cent	-962
▁could	-963
▁your	-964
arm	-965
IC	-966
▁during	-967
ption	-968
ilities	-969
▁being	-970
▁ed	-971
▁his	-972
▁present	-973
atory	-974
.,	-975
▁respect	-976
▁prac	-977
▁20	-978
▁order	-979
▁med	-980
AL	-981
ful	-982
▁pa	-983
▁individual	-984
▁Or	-985
ici	-986
▁ensure	-987
ctive	-988
▁represent	-989
▁ent	-990
▁Pol	-991
.0	-992
▁issues	-993
urther	-994
▁gu	-995
ason	-996
▁benef	-997
▁strate	-998
▁cre	-999
ected	-1000
▁stand	-1001
man	-1002
angu	-1003
sel	-1004
▁required	-1005
pl	-1006
own	-1007
ges	-1008
▁Board	-1009
urity	-1010
ind	-1011
▁fac	-1012
▁sect	-1013
▁identif	-1014
▁2003	-1015
ross	-1016
▁design	-1017
▁dem	-1018
atives	-1019
urn	-1020
up	-1021
▁Agency	-1022
lp	-1023
▁Develop	-1024
ram	-1025
▁ann	-1026
▁cer	-1027
omen	-1028
▁result	-1029
ions	-1030
▁em	-1031
stru	-1032
jects	-1033
TION	-1034
▁members	-1035
▁general	-1036
ared	-1037
▁Ins	-1038
▁To	-1039
ness	-1040
▁prior	-1041
aj	-1042
▁case	-1043
▁invol	-1044
aff	-1045
▁15	-1046
▁application	-1047
▁International	-1048
agraph	-1049
▁law	-1050
▁offic	-1051
orld	-1052
▁rele	-1053
ret	-1054
▁cond	-1055
▁care	-1056
▁after	-1057
ised	-1058
▁Cent	-1059
▁Department	-1060
▁How	-1061
▁help	-1062
▁instit	-1063
iel	-1064
ote	-1065
che	-1066
▁financial	-1067
▁sm	-1068
99	-1069
▁community	-1070
▁Wh	-1071
▁Member	-1072
AT	-1073
ner	-1074
oper	-1075
▁Comp	-1076
ential	-1077
▁federal	-1078
arge	-1079
ances	-1080
▁current	-1081
▁prom	-1082
▁provision	-1083
▁EU	-1084
.5	-1085
▁three	-1086
IS	-1087
▁gr	-1088
▁perform	-1089
▁fore	-1090
▁2002	-1091
ccess	-1092
ario	-1093
▁important	-1094
▁sit	-1095
duct	-1096
▁Su	-1097
▁areas	-1098
▁training	-1099
omes	-1100
tical	-1101
ward	-1102
co	-1103
ature	-1104
▁ful	-1105
itor	-1106
▁direct	-1107
ultural	-1108
▁account	-1109
lia	-1110
▁long	-1111
▁programs	-1112
▁address	-1113
lear	-1114
▁ques	-1115
▁make	-1116
ians	-1117
▁lead	-1118
ife	-1119
cing	-1120
▁Inc	-1121
▁11	-1122
uild	-1123
ctions	-1124
▁include	-1125
lain	-1126
▁ow	-1127
▁economic	-1128
▁allow	-1129
▁es	-1130
idence	-1131
iversity	-1132
▁child	-1133
▁lim	-1134
........	-1135
▁million	-1136
ified	-1137
▁Col	-1138
ron	-1139
▁products	-1140
ize	-1141
ived	-1142
▁supp	-1143
▁Sec	-1144
econd	-1145
▁subs	-1146
lig	-1147
▁pop	-1148
▁Report	-1149
▁Service	-1150
ntario	-1151
,000	-1152
ilit	-1153
▁air	-1154
▁educ	-1155
▁area	-1156
road	-1157
ism	-1158
▁198	-1159
▁val	-1160
▁signific	-1161
liament	-1162
▁social	-1163
aim	-1164
.4	-1165
ending	-1166
ible	-1167
▁General	-1168
ample	-1169
▁specific	-1170
ajor	-1171
▁human	-1172
▁proper	-1173
▁Rec	-1174
go	-1175
▁Development	-1176
ination	-1177
ield	-1178
▁Information	-1179
▁subm	-1180
▁many	-1181
▁giv	-1182
▁18	-1183
cri	-1184
▁section	-1185
▁concern	-1186
▁same	-1187
▁grow	-1188
ink	-1189
▁accord	-1190
ral	-1191
▁appropri	-1192
ident	-1193
▁aff	-1194
▁consider	-1195
▁based	-1196
▁Ontario	-1197
pportun	-1198
ledge	-1199
▁rights	-1200
ool	-1201
ank	-1202
▁elect	-1203
leg	-1204
ecess	-1205
isl	-1206
▁anal	-1207
▁occ	-1208
▁regard	-1209
▁results	-1210
▁Trans	-1211
-200	-1212
▁sim	-1213
▁recomm	-1214
▁There	-1215
ting	-1216
▁These	-1217
▁Part	-1218
▁Direct	-1219
▁resources	-1220
▁Cons	-1221
10	-1222
▁chang	-1223
▁partners	-1224
fety	-1225
▁again	-1226
▁Research	-1227
ten	-1228
▁prof	-1229
2)	-1230
▁At	-1231
lection	-1232
▁before	-1233
▁Environment	-1234
▁IN	-1235
▁water	-1236
fer	-1237
▁requirements	-1238
rodu	-1239
work	-1240
▁If	-1241
bec	-1242
▁her	-1243
▁2000	-1244
▁effective	-1245
itted	-1246
ick	-1247
anding	-1248
orig	-1249
▁gen	-1250
▁end	-1251
ework	-1252
▁United	-1253
▁objec	-1254
▁measures	-1255
▁related	-1256
▁found	-1257
for	-1258
ext	-1259
tal	-1260
con	-1261
cent	-1262
tific	-1263
ourt	-1264
gin	-1265
ructure	-1266
tics	-1267
incip	-1268
▁Co	-1269
▁like	-1270
▁Fin	-1271
orth	-1272
▁Services	-1273
▁significant	-1274
til	-1275
ramework	-1276
▁compan	-1277
▁ear	-1278
▁risk	-1279
▁impact	-1280
cept	-1281
▁assist	-1282
ource	-1283
ium	-1284
▁14	-1285
▁13	-1286
▁State	-1287
ately	-1288
AC	-1289
▁does	-1290
▁&	-1291
par	-1292
▁low	-1293
▁provin	-1294
original	-1295
▁pres	-1296
▁Cl	-1297
▁organiz	-1298
▁invest	-1299
▁necess	-1300
--	-1301
▁experi	-1302
IP	-1303
io	-1304
▁proced	-1305
▁contain	-1306
▁industry	-1307
▁discus	-1308
▁evalu	-1309
ST	-1310
ator	-1311
aken	-1312
▁char	-1313
▁Community	-1314
IT	-1315
▁place	-1316
erent	-1317
▁ty	-1318
▁amount	-1319
▁ret	-1320
▁major	-1321
sue	-1322
crib	-1323
▁country	-1324
▁First	-1325
▁take	-1326
▁state	-1327
line	-1328
▁what	-1329
▁further	-1330
ves	-1331
▁Management	-1332
▁establish	-1333
ators	-1334
ulture	-1335
▁sector	-1336
cies	-1337
ues	-1338
13	-1339
▁et	-1340
▁Canadians	-1341
▁control	-1342
hold	-1343
mb	-1344
▁Office	-1345
▁So	-1346
▁Plan	-1347
."	-1348
▁reason	-1349
▁different	-1350
▁opportun	-1351
▁exist	-1352
▁—	-1353
▁improve	-1354
▁basis	-1355
▁increase	-1356
▁However	-1357
lus	-1358
▁document	-1359
▁administ	-1360
▁consult	-1361
ck	-1362
▁pot	-1363
ND	-1364
aterial	-1365
the	-1366
rug	-1367
▁go	-1368
▁vis	-1369
▁projects	-1370
▁view	-1371
▁fil	-1372
raft	-1373
tig	-1374
ird	-1375
ently	-1376
▁act	-1377
oura	-1378
▁Work	-1379
hod	-1380
ension	-1381
fact	-1382
▁associ	-1383
chie	-1384
▁fe	-1385
▁conditions	-1386
▁OF	-1387
orpor	-1388
▁total	-1389
50	-1390
1)	-1391
▁Parliament	-1392
▁16	-1393
lu	-1394
ocus	-1395
▁mat	-1396
RO	-1397
eric	-1398
▁claim	-1399
ED	-1400
▁women	-1401
other	-1402
une	-1403
ceed	-1404
ond	-1405
▁appropriate	-1406
ogn	-1407
here	-1408
▁staff	-1409
▁legisl	-1410
ences	-1411
▁communic	-1412
▁local	-1413
▁less	-1414
▁sal	-1415
▁langu	-1416
▁needs	-1417
▁integ	-1418
▁30	-1419
uture	-1420
▁change	-1421
▁see	-1422
chool	-1423
udget	-1424
ternal	-1425
hes	-1426
mm	-1427
▁paragraph	-1428
▁because	-1429
▁adop	-1430
▁Ass	-1431
▁costs	-1432
▁request	-1433
▁environmental	-1434
▁Director	-1435
▁subject	-1436
▁conduct	-1437
etwork	-1438
▁against	-1439
ury	-1440
▁Aboriginal	-1441
ring	-1442
▁govern	-1443
▁protection	-1444
▁deli	-1445
▁month	-1446
ug	-1447
▁Pri	-1448
▁TH	-1449
▁ser	-1450
▁trade	-1451
▁whether	-1452
▁fam	-1453
▁list	-1454
ules	-1455
▁record	-1456
▁1,	-1457
▁quality	-1458
/0	-1459
ouse	-1460
ask	-1461
▁determin	-1462
▁funding	-1463
▁role	-1464
▁key	-1465
vious	-1466
▁princip	-1467
▁la	-1468
▁achie	-1469
SC	-1470
ept	-1471
way	-1472
▁provides	-1473
▁very	-1474
operation	-1475
▁pat	-1476
ATION	-1477
▁knowledge	-1478
▁lab	-1479
▁CO	-1480
▁subst	-1481
▁possible	-1482
▁special	-1483
▁rate	-1484
▁Dis	-1485
20	-1486
▁security	-1487
▁groups	-1488
▁she	-1489
encies	-1490
ological	-1491
▁date	-1492
med	-1493
▁find	-1494
▁compe	-1495
▁17	-1496
▁2001	-1497
▁proble	-1498
▁necessary	-1499
▁action	-1500
▁material	-1501
▁given	-1502
▁te	-1503
▁Is	-1504
▁Ann	-1505
tices	-1506
emp	-1507
ysis	-1508
▁site	-1509
▁among	-1510
▁example	-1511
▁Pre	-1512
▁build	-1513
▁systems	-1514
▁study	-1515
▁Gu	-1516
▁clo	-1517
ention	-1518
▁while	-1519
erg	-1520
gc	-1521
▁working	-1522
▁March	-1523
▁implementation	-1524
▁clear	-1525
▁success	-1526
▁strateg	-1527
▁communities	-1528
▁goods	-1529
▁focus	-1530
ists	-1531
▁Regulations	-1532
▁Acc	-1533
▁Sub	-1534
▁rest	-1535
▁Instit	-1536
▁education	-1537
▁cri	-1538
ware	-1539
▁organizations	-1540
ification	-1541
▁Ph	-1542
▁Air	-1543
▁Other	-1544
-3	-1545
//	-1546
▁right	-1547
▁small	-1548
RC	-1549
ned	-1550
▁recogn	-1551
▁proposed	-1552
▁future	-1553
▁1999	-1554
▁Que	-1555
endment	-1556
▁levels	-1557
▁issue	-1558
▁recommend	-1559
▁Des	-1560
▁point	-1561
▁second	-1562
▁without	-1563
▁priv	-1564
▁using	-1565
ours	-1566
▁remain	-1567
▁treat	-1568
▁means	-1569
▁land	-1570
vant	-1571
▁approach	-1572
▁Per	-1573
ttp	-1574
cation	-1575
://	-1576
▁certain	-1577
▁considered	-1578
ID	-1579
ober	-1580
▁Centre	-1581
▁refer	-1582
▁assessment	-1583
▁did	-1584
ories	-1585
ather	-1586
icies	-1587
▁world	-1588
ENT	-1589
▁competi	-1590
▁2008	-1591
▁po	-1592
▁effort	-1593
▁cases	-1594
▁|	-1595
airs	-1596
▁regist	-1597
▁ori	-1598
ons	-1599
▁gre	-1600
ually	-1601
▁food	-1602
▁aud	-1603
▁established	-1604
atus	-1605
akes	-1606
ering	-1607
▁apply	-1608
▁received	-1609
▁method	-1610
.6	-1611
▁Le	-1612
▁since	-1613
reed	-1614
▁June	-1615
atis	-1616
pose	-1617
▁value	-1618
ne	-1619
▁25	-1620
▁fun	-1621
nov	-1622
ufact	-1623
read	-1624
ergy	-1625
▁THE	-1626
atural	-1627
pecial	-1628
allen	-1629
▁employment	-1630
▁changes	-1631
▁underst	-1632
cer	-1633
▁call	-1634
▁production	-1635
acity	-1636
▁common	-1637
ina	-1638
gress	-1639
▁way	-1640
________________	-1641
▁continu	-1642
▁responsib	-1643
▁situ	-1644
tif	-1645
lob	-1646
▁Me	-1647
vis	-1648
▁population	-1649
▁sol	-1650
ling	-1651
▁enc	-1652
▁increased	-1653
▁benefits	-1654
▁large	-1655
▁test	-1656
▁show	-1657
ically	-1658
▁income	-1659
▁employees	-1660
day	-1661
▁Jan	-1662
AD	-1663
vey	-1664
▁Med	-1665
yl	-1666
▁potential	-1667
cription	-1668
ipment	-1669
▁Bri	-1670
▁sci	-1671
▁exam	-1672
asing	-1673
urs	-1674
▁Court	-1675
sh	-1676
2,	-1677
▁agreement	-1678
▁official	-1679
▁relations	-1680
eal	-1681
▁percent	-1682
.00	-1683
▁Agreement	-1684
▁consum	-1685
▁bo	-1686
▁lic	-1687
atic	-1688
▁Policy	-1689
acy	-1690
▁broad	-1691
▁Americ	-1692
▁property	-1693
▁Group	-1694
▁class	-1695
▁http	-1696
outh	-1697
▁Offic	-1698
▁question	-1699
▁developed	-1700
▁post	-1701
hib	-1702
▁field	-1703
▁December	-1704
▁legal	-1705
▁provisions	-1706
▁children	-1707
▁performance	-1708
▁terms	-1709
▁ve	-1710
▁May	-1711
▁framework	-1712
▁taken	-1713
▁sug	-1714
serv	-1715
▁policies	-1716
issions	-1717
▁hig	-1718
less	-1719
▁various	-1720
rial	-1721
▁II	-1722
▁department	-1723
ii	-1724
▁four	-1725
▁◦	-1726
rated	-1727
ins	-1728
val	-1729
ustom	-1730
▁che	-1731
▁beh	-1732
▁now	-1733
▁Fe	-1734
▁sk	-1735
▁guid	-1736
eptember	-1737
pril	-1738
▁Fund	-1739
▁Nations	-1740
▁Prov	-1741
▁position	-1742
www	-1743
ights	-1744
urance	-1745
imum	-1746
PP	-1747
utes	-1748
▁Pr	-1749
▁regional	-1750
.7	-1751
lied	-1752
arg	-1753
▁Quebec	-1754
ubl	-1755
▁fis	-1756
▁then	-1757
▁safety	-1758
uary	-1759
▁day	-1760
▁tre	-1761
▁included	-1762
AS	-1763
ference	-1764
▁trad	-1765
▁Rep	-1766
▁life	-1767
▁/	-1768
▁growth	-1769
▁institutions	-1770
▁product	-1771
7,	-1772
reng	-1773
▁maintain	-1774
▁meeting	-1775
4,	-1776
ilar	-1777
see	-1778
30	-1779
▁member	-1780
els	-1781
vent	-1782
▁inves	-1783
▁Union	-1784
irc	-1785
sequ	-1786
▁September	-1787
ave	-1788
▁vol	-1789
▁estim	-1790
awa	-1791
▁lear	-1792
▁Ac	-1793
ath	-1794
rong	-1795
ills	-1796
▁export	-1797
▁undert	-1798
▁respond	-1799
ying	-1800
▁manag	-1801
▁April	-1802
▁own	-1803
▁evidence	-1804
mary	-1805
ior	-1806
▁Human	-1807
▁profess	-1808
MP	-1809
itical	-1810
▁North	-1811
▁investig	-1812
6,	-1813
ower	-1814
▁$1	-1815
);	-1816
ograph	-1817
umb	-1818
ier	-1819
CT	-1820
▁activity	-1821
stain	-1822
▁capacity	-1823
▁sever	-1824
▁Indust	-1825
▁mul	-1826
abor	-1827
▁above	-1828
ics	-1829
arget	-1830
▁continue	-1831
▁full	-1832
EL	-1833
/200	-1834
▁provincial	-1835
▁regul	-1836
RA	-1837
ribun	-1838
▁distrib	-1839
▁sustain	-1840
ode	-1841
▁Sp	-1842
▁relevant	-1843
liance	-1844
itive	-1845
rad	-1846
ercial	-1847
com	-1848
tish	-1849
ta	-1850
▁detail	-1851
osp	-1852
iqu	-1853
acter	-1854
▁additional	-1855
uty	-1856
ctober	-1857
▁obtain	-1858
sed	-1859
▁said	-1860
▁standards	-1861
▁challen	-1862
▁species	-1863
▁soci	-1864
sw	-1865
alf	-1866
unic	-1867
▁inform	-1868
irective	-1869
▁All	-1870
though	-1871
▁du	-1872
▁budget	-1873
rast	-1874
lobal	-1875
▁January	-1876
▁Tra	-1877
itional	-1878
▁21	-1879
▁agree	-1880
▁With	-1881
use	-1882
aring	-1883
▁analysis	-1884
▁transport	-1885
ribunal	-1886
▁inst	-1887
icient	-1888
8,	-1889
▁contract	-1890
▁legislation	-1891
otal	-1892
ris	-1893
▁monitor	-1894
▁Strate	-1895
▁objectives	-1896
▁Ro	-1897
ivision	-1898
▁Employ	-1899
▁Associ	-1900
uch	-1901
mber	-1902
tification	-1903
▁Section	-1904
▁describ	-1905
▁They	-1906
3,	-1907
▁eng	-1908
iving	-1909
ounts	-1910
▁Secret	-1911
ars	-1912
ttawa	-1913
▁University	-1914
▁accordance	-1915
5,	-1916
rative	-1917
▁Prot	-1918
▁developing	-1919
▁valu	-1920
▁complain	-1921
▁open	-1922
▁Organ	-1923
hips	-1924
▁identified	-1925
▁corpor	-1926
▁effect	-1927
▁across	-1928
▁British	-1929
▁consist	-1930
▁cal	-1931
▁▪	-1932
▁existing	-1933
dic	-1934
▁persons	-1935
▁technology	-1936
40	-1937
eng	-1938
▁October	-1939
lected	-1940
▁measure	-1941
▁exc	-1942
▁due	-1943
.9	-1944
▁Sh	-1945
.8	-1946
▁better	-1947
▁school	-1948
3)	-1949
▁comb	-1950
andid	-1951
▁bod	-1952
elf	-1953
▁Imp	-1954
force	-1955
▁held	-1956
eration	-1957
artments	-1958
verage	-1959
(1)	-1960
▁carri	-1961
▁responsible	-1962
elines	-1963
▁territ	-1964
▁initiatives	-1965
▁authorities	-1966
itiz	-1967
▁name	-1968
hers	-1969
▁commit	-1970
ox	-1971
▁five	-1972
▁enh	-1973
▁several	-1974
TA	-1975
▁Techn	-1976
ither	-1977
▁Minist	-1978
uly	-1979
ronic	-1980
riter	-1981
▁Int	-1982
▁last	-1983
pro	-1984
▁even	-1985
▁hand	-1986
▁Ottawa	-1987
till	-1988
eness	-1989
▁qual	-1990
▁Tribunal	-1991
▁language	-1992
▁every	-1993
▁streng	-1994
ton	-1995
▁evaluation	-1996
erc	-1997
▁Nove	-1998
opy	-1999
▁assistance	-2000
▁November	-2001
▁bi	-2002
▁operations	-2003
▁instru	-2004
ires	-2005
based	-2006
▁pursu	-2007
▁network	-2008
RE	-2009
▁contact	-2010
lim	-2011
▁equipment	-2012
▁private	-2013
▁transfer	-2014
▁Eng	-2015
otion	-2016
▁Amendment	-2017
▁days	-2018
▁previous	-2019
▁circ	-2020
▁organization	-2021
poses	-2022
▁Corpor	-2023
raw	-2024
▁cred	-2025
▁practices	-2026
pective	-2027
omestic	-2028
reen	-2029
▁Aff	-2030
ordin	-2031
▁effects	-2032
▁employee	-2033
erences	-2034
ives	-2035
yd	-2036
▁reports	-2037
▁treatment	-2038
▁procedures	-2039
11	-2040
▁personal	-2041
▁authority	-2042
60	-2043
▁tele	-2044
▁real	-2045
▁appoint	-2046
OC	-2047
▁involved	-2048
▁job	-2049
ock	-2050
▁Pa	-2051
to	-2052
ale	-2053
ols	-2054
▁drug	-2055
▁fish	-2056
▁pass	-2057
▁foreign	-2058
▁hist	-2059
▁return	-2060
omy	-2061
MENT	-2062
▁down	-2063
cast	-2064
▁documents	-2065
▁AND	-2066
▁July	-2067
▁Af	-2068
▁target	-2069
▁subsection	-2070
▁parties	-2071
▁therefore	-2072
▁providing	-2073
not	-2074
▁candid	-2075
▁purpose	-2076
az	-2077
▁associated	-2078
▁read	-2079
▁Pres	-2080
▁phys	-2081
▁another	-2082
isation	-2083
▁least	-2084
▁political	-2085
▁cultural	-2086
vers	-2087
▁prep	-2088
mine	-2089
wards	-2090
lies	-2091
nel	-2092
▁months	-2093
▁similar	-2094
▁Com	-2095
▁benefit	-2096
olution	-2097
mes	-2098
▁back	-2099
▁purposes	-2100
▁investment	-2101
echan	-2102
▁Date	-2103
4)	-2104
ibility	-2105
rench	-2106
▁deal	-2107
▁ele	-2108
ene	-2109
eter	-2110
▁age	-2111
labor	-2112
▁best	-2113
▁progress	-2114
▁response	-2115
▁CF	-2116
▁Project	-2117
lor	-2118
▁Trade	-2119
semb	-2120
▁mar	-2121
▁however	-2122
▁expected	-2123
▁strong	-2124
▁reported	-2125
action	-2126
▁range	-2127
▁grant	-2128
endit	-2129
▁Econ	-2130
▁planning	-2131
rid	-2132
▁Total	-2133
▁US	-2134
ivil	-2135
▁manufact	-2136
▁Transport	-2137
▁perm	-2138
▁Inter	-2139
▁energy	-2140
lease	-2141
▁referred	-2142
▁entit	-2143
▁rules	-2144
of	-2145
▁Home	-2146
▁cli	-2147
▁Table	-2148
▁Mar	-2149
anced	-2150
endent	-2151
▁introdu	-2152
uted	-2153
▁opportunities	-2154
▁concer	-2155
aries	-2156
▁Dr	-2157
▁efforts	-2158
ats	-2159
eth	-2160
▁hold	-2161
▁annual	-2162
▁tru	-2163
CO	-2164
▁studies	-2165
▁50	-2166
▁Sci	-2167
▁cour	-2168
ints	-2169
▁capital	-2170
▁summ	-2171
▁1.	-2172
▁paid	-2173
▁24	-2174
▁experience	-2175
ged	-2176
▁Federal	-2177
▁oblig	-2178
▁Convention	-2179
▁encoura	-2180
▁publ	-2181
mination	-2182
▁Columb	-2183
▁rates	-2184
▁sen	-2185
by	-2186
▁Sa	-2187
gether	-2188
▁region	-2189
IV	-2190
hic	-2191
▁Pl	-2192
▁higher	-2193
▁force	-2194
▁departments	-2195
▁plans	-2196
▁Treat	-2197
▁innov	-2198
▁observ	-2199
▁cover	-2200
▁head	-2201
▁greater	-2202
▁22	-2203
EP	-2204
▁Resources	-2205
▁companies	-2206
▁line	-2207
vision	-2208
▁making	-2209
▁Affairs	-2210
venue	-2211
▁deb	-2212
▁Columbia	-2213
▁agencies	-2214
▁having	-2215
▁short	-2216
ope	-2217
term	-2218
new	-2219
HR	-2220
,"	-2221
▁family	-2222
lish	-2223
IPO	-2224
▁individuals	-2225
ash	-2226
arter	-2227
▁includes	-2228
▁reporting	-2229
▁EC	-2230
bs	-2231
▁much	-2232
▁natural	-2233
ious	-2234
▁Produ	-2235
bru	-2236
onst	-2237
▁travel	-2238
ati	-2239
▁dise	-2240
akehold	-2241
▁discussion	-2242
▁Number	-2243
ateg	-2244
ters	-2245
LE	-2246
ests	-2247
roll	-2248
▁coun	-2249
ises	-2250
bruary	-2251
erve	-2252
▁Ter	-2253
light	-2254
ancing	-2255
ilitary	-2256
▁*	-2257
▁strategy	-2258
▁French	-2259
▁Qu	-2260
riteria	-2261
ising	-2262
rop	-2263
▁Ev	-2264
▁jud	-2265
aus	-2266
▁1998	-2267
rastructure	-2268
▁third	-2269
ule	-2270
entific	-2271
▁typ	-2272
▁Alber	-2273
oh	-2274
▁Tre	-2275
xt	-2276
▁here	-2277
▁‘	-2278
ably	-2279
▁able	-2280
sp	-2281
inary	-2282
▁commercial	-2283
ecu	-2284
▁my	-2285
▁increasing	-2286
▁System	-2287
▁compon	-2288
struction	-2289
▁wee	-2290
ready	-2291
▁decisions	-2292
▁likely	-2293
▁mechan	-2294
orther	-2295
▁still	-2296
▁Contract	-2297
▁domestic	-2298
▁Association	-2299
▁occur	-2300
▁Her	-2301
".	-2302
▁diffic	-2303
▁complete	-2304
-4	-2305
▁aim	-2306
ustice	-2307
▁aware	-2308
tiveness	-2309
xim	-2310
▁factors	-2311
19	-2312
gest	-2313
▁participation	-2314
▁cooperation	-2315
12	-2316
▁mand	-2317
▁February	-2318
change	-2319
.)	-2320
▁problems	-2321
▁situation	-2322
▁23	-2323
▁Def	-2324
▁company	-2325
▁adopted	-2326
let	-2327
▁tem	-2328
▁particularly	-2329
▁often	-2330
▁enter	-2331
▁concerning	-2332
range	-2333
▁final	-2334
▁Br	-2335
ranch	-2336
oung	-2337
▁regarding	-2338
abit	-2339
ING	-2340
▁Directive	-2341
itage	-2342
▁Rel	-2343
▁share	-2344
▁determine	-2345
▁average	-2346
side	-2347
▁next	-2348
▁institution	-2349
▁limit	-2350
reg	-2351
▁ground	-2352
................	-2353
▁noted	-2354
▁character	-2355
70	-2356
▁already	-2357
▁Park	-2358
▁imm	-2359
ME	-2360
▁become	-2361
▁technical	-2362
▁Regulation	-2363
inks	-2364
ify	-2365
▁play	-2366
▁together	-2367
SA	-2368
▁either	-2369
▁:	-2370
ologies	-2371
▁bal	-2372
▁Business	-2373
inion	-2374
▁Fore	-2375
▁regulations	-2376
▁What	-2377
▁40	-2378
eep	-2379
▁Environmental	-2380
▁function	-2381
ingle	-2382
▁nego	-2383
▁negoti	-2384
▁suff	-2385
▁reference	-2386
▁achieve	-2387
orthern	-2388
▁word	-2389
▁sy	-2390
▁past	-2391
▁status	-2392
ands	-2393
▁mean	-2394
▁submitted	-2395
abilities	-2396
▁When	-2397
▁upon	-2398
▁Exp	-2399
▁proceed	-2400
▁monitoring	-2401
UR	-2402
losure	-2403
▁type	-2404
▁start	-2405
▁demonst	-2406
▁applicant	-2407
▁page	-2408
▁Under	-2409
▁Economic	-2410
tivity	-2411
▁global	-2412
ternet	-2413
-9	-2414
mon	-2415
active	-2416
rel	-2417
heries	-2418
▁strategic	-2419
▁CI	-2420
equ	-2421
▁dev	-2422
...	-2423
▁questions	-2424
▁applications	-2425
aced	-2426
▁processes	-2427
▁beli	-2428
▁adj	-2429
atistics	-2430
▁Sum	-2431
ides	-2432
▁Tele	-2433
iver	-2434
ump	-2435
▁Lab	-2436
sembly	-2437
▁defin	-2438
▁recommendations	-2439
▁multi	-2440
medi	-2441
▁Oper	-2442
legation	-2443
▁Decision	-2444
▁ess	-2445
CC	-2446
-8	-2447
ief	-2448
▁29	-2449
▁nature	-2450
25	-2451
▁governments	-2452
▁Disc	-2453
ames	-2454
▁promote	-2455
▁team	-2456
oph	-2457
▁ask	-2458
▁link	-2459
▁agreements	-2460
▁term	-2461
▁office	-2462
▁100	-2463
iss	-2464
▁Z	-2465
▁Communic	-2466
▁rad	-2467
▁compet	-2468
▁WIPO	-2469
pects	-2470
▁emerg	-2471
CE	-2472
▁appear	-2473
▁states	-2474
▁model	-2475
▁loc	-2476
▁stakehold	-2477
ired	-2478
▁colle	-2479
▁overall	-2480
▁Sur	-2481
stances	-2482
▁Alberta	-2483
ecutive	-2484
▁Mon	-2485
▁early	-2486
▁Treaty	-2487
▁reflect	-2488
▁criteria	-2489
ersion	-2490
▁Author	-2491
▁concent	-2492
▁contribution	-2493
ends	-2494
itizens	-2495
▁facilit	-2496
vered	-2497
▁(6	-2498
▁UN	-2499
epar	-2500
orial	-2501
ison	-2502
▁World	-2503
▁pursuant	-2504
va	-2505
▁elig	-2506
▁Industry	-2507
▁custom	-2508
▁anti	-2509
▁active	-2510
▁standard	-2511
▁few	-2512
inc	-2513
▁Bank	-2514
5)	-2515
ender	-2516
vest	-2517
▁expendit	-2518
▁Aud	-2519
▁below	-2520
▁identify	-2521
▁limited	-2522
▁Institute	-2523
RI	-2524
lusion	-2525
▁move	-2526
▁Ms	-2527
ET	-2528
ery	-2529
▁www	-2530
▁participants	-2531
▁item	-2532
▁acqu	-2533
enses	-2534
▁decl	-2535
▁repl	-2536
▁applicable	-2537
lantic	-2538
▁society	-2539
AP	-2540
arent	-2541
▁reduce	-2542
▁close	-2543
na	-2544
ugust	-2545
▁survey	-2546
",	-2547
▁constit	-2548
▁proposal	-2549
▁importance	-2550
mental	-2551
▁Ed	-2552
▁Over	-2553
▁conducted	-2554
going	-2555
osed	-2556
▁sites	-2557
▁By	-2558
▁fail	-2559
▁Administ	-2560
▁And	-2561
▁X	-2562
▁28	-2563
▁Sen	-2564
▁students	-2565
rain	-2566
▁Review	-2567
▁More	-2568
▁building	-2569
ables	-2570
▁cannot	-2571
▁influ	-2572
▁step	-2573
▁according	-2574
▁practice	-2575
▁completed	-2576
▁initiative	-2577
ulated	-2578
▁funds	-2579
▁vehic	-2580
▁Contact	-2581
▁context	-2582
▁Add	-2583
requ	-2584
▁values	-2585
▁Se	-2586
put	-2587
IL	-2588
▁Form	-2589
▁satis	-2590
onto	-2591
▁collabor	-2592
▁structure	-2593
▁regulatory	-2594
SS	-2595
arily	-2596
▁recent	-2597
▁ur	-2598
▁Rights	-2599
comm	-2600
▁Initi	-2601
▁Mont	-2602
▁origin	-2603
▁power	-2604
▁responsibility	-2605
gen	-2606
15	-2607
▁event	-2608
▁priority	-2609
arb	-2610
ressed	-2611
▁presented	-2612
▁delivery	-2613
self	-2614
oronto	-2615
▁aut	-2616
▁relating	-2617
):	-2618
sive	-2619
▁(200	-2620
▁free	-2621
▁others	-2622
▁needed	-2623
▁separ	-2624
▁priorities	-2625
▁1997	-2626
anti	-2627
ient	-2628
▁put	-2629
▁Division	-2630
▁concerned	-2631
▁Law	-2632
▁suggest	-2633
yc	-2634
ariff	-2635
▁Stud	-2636
ervation	-2637
▁might	-2638
▁Social	-2639
IA	-2640
▁carry	-2641
▁administrative	-2642
The	-2643
▁August	-2644
▁supply	-2645
16	-2646
▁communication	-2647
▁Financial	-2648
▁pati	-2649
▁Fis	-2650
▁Respon	-2651
dule	-2652
▁until	-2653
▁currently	-2654
app	-2655
oting	-2656
▁sustainable	-2657
▁Assembly	-2658
apter	-2659
▁home	-2660
▁single	-2661
time	-2662
ariat	-2663
▁opportunity	-2664
fe	-2665
▁six	-2666
verse	-2667
▁competition	-2668
uris	-2669
▁directly	-2670
▁applied	-2671
cell	-2672
▁Pe	-2673
▁young	-2674
▁Internet	-2675
▁num	-2676
mail	-2677
ession	-2678
▁Assess	-2679
estern	-2680
▁emp	-2681
▁workers	-2682
▁Cap	-2683
▁eth	-2684
▁audit	-2685
mical	-2686
uk	-2687
▁great	-2688
▁issued	-2689
▁26	-2690
▁indep	-2691
wan	-2692
▁27	-2693
▁One	-2694
▁indicated	-2695
▁self	-2696
ets	-2697
arc	-2698
▁top	-2699
▁Food	-2700
▁exerc	-2701
oral	-2702
▁visit	-2703
▁calc	-2704
AF	-2705
▁leaders	-2706
▁medical	-2707
▁altern	-2708
▁norm	-2709
▁Ger	-2710
icro	-2711
▁Afric	-2712
aren	-2713
OL	-2714
▁Tax	-2715
▁outc	-2716
▁Description	-2717
▁relative	-2718
▁Inf	-2719
ways	-2720
----	-2721
▁President	-2722
▁super	-2723
▁Web	-2724
▁principles	-2725
▁agric	-2726
▁successful	-2727
tm	-2728
▁described	-2729
▁labour	-2730
▁cho	-2731
▁course	-2732
▁Mark	-2733
▁categ	-2734
▁While	-2735
▁determined	-2736
ume	-2737
▁gener	-2738
▁spe	-2739
oll	-2740
iter	-2741
▁men	-2742
▁prevent	-2743
▁economy	-2744
▁Applic	-2745
loc	-2746
▁mo	-2747
▁draft	-2748
askat	-2749
▁Atlantic	-2750
▁Some	-2751
▁skills	-2752
▁understanding	-2753
igration	-2754
ream	-2755
tire	-2756
ror	-2757
▁approved	-2758
▁cross	-2759
▁=	-2760
▁press	-2761
ban	-2762
▁31	-2763
▁deg	-2764
amples	-2765
-5	-2766
▁Govern	-2767
▁2,	-2768
▁protect	-2769
▁Are	-2770
▁facilities	-2771
▁professional	-2772
▁(1)	-2773
minal	-2774
▁prepar	-2775
▁approxim	-2776
▁larg	-2777
▁war	-2778
▁outside	-2779
ple	-2780
ression	-2781
▁Regional	-2782
-6	-2783
▁appell	-2784
ival	-2785
ming	-2786
tified	-2787
▁max	-2788
▁Toronto	-2789
▁$2	-2790
▁receive	-2791
ique	-2792
80	-2793
▁payment	-2794
▁tri	-2795
▁sources	-2796
▁interp	-2797
▁opinion	-2798
oid	-2799
unicip	-2800
▁belie	-2801
▁civil	-2802
▁Special	-2803
SP	-2804
▁give	-2805
rant	-2806
TER	-2807
▁stakeholders	-2808
osition	-2809
▁Annex	-2810
▁circum	-2811
▁restric	-2812
▁internal	-2813
▁announ	-2814
▁fir	-2815
▁anim	-2816
forcement	-2817
▁designed	-2818
▁appeal	-2819
▁'	-2820
▁loss	-2821
▁197	-2822
▁amend	-2823
izing	-2824
▁operation	-2825
▁distribution	-2826
▁begin	-2827
urisdic	-2828
▁selection	-2829
▁60	-2830
▁Fr	-2831
gu	-2832
▁etc	-2833
▁content	-2834
▁CAN	-2835
▁Security	-2836
▁billion	-2837
▁Republic	-2838
▁manufacture	-2839
gn	-2840
▁matter	-2841
▁Saskat	-2842
avi	-2843
▁She	-2844
▁Fran	-2845
year	-2846
▁procedure	-2847
▁defined	-2848
oking	-2849
▁purch	-2850
▁arrange	-2851
▁RE	-2852
▁regions	-2853
ocra	-2854
▁objective	-2855
orn	-2856
uel	-2857
any	-2858
phone	-2859
▁accept	-2860
▁Class	-2861
▁known	-2862
▁learning	-2863
▁materials	-2864
order	-2865
▁concerns	-2866
▁difficult	-2867
lex	-2868
▁eas	-2869
ean	-2870
▁Docu	-2871
▁Code	-2872
▁stated	-2873
14	-2874
▁lower	-2875
▁copy	-2876
▁rev	-2877
▁viol	-2878
▁compliance	-2879
▁province	-2880
itob	-2881
▁get	-2882
uss	-2883
▁programme	-2884
▁minor	-2885
▁Edu	-2886
▁abs	-2887
▁actions	-2888
▁Officer	-2889
▁carried	-2890
▁000	-2891
▁regular	-2892
ler	-2893
imate	-2894
UN	-2895
▁wr	-2896
ili	-2897
▁ill	-2898
▁hours	-2899
▁inj	-2900
▁produc	-2901
22	-2902
▁fiscal	-2903
sc	-2904
▁Secretariat	-2905
ticles	-2906
▁dire	-2907
▁around	-2908
luded	-2909
▁tools	-2910
▁events	-2911
▁partnership	-2912
▁along	-2913
▁Branch	-2914
craft	-2915
▁Joh	-2916
ental	-2917
▁Accord	-2918
▁ens	-2919
aches	-2920
isms	-2921
itoba	-2922
rehen	-2923
▁Further	-2924
▁Regist	-2925
▁cell	-2926
18	-2927
▁media	-2928
▁challenges	-2929
▁military	-2930
ydro	-2931
▁Chair	-2932
▁Sc	-2933
ached	-2934
lier	-2935
aged	-2936
▁conn	-2937
▁published	-2938
TO	-2939
▁asse	-2940
▁taking	-2941
▁positive	-2942
▁party	-2943
▁agreed	-2944
▁er	-2945
htm	-2946
▁generally	-2947
DF	-2948
▁requires	-2949
▁youth	-2950
ateral	-2951
king	-2952
▁satisf	-2953
▁Safety	-2954
▁ability	-2955
▁1996	-2956
▁exchange	-2957
▁Support	-2958
asury	-2959
idents	-2960
▁points	-2961
▁problem	-2962
▁resource	-2963
▁source	-2964
ception	-2965
▁prepared	-2966
▁Assist	-2967
(2)	-2968
▁Protection	-2969
sts	-2970
rary	-2971
▁extent	-2972
pecially	-2973
▁board	-2974
▁done	-2975
▁commitment	-2976
▁caus	-2977
▁infrastructure	-2978
▁electronic	-2979
-01	-2980
SE	-2981
▁provinces	-2982
▁Leg	-2983
▁%	-2984
▁Stand	-2985
▁complex	-2986
▁Where	-2987
▁Although	-2988
▁Employment	-2989
▁aid	-2990
▁strategies	-2991
▁credit	-2992
▁Island	-2993
itation	-2994
▁English	-2995
98	-2996
▁gas	-2997
▁Access	-2998
mark	-2999
▁lack	-3000
abitat	-3001
rants	-3002
▁citizens	-3003
▁pers	-3004
▁throughout	-3005
endix	-3006
▁(2)	-3007
▁corre	-3008
▁body	-3009
9,	-3010
▁types	-3011
▁Arch	-3012
▁Not	-3013
ureau	-3014
▁methods	-3015
ensive	-3016
▁PRO	-3017
actions	-3018
▁consultation	-3019
▁Manitoba	-3020
▁intended	-3021
ION	-3022
▁American	-3023
▁fall	-3024
employ	-3025
itten	-3026
▁wide	-3027
▁Prof	-3028
mission	-3029
▁affect	-3030
▁essential	-3031
▁ec	-3032
▁bar	-3033
▁Port	-3034
▁price	-3035
▁ded	-3036
▁sche	-3037
▁file	-3038
ellect	-3039
▁sectors	-3040
▁far	-3041
▁Mc	-3042
▁joint	-3043
▁compar	-3044
▁guidelines	-3045
▁involve	-3046
pid	-3047
▁Treasury	-3048
▁just	-3049
ane	-3050
▁don	-3051
▁notice	-3052
▁circumstances	-3053
▁Im	-3054
▁reduction	-3055
▁jurisdic	-3056
istic	-3057
uter	-3058
▁Assessment	-3059
▁TO	-3060
▁German	-3061
ground	-3062
▁disease	-3063
place	-3064
▁John	-3065
aster	-3066
chewan	-3067
▁bre	-3068
TC	-3069
▁<	-3070
MM	-3071
▁fl	-3072
▁today	-3073
ellectual	-3074
▁Strategy	-3075
luding	-3076
ging	-3077
eting	-3078
aluation	-3079
▁size	-3080
ense	-3081
▁HIV	-3082
right	-3083
▁continued	-3084
▁operational	-3085
▁sent	-3086
▁pros	-3087
90	-3088
▁(2	-3089
▁Indian	-3090
elling	-3091
▁committee	-3092
▁adjust	-3093
overy	-3094
oney	-3095
▁bank	-3096
▁assign	-3097
▁draw	-3098
▁links	-3099
▁Ge	-3100
ourn	-3101
CH	-3102
▁z	-3103
▁reform	-3104
▁meetings	-3105
▁technologies	-3106
related	-3107
anc	-3108
rehensive	-3109
▁Chief	-3110
▁News	-3111
▁markets	-3112
urement	-3113
▁Guid	-3114
▁light	-3115
▁paper	-3116
UL	-3117
▁Sw	-3118
▁dri	-3119
▁const	-3120
▁ON	-3121
▁forward	-3122
▁High	-3123
▁representatives	-3124
▁approximately	-3125
▁old	-3126
▁farm	-3127
▁contribute	-3128
▁Pay	-3129
▁Commissioner	-3130
omin	-3131
▁Equ	-3132
▁Organization	-3133
▁fair	-3134
then	-3135
▁culture	-3136
▁occup	-3137
ley	-3138
▁forms	-3139
▁central	-3140
▁contributions	-3141
▁let	-3142
▁near	-3143
▁exceed	-3144
▁interests	-3145
ored	-3146
▁You	-3147
▁primary	-3148
ict	-3149
▁industrial	-3150
▁Car	-3151
-7	-3152
▁risks	-3153
▁Priv	-3154
▁Advis	-3155
▁specified	-3156
▁fav	-3157
▁CH	-3158
▁elements	-3159
▁Action	-3160
atab	-3161
uit	-3162
oot	-3163
▁towards	-3164
▁times	-3165
▁especially	-3166
▁respective	-3167
▁Conference	-3168
aps	-3169
▁Val	-3170
▁flow	-3171
▁appellant	-3172
▁Spec	-3173
▁gain	-3174
▁explo	-3175
▁According	-3176
▁Be	-3177
▁volun	-3178
▁bu	-3179
▁Saskatchewan	-3180
▁IP	-3181
▁threat	-3182
▁Mod	-3183
▁Ben	-3184
▁Since	-3185
▁La	-3186
▁Ministers	-3187
pt	-3188
amin	-3189
▁enhance	-3190
%)	-3191
▁him	-3192
ones	-3193
▁Pat	-3194
ffec	-3195
▁decre	-3196
▁immedi	-3197
▁requirement	-3198
arant	-3199
▁eligible	-3200
▁reasons	-3201
▁produced	-3202
▁ge	-3203
▁Met	-3204
bsite	-3205
▁King	-3206
▁behalf	-3207
▁sett	-3208
▁Sm	-3209
▁Us	-3210
▁consideration	-3211
▁create	-3212
▁representative	-3213
▁patent	-3214
▁researc	-3215
▁fully	-3216
▁i	-3217
US	-3218
ifications	-3219
▁River	-3220
▁want	-3221
▁FOR	-3222
yn	-3223
yal	-3224
▁manner	-3225
▁rather	-3226
ma	-3227
▁upd	-3228
▁personnel	-3229
lood	-3230
▁Lake	-3231
▁depos	-3232
▁confir	-3233
▁construction	-3234
face	-3235
son	-3236
▁struct	-3237
ruit	-3238
▁America	-3239
▁1990	-3240
▁explain	-3241
▁Ob	-3242
DP	-3243
▁Lic	-3244
anel	-3245
▁registered	-3246
▁Defence	-3247
▁renew	-3248
▁bring	-3249
▁statement	-3250
▁disp	-3251
respon	-3252
▁registration	-3253
▁ide	-3254
▁basic	-3255
▁minimum	-3256
▁administration	-3257
tenance	-3258
▁aircraft	-3259
▁definition	-3260
▁compared	-3261
▁Force	-3262
IR	-3263
ilot	-3264
▁languages	-3265
▁2.	-3266
tise	-3267
▁awareness	-3268
▁relationship	-3269
racts	-3270
▁Person	-3271
▁payments	-3272
ports	-3273
▁emissions	-3274
▁consistent	-3275
▁ver	-3276
▁traditional	-3277
▁Out	-3278
33	-3279
ordination	-3280
▁Technology	-3281
▁approval	-3282
▁longer	-3283
has	-3284
▁CC	-3285
off	-3286
▁effici	-3287
▁der	-3288
▁Non	-3289
▁offer	-3290
▁licence	-3291
▁operating	-3292
olid	-3293
▁answ	-3294
eed	-3295
ales	-3296
▁harm	-3297
▁--	-3298
▁follows	-3299
ogue	-3300
▁keep	-3301
▁insurance	-3302
II	-3303
tia	-3304
gic	-3305
aces	-3306
▁Agric	-3307
▁physical	-3308
▁written	-3309
▁Elect	-3310
17	-3311
rown	-3312
▁oil	-3313
rict	-3314
shop	-3315
TH	-3316
▁Framework	-3317
rations	-3318
▁Appendix	-3319
▁candidates	-3320
▁35	-3321
▁reduced	-3322
▁Corporation	-3323
IM	-3324
-00	-3325
ime	-3326
▁CIHR	-3327
▁created	-3328
▁conflic	-3329
ixed	-3330
inter	-3331
▁demand	-3332
▁Education	-3333
▁obtained	-3334
▁aspects	-3335
ensation	-3336
▁Child	-3337
▁scientific	-3338
▁base	-3339
▁Justice	-3340
▁unit	-3341
▁Appro	-3342
portion	-3343
▁entitled	-3344
ourable	-3345
24	-3346
ided	-3347
▁added	-3348
unicipal	-3349
▁mandate	-3350
▁proposals	-3351
▁port	-3352
anada	-3353
▁records	-3354
▁Loc	-3355
▁pack	-3356
AG	-3357
▁come	-3358
ude	-3359
▁adequ	-3360
▁expenses	-3361
▁Cal	-3362
▁advice	-3363
▁trend	-3364
▁principle	-3365
td	-3366
▁implemented	-3367
▁maximum	-3368
aging	-3369
▁Fax	-3370
▁Bureau	-3371
▁whole	-3372
▁clearly	-3373
▁substanti	-3374
de	-3375
▁Perform	-3376
▁expos	-3377
ann	-3378
▁interview	-3379
▁Consult	-3380
▁Sco	-3381
▁pension	-3382
▁establishment	-3383
standing	-3384
rep	-3385
▁filed	-3386
▁serious	-3387
▁Sche	-3388
ishing	-3389
▁supported	-3390
▁though	-3391
▁Data	-3392
▁leave	-3393
▁week	-3394
▁works	-3395
▁surve	-3396
lation	-3397
▁strengthen	-3398
▁later	-3399
▁sex	-3400
13)	-3401
▁31,	-3402
atures	-3403
▁integrated	-3404
▁discri	-3405
▁ST	-3406
▁frequ	-3407
know	-3408
▁comprehensive	-3409
▁Hon	-3410
▁Fisheries	-3411
67	-3412
▁called	-3413
35	-3414
▁NO	-3415
▁camp	-3416
acc	-3417
▁argu	-3418
▁Nation	-3419
▁(199	-3420
rie	-3421
ches	-3422
▁Aust	-3423
found	-3424
▁estimated	-3425
▁Network	-3426
▁CON	-3427
▁Care	-3428
▁plant	-3429
▁Northern	-3430
▁Te	-3431
igure	-3432
▁Region	-3433
▁Products	-3434
▁ways	-3435
itable	-3436
most	-3437
▁scope	-3438
▁obligations	-3439
▁bl	-3440
▁Dist	-3441
nership	-3442
utri	-3443
▁shown	-3444
▁regulation	-3445
AA	-3446
ilies	-3447
▁asked	-3448
ouver	-3449
pd	-3450
▁Statistics	-3451
cont	-3452
▁critical	-3453
97	-3454
itle	-3455
▁reli	-3456
ae	-3457
▁Main	-3458
▁Executive	-3459
ites	-3460
▁promotion	-3461
▁Langu	-3462
▁During	-3463
▁amendments	-3464
oy	-3465
▁Company	-3466
▁1995	-3467
▁communications	-3468
ector	-3469
life	-3470
▁comments	-3471
▁neg	-3472
incial	-3473
TS	-3474
▁prevention	-3475
▁grad	-3476
▁sales	-3477
iling	-3478
ébec	-3479
▁matters	-3480
▁Ref	-3481
▁accomp	-3482
▁processing	-3483
ull	-3484
ses	-3485
▁possib	-3486
▁parts	-3487
▁reasonable	-3488
▁Order	-3489
▁coordin	-3490
▁Working	-3491
▁history	-3492
▁poll	-3493
▁living	-3494
▁Official	-3495
posal	-3496
iation	-3497
▁Soci	-3498
▁amounts	-3499
DC	-3500
ung	-3501
▁amended	-3502
cale	-3503
▁+	-3504
▁ensuring	-3505
org	-3506
selves	-3507
IDS	-3508
▁improved	-3509
▁Op	-3510
▁equal	-3511
45	-3512
▁award	-3513
▁claims	-3514
▁CB	-3515
▁Drug	-3516
▁valid	-3517
▁majority	-3518
▁Russ	-3519
be	-3520
▁Chapter	-3521
enda	-3522
reet	-3523
▁screen	-3524
▁feed	-3525
▁expect	-3526
▁ste	-3527
ittle	-3528
▁covered	-3529
▁designated	-3530
respond	-3531
▁Requ	-3532
▁clients	-3533
▁requested	-3534
▁whose	-3535
▁cause	-3536
▁Communications	-3537
▁CANAD	-3538
▁independent	-3539
▁although	-3540
▁creation	-3541
▁But	-3542
▁por	-3543
▁Water	-3544
▁detailed	-3545
▁Transportation	-3546
▁Heritage	-3547
▁behavi	-3548
▁Evaluation	-3549
government	-3550
▁ongoing	-3551
lean	-3552
▁incorpor	-3553
ulate	-3554
▁adap	-3555
▁Cost	-3556
▁affected	-3557
ares	-3558
oms	-3559
▁del	-3560
▁Nova	-3561
▁researchers	-3562
af	-3563
▁emphas	-3564
inical	-3565
▁dam	-3566
▁trust	-3567
▁democra	-3568
▁subsequ	-3569
▁dest	-3570
▁itself	-3571
anks	-3572
acco	-3573
att	-3574
▁exercise	-3575
ginal	-3576
▁Cor	-3577
▁Party	-3578
▁RC	-3579
▁ri	-3580
▁road	-3581
▁Scotia	-3582
ré	-3583
▁Foreign	-3584
▁duties	-3585
▁Em	-3586
▁Document	-3587
▁#	-3588
▁accep	-3589
▁letter	-3590
▁turn	-3591
▁Delegation	-3592
▁former	-3593
▁located	-3594
-10	-3595
▁Count	-3596
lands	-3597
▁variety	-3598
▁el	-3599
▁Training	-3600
lying	-3601
aching	-3602
▁expressed	-3603
▁Disclosure	-3604
▁thus	-3605
▁took	-3606
▁attention	-3607
▁Key	-3608
▁assets	-3609
▁balance	-3610
MS	-3611
ancouver	-3612
▁enforcement	-3613
▁(613)	-3614
▁relation	-3615
▁listed	-3616
▁Top	-3617
▁vir	-3618
▁users	-3619
▁mus	-3620
▁CR	-3621
▁interpret	-3622
▁note	-3623
▁external	-3624
▁indicate	-3625
▁words	-3626
▁Forces	-3627
▁hosp	-3628
6)	-3629
enced	-3630
tition	-3631
useum	-3632
gment	-3633
▁Brun	-3634
▁West	-3635
▁climate	-3636
▁transportation	-3637
▁positions	-3638
▁fra	-3639
istics	-3640
▁Est	-3641
▁run	-3642
▁search	-3643
▁prices	-3644
▁Prior	-3645
-03	-3646
▁programmes	-3647
ommod	-3648
▁That	-3649
28	-3650
▁court	-3651
▁Results	-3652
▁effectiveness	-3653
▁Head	-3654
casting	-3655
▁Che	-3656
▁Authority	-3657
foundland	-3658
▁South	-3659
▁innovation	-3660
▁3,	-3661
▁facilitate	-3662
1.	-3663
uting	-3664
hibit	-3665
▁1994	-3666
wise	-3667
▁90	-3668
adem	-3669
utional	-3670
ah	-3671
▁Audit	-3672
load	-3673
head	-3674
lines	-3675
▁avoid	-3676
aters	-3677
▁Schedule	-3678
▁Lim	-3679
▁laun	-3680
▁addressed	-3681
▁France	-3682
▁resolution	-3683
▁Women	-3684
▁consequ	-3685
▁sens	-3686
▁33	-3687
illed	-3688
▁Meas	-3689
enn	-3690
▁Es	-3691
▁families	-3692
▁Deputy	-3693
rence	-3694
▁participate	-3695
▁45	-3696
▁acid	-3697
uilding	-3698
▁specif	-3699
▁contained	-3700
DS	-3701
eli	-3702
▁officer	-3703
▁formal	-3704
▁rail	-3705
▁collection	-3706
2.	-3707
▁Performance	-3708
▁degree	-3709
ticip	-3710
▁enterpr	-3711
▁encourage	-3712
▁money	-3713
In	-3714
▁lat	-3715
enz	-3716
ured	-3717
ocol	-3718
23	-3719
entioned	-3720
bon	-3721
▁investigation	-3722
▁Do	-3723
porary	-3724
▁signed	-3725
▁guarant	-3726
ched	-3727
bour	-3728
▁version	-3729
▁granted	-3730
▁Vancouver	-3731
yp	-3732
atch	-3733
swick	-3734
▁maintenance	-3735
▁Initiative	-3736
▁habitat	-3737
▁supporting	-3738
▁bodies	-3739
▁populations	-3740
26	-3741
▁leadership	-3742
▁proportion	-3743
▁alternative	-3744
▁integration	-3745
▁datab	-3746
▁Territ	-3747
▁Recomm	-3748
▁exposure	-3749
43	-3750
wide	-3751
TE	-3752
▁Newfoundland	-3753
▁arrangements	-3754
▁consumer	-3755
▁informed	-3756
▁Bl	-3757
▁gene	-3758
▁House	-3759
▁differences	-3760
sels	-3761
▁testing	-3762
▁implementing	-3763
▁Summary	-3764
rolled	-3765
▁managers	-3766
▁series	-3767
▁deliver	-3768
▁corporation	-3769
▁Revenue	-3770
▁Brunswick	-3771
▁Site	-3772
ik	-3773
▁death	-3774
▁III	-3775
▁subsid	-3776
▁War	-3777
▁house	-3778
rs	-3779
roduction	-3780
▁chemical	-3781
ipp	-3782
▁committed	-3783
▁Proper	-3784
-20	-3785
WG	-3786
ength	-3787
▁Directorate	-3788
▁95	-3789
▁histor	-3790
47	-3791
que	-3792
manent	-3793
▁understand	-3794
▁net	-3795
▁sold	-3796
idential	-3797
▁components	-3798
ook	-3799
▁Tel	-3800
27	-3801
emed	-3802
▁Our	-3803
▁officers	-3804
▁Africa	-3805
▁Members	-3806
▁initial	-3807
dom	-3808
isk	-3809
▁sufficient	-3810
▁themselves	-3811
▁employer	-3812
ensus	-3813
▁School	-3814
▁correspond	-3815
▁Net	-3816
▁Supp	-3817
▁release	-3818
▁significantly	-3819
location	-3820
▁Red	-3821
▁Cur	-3822
▁component	-3823
more	-3824
▁gra	-3825
▁Ltd	-3826
▁tariff	-3827
▁impacts	-3828
▁officials	-3829
▁patients	-3830
49	-3831
▁client	-3832
▁makes	-3833
▁recognized	-3834
▁Charter	-3835
▁observed	-3836
▁Science	-3837
atal	-3838
eur	-3839
▁advant	-3840
ux	-3841
▁goals	-3842
▁Annual	-3843
▁details	-3844
▁businesses	-3845
▁Québec	-3846
▁transp	-3847
▁weight	-3848
▁NRC	-3849
▁opp	-3850
▁tour	-3851
ault	-3852
▁election	-3853
▁half	-3854
back	-3855
▁Vol	-3856
▁Oce	-3857
fici	-3858
den	-3859
making	-3860
▁expenditures	-3861
▁traff	-3862
ographic	-3863
NA	-3864
ousing	-3865
pection	-3866
▁advance	-3867
ott	-3868
▁mechanisms	-3869
▁certific	-3870
▁laws	-3871
▁Custom	-3872
▁Sk	-3873
▁original	-3874
nes	-3875
lusive	-3876
▁publication	-3877
PA	-3878
▁har	-3879
▁Proactive	-3880
▁science	-3881
▁doll	-3882
▁clar	-3883
iring	-3884
▁achieved	-3885
▁Anal	-3886
▁About	-3887
▁partner	-3888
48	-3889
ukon	-3890
▁too	-3891
▁ship	-3892
▁complaint	-3893
▁3.	-3894
izes	-3895
lass	-3896
66	-3897
▁fees	-3898
▁und	-3899
curement	-3900
▁China	-3901
▁improving	-3902
▁dated	-3903
rought	-3904
▁meaning	-3905
▁look	-3906
▁rural	-3907
ournal	-3908
▁candidate	-3909
▁corporate	-3910
▁List	-3911
reme	-3912
▁soil	-3913
▁ord	-3914
▁text	-3915
▁Bel	-3916
erous	-3917
pons	-3918
▁Notice	-3919
▁forest	-3920
▁Media	-3921
▁table	-3922
▁think	-3923
▁recommended	-3924
▁Qual	-3925
▁little	-3926
▁From	-3927
▁70	-3928
▁discussed	-3929
▁ves	-3930
▁Secretary	-3931
▁Post	-3932
▁Control	-3933
▁Imm	-3934
▁organis	-3935
itting	-3936
▁Strategic	-3937
▁micro	-3938
▁website	-3939
▁selected	-3940
▁2004,	-3941
▁resulting	-3942
ildlife	-3943
▁outcomes	-3944
rap	-3945
venues	-3946
▁Inuit	-3947
▁approaches	-3948
▁2003,	-3949
▁Can	-3950
▁modern	-3951
▁Western	-3952
▁announced	-3953
set	-3954
▁description	-3955
▁expertise	-3956
▁00	-3957
▁hearing	-3958
▁Hel	-3959
▁phase	-3960
▁establishing	-3961
IF	-3962
▁Use	-3963
alk	-3964
▁$3	-3965
▁x	-3966
▁Bi	-3967
▁offered	-3968
▁applies	-3969
▁Search	-3970
▁Ministry	-3971
▁enable	-3972
lementary	-3973
ipe	-3974
▁Back	-3975
▁See	-3976
▁temper	-3977
▁once	-3978
oman	-3979
OU	-3980
▁otherwise	-3981
▁flex	-3982
▁effectively	-3983
▁notes	-3984
▁,	-3985
ais	-3986
▁Budget	-3987
▁jurisdiction	-3988
asp	-3989
pay	-3990
▁soft	-3991
▁entire	-3992
95	-3993
▁useful	-3994
▁Natural	-3995
▁Property	-3996
▁proceedings	-3997
▁presence	-3998
AB	-3999
▁seen	-4000
▁univers	-4001
▁instruments	-4002
▁Reference	-4003
▁pilot	-4004
▁Pur	-4005
▁(3	-4006
▁always	-4007
▁findings	-4008
▁Programs	-4009
▁police	-4010
-05	-4011
▁Hist	-4012
▁Name	-4013
▁separate	-4014
▁Ret	-4015
▁Yukon	-4016
▁numbers	-4017
html	-4018
▁Bay	-4019
▁Sim	-4020
▁kind	-4021
▁($	-4022
▁prim	-4023
CB	-4024
▁mob	-4025
▁earlier	-4026
▁producers	-4027
▁substances	-4028
▁senior	-4029
▁negotiations	-4030
iry	-4031
ibrary	-4032
▁efficiency	-4033
▁mut	-4034
▁growing	-4035
▁departmental	-4036
▁Process	-4037
▁condition	-4038
▁debt	-4039
▁input	-4040
▁please	-4041
uration	-4042
▁Parks	-4043
yond	-4044
▁beyond	-4045
▁dial	-4046
▁yet	-4047
▁leading	-4048
▁Invest	-4049
xic	-4050
▁serve	-4051
ingu	-4052
▁actual	-4053
▁Administration	-4054
@@	-4055
▁After	-4056
▁participating	-4057
rust	-4058
▁items	-4059
▁agricultural	-4060
▁dr	-4061
▁pen	-4062
▁Recommend	-4063
▁recip	-4064
liminary	-4065
cribed	-4066
▁sugges	-4067
▁Insurance	-4068
oks	-4069
▁facility	-4070
▁reviewed	-4071
▁80	-4072
hood	-4073
west	-4074
amental	-4075
▁Account	-4076
▁Char	-4077
▁followed	-4078
aign	-4079
MC	-4080
▁led	-4081
▁City	-4082
▁mid	-4083
▁WH	-4084
▁AD	-4085
▁options	-4086
▁collective	-4087
▁Land	-4088
▁Survey	-4089
▁medic	-4090
▁host	-4091
▁fem	-4092
-06	-4093
▁Year	-4094
-02	-4095
▁units	-4096
▁appointment	-4097
etary	-4098
▁quan	-4099
46	-4100
TR	-4101
▁2005,	-4102
▁operate	-4103
aration	-4104
akers	-4105
▁factor	-4106
▁analy	-4107
▁Import	-4108
▁entry	-4109
illance	-4110
house	-4111
OP	-4112
aily	-4113
eline	-4114
▁Manag	-4115
▁stage	-4116
iles	-4117
▁Super	-4118
▁Particip	-4119
▁takes	-4120
empt	-4121
▁goal	-4122
▁competitive	-4123
uled	-4124
▁collaboration	-4125
▁remains	-4126
▁decided	-4127
uge	-4128
▁tw	-4129
▁util	-4130
▁CP	-4131
▁suggested	-4132
▁say	-4133
▁DE	-4134
hol	-4135
▁Vi	-4136
iting	-4137
▁profession	-4138
▁partnerships	-4139
▁Central	-4140
▁(8	-4141
▁Cer	-4142
▁direction	-4143
▁Common	-4144
▁discuss	-4145
7)	-4146
▁produce	-4147
▁DF	-4148
aint	-4149
mit	-4150
▁Agriculture	-4151
NG	-4152
▁steps	-4153
▁Finance	-4154
▁Meeting	-4155
▁Colle	-4156
ustain	-4157
▁cyc	-4158
▁territory	-4159
▁workshop	-4160
emor	-4161
communic	-4162
▁consumers	-4163
ening	-4164
▁prem	-4165
▁safe	-4166
▁permit	-4167
icial	-4168
▁fire	-4169
▁requests	-4170
▁Street	-4171
▁Contrib	-4172
dis	-4173
ony	-4174
▁mission	-4175
▁financing	-4176
▁session	-4177
▁prob	-4178
cific	-4179
▁submit	-4180
▁diversity	-4181
▁counter	-4182
▁Reports	-4183
ittees	-4184
▁undertaken	-4185
▁fuel	-4186
75	-4187
▁Honourable	-4188
ections	-4189
▁recently	-4190
▁efficient	-4191
▁location	-4192
▁accepted	-4193
▁functions	-4194
▁waste	-4195
ift	-4196
▁discussions	-4197
ille	-4198
▁resol	-4199
▁commitments	-4200
▁highly	-4201
come	-4202
pper	-4203
▁autom	-4204
▁Implement	-4205
▁hard	-4206
▁pattern	-4207
▁4,	-4208
▁accommod	-4209
▁amendment	-4210
UM	-4211
▁Benef	-4212
▁territorial	-4213
▁live	-4214
tivities	-4215
anges	-4216
▁substance	-4217
▁Id	-4218
▁concluded	-4219
▁agency	-4220
▁municipal	-4221
▁format	-4222
▁legislative	-4223
apan	-4224
▁setting	-4225
OS	-4226
▁concept	-4227
▁indicators	-4228
▁examination	-4229
▁Di	-4230
▁Advisory	-4231
▁$5	-4232
▁authorized	-4233
▁2002,	-4234
▁duty	-4235
▁lay	-4236
▁Royal	-4237
▁writ	-4238
▁educational	-4239
▁Risk	-4240
▁allowed	-4241
-04	-4242
▁almost	-4243
▁length	-4244
▁Appeal	-4245
lined	-4246
96	-4247
▁drugs	-4248
▁fee	-4249
▁percentage	-4250
▁alloc	-4251
▁offices	-4252
▁Cri	-4253
▁introduced	-4254
▁Det	-4255
▁prec	-4256
▁vehicle	-4257
▁mess	-4258
▁involving	-4259
▁adver	-4260
▁dou	-4261
▁firms	-4262
real	-4263
oples	-4264
▁Staff	-4265
▁sound	-4266
▁jobs	-4267
▁Guidelines	-4268
▁Fac	-4269
▁fulf	-4270
ventions	-4271
▁hydro	-4272
▁Second	-4273
▁conflict	-4274
▁governance	-4275
▁Travel	-4276
▁specifically	-4277
▁36	-4278
▁Kingdom	-4279
▁Ital	-4280
▁dig	-4281
▁negative	-4282
▁rapid	-4283
▁contracts	-4284
▁Society	-4285
▁Tur	-4286
▁Archives	-4287
▁bur	-4288
▁2001,	-4289
▁Each	-4290
▁rule	-4291
▁programming	-4292
▁vehicles	-4293
▁Estim	-4294
fication	-4295
▁Publications	-4296
/00	-4297
▁except	-4298
▁Youth	-4299
▁normal	-4300
▁Sal	-4301
▁2006,	-4302
▁radio	-4303
▁discrimination	-4304
▁promoting	-4305
▁mag	-4306
▁ten	-4307
▁space	-4308
▁CN	-4309
88	-4310
Ch	-4311
▁fishing	-4312
▁peace	-4313
▁guidance	-4314
DI	-4315
▁PR	-4316
water	-4317
▁contains	-4318
edi	-4319
21	-4320
ores	-4321
▁Manufact	-4322
▁shared	-4323
▁influence	-4324
▁why	-4325
sy	-4326
▁Guide	-4327
.10	-4328
▁phot	-4329
▁supports	-4330
ider	-4331
▁mer	-4332
▁brought	-4333
▁organisations	-4334
▁BC	-4335
▁wel	-4336
orage	-4337
▁arch	-4338
44	-4339
▁gender	-4340
▁ID	-4341
arian	-4342
▁guide	-4343
▁APP	-4344
▁centre	-4345
(1)(	-4346
▁Most	-4347
▁portion	-4348
▁install	-4349
dep	-4350
▁Lead	-4351
▁medium	-4352
▁Area	-4353
▁primarily	-4354
hest	-4355
▁Japan	-4356
▁alleg	-4357
EM	-4358
▁containing	-4359
▁challenge	-4360
▁interested	-4361
pite	-4362
▁intellectual	-4363
▁Record	-4364
▁AC	-4365
▁Case	-4366
▁increases	-4367
▁vic	-4368
▁mach	-4369
▁(3)	-4370
▁never	-4371
▁sections	-4372
▁Arm	-4373
uclear	-4374
▁favour	-4375
▁distin	-4376
employment	-4377
▁networks	-4378
▁bene	-4379
▁adequate	-4380
▁Germany	-4381
▁Att	-4382
▁Many	-4383
▁Parties	-4384
▁integr	-4385
▁conservation	-4386
▁Customs	-4387
▁continues	-4388
tify	-4389
▁reserv	-4390
▁Rad	-4391
▁Print	-4392
▁print	-4393
▁Relations	-4394
▁equival	-4395
▁tool	-4396
▁engine	-4397
▁Of	-4398
lusions	-4399
▁worked	-4400
▁elim	-4401
▁EX	-4402
▁IT	-4403
alls	-4404
▁unless	-4405
IG	-4406
▁som	-4407
▁imports	-4408
BS	-4409
▁flu	-4410
oke	-4411
ems	-4412
ids	-4413
▁compensation	-4414
▁surface	-4415
▁beginning	-4416
▁marine	-4417
arters	-4418
▁weeks	-4419
▁Ste	-4420
▁models	-4421
▁]	-4422
AND	-4423
inn	-4424
▁raised	-4425
▁Application	-4426
:00	-4427
▁CS	-4428
istan	-4429
▁shows	-4430
▁relatively	-4431
ffective	-4432
▁urban	-4433
ancy	-4434
sues	-4435
tary	-4436
▁sale	-4437
▁criminal	-4438
▁larger	-4439
▁expand	-4440
▁believe	-4441
▁sw	-4442
▁accountability	-4443
ger	-4444
▁characteristics	-4445
▁involvement	-4446
▁Labour	-4447
3.	-4448
▁exception	-4449
▁check	-4450
▁computer	-4451
▁code	-4452
▁susp	-4453
▁innovative	-4454
▁improvement	-4455
▁appointed	-4456
▁terror	-4457
-11	-4458
-07	-4459
▁dialogue	-4460
▁dim	-4461
abled	-4462
▁unique	-4463
law	-4464
▁recovery	-4465
▁usually	-4466
▁den	-4467
▁estimates	-4468
▁Adv	-4469
▁conference	-4470
▁37	-4471
Os	-4472
▁sample	-4473
▁collected	-4474
▁ir	-4475
▁75	-4476
▁freed	-4477
▁Privacy	-4478
▁plants	-4479
▁recognition	-4480
vere	-4481
▁Good	-4482
where	-4483
▁views	-4484
▁cod	-4485
29	-4486
▁mentioned	-4487
▁invent	-4488
ev	-4489
▁mis	-4490
▁Sector	-4491
▁Exper	-4492
▁pressure	-4493
PS	-4494
▁bri	-4495
▁38	-4496
▁previously	-4497
oted	-4498
▁Therefore	-4499
▁fundamental	-4500
▁Impro	-4501
▁Profess	-4502
rador	-4503
PC	-4504
▁Contracting	-4505
AM	-4506
▁season	-4507
lications	-4508
▁marketing	-4509
▁experts	-4510
▁04	-4511
▁limits	-4512
▁Paragraph	-4513
▁5,	-4514
ana	-4515
rand	-4516
▁charge	-4517
▁dia	-4518
▁Programme	-4519
▁lines	-4520
▁nutri	-4521
▁track	-4522
▁receiving	-4523
▁forces	-4524
ederation	-4525
▁heritage	-4526
iques	-4527
▁labor	-4528
ilt	-4529
▁consultations	-4530
exic	-4531
▁behaviour	-4532
▁identification	-4533
▁jus	-4534
▁emergency	-4535
▁respondents	-4536
los	-4537
▁Bas	-4538
▁Any	-4539
▁red	-4540
▁recommendation	-4541
▁Energy	-4542
▁TR	-4543
▁Li	-4544
▁clinical	-4545
▁expenditure	-4546
▁Mrs	-4547
▁defence	-4548
▁replace	-4549
▁receip	-4550
ai	-4551
itig	-4552
▁uses	-4553
▁(5	-4554
▁emb	-4555
▁bound	-4556
▁passeng	-4557
oving	-4558
▁Sustain	-4559
▁preparation	-4560
▁SU	-4561
▁structures	-4562
▁fixed	-4563
▁investments	-4564
▁Activities	-4565
▁AM	-4566
▁Found	-4567
bur	-4568
▁sem	-4569
▁Labrador	-4570
▁animals	-4571
ype	-4572
▁34	-4573
▁cut	-4574
▁Funding	-4575
nings	-4576
▁planned	-4577
▁statements	-4578
thing	-4579
**	-4580
▁Mul	-4581
ront	-4582
▁El	-4583
ATE	-4584
▁Planned	-4585
▁Furthermore	-4586
▁Crown	-4587
ishes	-4588
65	-4589
▁2004.	-4590
▁advis	-4591
▁liter	-4592
▁volume	-4593
rc	-4594
▁core	-4595
▁largest	-4596
▁Mission	-4597
TM	-4598
ERS	-4599
▁Bul	-4600
▁2005.	-4601
▁Communities	-4602
▁fel	-4603
▁predic	-4604
▁RCMP	-4605
▁GST	-4606
▁sched	-4607
▁devices	-4608
▁Day	-4609
-12	-4610
▁Conf	-4611
▁manage	-4612
including	-4613
ilateral	-4614
▁jo	-4615
entially	-4616
oles	-4617
▁spending	-4618
▁2000,	-4619
▁correct	-4620
ened	-4621
ps	-4622
osystem	-4623
▁face	-4624
▁barri	-4625
▁displ	-4626
▁feel	-4627
▁Pacific	-4628
En	-4629
▁pow	-4630
igrants	-4631
▁became	-4632
key	-4633
▁CANADA	-4634
▁accounts	-4635
▁HR	-4636
▁Fam	-4637
▁Subs	-4638
▁ple	-4639
▁schools	-4640
▁late	-4641
▁tob	-4642
▁assessed	-4643
ette	-4644
▁32	-4645
used	-4646
▁...	-4647
▁lands	-4648
▁bro	-4649
▁screening	-4650
arents	-4651
▁Statement	-4652
▁Ser	-4653
▁Joint	-4654
▁adverse	-4655
St	-4656
37	-4657
▁prescribed	-4658
▁Such	-4659
▁Capital	-4660
▁situations	-4661
▁Limited	-4662
▁agenda	-4663
aving	-4664
▁categories	-4665
gr	-4666
▁Standards	-4667
▁industries	-4668
▁option	-4669
vail	-4670
AIDS	-4671
▁mass	-4672
▁institutional	-4673
tising	-4674
▁Articles	-4675
▁revised	-4676
▁Conc	-4677
▁tobacco	-4678
▁stat	-4679
▁difference	-4680
▁consumption	-4681
▁funded	-4682
▁reducing	-4683
▁solutions	-4684
▁wind	-4685
▁Bar	-4686
▁centres	-4687
▁highest	-4688
▁Museum	-4689
▁campaign	-4690
igence	-4691
▁PE	-4692
▁repe	-4693
▁quantit	-4694
▁Rule	-4695
▁Follow	-4696
▁Team	-4697
▁deleg	-4698
▁Oceans	-4699
▁Related	-4700
▁respectively	-4701
▁violence	-4702
▁web	-4703
ns	-4704
▁doing	-4705
outher	-4706
▁adoption	-4707
avy	-4708
certain	-4709
▁coordination	-4710
ients	-4711
▁left	-4712
▁attrib	-4713
▁arri	-4714
itness	-4715
▁Medical	-4716
LO	-4717
▁Income	-4718
iform	-4719
umping	-4720
▁minority	-4721
reci	-4722
▁Mexic	-4723
▁Market	-4724
▁cop	-4725
▁Status	-4726
▁isol	-4727
▁clean	-4728
communications	-4729
▁Dem	-4730
▁subsequent	-4731
▁Prince	-4732
▁element	-4733
illing	-4734
person	-4735
▁Note	-4736
▁Page	-4737
▁represented	-4738
▁Inte	-4739
▁waters	-4740
thening	-4741
▁protected	-4742
lude	-4743
▁rein	-4744
▁Assistant	-4745
unction	-4746
▁65	-4747
▁movement	-4748
▁stri	-4749
overty	-4750
▁reach	-4751
▁examined	-4752
ape	-4753
▁practical	-4754
▁injury	-4755
▁mechanism	-4756
DA	-4757
▁minim	-4758
▁Address	-4759
38	-4760
ously	-4761
▁performed	-4762
▁SME	-4763
--------	-4764
CF	-4765
▁summary	-4766
▁things	-4767
)(	-4768
▁Pop	-4769
ole	-4770
▁Through	-4771
▁Franc	-4772
▁depend	-4773
▁AN	-4774
▁category	-4775
▁taxation	-4776
ula	-4777
▁East	-4778
IDA	-4779
wh	-4780
▁immediately	-4781
draw	-4782
ridge	-4783
▁allows	-4784
irds	-4785
▁advantage	-4786
with	-4787
▁Innov	-4788
▁daily	-4789
▁permanent	-4790
▁stress	-4791
ray	-4792
▁2003.	-4793
▁aimed	-4794
▁People	-4795
▁classification	-4796
▁employed	-4797
▁transactions	-4798
/1	-4799
ESS	-4800
governmental	-4801
▁retain	-4802
▁seven	-4803
▁2006.	-4804
nic	-4805
▁appears	-4806
EEC	-4807
▁complaints	-4808
▁began	-4809
▁EN	-4810
▁Corporate	-4811
▁blood	-4812
▁Planning	-4813
▁database	-4814
▁IS	-4815
iding	-4816
▁Spending	-4817
▁undertaking	-4818
ply	-4819
WGSC	-4820
▁comply	-4821
▁deemed	-4822
▁card	-4823
▁payable	-4824
▁files	-4825
▁Change	-4826
▁attend	-4827
▁parliament	-4828
▁55	-4829
68	-4830
▁log	-4831
repren	-4832
▁RES	-4833
▁foot	-4834
▁grounds	-4835
▁providers	-4836
▁AL	-4837
▁Prom	-4838
▁Nun	-4839
▁recruit	-4840
▁placed	-4841
ogen	-4842
▁Ear	-4843
la	-4844
▁trends	-4845
▁Current	-4846
cohol	-4847
▁85	-4848
▁collect	-4849
▁revenues	-4850
▁coast	-4851
▁mg	-4852
▁software	-4853
-199	-4854
VE	-4855
bre	-4856
▁Governor	-4857
▁absence	-4858
▁exports	-4859
lymp	-4860
▁caused	-4861
▁taxpay	-4862
▁documentation	-4863
▁revenue	-4864
▁Previous	-4865
▁telephone	-4866
▁Austral	-4867
▁housing	-4868
▁determination	-4869
▁writing	-4870
▁determining	-4871
▁Dav	-4872
▁Mal	-4873
▁Protocol	-4874
▁tend	-4875
▁acquis	-4876
▁Incre	-4877
▁side	-4878
▁genetic	-4879
ctic	-4880
▁Lo	-4881
▁Quality	-4882
▁Spe	-4883
▁scale	-4884
ett	-4885
▁PAR	-4886
▁filing	-4887
▁regards	-4888
DU	-4889
▁Finally	-4890
01	-4891
ience	-4892
▁developments	-4893
zer	-4894
▁relationships	-4895
▁disclosure	-4896
resents	-4897
▁prohib	-4898
▁Montreal	-4899
ITY	-4900
EA	-4901
▁Bo	-4902
inafter	-4903
▁certificate	-4904
▁Monitor	-4905
iers	-4906
▁Prac	-4907
▁qualified	-4908
▁4.	-4909
▁closely	-4910
eurs	-4911
▁Provincial	-4912
▁seek	-4913
▁animal	-4914
icians	-4915
▁haz	-4916
▁brief	-4917
▁deploy	-4918
▁excell	-4919
▁task	-4920
▁ox	-4921
paragraph	-4922
▁seed	-4923
▁acknow	-4924
▁privacy	-4925
▁sharing	-4926
OM	-4927
▁Represent	-4928
▁answer	-4929
▁territories	-4930
part	-4931
▁article	-4932
(3)	-4933
▁aqu	-4934
▁econom	-4935
▁nor	-4936
▁justice	-4937
▁spons	-4938
fficient	-4939
▁controls	-4940
▁Rail	-4941
▁occurred	-4942
▁Two	-4943
▁finding	-4944
▁Analysis	-4945
lin	-4946
▁represents	-4947
long	-4948
ulf	-4949
▁cash	-4950
▁released	-4951
▁responses	-4952
▁diseases	-4953
▁maintained	-4954
▁Manager	-4955
▁procurement	-4956
▁stream	-4957
arency	-4958
▁extensive	-4959
▁Building	-4960
41	-4961
▁resulted	-4962
▁consent	-4963
▁39	-4964
ought	-4965
▁came	-4966
▁replaced	-4967
▁northern	-4968
▁Ra	-4969
▁0.0	-4970
▁sense	-4971
-08	-4972
crip	-4973
sych	-4974
erenti	-4975
▁cancer	-4976
▁associations	-4977
▁concentration	-4978
ead	-4979
▁stock	-4980
▁excess	-4981
▁Green	-4982
▁crime	-4983
iii	-4984
▁sport	-4985
▁Design	-4986
▁substantial	-4987
TIC	-4988
▁Gre	-4989
▁Vis	-4990
▁fost	-4991
▁2002.	-4992
▁concentrations	-4993
▁obligation	-4994
▁via	-4995
▁01	-4996
utory	-4997
▁Har	-4998
viation	-4999
▁Know	-5000
▁Rules	-5001
▁periods	-5002
cular	-5003
▁Operations	-5004
▁toxic	-5005
31	-5006
oring	-5007
CI	-5008
▁equivalent	-5009
▁poor	-5010
resh	-5011
▁disabilities	-5012
▁Ques	-5013
▁cells	-5014
▁choice	-5015
▁Prime	-5016
▁Province	-5017
▁submission	-5018
ls	-5019
outhern	-5020
▁carrying	-5021
ifying	-5022
▁ce	-5023
▁professionals	-5024
▁interpretation	-5025
▁PDF	-5026
ourses	-5027
▁appe	-5028
▁reached	-5029
▁possibility	-5030
PE	-5031
▁6,	-5032
▁Patent	-5033
▁book	-5034
▁Bra	-5035
rates	-5036
▁Telephone	-5037
▁Senior	-5038
▁agriculture	-5039
▁crop	-5040
▁availability	-5041
▁COMM	-5042
ynam	-5043
4.	-5044
▁conclusion	-5045
▁break	-5046
organ	-5047
▁les	-5048
▁debate	-5049
▁offers	-5050
▁Please	-5051
▁expression	-5052
ze	-5053
▁instrument	-5054
like	-5055
oss	-5056
▁spect	-5057
▁fri	-5058
▁tests	-5059
▁improvements	-5060
CR	-5061
▁summer	-5062
▁introduction	-5063
▁assum	-5064
▁teac	-5065
ura	-5066
▁Hal	-5067
▁harmon	-5068
▁applicants	-5069
irth	-5070
▁enhanced	-5071
▁solution	-5072
mis	-5073
astern	-5074
▁Panel	-5075
level	-5076
▁agent	-5077
▁storage	-5078
▁traffic	-5079
▁vision	-5080
▁AU	-5081
▁Foundation	-5082
▁enterprises	-5083
▁preliminary	-5084
lete	-5085
▁happ	-5086
▁fisheries	-5087
▁recorded	-5088
▁continuing	-5089
inking	-5090
▁fran	-5091
▁quarter	-5092
▁sl	-5093
▁48	-5094
otor	-5095
36	-5096
▁Lear	-5097
▁acting	-5098
39	-5099
▁timely	-5100
▁Mac	-5101
▁IV	-5102
▁Global	-5103
oma	-5104
▁Legal	-5105
▁quick	-5106
ops	-5107
▁inqu	-5108
gnos	-5109
▁divid	-5110
▁combined	-5111
▁creating	-5112
▁university	-5113
▁residents	-5114
▁licens	-5115
▁marks	-5116
▁Industrial	-5117
▁Investment	-5118
▁prepare	-5119
▁coverage	-5120
▁mail	-5121
▁euro	-5122
▁Mus	-5123
oming	-5124
pected	-5125
▁enough	-5126
▁accounting	-5127
iries	-5128
▁Standing	-5129
▁user	-5130
▁parent	-5131
▁Police	-5132
▁preced	-5133
-09	-5134
ATIONS	-5135
▁presentation	-5136
asks	-5137
▁linked	-5138
▁dealing	-5139
▁fields	-5140
▁»	-5141
▁articles	-5142
▁poly	-5143
▁connection	-5144
▁WTO	-5145
▁Figure	-5146
▁carbon	-5147
▁Consum	-5148
▁OR	-5149
▁Contents	-5150
▁eight	-5151
▁green	-5152
▁calls	-5153
uction	-5154
▁failure	-5155
rans	-5156
▁Forum	-5157
▁mainly	-5158
▁parents	-5159
▁considers	-5160
▁completion	-5161
mer	-5162
pa	-5163
▁focused	-5164
comp	-5165
ulner	-5166
rab	-5167
▁wish	-5168
▁household	-5169
▁(4	-5170
▁Proced	-5171
▁path	-5172
▁purchase	-5173
▁47	-5174
▁assigned	-5175
▁north	-5176
▁secure	-5177
▁CD	-5178
▁competent	-5179
Pro	-5180
▁Product	-5181
▁laid	-5182
▁Moreover	-5183
▁penal	-5184
ilingual	-5185
▁going	-5186
▁patient	-5187
▁PCT	-5188
▁strength	-5189
erce	-5190
inu	-5191
▁targets	-5192
FOR	-5193
oriz	-5194
réal	-5195
▁online	-5196
▁healthy	-5197
▁Licence	-5198
amb	-5199
▁comment	-5200
▁Estimates	-5201
▁IM	-5202
▁temperature	-5203
ert	-5204
▁outcome	-5205
▁indicates	-5206
IB	-5207
▁·	-5208
ghan	-5209
umn	-5210
role	-5211
▁association	-5212
▁Unit	-5213
▁Standard	-5214
▁mort	-5215
▁examples	-5216
▁hospital	-5217
▁intervention	-5218
omet	-5219
▁soon	-5220
itro	-5221
▁hon	-5222
▁manufacturing	-5223
dle	-5224
▁Plans	-5225
QU	-5226
▁Eth	-5227
▁Jud	-5228
▁Jean	-5229
LIC	-5230
▁delivered	-5231
▁Go	-5232
▁demonstrate	-5233
lock	-5234
otes	-5235
hereinafter	-5236
▁PWGSC	-5237
▁Family	-5238
▁organized	-5239
▁Bill	-5240
▁imported	-5241
▁extended	-5242
▁Road	-5243
▁wa	-5244
▁examine	-5245
ody	-5246
▁Projects	-5247
▁withdraw	-5248
▁Payments	-5249
position	-5250
loor	-5251
ERV	-5252
▁academ	-5253
▁television	-5254
▁cohe	-5255
▁techniques	-5256
▁Help	-5257
▁transition	-5258
▁career	-5259
▁identity	-5260
▁Emerg	-5261
ulatory	-5262
▁sole	-5263
igures	-5264
▁Tariff	-5265
▁AR	-5266
usion	-5267
/9	-5268
elligence	-5269
▁multiple	-5270
ité	-5271
▁1999,	-5272
quarters	-5273
▁entered	-5274
▁whom	-5275
vance	-5276
stream	-5277
▁incur	-5278
urb	-5279
▁Languages	-5280
çais	-5281
▁rati	-5282
essions	-5283
▁clos	-5284
▁Mount	-5285
▁freedom	-5286
times	-5287
▁Last	-5288
▁vary	-5289
▁10,	-5290
▁reserve	-5291
▁Pension	-5292
▁Technical	-5293
▁increasingly	-5294
▁Civil	-5295
▁Manufacturing	-5296
▁modified	-5297
Ar	-5298
note	-5299
ideo	-5300
▁Sustainable	-5301
▁Rem	-5302
▁Sch	-5303
▁features	-5304
▁Northwest	-5305
avut	-5306
▁sets	-5307
▁Asia	-5308
▁damage	-5309
▁cris	-5310
▁abroad	-5311
▁qualifications	-5312
men	-5313
greg	-5314
▁changed	-5315
▁Implementation	-5316
EX	-5317
▁Ne	-5318
▁Dise	-5319
vestig	-5320
▁accessible	-5321
▁vote	-5322
spec	-5323
▁DND	-5324
▁firm	-5325
pporteur	-5326
9)	-5327
▁title	-5328
▁contamin	-5329
▁adapt	-5330
mont	-5331
▁accur	-5332
HP	-5333
▁Jus	-5334
▁Bec	-5335
▁arti	-5336
atistical	-5337
bit	-5338
▁DFO	-5339
▁Parliamentary	-5340
▁customs	-5341
emorand	-5342
▁retail	-5343
▁compound	-5344
▁7,	-5345
inding	-5346
oon	-5347
▁says	-5348
▁elimin	-5349
▁Arctic	-5350
77	-5351
ects	-5352
election	-5353
▁Journal	-5354
▁volunte	-5355
▁Saint	-5356
▁powers	-5357
▁temporary	-5358
▁Montréal	-5359
▁pharm	-5360
ush	-5361
▁extra	-5362
ipeg	-5363
▁Great	-5364
▁Library	-5365
▁publications	-5366
▁Export	-5367
innipeg	-5368
▁pred	-5369
cks	-5370
igen	-5371
▁Type	-5372
▁41	-5373
▁perspective	-5374
▁managed	-5375
▁Transfer	-5376
▁ecosystem	-5377
▁Cre	-5378
▁remaining	-5379
▁conv	-5380
▁surv	-5381
▁ton	-5382
▁Nor	-5383
▁Sy	-5384
▁learn	-5385
▁transparency	-5386
▁vacc	-5387
▁changing	-5388
▁fa	-5389
▁CIDA	-5390
▁coming	-5391
▁fight	-5392
▁demonstrated	-5393
▁disability	-5394
▁Slo	-5395
▁names	-5396
▁Gene	-5397
▁round	-5398
▁decline	-5399
▁mor	-5400
▁supervis	-5401
▁technological	-5402
▁Also	-5403
▁else	-5404
▁anticip	-5405
▁Territories	-5406
▁1993	-5407
CD	-5408
▁employers	-5409
▁2001.	-5410
rum	-5411
▁49	-5412
▁resident	-5413
abric	-5414
▁equity	-5415
▁Children	-5416
▁Ma	-5417
sk	-5418
▁Establ	-5419
▁toward	-5420
▁Level	-5421
▁Will	-5422
▁dollars	-5423
%.	-5424
gg	-5425
▁disse	-5426
▁resist	-5427
▁universities	-5428
gent	-5429
mitted	-5430
▁Task	-5431
▁02	-5432
▁EUR	-5433
▁2007,	-5434
▁express	-5435
▁Lat	-5436
ethyl	-5437
posed	-5438
42	-5439
▁illust	-5440
▁calculated	-5441
▁treated	-5442
▁Olymp	-5443
▁Enter	-5444
END	-5445
bourg	-5446
▁receipt	-5447
▁surveys	-5448
▁inspection	-5449
▁surveillance	-5450
TING	-5451
▁electric	-5452
▁Legisl	-5453
6/	-5454
▁background	-5455
resident	-5456
▁exclusive	-5457
operative	-5458
▁taxes	-5459
ician	-5460
▁voluntary	-5461
55	-5462
▁30,	-5463
apers	-5464
▁Communication	-5465
▁à	-5466
lot	-5467
▁Administrative	-5468
▁Ren	-5469
▁Afghan	-5470
▁wood	-5471
attle	-5472
▁supplies	-5473
▁Justification	-5474
MA	-5475
▁showed	-5476
▁Systems	-5477
▁settlement	-5478
▁acts	-5479
▁remed	-5480
▁acceptable	-5481
▁Copy	-5482
▁considerable	-5483
▁Your	-5484
▁roles	-5485
FA	-5486
▁Index	-5487
▁Version	-5488
ture	-5489
▁1992	-5490
▁Rober	-5491
▁Monitoring	-5492
▁statistics	-5493
▁barriers	-5494
▁enj	-5495
▁Pass	-5496
▁poverty	-5497
▁complainant	-5498
mpt	-5499
▁samples	-5500
▁Nunavut	-5501
aker	-5502
▁Compe	-5503
▁hereby	-5504
▁division	-5505
▁confirmed	-5506
▁served	-5507
▁claimant	-5508
▁courses	-5509
asts	-5510
▁Phot	-5511
fol	-5512
▁tasks	-5513
▁implications	-5514
▁panel	-5515
▁relig	-5516
▁analys	-5517
▁Winnipeg	-5518
▁INC	-5519
▁Works	-5520
rete	-5521
▁Let	-5522
▁2007.	-5523
ots	-5524
▁African	-5525
aled	-5526
▁Infrastructure	-5527
▁43	-5528
▁load	-5529
lam	-5530
▁Next	-5531
▁Broad	-5532
▁assessments	-5533
▁Occ	-5534
CA	-5535
▁Issues	-5536
▁border	-5537
▁Sign	-5538
Canada	-5539
▁managing	-5540
▁Value	-5541
▁mental	-5542
▁peoples	-5543
▁measured	-5544
▁outlined	-5545
▁reve	-5546
▁accompan	-5547
▁Innovation	-5548
ades	-5549
▁maintaining	-5550
▁tow	-5551
▁confidence	-5552
▁minist	-5553
▁decrease	-5554
▁8,	-5555
▁vulner	-5556
gar	-5557
▁entity	-5558
▁launched	-5559
SCE	-5560
prof	-5561
▁whereas	-5562
▁15,	-5563
▁mix	-5564
▁emerging	-5565
▁liqu	-5566
▁prote	-5567
500	-5568
▁directive	-5569
lements	-5570
▁Impact	-5571
▁involves	-5572
▁secondary	-5573
▁lives	-5574
▁stability	-5575
▁advertising	-5576
egu	-5577
▁88	-5578
ography	-5579
▁Reserve	-5580
WA	-5581
igenous	-5582
▁Study	-5583
▁Mexico	-5584
▁hear	-5585
acks	-5586
▁grants	-5587
▁conform	-5588
▁Prevention	-5589
▁city	-5590
▁simply	-5591
▁)	-5592
▁pollution	-5593
▁immediate	-5594
▁reb	-5595
▁Edward	-5596
taining	-5597
▁transf	-5598
▁solid	-5599
▁committees	-5600
▁Upd	-5601
▁digital	-5602
▁SAR	-5603
ria	-5604
▁bul	-5605
▁Partnership	-5606
▁AG	-5607
▁electoral	-5608
▁taxpayer	-5609
▁combination	-5610
▁satisfied	-5611
▁gives	-5612
▁Response	-5613
6.	-5614
ander	-5615
▁Swed	-5616
sell	-5617
▁poss	-5618
▁slow	-5619
enders	-5620
ensity	-5621
otechn	-5622
▁Detail	-5623
▁charges	-5624
▁identifying	-5625
▁strengthening	-5626
▁SOC	-5627
▁Integ	-5628
▁Princip	-5629
▁transferred	-5630
▁news	-5631
▁vers	-5632
▁Paper	-5633
▁adopt	-5634
▁Position	-5635
ald	-5636
▁Hosp	-5637
▁latter	-5638
Th	-5639
▁cou	-5640
▁discip	-5641
▁allocation	-5642
▁gradu	-5643
▁Free	-5644
▁residence	-5645
▁transmission	-5646
▁CA	-5647
▁Russian	-5648
▁entrepren	-5649
▁dispute	-5650
▁student	-5651
▁democratic	-5652
▁art	-5653
▁44	-5654
▁agents	-5655
ulating	-5656
9.	-5657
EW	-5658
titution	-5659
▁heading	-5660
CP	-5661
▁felt	-5662
▁delay	-5663
▁Knowledge	-5664
EU	-5665
▁Activity	-5666
▁principal	-5667
▁Investig	-5668
▁extension	-5669
▁south	-5670
▁tourism	-5671
▁1.1	-5672
▁1991	-5673
▁Roman	-5674
▁membership	-5675
▁organisation	-5676
▁nuclear	-5677
▁consolid	-5678
olic	-5679
▁Inst	-5680
▁Thus	-5681
herlands	-5682
atell	-5683
ORT	-5684
▁schedule	-5685
▁km	-5686
▁integrity	-5687
esty	-5688
▁Period	-5689
▁extreme	-5690
▁Francoph	-5691
-1-	-5692
encing	-5693
▁PA	-5694
urities	-5695
▁08	-5696
▁Both	-5697
▁Fact	-5698
▁Mor	-5699
▁Assistance	-5700
izations	-5701
▁2000.	-5702
▁Mich	-5703
▁dead	-5704
▁NAT	-5705
ruption	-5706
ERE	-5707
▁SMEs	-5708
raf	-5709
▁rise	-5710
▁Cooperation	-5711
▁Federation	-5712
▁park	-5713
▁sexual	-5714
▁achieving	-5715
▁AB	-5716
▁Marine	-5717
fegu	-5718
▁occas	-5719
▁Recommendation	-5720
▁Histor	-5721
▁contributed	-5722
rest	-5723
hel	-5724
utic	-5725
▁workplace	-5726
▁convention	-5727
ece	-5728
hery	-5729
▁controlled	-5730
▁estimate	-5731
▁Resource	-5732
▁banks	-5733
▁measurement	-5734
▁representation	-5735
▁engaged	-5736
▁SP	-5737
▁Den	-5738
▁dimension	-5739
(1	-5740
▁Press	-5741
▁regime	-5742
▁Based	-5743
▁explor	-5744
▁Population	-5745
▁David	-5746
tims	-5747
▁older	-5748
▁updated	-5749
augh	-5750
▁REG	-5751
doc	-5752
▁dang	-5753
▁properly	-5754
gary	-5755
plus	-5756
▁addressing	-5757
▁paragraphs	-5758
▁Complain	-5759
▁sea	-5760
ensee	-5761
▁recon	-5762
(200	-5763
iven	-5764
LA	-5765
▁Objec	-5766
▁experiences	-5767
▁Introduction	-5768
▁2.1	-5769
3/	-5770
▁built	-5771
▁Reporting	-5772
▁Step	-5773
▁reviews	-5774
orders	-5775
8)	-5776
▁exhib	-5777
▁Following	-5778
oice	-5779
▁productivity	-5780
ques	-5781
▁Italy	-5782
uds	-5783
oly	-5784
▁termin	-5785
eters	-5786
anging	-5787
ded	-5788
▁NG	-5789
▁hy	-5790
▁alcohol	-5791
▁doct	-5792
abling	-5793
inf	-5794
▁9,	-5795
▁Final	-5796
▁minutes	-5797
▁harvest	-5798
és	-5799
economic	-5800
ras	-5801
▁incen	-5802
▁shares	-5803
▁invited	-5804
ulties	-5805
▁11,	-5806
▁12,	-5807
▁veget	-5808
▁classified	-5809
▁Cond	-5810
ipl	-5811
▁Camp	-5812
▁sessions	-5813
▁Russia	-5814
liers	-5815
▁explained	-5816
elivery	-5817
▁conver	-5818
▁consequences	-5819
lers	-5820
▁$10	-5821
▁directed	-5822
▁laboratory	-5823
▁nurs	-5824
pir	-5825
urning	-5826
▁Vice	-5827
▁Studies	-5828
▁5.	-5829
fully	-5830
▁appreci	-5831
avig	-5832
utor	-5833
▁broadcasting	-5834
SH	-5835
▁satisfaction	-5836
OV	-5837
▁$1,	-5838
▁curren	-5839
▁away	-5840
▁CE	-5841
▁steel	-5842
▁birth	-5843
▁index	-5844
▁99	-5845
▁\	-5846
ement	-5847
▁virt	-5848
▁Engine	-5849
▁Selection	-5850
▁Scientific	-5851
▁smoking	-5852
▁duration	-5853
7.	-5854
▁05	-5855
▁br	-5856
▁Again	-5857
emption	-5858
▁deposit	-5859
▁places	-5860
▁smaller	-5861
▁Indic	-5862
2/	-5863
▁3.1	-5864
-18	-5865
rew	-5866
▁Don	-5867
▁Partners	-5868
▁instance	-5869
▁Netherlands	-5870
▁sus	-5871
▁Cultural	-5872
▁Benefits	-5873
▁loan	-5874
ceptions	-5875
▁Classification	-5876
DG	-5877
oved	-5878
▁expectations	-5879
▁ever	-5880
▁Language	-5881
▁constitute	-5882
▁Medic	-5883
▁attached	-5884
▁station	-5885
anged	-5886
▁Internal	-5887
▁indirect	-5888
▁allocated	-5889
▁generation	-5890
wood	-5891
▁ideas	-5892
▁500	-5893
▁Bet	-5894
▁targeted	-5895
▁highlight	-5896
▁comparison	-5897
34	-5898
▁1.2	-5899
▁experienced	-5900
tirement	-5901
▁Interest	-5902
▁AP	-5903
▁42	-5904
ludes	-5905
emorandum	-5906
▁lost	-5907
▁courts	-5908
▁applying	-5909
▁commission	-5910
onia	-5911
▁normally	-5912
▁Opportun	-5913
ifax	-5914
▁copyright	-5915
▁End	-5916
▁Senate	-5917
▁GDP	-5918
▁aims	-5919
▁prosec	-5920
▁initiated	-5921
▁Departmental	-5922
ARY	-5923
▁Title	-5924
ster	-5925
▁param	-5926
fort	-5927
▁Rev	-5928
▁incurred	-5929
reek	-5930
▁Coast	-5931
▁mitig	-5932
▁customers	-5933
▁restrictions	-5934
▁Altern	-5935
▁female	-5936
▁scheduled	-5937
▁inventory	-5938
DE	-5939
▁06	-5940
▁true	-5941
▁operators	-5942
omain	-5943
▁advanced	-5944
▁Intellectual	-5945
fin	-5946
ira	-5947
▁actually	-5948
▁Once	-5949
▁bilateral	-5950
▁Source	-5951
ourse	-5952
▁abuse	-5953
78	-5954
▁derived	-5955
care	-5956
▁uncertain	-5957
▁sought	-5958
▁recognize	-5959
▁witness	-5960
▁evaluate	-5961
▁Kore	-5962
▁resid	-5963
▁copies	-5964
▁failed	-5965
▁giving	-5966
▁mind	-5967
▁(0	-5968
▁Given	-5969
ils	-5970
▁id	-5971
▁amb	-5972
▁ethnic	-5973
▁conclusions	-5974
▁Registration	-5975
▁capabilities	-5976
▁Calgary	-5977
.:	-5978
▁biological	-5979
▁century	-5980
▁guarantee	-5981
▁ice	-5982
alled	-5983
▁Spain	-5984
▁dedic	-5985
▁argued	-5986
▁submissions	-5987
")	-5988
hat	-5989
▁equality	-5990
ocks	-5991
▁buildings	-5992
arks	-5993
▁chain	-5994
▁emphasis	-5995
-15	-5996
▁ul	-5997
▁display	-5998
anguage	-5999
▁Australia	-6000
▁AT	-6001
mosp	-6002
ECD	-6003
▁College	-6004
▁Phase	-6005
hab	-6006
▁loans	-6007
▁Method	-6008
ansion	-6009
▁independ	-6010
▁tro	-6011
▁Local	-6012
▁dynam	-6013
▁1998,	-6014
▁Because	-6015
▁Institutional	-6016
▁winter	-6017
▁Comments	-6018
▁forum	-6019
▁prefer	-6020
▁cycle	-6021
▁seeking	-6022
▁Small	-6023
▁diagnos	-6024
▁patterns	-6025
▁benefici	-6026
orse	-6027
▁Exc	-6028
▁manager	-6029
onds	-6030
▁plus	-6031
▁acquired	-6032
▁sensitive	-6033
▁scheme	-6034
▁encouraged	-6035
▁UK	-6036
▁Only	-6037
▁MAT	-6038
lections	-6039
eek	-6040
▁1.3	-6041
▁lif	-6042
▁judicial	-6043
▁ECB	-6044
▁device	-6045
▁respondent	-6046
%,	-6047
2]	-6048
▁tes	-6049
▁organizational	-6050
▁started	-6051
▁fer	-6052
▁flexibility	-6053
▁subparagraph	-6054
pdf	-6055
▁remov	-6056
▁Olympic	-6057
▁bio	-6058
amination	-6059
▁disposal	-6060
free	-6061
ese	-6062
eleb	-6063
▁Another	-6064
▁Additional	-6065
▁56	-6066
▁awarded	-6067
▁stra	-6068
▁register	-6069
▁scienti	-6070
ville	-6071
ictor	-6072
▁spir	-6073
▁Farm	-6074
▁Games	-6075
▁14,	-6076
itect	-6077
▁suggests	-6078
▁Belg	-6079
orne	-6080
▁lot	-6081
▁flight	-6082
▁revision	-6083
▁notification	-6084
▁Read	-6085
▁mutual	-6086
▁Require	-6087
▁representing	-6088
▁fabric	-6089
▁reprodu	-6090
-19	-6091
IAN	-6092
iors	-6093
▁select	-6094
▁Gen	-6095
▁annually	-6096
▁numerous	-6097
▁staffing	-6098
▁occupational	-6099
▁1-8	-6100
HA	-6101
▁PL	-6102
▁Life	-6103
▁imposed	-6104
▁largely	-6105
▁Wildlife	-6106
▁NP	-6107
▁doub	-6108
▁acquisition	-6109
▁FR	-6110
▁figures	-6111
rist	-6112
itime	-6113
▁simple	-6114
▁Delivery	-6115
▁Military	-6116
atically	-6117
down	-6118
▁gave	-6119
▁helping	-6120
orizont	-6121
▁slight	-6122
▁bid	-6123
appro	-6124
▁transaction	-6125
▁railway	-6126
beral	-6127
▁1996,	-6128
▁decide	-6129
▁unemployment	-6130
▁OSCE	-6131
▁foods	-6132
otechnology	-6133
rees	-6134
▁District	-6135
ellow	-6136
▁assessing	-6137
▁continuous	-6138
▁distributed	-6139
▁Long	-6140
monton	-6141
OD	-6142
eties	-6143
▁46	-6144
mal	-6145
grad	-6146
5.	-6147
rd	-6148
▁profile	-6149
▁1980	-6150
▁ownership	-6151
▁Major	-6152
▁2.2	-6153
▁CRTC	-6154
▁India	-6155
folio	-6156
▁(4)	-6157
▁stay	-6158
▁disch	-6159
▁Halifax	-6160
▁enjoy	-6161
linary	-6162
▁crisis	-6163
▁corresponding	-6164
▁room	-6165
▁treaty	-6166
▁difficulties	-6167
las	-6168
▁il	-6169
▁mem	-6170
▁York	-6171
▁Immigration	-6172
▁alone	-6173
▁IDRC	-6174
▁spent	-6175
▁optim	-6176
ancell	-6177
▁Personal	-6178
▁spread	-6179
▁195	-6180
lick	-6181
▁Rele	-6182
▁sometimes	-6183
▁confirm	-6184
istent	-6185
▁output	-6186
▁mineral	-6187
▁PM	-6188
abin	-6189
▁thous	-6190
TD	-6191
▁broader	-6192
▁cru	-6193
▁victims	-6194
▁98	-6195
▁distance	-6196
ership	-6197
titude	-6198
ographical	-6199
▁eligibility	-6200
▁certification	-6201
▁2010	-6202
▁Emergency	-6203
▁undertake	-6204
ga	-6205
▁Room	-6206
oe	-6207
▁alleged	-6208
tters	-6209
▁infring	-6210
HST	-6211
▁remained	-6212
▁Priorities	-6213
▁PO	-6214
▁refers	-6215
▁Afghanistan	-6216
▁vessels	-6217
▁furn	-6218
▁carrier	-6219
▁stim	-6220
▁NATO	-6221
▁chlor	-6222
omb	-6223
licit	-6224
▁allowance	-6225
aser	-6226
▁Sciences	-6227
▁questionna	-6228
▁corporations	-6229
▁quickly	-6230
▁organic	-6231
▁consensus	-6232
▁Box	-6233
▁196	-6234
▁Coordin	-6235
▁psych	-6236
▁exists	-6237
cl	-6238
▁sav	-6239
▁Drugs	-6240
▁ratio	-6241
▁judgment	-6242
▁Equipment	-6243
▁58	-6244
▁becoming	-6245
▁neigh	-6246
▁define	-6247
▁structural	-6248
▁competitiveness	-6249
▁Agri	-6250
from	-6251
▁adult	-6252
UB	-6253
▁removed	-6254
▁PS	-6255
▁sell	-6256
RL	-6257
▁illness	-6258
▁heart	-6259
just	-6260
▁mil	-6261
▁burden	-6262
▁declaration	-6263
▁san	-6264
▁Identi	-6265
osph	-6266
▁Time	-6267
▁weather	-6268
▁package	-6269
7/	-6270
olving	-6271
▁historical	-6272
jud	-6273
▁Learning	-6274
▁teaching	-6275
▁300	-6276
orrow	-6277
▁raise	-6278
▁becomes	-6279
▁metal	-6280
▁thought	-6281
▁liability	-6282
mbuds	-6283
▁salary	-6284
▁western	-6285
ien	-6286
32	-6287
tile	-6288
▁Stat	-6289
tically	-6290
atellite	-6291
▁Univers	-6292
▁Copyright	-6293
1/	-6294
oor	-6295
list	-6296
▁Regulatory	-6297
▁allowing	-6298
▁moving	-6299
▁suitable	-6300
▁union	-6301
▁recruitment	-6302
▁mother	-6303
▁affili	-6304
▁diverse	-6305
▁mandatory	-6306
▁delegation	-6307
▁pages	-6308
▁NS	-6309
Comm	-6310
▁collaborative	-6311
▁EURO	-6312
ctives	-6313
▁severe	-6314
▁spring	-6315
▁Edmonton	-6316
ée	-6317
▁Mid	-6318
▁lists	-6319
▁conducting	-6320
▁investigations	-6321
▁Excell	-6322
▁inclusion	-6323
▁considerations	-6324
tious	-6325
▁Distrib	-6326
▁Proposal	-6327
▁apparent	-6328
▁Eastern	-6329
▁elections	-6330
▁Lakes	-6331
▁owner	-6332
▁safegu	-6333
▁Dan	-6334
100	-6335
▁Measures	-6336
▁20,	-6337
▁tal	-6338
▁Field	-6339
="	-6340
▁quantity	-6341
employed	-6342
▁consists	-6343
▁("	-6344
ondon	-6345
▁SERV	-6346
▁existence	-6347
▁permitted	-6348
▁$4	-6349
▁yield	-6350
▁Phys	-6351
▁Effective	-6352
▁SEC	-6353
{\	-6354
▁Its	-6355
▁Fort	-6356
▁renewal	-6357
▁3.2	-6358
▁trial	-6359
▁combat	-6360
▁CBSA	-6361
▁locations	-6362
▁thereof	-6363
▁simpl	-6364
▁Actual	-6365
▁bilingual	-6366
▁suppliers	-6367
oul	-6368
▁arm	-6369
▁Art	-6370
▁sequ	-6371
▁disclo	-6372
▁expert	-6373
▁concrete	-6374
▁send	-6375
▁looking	-6376
▁front	-6377
▁box	-6378
Canad	-6379
▁Sever	-6380
▁fresh	-6381
▁pregn	-6382
▁generated	-6383
▁ultim	-6384
aves	-6385
index	-6386
▁Victor	-6387
Euro	-6388
▁clause	-6389
▁orient	-6390
cs	-6391
letin	-6392
▁Tour	-6393
General	-6394
▁4.1	-6395
orizontal	-6396
iov	-6397
▁sure	-6398
▁occurs	-6399
ota	-6400
uff	-6401
▁constant	-6402
▁1997,	-6403
▁announce	-6404
ubs	-6405
▁requiring	-6406
▁Gas	-6407
▁aer	-6408
▁stages	-6409
▁facts	-6410
ha	-6411
▁incorporated	-6412
▁claimed	-6413
▁counsel	-6414
▁reflects	-6415
met	-6416
pped	-6417
acing	-6418
amber	-6419
▁idea	-6420
▁attract	-6421
abil	-6422
▁Country	-6423
pidem	-6424
vincial	-6425
▁1)	-6426
▁hum	-6427
endar	-6428
▁samp	-6429
def	-6430
▁Mart	-6431
▁reflected	-6432
▁Rich	-6433
▁Occup	-6434
▁administered	-6435
▁Black	-6436
▁stable	-6437
▁chapter	-6438
▁bott	-6439
gred	-6440
arbour	-6441
▁image	-6442
▁Instru	-6443
hing	-6444
▁Pet	-6445
ét	-6446
▁tested	-6447
▁democracy	-6448
▁literature	-6449
▁frequency	-6450
pping	-6451
▁pain	-6452
▁13,	-6453
▁17,	-6454
▁opening	-6455
elfare	-6456
▁speed	-6457
tilateral	-6458
▁Consumer	-6459
▁Ext	-6460
▁migration	-6461
▁tex	-6462
▁SERVIC	-6463
76	-6464
▁band	-6465
▁statistical	-6466
iam	-6467
▁describe	-6468
–200	-6469
▁mining	-6470
FI	-6471
▁Gaz	-6472
▁immun	-6473
▁attemp	-6474
uct	-6475
▁Bur	-6476
▁domin	-6477
▁helped	-6478
▁accurate	-6479
ching	-6480
akings	-6481
oration	-6482
▁wildlife	-6483
▁hazard	-6484
▁Release	-6485
▁Uk	-6486
yt	-6487
▁tis	-6488
▁Decl	-6489
ething	-6490
▁mortality	-6491
ardship	-6492
▁PSC	-6493
overed	-6494
enza	-6495
▁1/	-6496
▁obst	-6497
▁Portug	-6498
▁decreased	-6499
▁Individual	-6500
▁Commit	-6501
4/	-6502
▁Return	-6503
▁Specific	-6504
▁minister	-6505
▁plas	-6506
▁earnings	-6507
▁acknowled	-6508
▁Mat	-6509
retion	-6510
HS	-6511
▁capable	-6512
▁thereby	-6513
GE	-6514
AGE	-6515
ica	-6516
▁NA	-6517
inery	-6518
ros	-6519
aculture	-6520
▁Present	-6521
▁adjustment	-6522
▁1999.	-6523
▁Radio	-6524
▁stations	-6525
▁TBS	-6526
bo	-6527
▁hom	-6528
▁Commercial	-6529
reshold	-6530
▁Production	-6531
arity	-6532
▁Professional	-6533
▁drawn	-6534
theless	-6535
DO	-6536
▁seems	-6537
language	-6538
ders	-6539
▁Agree	-6540
▁motor	-6541
▁indication	-6542
▁translation	-6543
▁pp	-6544
▁formed	-6545
▁update	-6546
ère	-6547
▁Opportunities	-6548
osen	-6549
▁Del	-6550
▁music	-6551
zil	-6552
▁explan	-6553
▁starting	-6554
▁Line	-6555
▁namely	-6556
▁Commons	-6557
▁regularly	-6558
▁Subject	-6559
▁gl	-6560
▁16,	-6561
▁refuge	-6562
▁extend	-6563
ato	-6564
annel	-6565
ested	-6566
▁adults	-6567
▁relief	-6568
85	-6569
▁comes	-6570
▁canada	-6571
▁deep	-6572
coming	-6573
▁vessel	-6574
▁Similar	-6575
▁film	-6576
▁hospit	-6577
▁judge	-6578
▁afford	-6579
▁properties	-6580
▁OECD	-6581
▁White	-6582
▁Culture	-6583
▁male	-6584
▁Cred	-6585
ATIONAL	-6586
VI	-6587
XX	-6588
▁1988	-6589
▁Notes	-6590
▁Overview	-6591
-2006	-6592
▁broadcast	-6593
▁Arts	-6594
▁Ve	-6595
uses	-6596
▁Robert	-6597
▁Point	-6598
ania	-6599
ulph	-6600
▁Pra	-6601
rating	-6602
▁depending	-6603
▁grain	-6604
emporary	-6605
▁immigrants	-6606
▁practition	-6607
▁Background	-6608
▁My	-6609
▁observations	-6610
▁buy	-6611
itarian	-6612
mbudsman	-6613
▁instructions	-6614
haps	-6615
▁surplus	-6616
▁Location	-6617
▁Sport	-6618
▁quite	-6619
▁Yes	-6620
▁feedback	-6621
amed	-6622
▁methodology	-6623
▁accommodation	-6624
▁miss	-6625
▁Paris	-6626
▁presents	-6627
▁jurisdictions	-6628
▁threats	-6629
▁transfers	-6630
▁arising	-6631
zy	-6632
▁interviews	-6633
▁restricted	-6634
▁teachers	-6635
▁Ver	-6636
▁Resolution	-6637
zone	-6638
▁capability	-6639
9/	-6640
▁unable	-6641
▁demands	-6642
▁actively	-6643
▁entrepreneurs	-6644
▁learned	-6645
▁savings	-6646
▁southern	-6647
▁taxable	-6648
▁missions	-6649
▁formation	-6650
▁passenger	-6651
▁18,	-6652
▁semin	-6653
▁liquid	-6654
▁widely	-6655
▁charged	-6656
▁Ca	-6657
▁exposed	-6658
pard	-6659
comes	-6660
▁μ	-6661
(4)	-6662
▁CT	-6663
▁preparing	-6664
▁manufacturer	-6665
▁align	-6666
▁belong	-6667
▁sustainability	-6668
udes	-6669
▁Bell	-6670
▁expansion	-6671
▁infection	-6672
@@@@	-6673
jection	-6674
▁accession	-6675
▁outstanding	-6676
▁613	-6677
ouses	-6678
▁closed	-6679
▁Respond	-6680
▁emission	-6681
▁valuable	-6682
▁participated	-6683
▁scen	-6684
ussels	-6685
habilit	-6686
alle	-6687
URE	-6688
▁File	-6689
▁cities	-6690
ARD	-6691
ham	-6692
legal	-6693
▁weak	-6694
▁serving	-6695
▁governing	-6696
▁contributing	-6697
▁28,	-6698
▁Test	-6699
iction	-6700
▁Their	-6701
▁finance	-6702
▁message	-6703
▁workshops	-6704
▁vac	-6705
▁kept	-6706
itim	-6707
▁affecting	-6708
▁52	-6709
▁Award	-6710
▁MATTER	-6711
▁covers	-6712
▁something	-6713
aste	-6714
aties	-6715
▁losses	-6716
state	-6717
cape	-6718
▁Army	-6719
▁Labor	-6720
▁parliamentary	-6721
▁CL	-6722
FORM	-6723
sequently	-6724
▁statutory	-6725
▁66	-6726
▁Map	-6727
▁impos	-6728
▁recipient	-6729
ISION	-6730
▁Expendit	-6731
▁oce	-6732
▁forecast	-6733
▁COM	-6734
▁Sweden	-6735
▁nation	-6736
▁immigration	-6737
KB	-6738
ney	-6739
etes	-6740
▁nar	-6741
▁squ	-6742
uation	-6743
ips	-6744
▁FIN	-6745
▁academic	-6746
▁visitors	-6747
▁choose	-6748
Ex	-6749
earing	-6750
▁helps	-6751
▁visits	-6752
ford	-6753
▁signs	-6754
sufficient	-6755
▁reserves	-6756
can	-6757
known	-6758
PR	-6759
▁Phone	-6760
▁sheet	-6761
▁reject	-6762
▁ICT	-6763
icking	-6764
▁heard	-6765
▁visible	-6766
rical	-6767
specific	-6768
▁necessarily	-6769
▁Forest	-6770
▁summar	-6771
ussion	-6772
▁therap	-6773
▁undertakings	-6774
▁hot	-6775
▁kil	-6776
▁map	-6777
▁vent	-6778
▁Railway	-6779
An	-6780
▁Four	-6781
▁ago	-6782
▁Turkey	-6783
▁internationally	-6784
▁fif	-6785
▁03	-6786
tities	-6787
▁considering	-6788
▁unf	-6789
▁dependent	-6790
We	-6791
▁21,	-6792
▁marked	-6793
▁phen	-6794
▁monit	-6795
▁Enh	-6796
▁Cross	-6797
▁Bro	-6798
▁Dire	-6799
▁contracting	-6800
▁53	-6801
uries	-6802
▁conj	-6803
▁meets	-6804
▁causes	-6805
▁ES	-6806
▁margin	-6807
ceived	-6808
▁engage	-6809
▁elected	-6810
▁INTER	-6811
▁(7	-6812
▁train	-6813
▁Chairman	-6814
▁London	-6815
▁atmosp	-6816
OG	-6817
▁MS	-6818
▁19,	-6819
▁Accordingly	-6820
▁Contributions	-6821
utors	-6822
health	-6823
▁speak	-6824
▁Three	-6825
IST	-6826
▁Brazil	-6827
cu	-6828
etermin	-6829
▁Grants	-6830
▁Establish	-6831
▁feas	-6832
igrant	-6833
▁sports	-6834
▁producer	-6835
▁Veter	-6836
▁monthly	-6837
▁terrorism	-6838
Un	-6839
▁removal	-6840
▁surround	-6841
▁exemption	-6842
▁Aut	-6843
ilm	-6844
▁Among	-6845
▁breed	-6846
(2)(	-6847
▁transl	-6848
▁Compliance	-6849
▁Tob	-6850
▁Against	-6851
▁Authorities	-6852
▁Feed	-6853
▁intention	-6854
▁Mess	-6855
uling	-6856
inese	-6857
▁Wood	-6858
▁rank	-6859
▁rent	-6860
▁aged	-6861
▁monetary	-6862
▁Important	-6863
.5%	-6864
ECT	-6865
▁exec	-6866
▁holding	-6867
▁Cy	-6868
▁refund	-6869
▁Improve	-6870
▁57	-6871
▁23,	-6872
▁NAF	-6873
▁workforce	-6874
▁AS	-6875
▁Anti	-6876
▁historic	-6877
▁executive	-6878
▁Bal	-6879
aining	-6880
▁87	-6881
▁manufacturers	-6882
▁big	-6883
▁excluded	-6884
▁handling	-6885
▁59	-6886
▁Ha	-6887
room	-6888
▁Tim	-6889
-30	-6890
▁Diff	-6891
cel	-6892
▁Micha	-6893
ritorial	-6894
▁electricity	-6895
▁SC	-6896
▁cere	-6897
▁Chemical	-6898
▁67	-6899
▁farmers	-6900
profit	-6901
▁codes	-6902
▁strongly	-6903
▁pool	-6904
▁advoc	-6905
▁catal	-6906
▁offence	-6907
▁Brussels	-6908
▁composition	-6909
pre	-6910
▁6.	-6911
lang	-6912
Europe	-6913
rape	-6914
▁Eff	-6915
▁Micro	-6916
▁returns	-6917
▁51	-6918
▁mobility	-6919
▁merit	-6920
▁Within	-6921
▁Criminal	-6922
PDF	-6923
▁Paul	-6924
▁Conservation	-6925
▁ingred	-6926
▁supplement	-6927
▁probably	-6928
▁exch	-6929
▁successfully	-6930
.01	-6931
▁teams	-6932
Canadian	-6933
▁feature	-6934
▁willing	-6935
FIC	-6936
umul	-6937
oti	-6938
oping	-6939
▁elsewhere	-6940
▁25,	-6941
▁Draft	-6942
▁foster	-6943
▁Registry	-6944
▁dose	-6945
▁Queen	-6946
▁Surve	-6947
▁explore	-6948
–0	-6949
▁tonnes	-6950
▁replacement	-6951
▁covering	-6952
▁drinking	-6953
bi	-6954
enty	-6955
atern	-6956
uthors	-6957
▁orders	-6958
FP	-6959
▁Trust	-6960
▁nine	-6961
▁interpre	-6962
being	-6963
▁domain	-6964
▁78	-6965
CS	-6966
aval	-6967
▁22,	-6968
▁convers	-6969
▁68	-6970
▁Agreements	-6971
▁anticipated	-6972
des	-6973
uck	-6974
▁50%	-6975
▁shipp	-6976
▁arrangement	-6977
▁27,	-6978
estiv	-6979
▁Operating	-6980
▁Accountability	-6981
reland	-6982
▁worth	-6983
▁studied	-6984
▁exceeding	-6985
ANCE	-6986
▁lik	-6987
▁Goods	-6988
no	-6989
▁$6	-6990
▁His	-6991
▁Documents	-6992
▁Cli	-6993
reach	-6994
▁books	-6995
▁Chinese	-6996
▁[5	-6997
▁hun	-6998
▁Email	-6999
▁threshold	-7000
HG	-7001
▁Sup	-7002
▁retirement	-7003
.50	-7004
▁Geor	-7005
uels	-7006
▁gains	-7007
▁reaction	-7008
▁Requirements	-7009
▁easy	-7010
access	-7011
▁vital	-7012
vity	-7013
second	-7014
▁interventions	-7015
▁Climate	-7016
▁synt	-7017
▁Despite	-7018
▁analyses	-7019
▁reductions	-7020
under	-7021
▁ath	-7022
▁Mad	-7023
ponent	-7024
▁Species	-7025
▁rapidly	-7026
▁resistance	-7027
▁Peter	-7028
▁remote	-7029
RU	-7030
▁easily	-7031
▁obstac	-7032
▁construct	-7033
▁Electronic	-7034
MENTS	-7035
▁Even	-7036
▁inquiry	-7037
▁trading	-7038
TON	-7039
▁Defin	-7040
▁€	-7041
cyc	-7042
▁hyp	-7043
▁wet	-7044
▁oral	-7045
atories	-7046
▁advised	-7047
▁Gra	-7048
▁celeb	-7049
▁Summit	-7050
▁rating	-7051
▁2004-200	-7052
▁vulnerable	-7053
▁spirit	-7054
▁(198	-7055
▁Auditor	-7056
▁pointed	-7057
▁incident	-7058
▁budgetary	-7059
raine	-7060
▁command	-7061
iplom	-7062
▁Call	-7063
▁Gall	-7064
▁Notices	-7065
▁24,	-7066
▁reforms	-7067
▁expanded	-7068
ita	-7069
▁Mo	-7070
▁Centres	-7071
▁communicate	-7072
▁Prep	-7073
▁Gazette	-7074
▁Ombudsman	-7075
▁protecting	-7076
TIONS	-7077
▁nutrition	-7078
▁nearly	-7079
▁posted	-7080
▁instead	-7081
criptions	-7082
▁minorities	-7083
▁Initiatives	-7084
orough	-7085
minister	-7086
▁enhancing	-7087
ston	-7088
▁letters	-7089
▁permits	-7090
▁underlying	-7091
▁Several	-7092
ICS	-7093
▁Declaration	-7094
ague	-7095
▁Claim	-7096
UT	-7097
ste	-7098
ington	-7099
▁Categ	-7100
▁despite	-7101
▁premium	-7102
▁significance	-7103
▁fishery	-7104
ola	-7105
▁intermedi	-7106
▁scientists	-7107
▁REP	-7108
▁distingu	-7109
▁dry	-7110
▁chosen	-7111
▁conven	-7112
▁potentially	-7113
/05	-7114
abetes	-7115
▁latest	-7116
▁intelligence	-7117
▁26,	-7118
field	-7119
ierre	-7120
▁diss	-7121
▁sedi	-7122
▁Electoral	-7123
▁Rece	-7124
▁expense	-7125
▁engineering	-7126
▁interim	-7127
▁fine	-7128
▁regulated	-7129
Food	-7130
▁provider	-7131
▁fib	-7132
▁recre	-7133
▁white	-7134
rupt	-7135
▁holder	-7136
zed	-7137
▁Ireland	-7138
▁functional	-7139
loss	-7140
▁ready	-7141
▁customer	-7142
▁saw	-7143
▁rational	-7144
▁supervision	-7145
▁geographical	-7146
ij	-7147
cons	-7148
▁Victoria	-7149
▁compounds	-7150
▁frequently	-7151
ds	-7152
imal	-7153
▁Georg	-7154
▁evaluated	-7155
▁foundation	-7156
icing	-7157
aci	-7158
▁Substances	-7159
BC	-7160
▁calendar	-7161
▁director	-7162
▁enterprise	-7163
▁contrary	-7164
▁dedicated	-7165
▁2.3	-7166
estic	-7167
▁defic	-7168
▁2)	-7169
▁contrast	-7170
▁pi	-7171
▁Round	-7172
▁divers	-7173
ssue	-7174
endly	-7175
▁Right	-7176
▁error	-7177
inations	-7178
▁Institutions	-7179
▁nom	-7180
lights	-7181
▁entities	-7182
▁addresses	-7183
▁securities	-7184
▁understood	-7185
site	-7186
▁indicating	-7187
▁owned	-7188
▁reading	-7189
▁authorization	-7190
▁Whe	-7191
ultures	-7192
erential	-7193
▁returned	-7194
pol	-7195
▁substantially	-7196
▁economies	-7197
00,000	-7198
▁limitations	-7199
▁relate	-7200
▁currency	-7201
▁Those	-7202
▁mine	-7203
▁aggreg	-7204
▁behind	-7205
inguistic	-7206
▁relevance	-7207
aling	-7208
log	-7209
▁heavy	-7210
▁subsequently	-7211
▁pict	-7212
3]	-7213
▁Bre	-7214
▁enl	-7215
▁birds	-7216
▁Mé	-7217
.200	-7218
(2	-7219
urch	-7220
▁Sea	-7221
net	-7222
lav	-7223
▁External	-7224
▁definitions	-7225
rich	-7226
oured	-7227
▁operator	-7228
▁socio	-7229
▁salmon	-7230
▁council	-7231
▁keeping	-7232
▁dram	-7233
▁COMP	-7234
fish	-7235
▁2006-200	-7236
▁Citizens	-7237
▁Participants	-7238
▁specialized	-7239
▁ecological	-7240
itzer	-7241
▁video	-7242
▁spouse	-7243
▁Lawrence	-7244
vironments	-7245
hesis	-7246
▁pleased	-7247
▁electron	-7248
▁Ham	-7249
▁Provision	-7250
▁LA	-7251
atform	-7252
▁chair	-7253
▁dealt	-7254
▁district	-7255
.).	-7256
book	-7257
▁nations	-7258
▁branch	-7259
▁overview	-7260
▁Conditions	-7261
▁flexible	-7262
▁reliable	-7263
▁Issue	-7264
▁Belgium	-7265
▁arts	-7266
▁profit	-7267
▁EL	-7268
▁crew	-7269
tip	-7270
▁Lis	-7271
▁refus	-7272
▁shift	-7273
▁Material	-7274
▁Subsection	-7275
▁mom	-7276
efore	-7277
▁ones	-7278
▁gather	-7279
lication	-7280
▁Consultation	-7281
))	-7282
▁slightly	-7283
eu	-7284
▁Dev	-7285
▁gap	-7286
▁secret	-7287
-99	-7288
umin	-7289
▁advisory	-7290
▁respecting	-7291
band	-7292
▁tot	-7293
▁Hung	-7294
▁Occupational	-7295
▁dumping	-7296
▁achievement	-7297
DR	-7298
ship	-7299
▁mm	-7300
TIVE	-7301
▁Ori	-7302
burse	-7303
▁offenders	-7304
sec	-7305
igare	-7306
▁Rest	-7307
▁trained	-7308
▁weap	-7309
▁residential	-7310
▁exempt	-7311
▁LE	-7312
▁Every	-7313
habilitation	-7314
border	-7315
▁attempt	-7316
▁encouraging	-7317
▁accum	-7318
▁legitim	-7319
▁Applications	-7320
▁CM	-7321
▁5.1	-7322
▁leader	-7323
▁Regions	-7324
▁greatest	-7325
▁processed	-7326
▁Competition	-7327
▁pul	-7328
▁NGOs	-7329
▁mount	-7330
▁cm	-7331
▁excellent	-7332
92	-7333
tier	-7334
▁references	-7335
▁FA	-7336
oday	-7337
▁transparent	-7338
▁Gr	-7339
▁coll	-7340
▁answers	-7341
▁Consequently	-7342
celer	-7343
▁audits	-7344
▁dollar	-7345
kg	-7346
▁chronic	-7347
▁reasonably	-7348
:30	-7349
▁97	-7350
▁crucial	-7351
▁informal	-7352
▁believes	-7353
▁subjects	-7354
▁Political	-7355
lder	-7356
▁seem	-7357
leted	-7358
▁1989	-7359
▁comparable	-7360
EST	-7361
bal	-7362
▁passed	-7363
▁Purpose	-7364
cue	-7365
▁amending	-7366
sim	-7367
▁3.3	-7368
class	-7369
▁arbit	-7370
▁meth	-7371
▁accompanied	-7372
▁credits	-7373
▁operated	-7374
▁Procedure	-7375
▁Rural	-7376
▁assignment	-7377
andon	-7378
▁Fish	-7379
▁carriers	-7380
▁pip	-7381
-2000	-7382
▁Ministerial	-7383
▁©	-7384
▁Ent	-7385
▁snow	-7386
inions	-7387
▁Korea	-7388
ISS	-7389
▁SE	-7390
▁went	-7391
▁Pharm	-7392
ibr	-7393
▁parameters	-7394
05	-7395
▁hope	-7396
-25	-7397
undred	-7398
▁licences	-7399
▁veter	-7400
ctional	-7401
▁07	-7402
lore	-7403
▁pursue	-7404
▁recipients	-7405
▁EP	-7406
▁mole	-7407
/06	-7408
▁multilateral	-7409
iner	-7410
▁topics	-7411
itzerland	-7412
▁organised	-7413
▁reim	-7414
nia	-7415
▁1.4	-7416
rance	-7417
▁hour	-7418
▁Overall	-7419
▁messages	-7420
ero	-7421
▁4.2	-7422
▁Links	-7423
▁Town	-7424
▁symb	-7425
▁thank	-7426
▁affairs	-7427
▁relates	-7428
▁generate	-7429
▁eastern	-7430
▁54	-7431
▁KB	-7432
▁ASS	-7433
▁Find	-7434
▁extremely	-7435
▁Broadcasting	-7436
As	-7437
ANS	-7438
-2003	-7439
olved	-7440
gments	-7441
INE	-7442
▁chrom	-7443
▁Rapporteur	-7444
▁functioning	-7445
▁64	-7446
▁0.1	-7447
▁facing	-7448
▁Challen	-7449
edia	-7450
▁politi	-7451
▁producing	-7452
▁trials	-7453
▁classes	-7454
ewardship	-7455
▁Progress	-7456
▁Construction	-7457
-14	-7458
▁AF	-7459
▁OP	-7460
▁habit	-7461
▁zone	-7462
▁Finland	-7463
▁compris	-7464
▁greenhouse	-7465
gov	-7466
ective	-7467
▁Model	-7468
▁CRA	-7469
▁tail	-7470
▁footnote	-7471
▁offering	-7472
▁introduce	-7473
▁Recommendations	-7474
This	-7475
▁Pal	-7476
eeping	-7477
▁contacts	-7478
cher	-7479
▁History	-7480
▁opposition	-7481
▁compr	-7482
▁coordinated	-7483
▁MA	-7484
cepts	-7485
▁Future	-7486
▁Ur	-7487
eds	-7488
▁29,	-7489
▁bill	-7490
▁James	-7491
▁bringing	-7492
arding	-7493
▁Elections	-7494
▁resolve	-7495
▁Sett	-7496
▁Wind	-7497
▁protein	-7498
▁artists	-7499
▁distinct	-7500
ye	-7501
titudes	-7502
▁complement	-7503
ectious	-7504
IE	-7505
▁mal	-7506
▁told	-7507
▁Third	-7508
▁Supreme	-7509
▁label	-7510
▁moved	-7511
▁Down	-7512
▁marri	-7513
/01	-7514
abinet	-7515
▁William	-7516
▁transform	-7517
/10	-7518
▁Up	-7519
ewhat	-7520
▁rare	-7521
▁really	-7522
▁believed	-7523
▁au	-7524
▁egg	-7525
▁voc	-7526
▁Costs	-7527
▁DG	-7528
▁Publ	-7529
▁−	-7530
▁84	-7531
▁150	-7532
▁Mer	-7533
▁Christ	-7534
EPA	-7535
erred	-7536
illage	-7537
▁1998.	-7538
▁physicians	-7539
▁constra	-7540
zen	-7541
▁Decisions	-7542
itizen	-7543
▁column	-7544
▁standing	-7545
▁west	-7546
▁Distribution	-7547
▁fle	-7548
▁aspect	-7549
uxem	-7550
▁nitro	-7551
UE	-7552
▁Pot	-7553
▁played	-7554
▁preval	-7555
ciplinary	-7556
▁Engineering	-7557
▁exploration	-7558
irie	-7559
▁pour	-7560
uracy	-7561
▁Employer	-7562
▁licensing	-7563
roph	-7564
▁10%	-7565
▁pan	-7566
-13	-7567
▁shel	-7568
aneous	-7569
▁Need	-7570
▁gaps	-7571
▁Provide	-7572
▁divided	-7573
▁subsidi	-7574
▁incidence	-7575
▁63	-7576
▁substit	-7577
umulative	-7578
▁Measurement	-7579
-16	-7580
▁err	-7581
▁Using	-7582
▁Integrated	-7583
IH	-7584
▁lowest	-7585
▁Romania	-7586
▁ministers	-7587
▁Hospital	-7588
▁Representative	-7589
▁ACT	-7590
▁sch	-7591
▁bacter	-7592
▁dos	-7593
roleum	-7594
▁dates	-7595
▁Enforcement	-7596
ROM	-7597
▁MAR	-7598
rator	-7599
itionally	-7600
▁incentives	-7601
▁61	-7602
▁passengers	-7603
▁$0	-7604
▁sil	-7605
▁obvious	-7606
▁sampling	-7607
▁certified	-7608
▁Inspection	-7609
▁$7	-7610
▁wild	-7611
▁Grand	-7612
▁Power	-7613
▁religious	-7614
oked	-7615
▁popular	-7616
▁Accounts	-7617
▁MP	-7618
▁coal	-7619
▁illegal	-7620
▁Grow	-7621
eff	-7622
▁(5)	-7623
▁MAN	-7624
▁Renew	-7625
aud	-7626
▁discretion	-7627
ya	-7628
vals	-7629
▁route	-7630
▁Compensation	-7631
▁CANADIAN	-7632
▁explicit	-7633
-17	-7634
▁SA	-7635
▁Lou	-7636
▁Constitution	-7637
▁$8	-7638
tian	-7639
▁Photo	-7640
▁voting	-7641
ester	-7642
▁adjustments	-7643
▁cul	-7644
▁Band	-7645
▁gross	-7646
Ter	-7647
▁COR	-7648
▁WHERE	-7649
▁commod	-7650
▁Medicine	-7651
▁Priority	-7652
▁hundred	-7653
▁86	-7654
▁wid	-7655
▁binding	-7656
▁returning	-7657
▁TB	-7658
ka	-7659
▁SO	-7660
▁Disease	-7661
▁uniform	-7662
▁Ow	-7663
▁dé	-7664
atric	-7665
▁AIDS	-7666
▁Corre	-7667
▁deputy	-7668
▁Memorandum	-7669
▁Exchange	-7670
▁calculation	-7671
▁Inv	-7672
elled	-7673
▁Wash	-7674
▁NAFTA	-7675
▁Ethics	-7676
▁Less	-7677
▁Benefit	-7678
▁warrant	-7679
▁everyone	-7680
▁discrimin	-7681
▁solely	-7682
▁Promotion	-7683
▁recording	-7684
▁fourth	-7685
▁Mill	-7686
▁journal	-7687
▁ban	-7688
▁Employees	-7689
%).	-7690
▁DNA	-7691
▁1987	-7692
▁Vari	-7693
ercury	-7694
▁remove	-7695
▁survival	-7696
▁thousands	-7697
zing	-7698
▁EPP	-7699
▁proof	-7700
%),	-7701
roy	-7702
▁400	-7703
▁opened	-7704
uxembourg	-7705
atre	-7706
▁REC	-7707
▁bear	-7708
▁authors	-7709
TIES	-7710
-28	-7711
▁Allow	-7712
▁Hand	-7713
▁independence	-7714
▁Democra	-7715
▁Areas	-7716
▁Ukraine	-7717
▁aquatic	-7718
▁interaction	-7719
▁Tri	-7720
chmark	-7721
national	-7722
▁Directors	-7723
▁awards	-7724
▁launch	-7725
▁George	-7726
▁Michael	-7727
▁CONS	-7728
table	-7729
▁alter	-7730
▁cancell	-7731
secondary	-7732
▁civilian	-7733
▁SR	-7734
ador	-7735
▁designation	-7736
.90	-7737
rog	-7738
ino	-7739
▁wast	-7740
▁Grant	-7741
ég	-7742
-31	-7743
▁reality	-7744
yle	-7745
iled	-7746
▁Ber	-7747
▁Before	-7748
▁double	-7749
▁Computer	-7750
▁appointments	-7751
▁Organizations	-7752
atter	-7753
▁Text	-7754
col	-7755
▁won	-7756
rafts	-7757
▁cited	-7758
▁dissemination	-7759
board	-7760
▁recognizes	-7761
▁[2]	-7762
].	-7763
BER	-7764
gage	-7765
▁acceptance	-7766
▁finds	-7767
▁Question	-7768
▁Aqu	-7769
idity	-7770
▁Avail	-7771
▁Creek	-7772
▁worker	-7773
▁questionnaire	-7774
▁Low	-7775
▁motion	-7776
▁Expenses	-7777
▁declined	-7778
▁annex	-7779
▁Poland	-7780
▁attain	-7781
▁spectrum	-7782
▁chemicals	-7783
▁horizontal	-7784
▁Never	-7785
▁offences	-7786
▁Discussion	-7787
▁conferences	-7788
19)	-7789
▁proposes	-7790
▁prohibited	-7791
▁obs	-7792
umes	-7793
▁Today	-7794
▁sympt	-7795
▁engagement	-7796
▁chann	-7797
▁Agenda	-7798
▁URL	-7799
▁Effec	-7800
▁manual	-7801
▁ethical	-7802
▁tell	-7803
▁1995,	-7804
▁adapted	-7805
▁enabling	-7806
▁administer	-7807
09	-7808
▁trees	-7809
▁satellite	-7810
▁fat	-7811
▁cultures	-7812
▁Professor	-7813
▁indigenous	-7814
car	-7815
▁Continu	-7816
▁linguistic	-7817
olute	-7818
▁assurance	-7819
▁Commitments	-7820
▁Offices	-7821
unch	-7822
▁Habitat	-7823
▁Target	-7824
▁consulted	-7825
▁Ec	-7826
▁Bern	-7827
▁tradem	-7828
▁Modern	-7829
shore	-7830
▁warm	-7831
▁Countries	-7832
▁IR	-7833
▁Age	-7834
▁tub	-7835
▁Real	-7836
▁navig	-7837
▁Wing	-7838
▁describes	-7839
▁difficulty	-7840
ticultural	-7841
ova	-7842
▁fast	-7843
▁Agricultural	-7844
▁ethics	-7845
▁precise	-7846
▁Licensee	-7847
▁argument	-7848
▁exporters	-7849
▁conformity	-7850
▁Contribution	-7851
arms	-7852
▁Fire	-7853
utical	-7854
▁physician	-7855
atible	-7856
▁prison	-7857
▁Gallery	-7858
.11	-7859
such	-7860
/2006	-7861
▁lease	-7862
▁Aviation	-7863
casts	-7864
▁Identif	-7865
lets	-7866
▁Website	-7867
▁RO	-7868
▁influenza	-7869
HQ	-7870
▁94	-7871
▁appeared	-7872
▁Consid	-7873
▁ou	-7874
point	-7875
▁rac	-7876
▁contra	-7877
▁neither	-7878
▁supplier	-7879
▁Request	-7880
▁reviewing	-7881
unicipality	-7882
uls	-7883
empl	-7884
food	-7885
▁Streng	-7886
▁adding	-7887
▁epidem	-7888
▁opinions	-7889
ÁÁ	-7890
▁cas	-7891
advant	-7892
▁perhaps	-7893
58	-7894
arie	-7895
erate	-7896
euro	-7897
▁Well	-7898
▁medicine	-7899
▁contributes	-7900
▁releases	-7901
▁Pan	-7902
▁arise	-7903
▁RR	-7904
▁Awards	-7905
▁76	-7906
▁asset	-7907
berg	-7908
▁notify	-7909
▁Tobacco	-7910
▁BO	-7911
▁moment	-7912
athe	-7913
ygen	-7914
▁1.0	-7915
▁tables	-7916
▁Luxembourg	-7917
-2004	-7918
itude	-7919
▁1970	-7920
▁evolution	-7921
ara	-7922
▁77	-7923
▁(10	-7924
▁forth	-7925
factory	-7926
▁Avenue	-7927
▁Questions	-7928
▁obtaining	-7929
▁ep	-7930
rier	-7931
▁depends	-7932
▁Legislation	-7933
▁conjunction	-7934
IAL	-7935
European	-7936
▁participant	-7937
hc	-7938
wa	-7939
▁depart	-7940
▁object	-7941
▁Enterpr	-7942
▁liberal	-7943
▁neighbour	-7944
}\	-7945
SEW	-7946
▁kg	-7947
ERAL	-7948
effective	-7949
▁Mil	-7950
▁prejud	-7951
sibility	-7952
▁WHEREAS	-7953
▁7.	-7954
▁Ken	-7955
▁decade	-7956
▁Austria	-7957
▁seniors	-7958
▁occasion	-7959
▁Sites	-7960
PD	-7961
ERN	-7962
rup	-7963
▁fulfil	-7964
▁owners	-7965
▁excellence	-7966
▁drop	-7967
▁Cro	-7968
▁QC	-7969
▁Trad	-7970
ecting	-7971
▁newsp	-7972
ifts	-7973
▁Credit	-7974
▁Format	-7975
▁granting	-7976
▁receives	-7977
UST	-7978
▁dup	-7979
▁clust	-7980
▁APPLIC	-7981
▁showing	-7982
▁62	-7983
▁Appropri	-7984
▁specifications	-7985
▁120	-7986
ficial	-7987
▁license	-7988
vak	-7989
▁flood	-7990
▁Dou	-7991
▁connected	-7992
▁TV	-7993
▁Comb	-7994
▁Open	-7995
▁abund	-7996
▁regardless	-7997
disciplinary	-7998
ike	-7999
▁ADM	-8000
anish	-8001
olars	-8002
▁figure	-8003
aceutical	-8004
▁Workshop	-8005
▁stronger	-8006
▁accounted	-8007
▁Poll	-8008
▁elev	-8009
▁reply	-8010
▁Releases	-8011
▁surrounding	-8012
▁Dri	-8013
adequ	-8014
ament	-8015
antive	-8016
▁fewer	-8017
▁colour	-8018
▁welfare	-8019
▁architect	-8020
▁Jo	-8021
▁clarify	-8022
▁Treatment	-8023
▁Institutes	-8024
▁try	-8025
month	-8026
rapeutic	-8027
▁perceived	-8028
▁Switzerland	-8029
aratus	-8030
▁	-8031
▁VI	-8032
bert	-8033
▁DEC	-8034
chlor	-8035
pectives	-8036
▁Tourism	-8037
▁vaccine	-8038
▁Français	-8039
ulum	-8040
▁McG	-8041
▁lessons	-8042
▁attended	-8043
▁Denmark	-8044
▁assumed	-8045
▁coastal	-8046
▁inflation	-8047
▁Vir	-8048
letes	-8049
▁composed	-8050
sa	-8051
▁Basic	-8052
▁curric	-8053
▁someone	-8054
INT	-8055
▁2.4	-8056
▁themes	-8057
/8	-8058
▁rig	-8059
angered	-8060
▁Excise	-8061
▁penalty	-8062
MI	-8063
▁Les	-8064
▁SERVICES	-8065
▁sulph	-8066
rolling	-8067
▁isolated	-8068
orb	-8069
scale	-8070
▁Carib	-8071
▁acquire	-8072
▁declared	-8073
▁revealed	-8074
▁stocks	-8075
odes	-8076
▁Squ	-8077
argaining	-8078
▁concepts	-8079
/11	-8080
▁Mic	-8081
break	-8082
▁mere	-8083
▁black	-8084
▁toler	-8085
▁Valley	-8086
▁getting	-8087
▁Mag	-8088
▁Municipal	-8089
amer	-8090
▁Multi	-8091
Con	-8092
▁worldwide	-8093
atur	-8094
▁faced	-8095
▁appeals	-8096
▁Fl	-8097
▁conclude	-8098
▁motiv	-8099
▁Employee	-8100
▁variation	-8101
▁prosper	-8102
57	-8103
▁SD	-8104
ELL	-8105
▁5.2	-8106
▁crossing	-8107
amm	-8108
▁Policies	-8109
▁recommends	-8110
▁suspension	-8111
▁2008.	-8112
elihood	-8113
▁Equity	-8114
▁Historic	-8115
teen	-8116
▁shape	-8117
▁incomp	-8118
▁Between	-8119
▁typically	-8120
4]	-8121
▁labelling	-8122
▁96	-8123
▁win	-8124
▁Lands	-8125
▁intent	-8126
▁repair	-8127
▁humanitarian	-8128
▁SOR	-8129
▁biom	-8130
▁floor	-8131
▁invention	-8132
▁evaluations	-8133
IO	-8134
▁heat	-8135
▁roll	-8136
▁Groups	-8137
▁compens	-8138
▁uncertainty	-8139
▁[5]	-8140
▁sum	-8141
▁condu	-8142
▁practitioners	-8143
8.	-8144
versight	-8145
▁Persons	-8146
▁jointly	-8147
▁accuracy	-8148
▁discharge	-8149
▁73	-8150
▁stop	-8151
▁block	-8152
▁deduct	-8153
III	-8154
▁INAC	-8155
▁geographic	-8156
TAWA	-8157
▁Middle	-8158
▁supplied	-8159
▁hospitals	-8160
FF	-8161
GR	-8162
▁WD	-8163
fund	-8164
allel	-8165
▁Gulf	-8166
▁cigare	-8167
▁Counsel	-8168
▁choices	-8169
▁Commerce	-8170
.20	-8171
▁BE	-8172
zech	-8173
aired	-8174
▁depth	-8175
▁consulting	-8176
Article	-8177
▁ensures	-8178
▁disadvant	-8179
rais	-8180
▁EXP	-8181
arbon	-8182
▁river	-8183
▁phosph	-8184
▁somewhat	-8185
▁ecosystems	-8186
▁OT	-8187
▁Ang	-8188
▁integral	-8189
ACT	-8190
▁Ice	-8191
▁Geneva	-8192
iaison	-8193
▁wishes	-8194
▁schemes	-8195
▁channels	-8196
▁integrate	-8197
tention	-8198
▁investors	-8199
ding	-8200
▁dynamic	-8201
▁Similarly	-8202
NS	-8203
▁SH	-8204
▁measuring	-8205
▁renewable	-8206
http	-8207
bean	-8208
▁Events	-8209
▁equally	-8210
▁contents	-8211
▁Technologies	-8212
▁confidential	-8213
iterran	-8214
▁Greece	-8215
▁Reform	-8216
▁east	-8217
▁Hydro	-8218
quiries	-8219
▁Center	-8220
▁Changes	-8221
▁Private	-8222
▁ships	-8223
▁competence	-8224
▁Oil	-8225
▁Funds	-8226
▁Nutri	-8227
▁Laboratory	-8228
uccess	-8229
▁accident	-8230
▁Full	-8231
▁focuses	-8232
▁Bulletin	-8233
▁breeding	-8234
Ad	-8235
▁museum	-8236
▁Portugal	-8237
▁municipalities	-8238
heric	-8239
▁View	-8240
▁prop	-8241
cultural	-8242
▁notified	-8243
▁appropriations	-8244
ulty	-8245
▁Lisbon	-8246
▁variables	-8247
ITED	-8248
▁Sol	-8249
utable	-8250
▁investigate	-8251
▁contaminated	-8252
▁±	-8253
▁brok	-8254
▁databases	-8255
----------------	-8256
ows	-8257
▁HO	-8258
agues	-8259
▁ahead	-8260
▁Deb	-8261
▁remin	-8262
▁story	-8263
▁upper	-8264
▁Without	-8265
bial	-8266
▁Letter	-8267
▁signature	-8268
▁environments	-8269
▁preventing	-8270
Al	-8271
▁Isra	-8272
▁exemp	-8273
▁Category	-8274
▁CW	-8275
▁diam	-8276
▁acceler	-8277
▁vit	-8278
▁INFORM	-8279
▁millions	-8280
▁Dig	-8281
achment	-8282
▁Certific	-8283
MB	-8284
▁«	-8285
apping	-8286
▁Sloven	-8287
▁GR	-8288
▁Sus	-8289
▁1997.	-8290
iversary	-8291
SB	-8292
▁rout	-8293
-27	-8294
Res	-8295
▁borrow	-8296
▁Washington	-8297
▁constitutes	-8298
trans	-8299
▁performing	-8300
▁1-800	-8301
COA	-8302
▁dil	-8303
ogenic	-8304
▁Recogn	-8305
CL	-8306
▁lakes	-8307
▁Indeed	-8308
▁bridge	-8309
▁soldiers	-8310
provincial	-8311
▁Francophone	-8312
.),	-8313
▁1.5	-8314
pring	-8315
▁talk	-8316
▁Manual	-8317
▁preceding	-8318
▁strict	-8319
▁MT	-8320
▁20%	-8321
▁San	-8322
PH	-8323
▁stip	-8324
50,000	-8325
▁maxim	-8326
iological	-8327
▁HE	-8328
amine	-8329
ranches	-8330
▁accordingly	-8331
▁manufactured	-8332
▁Bio	-8333
▁Chris	-8334
▁Certain	-8335
▁Arab	-8336
▁cold	-8337
▁servants	-8338
iterranean	-8339
tible	-8340
entical	-8341
▁Personnel	-8342
▁Mond	-8343
estival	-8344
▁delivering	-8345
▁directions	-8346
▁Place	-8347
▁papers	-8348
▁females	-8349
▁Neg	-8350
▁citizenship	-8351
61	-8352
pati	-8353
iodiversity	-8354
▁documented	-8355
▁Rob	-8356
▁weapons	-8357
▁Officers	-8358
01-00	-8359
▁Elig	-8360
▁detection	-8361
▁accountable	-8362
0\	-8363
▁Waste	-8364
▁flows	-8365
▁Practices	-8366
▁completely	-8367
▁rot	-8368
▁sun	-8369
▁airport	-8370
▁Prepared	-8371
▁Operational	-8372
▁69	-8373
▁81	-8374
▁exact	-8375
uctions	-8376
▁mobile	-8377
titutional	-8378
▁Gl	-8379
▁amp	-8380
▁Examples	-8381
▁regarded	-8382
▁consistency	-8383
▁EA	-8384
▁mac	-8385
▁Norway	-8386
▁height	-8387
▁qualify	-8388
sm	-8389
aire	-8390
▁Vehic	-8391
▁deposited	-8392
▁Surveillance	-8393
▁4.3	-8394
▁TEL	-8395
▁Mand	-8396
▁72	-8397
lossary	-8398
raq	-8399
▁2-	-8400
▁hop	-8401
ENCE	-8402
▁gold	-8403
▁ment	-8404
emic	-8405
▁Ban	-8406
▁fit	-8407
▁Recip	-8408
59	-8409
NO	-8410
▁Bos	-8411
▁INFORMATION	-8412
WL	-8413
TAL	-8414
garia	-8415
which	-8416
▁intern	-8417
▁exclusion	-8418
▁virus	-8419
▁cohesion	-8420
▁pet	-8421
/2005	-8422
▁wage	-8423
▁theme	-8424
▁accred	-8425
▁notably	-8426
-24	-8427
▁Self	-8428
▁peer	-8429
word	-8430
▁Job	-8431
non	-8432
▁WHO	-8433
pector	-8434
▁Latin	-8435
building	-8436
▁specify	-8437
▁headquarters	-8438
rey	-8439
▁purchased	-8440
AFC	-8441
UND	-8442
▁belief	-8443
▁orientation	-8444
oints	-8445
isting	-8446
▁Terms	-8447
▁colon	-8448
▁identical	-8449
Ag	-8450
cf	-8451
COM	-8452
iesel	-8453
▁email	-8454
ndering	-8455
▁fertil	-8456
▁nothing	-8457
▁Mountain	-8458
▁terrorist	-8459
▁Objectives	-8460
rack	-8461
azine	-8462
▁newly	-8463
▁friends	-8464
▁publicly	-8465
▁likelihood	-8466
▁dro	-8467
▁1985,	-8468
▁Master	-8469
▁formula	-8470
▁installation	-8471
aux	-8472
irm	-8473
tra	-8474
▁Early	-8475
▁Compan	-8476
▁adjusted	-8477
identiality	-8478
anol	-8479
▁ren	-8480
▁tit	-8481
arians	-8482
▁pertaining	-8483
/2007	-8484
▁auton	-8485
▁Observ	-8486
▁Organisation	-8487
ascular	-8488
do	-8489
▁(20	-8490
▁Métis	-8491
▁consisting	-8492
▁essentially	-8493
risk	-8494
▁shore	-8495
▁strengthened	-8496
▁biotechnology	-8497
iture	-8498
▁Czech	-8499
▁holders	-8500
▁sciences	-8501
▁accomplish	-8502
ruce	-8503
oxide	-8504
▁dangerous	-8505
▁Amend	-8506
▁fill	-8507
▁possess	-8508
▁Proposed	-8509
.30	-8510
▁Alliance	-8511
cers	-8512
▁Wil	-8513
cle	-8514
▁versus	-8515
ida	-8516
▁Kos	-8517
▁DEP	-8518
▁YES	-8519
▁rich	-8520
▁1994,	-8521
▁attack	-8522
▁Exhibit	-8523
▁platform	-8524
▁Harbour	-8525
▁conflicts	-8526
FB	-8527
▁meat	-8528
bility	-8529
▁rejected	-8530
199	-8531
oline	-8532
▁fruit	-8533
▁nitrogen	-8534
ias	-8535
pret	-8536
▁Success	-8537
▁commonly	-8538
▁therapy	-8539
▁conventional	-8540
iliar	-8541
▁français	-8542
▁machinery	-8543
▁exceptions	-8544
▁narrow	-8545
▁hearings	-8546
▁benchmark	-8547
▁trafficking	-8548
▁3)	-8549
▁Hall	-8550
▁Iraq	-8551
▁recyc	-8552
piratory	-8553
▁ending	-8554
▁pollut	-8555
▁Highway	-8556
▁counsell	-8557
62	-8558
▁Fees	-8559
ennium	-8560
▁smoke	-8561
▁Cancer	-8562
▁proceeding	-8563
-23	-8564
___	-8565
public	-8566
▁grade	-8567
▁wider	-8568
▁volunteers	-8569
▁substantive	-8570
rian	-8571
▁Clear	-8572
▁Border	-8573
▁OTTAWA	-8574
▁OL	-8575
▁Emb	-8576
▁Marketing	-8577
▁originating	-8578
▁PH	-8579
▁joined	-8580
▁balanced	-8581
mar	-8582
comed	-8583
produ	-8584
él	-8585
▁Governance	-8586
▁identifies	-8587
▁Departments	-8588
ULT	-8589
▁1985	-8590
▁Floor	-8591
▁Percent	-8592
▁decades	-8593
▁Practice	-8594
▁Increased	-8595
▁Haz	-8596
▁pref	-8597
▁Spanish	-8598
▁ACOA	-8599
▁Having	-8600
▁justified	-8601
▁verification	-8602
▁leads	-8603
▁entering	-8604
▁alternatives	-8605
▁absolute	-8606
▁Understanding	-8607
rat	-8608
▁Nevertheless	-8609
ruction	-8610
▁disputes	-8611
▁injuries	-8612
▁bargaining	-8613
▁colleagues	-8614
▁interpreted	-8615
bro	-8616
▁Gender	-8617
▁Chamber	-8618
▁enlarge	-8619
▁2.5	-8620
▁clin	-8621
default	-8622
▁inside	-8623
2-	-8624
elle	-8625
orney	-8626
▁lawy	-8627
▁instances	-8628
▁disposition	-8629
omas	-8630
GC	-8631
oxy	-8632
urt	-8633
▁ther	-8634
▁Average	-8635
▁refusal	-8636
/04	-8637
▁Smith	-8638
▁players	-8639
▁retention	-8640
hal	-8641
gies	-8642
aught	-8643
▁graph	-8644
▁inadequ	-8645
cor	-8646
▁Maj	-8647
▁suc	-8648
▁stressed	-8649
08	-8650
rar	-8651
▁CAR	-8652
▁dism	-8653
▁rely	-8654
▁monitored	-8655
▁CFIA	-8656
artmental	-8657
▁doubt	-8658
▁exploitation	-8659
/12	-8660
idae	-8661
▁fix	-8662
▁wire	-8663
▁indicator	-8664
▁nationals	-8665
▁presentations	-8666
▁USA	-8667
isons	-8668
▁destination	-8669
aut	-8670
rin	-8671
▁Chart	-8672
itivity	-8673
▁exported	-8674
4-	-8675
IES	-8676
▁Peace	-8677
▁novel	-8678
▁Pen	-8679
istry	-8680
itative	-8681
▁pestic	-8682
▁transit	-8683
ructuring	-8684
▁advances	-8685
▁Start	-8686
▁fraud	-8687
▁Screen	-8688
▁machines	-8689
▁liabilities	-8690
rig	-8691
▁chief	-8692
▁selling	-8693
andom	-8694
▁Italian	-8695
▁Volume	-8696
▁visual	-8697
▁abandon	-8698
▁beneficiary	-8699
▁IMP	-8700
iable	-8701
▁responding	-8702
▁Circ	-8703
▁named	-8704
pections	-8705
▁**	-8706
▁pun	-8707
▁Item	-8708
▁rend	-8709
▁crops	-8710
▁meant	-8711
▁Settlement	-8712
▁deployment	-8713
▁Headquarters	-8714
▁ju	-8715
▁Pos	-8716
▁Slovak	-8717
▁boards	-8718
▁deaths	-8719
▁oxygen	-8720
▁Cabinet	-8721
▁routine	-8722
-21	-8723
▁Should	-8724
▁closer	-8725
▁chart	-8726
.12	-8727
▁ang	-8728
▁join	-8729
▁Forms	-8730
▁bottom	-8731
olk	-8732
ABLE	-8733
ella	-8734
▁Corporations	-8735
THER	-8736
▁accru	-8737
▁easier	-8738
▁Capacity	-8739
▁eliminate	-8740
▁observation	-8741
▁Supplementary	-8742
SO	-8743
▁250	-8744
▁arg	-8745
▁bond	-8746
-29	-8747
New	-8748
▁Clo	-8749
▁leaving	-8750
▁interven	-8751
▁TK	-8752
etal	-8753
ivest	-8754
iciently	-8755
▁Citizenship	-8756
ios	-8757
▁HC	-8758
group	-8759
▁citizen	-8760
▁parallel	-8761
▁Procurement	-8762
▁exclusively	-8763
▁mig	-8764
▁suggestions	-8765
▁insufficient	-8766
▁diplom	-8767
▁Records	-8768
▁destroy	-8769
▁0.2	-8770
missions	-8771
▁corruption	-8772
▁ARTIC	-8773
▁Volun	-8774
▁Richard	-8775
▁Domestic	-8776
iny	-8777
makers	-8778
▁holds	-8779
▁disturb	-8780
▁Diseases	-8781
▁boundaries	-8782
▁consultants	-8783
▁Vote	-8784
▁ultimately	-8785
▁GEN	-8786
▁stem	-8787
▁welcomed	-8788
▁reactions	-8789
▁humans	-8790
▁makers	-8791
▁preserv	-8792
3-	-8793
oche	-8794
▁Chairperson	-8795
hr	-8796
orti	-8797
▁$20	-8798
ISSION	-8799
▁Martin	-8800
▁rebate	-8801
▁exchanges	-8802
▁consistently	-8803
spe	-8804
▁Prem	-8805
▁metab	-8806
▁unlike	-8807
▁PCB	-8808
▁milk	-8809
▁plays	-8810
▁habitats	-8811
olve	-8812
isual	-8813
rison	-8814
▁Rate	-8815
▁Session	-8816
▁portfolio	-8817
ovo	-8818
▁CCRA	-8819
▁vast	-8820
▁kinds	-8821
▁fax	-8822
▁Young	-8823
▁Ir	-8824
▁channel	-8825
▁Bulgaria	-8826
▁operates	-8827
/2008	-8828
▁native	-8829
▁Frequ	-8830
▁Georgia	-8831
▁accommodate	-8832
▁explanation	-8833
▁Six	-8834
▁running	-8835
▁Supervis	-8836
02	-8837
DUC	-8838
▁Lu	-8839
▁peak	-8840
▁NHP	-8841
orship	-8842
▁Peoples	-8843
▁renewed	-8844
▁symptoms	-8845
▁complexity	-8846
▁Aer	-8847
▁Trend	-8848
▁earned	-8849
▁cooperative	-8850
▁Max	-8851
▁gir	-8852
▁Asian	-8853
sub	-8854
asters	-8855
▁Coordinator	-8856
irty	-8857
rane	-8858
▁TOTAL	-8859
▁males	-8860
keeping	-8861
▁serves	-8862
iment	-8863
▁suit	-8864
▁homes	-8865
▁fairly	-8866
▁propose	-8867
▁raising	-8868
▁initially	-8869
ificant	-8870
ORK	-8871
▁71	-8872
▁Veterans	-8873
▁minimize	-8874
▁incidents	-8875
▁radiation	-8876
▁evaluating	-8877
▁Ky	-8878
▁stead	-8879
▁stabil	-8880
▁treaties	-8881
▁advantages	-8882
▁CSC	-8883
▁indeed	-8884
▁directors	-8885
▁entitlement	-8886
gun	-8887
enary	-8888
▁objects	-8889
▁deadline	-8890
acent	-8891
crimination	-8892
territorial	-8893
▁ca	-8894
uten	-8895
troll	-8896
▁Base	-8897
▁density	-8898
onald	-8899
▁reinfor	-8900
lank	-8901
▁ocean	-8902
▁seeks	-8903
▁greatly	-8904
▁systematic	-8905
▁Complainant	-8906
▁;	-8907
▁CTA	-8908
division	-8909
▁prevalence	-8910
▁acknowledged	-8911
▁experimental	-8912
TY	-8913
idrc	-8914
rect	-8915
ttes	-8916
suant	-8917
ealand	-8918
▁Guard	-8919
▁enact	-8920
▁night	-8921
▁Recovery	-8922
▁allegations	-8923
▁delegations	-8924
▁Coordination	-8925
▁temperatures	-8926
▁pra	-8927
▁wages	-8928
▁wanted	-8929
▁constru	-8930
▁repeated	-8931
-2008	-8932
▁attitudes	-8933
▁transmitted	-8934
▁OJ	-8935
▁merg	-8936
▁unre	-8937
▁Space	-8938
▁royal	-8939
▁ceremon	-8940
▁comprom	-8941
/02	-8942
▁errors	-8943
▁Clinical	-8944
▁beneficial	-8945
▁aquaculture	-8946
/199	-8947
▁cust	-8948
▁audience	-8949
▁deduction	-8950
▁achievements	-8951
▁83	-8952
▁armed	-8953
▁matern	-8954
▁Companies	-8955
Ab	-8956
omal	-8957
▁Immun	-8958
▁Plant	-8959
uneration	-8960
aper	-8961
count	-8962
obile	-8963
▁Does	-8964
▁ruling	-8965
▁tissue	-8966
KE	-8967
iche	-8968
seas	-8969
▁rock	-8970
▁licensed	-8971
▁preparations	-8972
AAAA	-8973
▁Gold	-8974
▁consequence	-8975
ewater	-8976
▁Adjust	-8977
▁capture	-8978
▁athletes	-8979
entification	-8980
hydro	-8981
ulsory	-8982
▁Pilot	-8983
▁Zealand	-8984
63	-8985
▁2008,	-8986
▁County	-8987
▁varied	-8988
▁quantitative	-8989
uate	-8990
▁yes	-8991
borne	-8992
ipped	-8993
▁EUROPE	-8994
▁Telecom	-8995
▁picture	-8996
▁79	-8997
▁Jac	-8998
SEWIC	-8999
▁Details	-9000
▁borders	-9001
▁driving	-9002
via	-9003
▁82	-9004
▁cr	-9005
▁pH	-9006
tial	-9007
▁metals	-9008
▁kilomet	-9009
▁termination	-9010
▁establishments	-9011
Table	-9012
▁Register	-9013
▁apparatus	-9014
TOP	-9015
anda	-9016
▁Healthy	-9017
▁deficit	-9018
▁excessive	-9019
▁adequately	-9020
itch	-9021
▁mixed	-9022
ki	-9023
▁COUN	-9024
▁wheat	-9025
▁universal	-9026
▁possession	-9027
▁800	-9028
▁Sing	-9029
ulates	-9030
▁twenty	-9031
KH	-9032
rators	-9033
▁dissemin	-9034
▁outbreak	-9035
▁protocol	-9036
▁retained	-9037
▁conversion	-9038
▁Participation	-9039
VEL	-9040
▁BY	-9041
▁UND	-9042
letter	-9043
▁Monday	-9044
▁degrad	-9045
FM	-9046
▁MO	-9047
body	-9048
▁Week	-9049
▁sediment	-9050
▁hazardous	-9051
▁Hungary	-9052
▁variable	-9053
▁allowances	-9054
di	-9055
▁Du	-9056
oir	-9057
print	-9058
▁arms	-9059
assment	-9060
utation	-9061
▁advise	-9062
▁welcome	-9063
▁possibly	-9064
▁Operation	-9065
▁Census	-9066
▁Leader	-9067
▁chance	-9068
▁generations	-9069
▁interactions	-9070
▁bag	-9071
▁Datab	-9072
▁hoc	-9073
▁Indians	-9074
▁diabetes	-9075
▁Skip	-9076
antities	-9077
</	-9078
▁budgets	-9079
▁directives	-9080
▁cooper	-9081
▁cards	-9082
▁Arrange	-9083
.);	-9084
grams	-9085
▁arguments	-9086
▁negotiation	-9087
▁constitutional	-9088
adron	-9089
▁constitu	-9090
assy	-9091
▁(90	-9092
▁defici	-9093
appropri	-9094
▁recover	-9095
▁bad	-9096
▁neut	-9097
▁warning	-9098
▁importer	-9099
▁accessibility	-9100
▁Card	-9101
▁1986	-9102
▁lake	-9103
iovisual	-9104
▁patents	-9105
▁outreach	-9106
▁pressures	-9107
▁Students	-9108
▁Alternative	-9109
ón	-9110
▁rats	-9111
▁Command	-9112
/03	-9113
▁2005-2006	-9114
/5	-9115
date	-9116
grade	-9117
emb	-9118
▁FI	-9119
gence	-9120
▁Norm	-9121
▁(9	-9122
▁volunteer	-9123
▁Institution	-9124
PM	-9125
▁1:	-9126
▁DES	-9127
▁zero	-9128
hyd	-9129
▁8.	-9130
ails	-9131
▁Appoint	-9132
▁guarantees	-9133
▁acute	-9134
▁phone	-9135
▁missing	-9136
▁interesting	-9137
▁é	-9138
▁actors	-9139
▁focusing	-9140
▁occurring	-9141
▁attributed	-9142
withstanding	-9143
▁(19	-9144
▁Sources	-9145
▁societies	-9146
ART	-9147
▁SI	-9148
▁Now	-9149
ading	-9150
▁readily	-9151
▁Committees	-9152
FR	-9153
▁Mental	-9154
▁Update	-9155
LY	-9156
ama	-9157
▁sew	-9158
▁enzy	-9159
▁recognised	-9160
▁rehabilitation	-9161
▁3.4	-9162
▁IPC	-9163
▁Who	-9164
▁CSIS	-9165
▁Growth	-9166
▁intends	-9167
President	-9168
▁alternate	-9169
▁certificates	-9170
indu	-9171
▁0.5	-9172
UBLIC	-9173
▁incorporate	-9174
▁spend	-9175
intendent	-9176
▁sequence	-9177
▁investigated	-9178
.1)	-9179
▁5%	-9180
▁PER	-9181
ventive	-9182
▁library	-9183
▁analytical	-9184
____________	-9185
BA	-9186
mod	-9187
▁Clean	-9188
▁Minor	-9189
▁Student	-9190
▁governed	-9191
▁carefully	-9192
▁APPLICATION	-9193
▁establishes	-9194
▁highlighted	-9195
xy	-9196
TML	-9197
okers	-9198
▁cars	-9199
▁mill	-9200
▁tabled	-9201
▁reaching	-9202
▁maintains	-9203
▁sustained	-9204
cin	-9205
▁NW	-9206
▁sugar	-9207
▁considerably	-9208
▁Identification	-9209
▁skilled	-9210
▁Bou	-9211
▁Announ	-9212
▁Motion	-9213
▁characterized	-9214
▁trip	-9215
▁grown	-9216
▁Skills	-9217
▁packaging	-9218
▁developmental	-9219
simile	-9220
▁skill	-9221
▁Prepar	-9222
▁supplementary	-9223
irable	-9224
▁obstacles	-9225
cribe	-9226
▁repay	-9227
▁incons	-9228
▁responded	-9229
▁Indicators	-9230
UD	-9231
▁Profile	-9232
▁Procedures	-9233
ago	-9234
liant	-9235
▁transformation	-9236
FC	-9237
-26	-9238
▁93	-9239
▁succeed	-9240
▁Congress	-9241
▁OH	-9242
▁110	-9243
netic	-9244
▁solic	-9245
▁printed	-9246
▁sufficiently	-9247
urrent	-9248
▁excluding	-9249
▁vocational	-9250
▁!	-9251
.02	-9252
▁MC	-9253
▁raw	-9254
oslav	-9255
armon	-9256
▁ozone	-9257
▁topic	-9258
▁twice	-9259
▁Fraser	-9260
▁viewed	-9261
▁ARTICLE	-9262
▁drawing	-9263
▁toxicity	-9264
▁quantities	-9265
▁Earth	-9266
▁Kosovo	-9267
accessible	-9268
Hz	-9269
sor	-9270
▁falls	-9271
▁assume	-9272
▁stakeholder	-9273
iology	-9274
▁bulk	-9275
▁capt	-9276
alling	-9277
▁pregnancy	-9278
Eng	-9279
▁wrong	-9280
▁Amount	-9281
▁Updated	-9282
▁speaking	-9283
▁bus	-9284
▁donor	-9285
▁earth	-9286
▁Glossary	-9287
▁detected	-9288
▁cumulative	-9289
▁infringement	-9290
sized	-9291
iances	-9292
angible	-9293
▁Mining	-9294
▁diagnosis	-9295
CES	-9296
flow	-9297
orient	-9298
ratory	-9299
▁Freed	-9300
▁trying	-9301
▁weekly	-9302
ibraries	-9303
▁parks	-9304
,000.00	-9305
▁Compar	-9306
▁opposed	-9307
▁2006-2007	-9308
▁atmosphere	-9309
▁households	-9310
▁Guidance	-9311
▁examining	-9312
she	-9313
▁2009	-9314
▁scal	-9315
riterion	-9316
▁Partnerships	-9317
It	-9318
▁100%	-9319
▁Islands	-9320
▁enables	-9321
▁preserve	-9322
▁REGUL	-9323
▁ended	-9324
TP	-9325
▁town	-9326
▁Crime	-9327
▁voice	-9328
idation	-9329
▁specialists	-9330
tre	-9331
asive	-9332
▁judges	-9333
▁Permanent	-9334
▁Argent	-9335
ivestock	-9336
▁°	-9337
ithu	-9338
iciency	-9339
▁09	-9340
▁Hill	-9341
letion	-9342
▁(819)	-9343
▁woman	-9344
▁Opinion	-9345
▁phenomen	-9346
▁Available	-9347
▁subsidies	-9348
sen	-9349
▁EI	-9350
▁Sud	-9351
after	-9352
▁sand	-9353
▁familiar	-9354
▁coordinate	-9355
▁mitigation	-9356
ishment	-9357
▁Station	-9358
-22	-9359
inder	-9360
▁privi	-9361
▁entirely	-9362
▁sentence	-9363
ona	-9364
▁Maritime	-9365
▁resolved	-9366
ORY	-9367
▁Ke	-9368
hand	-9369
▁MED	-9370
▁refused	-9371
▁facilitating	-9372
ams	-9373
▁listing	-9374
▁nursing	-9375
▁constraints	-9376
/2	-9377
▁LTD	-9378
▁fre	-9379
mentioned	-9380
▁Collabor	-9381
▁Check	-9382
holders	-9383
regular	-9384
▁victim	-9385
▁wealth	-9386
▁thorough	-9387
▁oversight	-9388
▁exceptional	-9389
87	-9390
’,	-9391
aur	-9392
▁(30	-9393
pread	-9394
lective	-9395
▁expiry	-9396
▁Conduct	-9397
▁calculate	-9398
▁Governments	-9399
▁measurements	-9400
▁react	-9401
▁landscape	-9402
▁penalties	-9403
▁requesting	-9404
▁Av	-9405
▁---	-9406
hetic	-9407
▁Outcome	-9408
▁validity	-9409
▁Preliminary	-9410
▁acknowledge	-9411
▁recreational	-9412
▁Client	-9413
▁Fiscal	-9414
▁designs	-9415
▁thing	-9416
▁Croati	-9417
▁cat	-9418
-2002	-9419
ugoslav	-9420
▁É	-9421
aby	-9422
▁store	-9423
▁farming	-9424
▁disabled	-9425
▁differenti	-9426
▁refere	-9427
▁evident	-9428
idespread	-9429
odium	-9430
▁Meet	-9431
▁Rock	-9432
▁Short	-9433
▁legitimate	-9434
bis	-9435
chen	-9436
▁commence	-9437
▁comparative	-9438
olar	-9439
departmental	-9440
▁indications	-9441
▁1992,	-9442
▁intra	-9443
▁Payment	-9444
▁seminars	-9445
aria	-9446
▁Sound	-9447
▁Nutrition	-9448
rine	-9449
▁CONT	-9450
▁differ	-9451
▁unions	-9452
▁refugees	-9453
▁cle	-9454
▁Jose	-9455
▁Click	-9456
▁promotes	-9457
▁suspended	-9458
▁reproduction	-9459
▁confidentiality	-9460
EAR	-9461
yan	-9462
▁drive	-9463
▁stored	-9464
▁mercury	-9465
▁preservation	-9466
▁74	-9467
plain	-9468
▁Contin	-9469
▁breast	-9470
mond	-9471
▁none	-9472
▁intake	-9473
etermination	-9474
MD	-9475
OUR	-9476
lict	-9477
well	-9478
quiry	-9479
stract	-9480
▁Consider	-9481
▁promoted	-9482
EB	-9483
UP	-9484
▁ANN	-9485
herent	-9486
▁Download	-9487
▁Sun	-9488
▁catch	-9489
▁Yugoslav	-9490
▁[3]	-9491
▁wing	-9492
▁Native	-9493
▁Winter	-9494
▁leaves	-9495
▁liable	-9496
SD	-9497
ITH	-9498
burg	-9499
chers	-9500
heast	-9501
Is	-9502
▁ap	-9503
uber	-9504
▁CAP	-9505
▁finally	-9506
▁Currently	-9507
▁Interpret	-9508
▁$13	-9509
▁goes	-9510
▁Housing	-9511
▁Collection	-9512
▁contamination	-9513
ASS	-9514
▁ign	-9515
imension	-9516
tte	-9517
▁unfair	-9518
▁banking	-9519
▁Pursuant	-9520
▁Roma	-9521
▁denied	-9522
▁wording	-9523
▁graduates	-9524
ECH	-9525
utch	-9526
▁productive	-9527
▁Sem	-9528
▁Primary	-9529
▁Dest	-9530
▁creative	-9531
▁forests	-9532
▁preferred	-9533
▁Orders	-9534
▁mention	-9535
▁5.3	-9536
▁Nurs	-9537
▁blue	-9538
▁Criteria	-9539
▁impossible	-9540
▁defend	-9541
▁perspectives	-9542
▁middle	-9543
▁plate	-9544
▁Attend	-9545
▁machine	-9546
▁defining	-9547
▁anniversary	-9548
eb	-9549
▁lod	-9550
-2001	-9551
icacy	-9552
▁brings	-9553
▁arrival	-9554
▁ranging	-9555
▁issuance	-9556
▁Objective	-9557
/07	-9558
400	-9559
▁deals	-9560
▁mostly	-9561
▁Excellence	-9562
SR	-9563
▁aux	-9564
▁cry	-9565
▁checks	-9566
▁donors	-9567
▁Advisor	-9568
▁exhibit	-9569
▁DECISION	-9570
▁Caribbean	-9571
▁equitable	-9572
▁movements	-9573
▁reflecting	-9574
▁destruction	-9575
▁6.1	-9576
▁verify	-9577
▁linkages	-9578
▁Responsible	-9579
assess	-9580
ieuten	-9581
▁signing	-9582
▁container	-9583
▁References	-9584
▁Amb	-9585
▁proud	-9586
▁prejudice	-9587
PT	-9588
jan	-9589
chair	-9590
▁Film	-9591
idency	-9592
ustion	-9593
▁Pierre	-9594
▁Prairie	-9595
▁inadequate	-9596
aph	-9597
▁REL	-9598
▁vot	-9599
▁Academ	-9600
▁Concer	-9601
▁profiles	-9602
▁completing	-9603
▁alle	-9604
▁Economy	-9605
▁Effects	-9606
▁underway	-9607
▁Registered	-9608
▁correspondence	-9609
OJ	-9610
▁inspections	-9611
▁QU	-9612
anim	-9613
▁Fred	-9614
▁Lithu	-9615
GM	-9616
.03	-9617
▁Sales	-9618
▁Amending	-9619
▁signal	-9620
▁meaningful	-9621
▁Consultations	-9622
ocols	-9623
▁wheel	-9624
▁Reason	-9625
▁Steering	-9626
uv	-9627
▁Refuge	-9628
▁images	-9629
▁theory	-9630
▁marketplace	-9631
▁Tex	-9632
▁fal	-9633
▁separately	-9634
▁born	-9635
ishers	-9636
▁1996.	-9637
▁Legislative	-9638
▁complementary	-9639
▁restructuring	-9640
▁Supply	-9641
▁ingredients	-9642
but	-9643
case	-9644
▁NPRI	-9645
▁honour	-9646
én	-9647
lit	-9648
▁surpr	-9649
▁reproductive	-9650
▁magn	-9651
iences	-9652
▁Indep	-9653
▁Stock	-9654
▁COMMUN	-9655
pass	-9656
cript	-9657
▁Frid	-9658
tistic	-9659
▁hands	-9660
▁predict	-9661
▁negotiated	-9662
CM	-9663
Re	-9664
▁600	-9665
▁Here	-9666
▁predomin	-9667
▁Principles	-9668
▁travelling	-9669
zz	-9670
▁random	-9671
ieutenant	-9672
▁Materials	-9673
69	-9674
ortive	-9675
▁Urban	-9676
▁Workplace	-9677
▁SCH	-9678
bursement	-9679
.7%	-9680
osis	-9681
▁McC	-9682
▁propri	-9683
▁proven	-9684
▁Stephen	-9685
▁modifications	-9686
AIT	-9687
▁compete	-9688
▁partial	-9689
▁Leadership	-9690
missed	-9691
▁anyone	-9692
▁certainly	-9693
▁encourages	-9694
cap	-9695
▁scr	-9696
▁Miss	-9697
▁cable	-9698
▁heads	-9699
▁submits	-9700
▁originally	-9701
▁Expenditures	-9702
.6%	-9703
top	-9704
▁Why	-9705
ilton	-9706
▁RRSP	-9707
lining	-9708
ompass	-9709
▁grass	-9710
▁ordered	-9711
▁remuneration	-9712
YS	-9713
df	-9714
ILL	-9715
▁Educ	-9716
▁detect	-9717
▁Financing	-9718
GA	-9719
ois	-9720
▁Due	-9721
icide	-9722
▁Database	-9723
▁widespread	-9724
▁mov	-9725
▁hypot	-9726
▁troops	-9727
▁offset	-9728
▁tracking	-9729
▁dismissed	-9730
▁encompass	-9731
▁guaranteed	-9732
EF	-9733
IGH	-9734
▁SK	-9735
▁105	-9736
▁frequent	-9737
▁Nos	-9738
▁nest	-9739
▁Achie	-9740
ographs	-9741
▁metres	-9742
umptions	-9743
▁bearing	-9744
▁aboriginal	-9745
fri	-9746
▁Serb	-9747
▁convey	-9748
▁Slovenia	-9749
▁counterpar	-9750
▁Wel	-9751
▁ast	-9752
▁vegetation	-9753
ISH	-9754
uters	-9755
▁disclosed	-9756
▁Industries	-9757
/08	-9758
▁NL	-9759
▁Sl	-9760
▁Invent	-9761
▁satisfactory	-9762
xx	-9763
▁alia	-9764
▁sick	-9765
▁Madrid	-9766
▁assisted	-9767
▁maritime	-9768
89	-9769
erk	-9770
▁ME	-9771
▁journ	-9772
▁expanding	-9773
▁projected	-9774
▁announcement	-9775
6]	-9776
tr	-9777
Net	-9778
▁hyper	-9779
▁desire	-9780
▁Ocean	-9781
▁Topics	-9782
▁teacher	-9783
64	-9784
▁POL	-9785
▁fear	-9786
timony	-9787
▁Focus	-9788
▁Visit	-9789
▁Bosnia	-9790
▁migrants	-9791
▁safeguard	-9792
▁publishing	-9793
▁Pers	-9794
▁brain	-9795
▁disapp	-9796
▁stands	-9797
▁withdrawal	-9798
▁communicated	-9799
▁Conn	-9800
▁agri	-9801
▁grie	-9802
▁Governing	-9803
▁electrical	-9804
▁premises	-9805
▁controlling	-9806
▁feasibility	-9807
ooth	-9808
▁unn	-9809
▁partly	-9810
▁Structure	-9811
ANT	-9812
bound	-9813
mistry	-9814
▁AUTON	-9815
▁gained	-9816
▁upgrad	-9817
▁outlines	-9818
App	-9819
ucle	-9820
▁Online	-9821
▁electors	-9822
▁Registrar	-9823
▁aggregate	-9824
RS	-9825
▁pric	-9826
▁1993,	-9827
▁Southern	-9828
IZ	-9829
gi	-9830
▁Men	-9831
cious	-9832
▁oppos	-9833
▁Suite	-9834
▁NOT	-9835
▁Tun	-9836
▁iron	-9837
▁Regina	-9838
▁appreciation	-9839
▁Reserv	-9840
▁endors	-9841
▁authorisation	-9842
79	-9843
VA	-9844
▁125	-9845
▁prove	-9846
ceptable	-9847
▁AUTONUM	-9848
▁Digital	-9849
▁2004-2005	-9850
▁Temporary	-9851
och	-9852
sis	-9853
henyl	-9854
▁Alban	-9855
▁impose	-9856
FT	-9857
nce	-9858
enzie	-9859
igned	-9860
▁Valu	-9861
▁menu	-9862
ximately	-9863
NE	-9864
▁MB	-9865
oices	-9866
▁deployed	-9867
▁deposits	-9868
-201	-9869
▁Fair	-9870
▁Others	-9871
▁adopting	-9872
▁Definition	-9873
▁allegation	-9874
▁89	-9875
▁lin	-9876
aundering	-9877
▁Evidence	-9878
▁instruct	-9879
▁beneficiaries	-9880
eor	-9881
ponents	-9882
▁rising	-9883
▁hazards	-9884
prus	-9885
▁Fer	-9886
▁tree	-9887
▁Role	-9888
▁favourable	-9889
itis	-9890
▁CAD	-9891
▁AAFC	-9892
▁OFFIC	-9893
▁holid	-9894
iformes	-9895
▁calling	-9896
▁seasonal	-9897
▁Instructions	-9898
ourage	-9899
▁square	-9900
erver	-9901
▁marg	-9902
▁Recital	-9903
▁qualification	-9904
▁Event	-9905
▁elder	-9906
▁forced	-9907
▁nurses	-9908
▁Developing	-9909
arn	-9910
▁Bull	-9911
heduled	-9912
▁respected	-9913
▁Respondent	-9914
▁Negoti	-9915
▁formats	-9916
▁aviation	-9917
▁vs	-9918
▁GHG	-9919
▁Past	-9920
▁para	-9921
inning	-9922
▁girls	-9923
▁branches	-9924
▁thinking	-9925
▁Intelligence	-9926
▁competencies	-9927
(5)	-9928
▁Er	-9929
▁trib	-9930
section	-9931
▁frameworks	-9932
▁lit	-9933
▁fleet	-9934
▁Inform	-9935
▁Israel	-9936
▁ages	-9937
’.	-9938
▁Spring	-9939
▁tempor	-9940
▁Airport	-9941
▁pharmac	-9942
▁agrees	-9943
▁fabrics	-9944
▁satisfy	-9945
▁stories	-9946
▁Facility	-9947
▁attributable	-9948
▁div	-9949
allow	-9950
▁mobil	-9951
rasbourg	-9952
▁Message	-9953
▁collections	-9954
olf	-9955
▁Salmon	-9956
▁proceeds	-9957
titive	-9958
▁legally	-9959
exp	-9960
eces	-9961
qual	-9962
rote	-9963
▁eggs	-9964
▁viable	-9965
▁polling	-9966
▁organisms	-9967
▁Individuals	-9968
▁sn	-9969
airy	-9970
▁coh	-9971
▁Tools	-9972
▁subsidy	-9973
▁containers	-9974
Reg	-9975
ineau	-9976
▁asks	-9977
▁unknown	-9978
▁adjacent	-9979
▁separation	-9980
▁Certificate	-9981
▁NOR	-9982
▁tick	-9983
▁visited	-9984
Chair	-9985
▁forestry	-9986
ache	-9987
▁OTHER	-9988
quality	-9989
conn	-9990
▁correl	-9991
▁flights	-9992
licated	-9993
▁compos	-9994
▁elabor	-9995
▁boundary	-9996
▁91	-9997
▁Log	-9998
▁Hold	-9999
rorism	-10000
▁pending	-10001
hentic	-10002
▁nomin	-10003
▁sensitivity	-10004
éd	-10005
elect	-10006
erted	-10007
atever	-10008
▁plain	-10009
▁Friday	-10010
▁assemb	-10011
itigation	-10012
▁corrective	-10013
GRA	-10014
tered	-10015
service	-10016
▁Divers	-10017
▁competit	-10018
▁curriculum	-10019
▁intermediate	-10020
ano	-10021
▁CIC	-10022
▁MON	-10023
▁volumes	-10024
▁Statements	-10025
▁(6)	-10026
athered	-10027
▁violation	-10028
.15	-10029
▁Adop	-10030
▁skin	-10031
▁frame	-10032
▁eventually	-10033
3).	-10034
ilipp	-10035
▁Mack	-10036
market	-10037
▁inclusive	-10038
FER	-10039
▁92	-10040
▁6.2	-10041
▁diet	-10042
▁edition	-10043
▁hydrogen	-10044
▁comprised	-10045
▁trademark	-10046
▁contaminants	-10047
▁Superintendent	-10048
ication	-10049
▁Tables	-10050
▁utilization	-10051
▁phases	-10052
▁Findings	-10053
▁anything	-10054
ashion	-10055
▁fuels	-10056
▁doctor	-10057
rec	-10058
▁score	-10059
▁sheets	-10060
▁purchases	-10061
stand	-10062
▁driven	-10063
▁Indigenous	-10064
▁multip	-10065
/2004	-10066
▁Acqu	-10067
▁venture	-10068
▁Democratic	-10069
▁ratification	-10070
▁LD	-10071
▁ii	-10072
orts	-10073
rome	-10074
▁25%	-10075
▁RPP	-10076
▁fell	-10077
▁1987,	-10078
▁typical	-10079
▁Mediterranean	-10080
endor	-10081
▁Cape	-10082
▁Coal	-10083
▁glob	-10084
system	-10085
▁crimes	-10086
▁accidents	-10087
No	-10088
▁Mi	-10089
plant	-10090
stein	-10091
▁Alex	-10092
▁Soft	-10093
▁England	-10094
▁mountain	-10095
▁demographic	-10096
MO	-10097
WH	-10098
▁Claims	-10099
▁simult	-10100
▁Concern	-10101
▁indirectly	-10102
▁biodiversity	-10103
ESC	-10104
▁$2,	-10105
▁hal	-10106
▁deliber	-10107
ML	-10108
look	-10109
▁van	-10110
▁ven	-10111
orous	-10112
▁tack	-10113
▁faith	-10114
71	-10115
KS	-10116
oxic	-10117
▁Ask	-10118
▁Chile	-10119
▁votes	-10120
▁1.6	-10121
▁10.	-10122
atisf	-10123
▁Mary	-10124
uesday	-10125
develop	-10126
▁Nuclear	-10127
▁compare	-10128
▁inherent	-10129
AV	-10130
▁3/	-10131
▁INS	-10132
▁Old	-10133
▁ster	-10134
▁begun	-10135
▁profits	-10136
▁compulsory	-10137
▁exhibition	-10138
▁pollutants	-10139
rh	-10140
ieu	-10141
▁190	-10142
atial	-10143
▁race	-10144
▁paying	-10145
▁conting	-10146
▁straight	-10147
——	-10148
ora	-10149
▁9.	-10150
▁PART	-10151
uticals	-10152
▁valued	-10153
▁EUROPEAN	-10154
Ind	-10155
▁Mem	-10156
▁bed	-10157
▁Five	-10158
▁Marie	-10159
▁films	-10160
He	-10161
umped	-10162
▁disag	-10163
▁Contacts	-10164
▁Screening	-10165
▁Territory	-10166
▁structured	-10167
imer	-10168
▁aver	-10169
▁Swiss	-10170
▁regim	-10171
▁Ensure	-10172
▁INTERN	-10173
▁compatible	-10174
Cl	-10175
▁2.0	-10176
inity	-10177
▁attrac	-10178
▁inters	-10179
▁Instance	-10180
▁criterion	-10181
oler	-10182
▁inequ	-10183
▁pursued	-10184
▁Advanced	-10185
▁disaster	-10186
enth	-10187
▁Book	-10188
europa	-10189
▁ordinary	-10190
▁confusion	-10191
▁ISO	-10192
▁urgent	-10193
▁affects	-10194
▁closing	-10195
▁clothing	-10196
-1,	-10197
ACH	-10198
ATES	-10199
culos	-10200
▁timing	-10201
▁himself	-10202
▁Festival	-10203
▁Renewal	-10204
0)	-10205
▁SY	-10206
▁prosperity	-10207
tin	-10208
fs	-10209
ua	-10210
ena	-10211
▁seat	-10212
entral	-10213
▁cargo	-10214
▁Increase	-10215
▁explains	-10216
▁experiment	-10217
LI	-10218
-95	-10219
3),	-10220
▁fro	-10221
▁charity	-10222
paid	-10223
inces	-10224
▁clim	-10225
▁terminal	-10226
bl	-10227
▁ND	-10228
▁counselling	-10229
▁distinctive	-10230
▁IC	-10231
▁Revised	-10232
▁distinction	-10233
▁environmentally	-10234
▁Ath	-10235
▁descriptions	-10236
uts	-10237
minent	-10238
▁rough	-10239
▁delays	-10240
▁defines	-10241
▁technique	-10242
=1	-10243
brid	-10244
▁3.5	-10245
▁GAT	-10246
▁NEW	-10247
▁pace	-10248
▁Tuesday	-10249
TEE	-10250
pet	-10251
▁Election	-10252
▁workload	-10253
▁influenced	-10254
eav	-10255
ypes	-10256
ifies	-10257
country	-10258
▁desired	-10259
▁Approach	-10260
▁contractor	-10261
▁Tw	-10262
asure	-10263
▁hunting	-10264
▁whereby	-10265
▁rendered	-10266
▁automatically	-10267
FN	-10268
held	-10269
▁Have	-10270
▁Proceed	-10271
▁authorised	-10272
▁mainstream	-10273
▁travellers	-10274
gl	-10275
hibition	-10276
▁collecting	-10277
▁permission	-10278
▁TA	-10279
▁begins	-10280
▁charter	-10281
▁degrees	-10282
▁utility	-10283
▁Saskatoon	-10284
▁seriously	-10285
▁adaptation	-10286
LP	-10287
▁0.3	-10288
▁Hol	-10289
▁Cyprus	-10290
▁Michel	-10291
▁apprais	-10292
▁Church	-10293
▁licensee	-10294
▁Cas	-10295
▁shap	-10296
▁stewardship	-10297
.8%	-10298
▁shell	-10299
▁Expected	-10300
conf	-10301
▁RSS	-10302
▁efflu	-10303
alities	-10304
▁scholars	-10305
▁occurrence	-10306
▁Recent	-10307
▁Physical	-10308
OH	-10309
ione	-10310
▁Ant	-10311
▁ion	-10312
▁Sand	-10313
▁perf	-10314
▁hiring	-10315
▁mediation	-10316
▁molecular	-10317
▁MIN	-10318
▁Sav	-10319
▁root	-10320
▁merely	-10321
mpos	-10322
ologist	-10323
▁Detailed	-10324
oto	-10325
▁VII	-10326
arios	-10327
income	-10328
▁intensive	-10329
▁NRCan	-10330
▁biomass	-10331
▁IB	-10332
▁Acts	-10333
▁toll	-10334
▁1991,	-10335
▁roads	-10336
▁Regular	-10337
fortun	-10338
istence	-10339
try	-10340
unity	-10341
▁Managers	-10342
▁salaries	-10343
▁irregular	-10344
▁emphasized	-10345
▁Territorial	-10346
TOPIC	-10347
▁Autom	-10348
▁Workers	-10349
▁harmful	-10350
▁protective	-10351
▁pharmaceutical	-10352
Am	-10353
ski	-10354
page	-10355
ented	-10356
▁~	-10357
▁×	-10358
otive	-10359
scheduled	-10360
▁Airlines	-10361
.9%	-10362
▁salt	-10363
▁exped	-10364
▁write	-10365
▁unanim	-10366
▁sponsor	-10367
▁networking	-10368
▁$9	-10369
ylum	-10370
arged	-10371
▁sides	-10372
ecutives	-10373
▁attending	-10374
▁unemployed	-10375
▁introducing	-10376
▁brand	-10377
▁careg	-10378
▁overl	-10379
▁Recipient	-10380
▁installed	-10381
▁disciplines	-10382
▁possibilities	-10383
▁Mold	-10384
▁restoration	-10385
een	-10386
▁Greater	-10387
▁deleted	-10388
▁equipped	-10389
50)	-10390
yes	-10391
▁uns	-10392
auses	-10393
▁Disp	-10394
▁Music	-10395
▁Resear	-10396
Qu	-10397
▁deriv	-10398
▁Values	-10399
▁varies	-10400
▁negotiating	-10401
▁Portfolio	-10402
▁affiliate	-10403
▁NR	-10404
▁Van	-10405
▁Spect	-10406
▁Living	-10407
▁Mounted	-10408
▁constructed	-10409
▁consolidated	-10410
▁rob	-10411
-201-1-	-10412
▁strengths	-10413
gam	-10414
▁flo	-10415
▁aside	-10416
▁amongst	-10417
▁Experience	-10418
▁importation	-10419
orph	-10420
▁1960	-10421
▁Harmon	-10422
▁precip	-10423
▁formally	-10424
▁Presentation	-10425
abe	-10426
▁dual	-10427
English	-10428
▁Senator	-10429
▁infected	-10430
▁weakness	-10431
▁testified	-10432
ACE	-10433
▁(60	-10434
▁CPP	-10435
▁CEPA	-10436
▁Navy	-10437
▁Nature	-10438
▁harassment	-10439
seen	-10440
▁$25	-10441
acities	-10442
▁wor	-10443
▁breach	-10444
▁cultiv	-10445
▁efficacy	-10446
▁premiums	-10447
▁supportive	-10448
▁CSA	-10449
▁Sam	-10450
▁envis	-10451
▁convin	-10452
▁estate	-10453
▁subsections	-10454
cia	-10455
été	-10456
▁Best	-10457
▁gases	-10458
▁devoted	-10459
▁falling	-10460
▁issuing	-10461
▁publish	-10462
▁elimination	-10463
ENS	-10464
▁leaf	-10465
▁consecutive	-10466
▁Devices	-10467
▁produces	-10468
plan	-10469
type	-10470
arest	-10471
▁COSEWIC	-10472
▁encount	-10473
▁supervisor	-10474
▁Maintenance	-10475
▁HP	-10476
▁Armen	-10477
▁seats	-10478
oriented	-10479
▁passport	-10480
▁enlargement	-10481
▁prosecution	-10482
ophy	-10483
▁enforce	-10484
▁fashion	-10485
▁download	-10486
▁prohibit	-10487
▁Television	-10488
▁navigation	-10489
cton	-10490
▁lob	-10491
▁Feedback	-10492
▁assumptions	-10493
arts	-10494
methyl	-10495
▁trail	-10496
▁zones	-10497
▁Lieutenant	-10498
▁infections	-10499
▁procedural	-10500
ATED	-10501
▁immigrant	-10502
▁sanctions	-10503
▁violations	-10504
osa	-10505
(1),	-10506
▁imper	-10507
▁Trends	-10508
ologists	-10509
▁marginal	-10510
▁extending	-10511
mpire	-10512
▁stores	-10513
▁highlights	-10514
aska	-10515
etric	-10516
▁coup	-10517
▁flag	-10518
heading	-10519
▁Palest	-10520
▁attempts	-10521
▁dominant	-10522
▁Printable	-10523
▁variations	-10524
";	-10525
▁Fuel	-10526
▁Teac	-10527
▁SW	-10528
▁Mur	-10529
▁Wed	-10530
efficient	-10531
▁partially	-10532
▁dimensions	-10533
▁clarification	-10534
oud	-10535
▁Ba	-10536
tension	-10537
▁testimony	-10538
▁progressive	-10539
▁Bon	-10540
▁Privy	-10541
▁Generally	-10542
▁detention	-10543
▁Programming	-10544
72	-10545
iger	-10546
rick	-10547
▁surg	-10548
ospace	-10549
▁quota	-10550
▁Thomas	-10551
▁playing	-10552
▁exceeded	-10553
▁fairness	-10554
▁occupation	-10555
POR	-10556
▁thick	-10557
▁overcome	-10558
▁Diversity	-10559
Pa	-10560
▁Croatia	-10561
▁baseline	-10562
▁shipping	-10563
▁Doug	-10564
▁Lithuania	-10565
▁purchasing	-10566
▁efficiently	-10567
IHB	-10568
RIB	-10569
▁af	-10570
vailing	-10571
▁Hospit	-10572
▁minimal	-10573
▁importers	-10574
GH	-10575
▁Aware	-10576
▁Embassy	-10577
▁perception	-10578
▁30%	-10579
▁endeav	-10580
▁NB	-10581
▁Steel	-10582
▁Struct	-10583
▁suspected	-10584
▁audiovisual	-10585
▁Preparedness	-10586
▁5.4	-10587
▁Brit	-10588
▁Speech	-10589
▁witnesses	-10590
▁Strasbourg	-10591
▁everything	-10592
pend	-10593
▁Mail	-10594
▁SPEC	-10595
▁rental	-10596
▁Hamilton	-10597
▁discover	-10598
sets	-10599
▁Fri	-10600
eless	-10601
▁pure	-10602
▁street	-10603
▁exceeds	-10604
▁generic	-10605
▁nutrient	-10606
▁treatments	-10607
600	-10608
▁PC	-10609
tures	-10610
▁Cell	-10611
▁Hear	-10612
▁Viol	-10613
▁retro	-10614
LD	-10615
▁wine	-10616
▁Joseph	-10617
▁analyzed	-10618
▁reputation	-10619
igu	-10620
▁une	-10621
▁master	-10622
▁2002-2003	-10623
▁virtually	-10624
eck	-10625
▁ace	-10626
▁Accommod	-10627
▁departure	-10628
▁rationale	-10629
▁modification	-10630
RQ	-10631
norm	-10632
Other	-10633
▁Interim	-10634
SI	-10635
tting	-10636
▁Core	-10637
ensing	-10638
▁usage	-10639
▁causing	-10640
▁lending	-10641
▁invested	-10642
▁powerful	-10643
▁disorders	-10644
occ	-10645
▁3-	-10646
▁40%	-10647
opter	-10648
▁Blue	-10649
▁mile	-10650
▁1995.	-10651
▁literacy	-10652
▁prohibition	-10653
▁restriction	-10654
▁Interpretation	-10655
▁80%	-10656
▁WITH	-10657
▁aging	-10658
▁heating	-10659
▁privile	-10660
▁putting	-10661
▁Interview	-10662
ruptcy	-10663
jections	-10664
▁Provinces	-10665
▁SSH	-10666
▁pose	-10667
▁parental	-10668
aceuticals	-10669
▁Concerning	-10670
inated	-10671
▁Month	-10672
▁commerce	-10673
▁discriminatory	-10674
ONS	-10675
ref	-10676
zerb	-10677
▁Principal	-10678
▁certainty	-10679
▁GRO	-10680
AGEMENT	-10681
▁Philipp	-10682
▁founded	-10683
▁suffered	-10684
▁Université	-10685
apore	-10686
▁segment	-10687
▁Agencies	-10688
▁Mt	-10689
▁unc	-10690
stance	-10691
▁false	-10692
▁morning	-10693
▁Outcomes	-10694
stan	-10695
▁Foot	-10696
▁Approval	-10697
▁abundance	-10698
▁observers	-10699
▁Consulting	-10700
▁diver	-10701
▁thanks	-10702
▁chromos	-10703
▁Sections	-10704
▁livestock	-10705
▁sup	-10706
▁extract	-10707
▁metabol	-10708
▁Japanese	-10709
▁gathered	-10710
Off	-10711
▁EIB	-10712
avily	-10713
▁eros	-10714
▁Estonia	-10715
▁initiate	-10716
▁cigarettes	-10717
▁4.4	-10718
▁macro	-10719
▁Vision	-10720
▁appellants	-10721
',	-10722
tax	-10723
▁INT	-10724
▁sho	-10725
▁cool	-10726
ictions	-10727
ecessary	-10728
▁2003-2004	-10729
▁Dun	-10730
▁Anne	-10731
dumping	-10732
▁approve	-10733
▁discont	-10734
▁libraries	-10735
▁Manufacture	-10736
▁appropriately	-10737
">	-10738
uine	-10739
▁Calc	-10740
▁Champ	-10741
▁Course	-10742
▁overseas	-10743
PER	-10744
▁DIS	-10745
oultry	-10746
▁Toxic	-10747
▁Refere	-10748
▁tariffs	-10749
ait	-10750
.199	-10751
TRAC	-10752
▁PROGRA	-10753
icrobial	-10754
▁textile	-10755
▁abilities	-10756
athy	-10757
▁Wal	-10758
▁rose	-10759
▁moderate	-10760
▁exercises	-10761
represent	-10762
▁cleaning	-10763
▁diagnostic	-10764
▁demonstrates	-10765
720	-10766
arf	-10767
▁Grad	-10768
▁Upon	-10769
▁layer	-10770
▁filled	-10771
▁disclose	-10772
▁Commander	-10773
▁assisting	-10774
?"	-10775
▁syn	-10776
▁strain	-10777
liaments	-10778
▁nationally	-10779
/3	-10780
▁eco	-10781
▁shar	-10782
through	-10783
▁fellow	-10784
▁unlikely	-10785
▁exercised	-10786
elve	-10787
posals	-10788
zation	-10789
▁Candid	-10790
▁attacks	-10791
▁drafting	-10792
▁contested	-10793
▁Strategies	-10794
▁concentrated	-10795
ADA	-10796
REE	-10797
cra	-10798
inson	-10799
▁arrest	-10800
▁happen	-10801
▁Percentage	-10802
▁integrating	-10803
stone	-10804
▁scrut	-10805
▁laboratories	-10806
ASE	-10807
aming	-10808
▁AMEND	-10809
▁elderly	-10810
agen	-10811
▁liver	-10812
▁campaigns	-10813
03	-10814
rss	-10815
sing	-10816
▁Liter	-10817
▁impair	-10818
▁sovere	-10819
▁speech	-10820
▁reinforce	-10821
▁determines	-10822
rable	-10823
▁1984	-10824
▁save	-10825
ignment	-10826
▁behaviours	-10827
burs	-10828
inner	-10829
ECTION	-10830
▁photo	-10831
▁creates	-10832
▁sulphur	-10833
MR	-10834
▁Info	-10835
▁Iran	-10836
▁glass	-10837
ticular	-10838
▁McGill	-10839
▁REPORT	-10840
▁Summer	-10841
▁waiting	-10842
▁breakdown	-10843
▁capacities	-10844
▁circulation	-10845
faces	-10846
▁Squadron	-10847
▁forecasts	-10848
mic	-10849
ENDI	-10850
▁Nic	-10851
▁Advoc	-10852
▁owing	-10853
▁GENERAL	-10854
ciliation	-10855
▁coordinating	-10856
.04	-10857
▁90%	-10858
▁Way	-10859
aijan	-10860
▁1990,	-10861
▁Lower	-10862
▁incentive	-10863
▁supervisory	-10864
VER	-10865
▁Waters	-10866
▁routes	-10867
zerbaijan	-10868
ERC	-10869
▁[4]	-10870
▁asking	-10871
ervative	-10872
▁religion	-10873
▁transitional	-10874
04	-10875
▁drain	-10876
▁arrived	-10877
▁NATIONAL	-10878
▁endorsed	-10879
▁Regarding	-10880
▁concludes	-10881
.;	-10882
▁radi	-10883
tifying	-10884
▁father	-10885
▁Statute	-10886
▁coherent	-10887
▁delegated	-10888
▁infectious	-10889
▁qualifying	-10890
▁fr	-10891
▁arr	-10892
ENDIX	-10893
▁dans	-10894
▁Depos	-10895
▁inspect	-10896
▁varying	-10897
▁Incorpor	-10898
Aboriginal	-10899
VEN	-10900
▁Stra	-10901
erical	-10902
ortion	-10903
▁inputs	-10904
▁mature	-10905
timicrobial	-10906
▁Pack	-10907
▁Turk	-10908
▁Hazard	-10909
▁racism	-10910
▁signals	-10911
▁Bu	-10912
thal	-10913
▁FROM	-10914
▁rivers	-10915
▁mechanical	-10916
▁Hot	-10917
ritis	-10918
▁prompt	-10919
▁erosion	-10920
▁Electric	-10921
▁demonstration	-10922
una	-10923
▁ax	-10924
main	-10925
▁Egy	-10926
▁Mean	-10927
▁Price	-10928
▁SSHRC	-10929
▁fluct	-10930
▁Albert	-10931
▁Series	-10932
▁protocols	-10933
▁qualitative	-10934
HC	-10935
exc	-10936
take	-10937
▁turb	-10938
▁heter	-10939
▁Potential	-10940
▁reliability	-10941
▁sto	-10942
▁boost	-10943
▁inquiries	-10944
tid	-10945
▁embry	-10946
ctivity	-10947
****	-10948
▁SUB	-10949
etown	-10950
▁specim	-10951
▁financed	-10952
▁MANAGEMENT	-10953
▁precedence	-10954
1-	-10955
lif	-10956
▁Hong	-10957
▁Methods	-10958
▁heavily	-10959
▁Stakehold	-10960
zeg	-10961
text	-10962
▁Flight	-10963
▁PUBLIC	-10964
▁Mineral	-10965
▁dismiss	-10966
▁Meetings	-10967
▁evolving	-10968
▁Improvement	-10969
▁1%	-10970
lots	-10971
▁bias	-10972
▁grew	-10973
▁pill	-10974
▁rain	-10975
▁Frank	-10976
▁Explore	-10977
▁Complete	-10978
▁(-	-10979
▁BR	-10980
▁0.4	-10981
▁Rog	-10982
▁fur	-10983
▁Laur	-10984
▁Majesty	-10985
▁Associate	-10986
▁Singapore	-10987
appropriate	-10988
Col	-10989
▁ED	-10990
▁WEU	-10991
▁Kong	-10992
▁Recon	-10993
▁bacteria	-10994
▁Amendments	-10995
▁Processing	-10996
▁Expenditure	-10997
▁UST	-10998
▁1000	-10999
▁memb	-11000
▁bands	-11001
▁texts	-11002
SEA	-11003
ilos	-11004
▁15%	-11005
▁fifth	-11006
▁tender	-11007
▁Inventory	-11008
▁Reduction	-11009
▁gathering	-11010
▁Provisions	-11011
▁probability	-11012
73	-11013
Co	-11014
▁inh	-11015
▁feet	-11016
▁Catal	-11017
▁helpful	-11018
▁responsive	-11019
▁Publication	-11020
▁electronically	-11021
avail	-11022
ovina	-11023
ruits	-11024
▁sort	-11025
ateriel	-11026
▁remedy	-11027
friendly	-11028
trollership	-11029
IPS	-11030
esity	-11031
▁mode	-11032
▁census	-11033
▁smokers	-11034
▁authorize	-11035
▁discipline	-11036
▁visibility	-11037
▁accompanying	-11038
ball	-11039
▁Option	-11040
▁strains	-11041
▁Submission	-11042
▁Subdivision	-11043
▁Emissions	-11044
▁SUMM	-11045
▁edge	-11046
▁Refer	-11047
▁soils	-11048
▁younger	-11049
▁desirable	-11050
▁threatened	-11051
▁CAT	-11052
ursday	-11053
▁Explan	-11054
▁smooth	-11055
▁Attorney	-11056
▁packages	-11057
▁kn	-11058
▁ITC	-11059
▁Yet	-11060
astic	-11061
eries	-11062
▁Build	-11063
▁artic	-11064
▁thence	-11065
▁Enterprise	-11066
▁Traditional	-11067
74	-11068
oo	-11069
▁$30	-11070
▁60%	-11071
▁tank	-11072
▁2005-06	-11073
▁cutting	-11074
▁artistic	-11075
AY	-11076
▁Set	-11077
ricts	-11078
▁Fail	-11079
▁wall	-11080
holder	-11081
▁posts	-11082
▁neutral	-11083
▁airports	-11084
compliance	-11085
▁Appell	-11086
▁remark	-11087
@@@@@@@@	-11088
activity	-11089
▁Integration	-11090
NP	-11091
Dec	-11092
Man	-11093
eder	-11094
▁kit	-11095
author	-11096
andemic	-11097
▁kilometres	-11098
▁rapporteur	-11099
▁Speaker	-11100
▁Vehicle	-11101
▁realized	-11102
See	-11103
OURC	-11104
onic	-11105
report	-11106
▁Inquiry	-11107
▁quarterly	-11108
▁Video	-11109
▁driver	-11110
▁pursuing	-11111
▁limitation	-11112
▁hyd	-11113
▁Summ	-11114
▁cast	-11115
▁intensity	-11116
ny	-11117
Rec	-11118
▁game	-11119
▁asylum	-11120
zegovina	-11121
▁justify	-11122
▁periodic	-11123
▁Statutory	-11124
DD	-11125
.05	-11126
▁Cop	-11127
▁maps	-11128
▁truly	-11129
atineau	-11130
▁outline	-11131
▁clearance	-11132
lay	-11133
▁Ship	-11134
▁handle	-11135
▁Britain	-11136
▁specialist	-11137
▁municipality	-11138
gs	-11139
etra	-11140
▁rub	-11141
▁DFAIT	-11142
▁Daniel	-11143
▁rescue	-11144
▁scenario	-11145
▁Excellency	-11146
▁Independent	-11147
ba	-11148
/6/	-11149
300	-11150
outs	-11151
rame	-11152
▁140	-11153
▁Poly	-11154
▁inval	-11155
▁Latvia	-11156
izer	-11157
▁Enc	-11158
▁Safe	-11159
▁tried	-11160
▁Making	-11161
▁commodity	-11162
▁furniture	-11163
▁Conclusion	-11164
▁contractual	-11165
ethe	-11166
▁got	-11167
▁insured	-11168
▁Inspector	-11169
▁belonging	-11170
integ	-11171
▁storm	-11172
▁SECTION	-11173
▁accessing	-11174
▁combustion	-11175
Le	-11176
TU	-11177
],	-11178
mann	-11179
▁pup	-11180
afood	-11181
▁(197	-11182
▁corn	-11183
▁lung	-11184
▁spaw	-11185
party	-11186
▁negotiate	-11187
LC	-11188
ANG	-11189
▁Tro	-11190
icted	-11191
▁infant	-11192
▁feeding	-11193
br	-11194
▁Barb	-11195
▁PROC	-11196
▁1,000	-11197
▁Light	-11198
▁watch	-11199
▁highway	-11200
▁Pollution	-11201
▁computers	-11202
▁gradually	-11203
aine	-11204
bell	-11205
othe	-11206
play	-11207
▁101	-11208
tiles	-11209
▁Rome	-11210
▁fulfill	-11211
▁Thursday	-11212
▁situated	-11213
▁versions	-11214
▁attendance	-11215
▁calculations	-11216
HV	-11217
ière	-11218
▁Sex	-11219
▁gar	-11220
aneously	-11221
▁ultimate	-11222
▁displayed	-11223
▁isolation	-11224
▁enhancement	-11225
▁proved	-11226
▁suscep	-11227
▁existed	-11228
ila	-11229
▁1-	-11230
establ	-11231
▁develops	-11232
management	-11233
ancies	-11234
▁mines	-11235
▁lesser	-11236
▁genuine	-11237
▁whatever	-11238
▁calculating	-11239
BR	-11240
carb	-11241
night	-11242
vents	-11243
nesday	-11244
▁acids	-11245
▁neuro	-11246
▁notion	-11247
▁exclude	-11248
▁stating	-11249
▁Revenues	-11250
▁fragment	-11251
▁1999-2000	-11252
▁specialty	-11253
For	-11254
▁115	-11255
▁recovered	-11256
▁instruction	-11257
ticulturalism	-11258
mo	-11259
iforn	-11260
▁mist	-11261
▁Mandate	-11262
IGN	-11263
kes	-11264
lev	-11265
▁ER	-11266
ICAL	-11267
▁Maced	-11268
▁offender	-11269
ko	-11270
zo	-11271
▁Hen	-11272
▁Kit	-11273
▁notices	-11274
▁pipeline	-11275
▁fostering	-11276
▁medicinal	-11277
▁Azerbaijan	-11278
▁explicitly	-11279
MCS	-11280
front	-11281
▁adhe	-11282
▁Brown	-11283
▁danger	-11284
▁injection	-11285
▁Directives	-11286
▁occupations	-11287
how	-11288
▁seminar	-11289
▁scenarios	-11290
publ	-11291
▁que	-11292
▁chap	-11293
▁Single	-11294
▁Weather	-11295
▁emotion	-11296
▁marking	-11297
▁automatic	-11298
▁Correctional	-11299
▁hybrid	-11300
▁incumb	-11301
▁Awareness	-11302
▁combating	-11303
▁counterparts	-11304
arus	-11305
asion	-11306
▁looked	-11307
▁pricing	-11308
▁tissues	-11309
TF	-11310
rob	-11311
▁LO	-11312
▁TN	-11313
▁Gal	-11314
▁audio	-11315
▁undue	-11316
ocation	-11317
▁Colomb	-11318
▁constituted	-11319
hy	-11320
add	-11321
▁mL	-11322
▁$15	-11323
▁Evalu	-11324
▁rated	-11325
▁drivers	-11326
▁Fle	-11327
▁Lac	-11328
tility	-11329
▁excise	-11330
▁theore	-11331
▁settings	-11332
▁experiments	-11333
2.5	-11334
ker	-11335
▁PP	-11336
▁nit	-11337
ativity	-11338
▁feasible	-11339
▁transmit	-11340
▁predominant	-11341
▁sle	-11342
▁seal	-11343
▁Large	-11344
▁fluid	-11345
▁usual	-11346
▁annexed	-11347
▁Monetary	-11348
▁pregnant	-11349
▁stimulate	-11350
▁wastewater	-11351
▁DI	-11352
▁Louis	-11353
▁Navig	-11354
▁thirty	-11355
▁freight	-11356
▁realistic	-11357
▁degradation	-11358
16)	-11359
/2003	-11360
▁Mach	-11361
▁merch	-11362
isition	-11363
▁Charles	-11364
▁regimes	-11365
▁president	-11366
▁Conclusions	-11367
.75	-11368
▁acted	-11369
▁hired	-11370
▁critic	-11371
▁clarity	-11372
izational	-11373
▁withdrawn	-11374
▁Destination	-11375
▁INTERNATIONAL	-11376
▁hence	-11377
▁corner	-11378
▁authentic	-11379
tes	-11380
lings	-11381
▁match	-11382
▁templ	-11383
▁hosted	-11384
▁Ongoing	-11385
▁Architect	-11386
BN	-11387
▁MM	-11388
inian	-11389
▁Parts	-11390
▁farms	-11391
▁2004-05	-11392
▁respiratory	-11393
7]	-11394
▁imag	-11395
▁(2005)	-11396
annuation	-11397
▁offshore	-11398
▁prescription	-11399
▁2%	-11400
▁1981	-11401
▁pick	-11402
▁Wednesday	-11403
▁interviewed	-11404
ni	-11405
▁3%	-11406
inees	-11407
▁Expert	-11408
▁Enhanced	-11409
Government	-11410
▁formulation	-11411
▁consolidation	-11412
▁Aid	-11413
▁brid	-11414
▁flat	-11415
▁ring	-11416
▁wants	-11417
▁copper	-11418
▁wait	-11419
▁enfor	-11420
▁limiting	-11421
▁execution	-11422
▁expensive	-11423
▁Certification	-11424
ho	-11425
▁je	-11426
eals	-11427
▁cad	-11428
▁noise	-11429
▁Mackenzie	-11430
▁generating	-11431
▁pesticides	-11432
▁traditions	-11433
000)	-11434
▁1994.	-11435
▁sizes	-11436
▁cattle	-11437
placement	-11438
▁Improved	-11439
▁challenging	-11440
CIL	-11441
▁RESP	-11442
heimer	-11443
▁bases	-11444
▁click	-11445
▁recall	-11446
▁Whereas	-11447
▁theatre	-11448
▁groundwater	-11449
cium	-11450
▁bird	-11451
funded	-11452
▁Grade	-11453
▁Loans	-11454
▁damages	-11455
▁declining	-11456
1]	-11457
.19	-11458
ées	-11459
▁determinants	-11460
sex	-11461
▁PD	-11462
▁4.5	-11463
inger	-11464
▁Mass	-11465
▁casual	-11466
▁prospects	-11467
▁therapeutic	-11468
▁Inj	-11469
abeth	-11470
▁walk	-11471
▁mothers	-11472
▁Contamin	-11473
▁Supporting	-11474
▁memorandum	-11475
▁subsidiary	-11476
▁contest	-11477
▁streams	-11478
▁receipts	-11479
▁correction	-11480
▁3.0	-11481
▁Chap	-11482
▁reiter	-11483
▁symbol	-11484
regional	-11485
▁comprises	-11486
▁contacted	-11487
▁eliminated	-11488
▁SDS	-11489
▁Drive	-11490
raction	-11491
▁Career	-11492
▁electro	-11493
▁Accounting	-11494
▁Australian	-11495
▁variability	-11496
EG	-11497
ALL	-11498
▁EMP	-11499
arial	-11500
▁prime	-11501
▁faster	-11502
▁refuse	-11503
▁Significant	-11504
▁Diversification	-11505
83	-11506
nty	-11507
▁MD	-11508
rose	-11509
▁Viet	-11510
▁lies	-11511
Agency	-11512
▁truck	-11513
▁Hearing	-11514
▁APPENDIX	-11515
▁4)	-11516
▁OS	-11517
▁Motor	-11518
▁ports	-11519
▁Mechan	-11520
▁alumin	-11521
Cont	-11522
ocal	-11523
week	-11524
▁11.	-11525
▁ends	-11526
western	-11527
▁lifesty	-11528
May	-11529
ometric	-11530
▁bureau	-11531
▁guided	-11532
▁accompl	-11533
▁exporter	-11534
▁magnitude	-11535
▁installations	-11536
ORS	-11537
/2002	-11538
▁0.00	-11539
▁ease	-11540
▁Yellow	-11541
▁replacing	-11542
▁Responsibility	-11543
").	-11544
OLOG	-11545
bury	-11546
ulin	-11547
,000.	-11548
▁Cover	-11549
▁Scope	-11550
▁Moldova	-11551
▁comfort	-11552
▁sitting	-11553
▁deterior	-11554
▁gly	-11555
▁1982	-11556
▁Years	-11557
▁Americas	-11558
▁finished	-11559
▁Applicant	-11560
▁audiences	-11561
▁consultant	-11562
▁invitation	-11563
▁justification	-11564
▁Facilities	-11565
▁Educational	-11566
▁interactive	-11567
bank	-11568
▁Word	-11569
▁Serbia	-11570
▁Subsid	-11571
tainment	-11572
▁graduate	-11573
▁comprising	-11574
LQ	-11575
▁Lind	-11576
▁Endangered	-11577
▁350	-11578
depth	-11579
▁strike	-11580
▁Consolid	-11581
▁tolerance	-11582
▁duplication	-11583
▁representations	-11584
▁6.3	-11585
▁bra	-11586
▁died	-11587
wealth	-11588
▁helic	-11589
▁manif	-11590
▁engines	-11591
▁marriage	-11592
▁pensions	-11593
fortunately	-11594
▁WO	-11595
▁Pak	-11596
▁Sir	-11597
▁Topic	-11598
▁width	-11599
▁dioxide	-11600
.25	-11601
800	-11602
▁130	-11603
▁SIM	-11604
matic	-11605
▁Scott	-11606
▁surviv	-11607
▁Comment	-11608
▁barrier	-11609
▁enabled	-11610
▁posting	-11611
▁objection	-11612
▁shipments	-11613
▁Challenges	-11614
▁broadcasters	-11615
cut	-11616
▁TE	-11617
hour	-11618
▁doses	-11619
▁SUMMARY	-11620
▁interact	-11621
▁Argentina	-11622
▁provisional	-11623
enne	-11624
▁EPA	-11625
▁Gar	-11626
▁Animal	-11627
▁ranges	-11628
▁Experts	-11629
▁Recruit	-11630
▁obliged	-11631
82	-11632
▁onto	-11633
licate	-11634
▁Prosec	-11635
▁virtue	-11636
▁visitor	-11637
▁vacation	-11638
▁discovered	-11639
owned	-11640
treat	-11641
▁Pati	-11642
▁huge	-11643
▁ceremony	-11644
▁houses	-11645
▁recept	-11646
▁Gatineau	-11647
▁Hud	-11648
▁dign	-11649
ocument	-11650
NR	-11651
▁NCB	-11652
▁EESC	-11653
▁guard	-11654
▁Origin	-11655
▁Threat	-11656
▁Kingston	-11657
▁viability	-11658
▁Supplement	-11659
▁Ru	-11660
laim	-11661
▁160	-11662
▁CIS	-11663
▁IOC	-11664
▁Sil	-11665
▁Forecast	-11666
▁proactive	-11667
▁Historical	-11668
▁Hospitality	-11669
osc	-11670
teb	-11671
NAICS	-11672
▁Acad	-11673
▁scan	-11674
▁sulf	-11675
▁posed	-11676
▁dental	-11677
ibli	-11678
loph	-11679
▁Dead	-11680
aughter	-11681
ifornia	-11682
mposium	-11683
▁Testing	-11684
▁synthesis	-11685
▁newspapers	-11686
▁submitting	-11687
onel	-11688
wear	-11689
▁Appeals	-11690
▁loading	-11691
▁Networks	-11692
▁destroyed	-11693
TV	-11694
.13	-11695
▁10-	-11696
▁tac	-11697
arden	-11698
timedia	-11699
▁postal	-11700
▁Eligible	-11701
▁Improving	-11702
▁encountered	-11703
▁competitions	-11704
ifer	-11705
techn	-11706
▁Cour	-11707
▁bonds	-11708
▁style	-11709
▁wholes	-11710
▁friendly	-11711
▁Biological	-11712
▁deposition	-11713
▁RA	-11714
ALTH	-11715
umed	-11716
▁Send	-11717
▁Sheet	-11718
▁ratified	-11719
▁Aquaculture	-11720
▁Translation	-11721
5-	-11722
rag	-11723
▁Mis	-11724
▁ger	-11725
▁LDCT	-11726
▁derog	-11727
ourcing	-11728
▁turned	-11729
▁careful	-11730
▁refugee	-11731
▁Approved	-11732
PI	-11733
▁lock	-11734
▁Solic	-11735
▁window	-11736
▁Islam	-11737
speaking	-11738
▁Example	-11739
▁visiting	-11740
▁advertise	-11741
▁Disability	-11742
▁Presidency	-11743
ediatric	-11744
tificial	-11745
▁2006-07	-11746
▁removing	-11747
▁deductions	-11748
▁economically	-11749
▁investigating	-11750
▁CFB	-11751
▁Mort	-11752
▁Sund	-11753
▁editor	-11754
▁Indones	-11755
▁Identify	-11756
▁focussed	-11757
▁watershed	-11758
▁appearance	-11759
itary	-11760
▁medi	-11761
etheless	-11762
▁laundering	-11763
▁CEO	-11764
▁DOC	-11765
▁gear	-11766
▁grand	-11767
▁deficiencies	-11768
▁governmental	-11769
CIAL	-11770
▁COUNCIL	-11771
▁remember	-11772
▁investigators	-11773
▁7.1	-11774
▁Kar	-11775
zheimer	-11776
▁practic	-11777
▁ingredient	-11778
▁reconstruction	-11779
.-	-11780
▁194	-11781
▁Get	-11782
ivable	-11783
▁Gross	-11784
sharing	-11785
▁(2002)	-11786
▁Taking	-11787
▁pieces	-11788
56	-11789
▁abol	-11790
orture	-11791
million	-11792
▁laying	-11793
▁regulate	-11794
▁varieties	-11795
▁validation	-11796
▁?	-11797
hus	-11798
uay	-11799
▁Num	-11800
iveness	-11801
▁captured	-11802
▁commemor	-11803
▁freshwater	-11804
▁settled	-11805
▁accurately	-11806
▁distinguish	-11807
▁accomplished	-11808
▁(50	-11809
algam	-11810
▁WORK	-11811
▁dimin	-11812
▁CORPOR	-11813
▁capita	-11814
▁invite	-11815
ifically	-11816
▁Factors	-11817
▁sending	-11818
▁admitted	-11819
▁sectoral	-11820
▁unnecessary	-11821
▁MEP	-11822
▁Moroc	-11823
▁adoles	-11824
▁emerged	-11825
▁outputs	-11826
▁petroleum	-11827
▁schedules	-11828
▁Transition	-11829
.08	-11830
rix	-11831
anger	-11832
▁broch	-11833
Section	-11834
▁Advance	-11835
▁overtime	-11836
▁summarized	-11837
▁Investigation	-11838
52	-11839
▁■	-11840
ITS	-11841
=200	-11842
▁Marg	-11843
▁ANNEX	-11844
▁printing	-11845
▁tradition	-11846
▁describing	-11847
▁competitors	-11848
▁psychological	-11849
94	-11850
erge	-11851
▁vig	-11852
▁Psych	-11853
▁occupied	-11854
run	-11855
▁ré	-11856
▁TRA	-11857
OVERN	-11858
leton	-11859
▁reti	-11860
▁impar	-11861
▁broadly	-11862
▁default	-11863
▁isolates	-11864
▁vertical	-11865
▁welcomes	-11866
▁recycling	-11867
isp	-11868
ndum	-11869
rell	-11870
locks	-11871
▁Proble	-11872
▁Referees	-11873
91	-11874
▁IMF	-11875
▁Duration	-11876
▁discovery	-11877
ENTI	-11878
edge	-11879
▁Like	-11880
▁Link	-11881
▁games	-11882
▁incomes	-11883
▁mixture	-11884
▁officially	-11885
▁MHz	-11886
▁Mine	-11887
▁battle	-11888
▁plasma	-11889
▁councils	-11890
▁forwarded	-11891
▁Schools	-11892
▁Macedonia	-11893
▁suffering	-11894
UAL	-11895
sct	-11896
phal	-11897
▁hus	-11898
venth	-11899
▁Cases	-11900
▁dispar	-11901
▁village	-11902
dec	-11903
rem	-11904
▁fo	-11905
▁RFP	-11906
▁Size	-11907
▁beef	-11908
▁racial	-11909
▁Content	-11910
▁Options	-11911
▁locally	-11912
▁residual	-11913
onie	-11914
▁Sher	-11915
▁hect	-11916
▁genes	-11917
▁envelop	-11918
▁sponsored	-11919
▁consequently	-11920
▁PRES	-11921
▁[200	-11922
▁intr	-11923
▁saying	-11924
▁closure	-11925
▁FN	-11926
▁lar	-11927
▁quot	-11928
▁antib	-11929
▁sodium	-11930
▁Partner	-11931
.14	-11932
▁NOC	-11933
▁Tom	-11934
born	-11935
onym	-11936
▁(40	-11937
inued	-11938
throp	-11939
▁unus	-11940
Figure	-11941
▁realize	-11942
▁harvesting	-11943
▁precipitation	-11944
▁Representatives	-11945
86	-11946
fold	-11947
▁lip	-11948
rames	-11949
▁Iceland	-11950
▁Managing	-11951
▁placement	-11952
▁suggesting	-11953
▁Establishment	-11954
▁incorporating	-11955
nrc	-11956
oli	-11957
stat	-11958
▁CAS	-11959
▁trig	-11960
▁nucle	-11961
▁intens	-11962
▁cluster	-11963
▁Approximately	-11964
▁inappropriate	-11965
▁DR	-11966
igan	-11967
rows	-11968
criptive	-11969
▁Context	-11970
▁Moncton	-11971
▁Pakistan	-11972
▁predicted	-11973
▁Accommodation	-11974
54	-11975
ky	-11976
dri	-11977
rugg	-11978
▁sear	-11979
▁ties	-11980
▁Dutch	-11981
▁revers	-11982
▁surveyed	-11983
▁competing	-11984
▁California	-11985
EV	-11986
.4%	-11987
CIS	-11988
vency	-11989
▁Move	-11990
▁Equal	-11991
culosis	-11992
▁frozen	-11993
▁Whether	-11994
▁tension	-11995
▁unreason	-11996
▁Commonwealth	-11997
lt	-11998
▁5/	-11999
▁PRE	-12000
▁inm	-12001
bsites	-12002
called	-12003
itious	-12004
▁Rates	-12005
▁ammon	-12006
▁towns	-12007
thritis	-12008
missible	-12009
▁tangible	-12010
▁Petroleum	-12011
▁Notwithstanding	-12012
apse	-12013
▁anc	-12014
▁HRDC	-12015
▁lived	-12016
▁Active	-12017
ibration	-12018
▁Judgment	-12019
.(	-12020
Ph	-12021
luor	-12022
▁son	-12023
omics	-12024
annual	-12025
▁childhood	-12026
ACK	-12027
▁EM	-12028
door	-12029
▁Hun	-12030
▁die	-12031
contract	-12032
▁carries	-12033
acceptable	-12034
720\	-12035
▁PROV	-12036
ectors	-12037
▁doctors	-12038
▁spatial	-12039
▁fulfilled	-12040
▁separated	-12041
4),	-12042
▁Malta	-12043
▁proteins	-12044
anz	-12045
▁CG	-12046
▁VAT	-12047
▁franc	-12048
reserve	-12049
▁herein	-12050
uberculosis	-12051
▁preference	-12052
▁connections	-12053
06	-12054
urse	-12055
▁wal	-12056
▁Host	-12057
▁Trib	-12058
▁Brief	-12059
▁2007-2008	-12060
hu	-12061
eches	-12062
while	-12063
▁disposed	-12064
▁fraction	-12065
▁designate	-12066
▁investing	-12067
▁Notification	-12068
▁accreditation	-12069
ym	-12070
▁900	-12071
▁Bird	-12072
▁friend	-12073
▁Conflict	-12074
▁maximize	-12075
▁Proposals	-12076
▁automated	-12077
obe	-12078
enna	-12079
▁ware	-12080
raising	-12081
▁subjected	-12082
▁exemptions	-12083
▁presenting	-12084
▁independently	-12085
tbs	-12086
▁Fee	-12087
▁eye	-12088
Based	-12089
▁Expl	-12090
▁APPRO	-12091
▁Purch	-12092
▁Tradem	-12093
▁internet	-12094
▁turnover	-12095
rif	-12096
▁FTE	-12097
ITIES	-12098
Trans	-12099
▁irre	-12100
enture	-12101
▁Fellow	-12102
▁twelve	-12103
▁architecture	-12104
▁individually	-12105
ql	-12106
▁DU	-12107
cond	-12108
▁alph	-12109
cyclop	-12110
▁nomination	-12111
▁door	-12112
itations	-12113
▁forming	-12114
▁preventive	-12115
mun	-12116
▁5-	-12117
grat	-12118
▁KGM	-12119
worth	-12120
▁Arti	-12121
▁Bridge	-12122
▁batter	-12123
▁holdings	-12124
▁particles	-12125
▁COMMISSION	-12126
ini	-12127
ogens	-12128
▁Spons	-12129
▁renov	-12130
53	-12131
▁BU	-12132
▁od	-12133
ogene	-12134
▁gluc	-12135
▁semi	-12136
▁Basin	-12137
▁wrote	-12138
▁stresses	-12139
▁decentral	-12140
▁veterinary	-12141
▁willingness	-12142
40-	-12143
▁LIM	-12144
inational	-12145
▁phenomenon	-12146
▁registrant	-12147
fi	-12148
▁CBC	-12149
▁moral	-12150
▁handled	-12151
▁Allowance	-12152
▁foundations	-12153
RAP	-12154
don	-12155
graphy	-12156
▁Fourth	-12157
▁philos	-12158
▁ensured	-12159
▁Together	-12160
▁mitigate	-12161
.40	-12162
anne	-12163
▁gift	-12164
▁Codes	-12165
▁dispos	-12166
▁assembly	-12167
▁Collective	-12168
▁Confederation	-12169
/99	-12170
▁(->	-12171
▁Tow	-12172
United	-12173
ichlor	-12174
▁Leave	-12175
ordinate	-12176
▁Spectrum	-12177
▁FM	-12178
▁py	-12179
educ	-12180
▁70%	-12181
▁ppm	-12182
patitis	-12183
▁Ground	-12184
▁muscle	-12185
▁Genetic	-12186
▁Unemployment	-12187
%09	-12188
%09&	-12189
velo	-12190
▁700	-12191
▁seeds	-12192
▁COMMIT	-12193
▁incomplete	-12194
▁comparisons	-12195
▁reimbursement	-12196
WN	-12197
INI	-12198
agn	-12199
ickel	-12200
business	-12201
▁Definitions	-12202
▁recognizing	-12203
▁performances	-12204
aly	-12205
atics	-12206
▁Corp	-12207
bursed	-12208
rafted	-12209
quarter	-12210
▁Retail	-12211
▁Enhance	-12212
▁Laurier	-12213
▁harbour	-12214
▁implies	-12215
▁Passport	-12216
▁dynamics	-12217
▁engaging	-12218
▁admission	-12219
▁nutrients	-12220
▁suitability	-12221
▁nevertheless	-12222
▁§	-12223
1).	-12224
Mail	-12225
▁sac	-12226
▁Maur	-12227
▁Redu	-12228
sector	-12229
▁Semin	-12230
▁2007-03	-12231
▁delayed	-12232
▁studying	-12233
.1.	-12234
mans	-12235
▁qui	-12236
irmed	-12237
▁burn	-12238
▁proc	-12239
▁Deleg	-12240
▁Slovakia	-12241
▁dramatic	-12242
▁recalled	-12243
▁credibility	-12244
▁Organizational	-12245
eriformes	-12246
▁minerals	-12247
▁restrict	-12248
Med	-12249
atin	-12250
▁Blood	-12251
▁autonomy	-12252
▁freedoms	-12253
▁referring	-12254
▁expressions	-12255
ahar	-12256
▁Pip	-12257
▁gun	-12258
▁visa	-12259
▁Banks	-12260
▁chloride	-12261
cellaneous	-12262
▁Complaints	-12263
▁assumption	-12264
▁subheading	-12265
▁Statistical	-12266
▁Comprehensive	-12267
▁administering	-12268
ruck	-12269
▁TECH	-12270
▁Influ	-12271
▁Armenia	-12272
▁auditor	-12273
▁lawyers	-12274
▁updates	-12275
iovascular	-12276
▁readiness	-12277
▁diplomatic	-12278
▁atmospheric	-12279
▁promotional	-12280
zip	-12281
▁Ill	-12282
▁Sar	-12283
▁Function	-12284
▁magazine	-12285
▁confirmation	-12286
-40	-12287
ado	-12288
▁mamm	-12289
orrect	-12290
▁Ambass	-12291
▁Rather	-12292
▁registry	-12293
▁convergence	-12294
▁harmonization	-12295
EE	-12296
▁pipe	-12297
▁Acting	-12298
▁diesel	-12299
▁advocacy	-12300
▁proponent	-12301
▁depression	-12302
▁immunization	-12303
.06	-12304
ATA	-12305
OCI	-12306
▁Hy	-12307
gans	-12308
▁[19	-12309
isite	-12310
▁TELUS	-12311
▁looks	-12312
▁piece	-12313
▁guides	-12314
▁cancellation	-12315
▁methodologies	-12316
▁8.2	-12317
added	-12318
▁None	-12319
▁senators	-12320
▁Challenge	-12321
▁interference	-12322
van	-12323
▁Bud	-12324
▁Jos	-12325
▁[6]	-12326
▁ult	-12327
▁HOME	-12328
▁Upper	-12329
▁hepatitis	-12330
name	-12331
▁dark	-12332
▁cryst	-12333
▁restore	-12334
▁attitude	-12335
▁tribunal	-12336
▁Alzheimer	-12337
▁computing	-12338
▁districts	-12339
dy	-12340
han	-12341
▁FO	-12342
elong	-12343
ingly	-12344
otton	-12345
▁Cash	-12346
▁Cree	-12347
▁boat	-12348
▁strugg	-12349
▁titles	-12350
▁fighting	-12351
▁facilitated	-12352
93	-12353
ORD	-12354
char	-12355
ighter	-12356
ortium	-12357
▁labels	-12358
▁observe	-12359
▁characteristic	-12360
▁MEM	-12361
▁Zone	-12362
▁info	-12363
regist	-12364
▁Egypt	-12365
▁Hague	-12366
▁fails	-12367
entions	-12368
▁Rescue	-12369
▁memory	-12370
▁relied	-12371
▁Instead	-12372
▁accumulated	-12373
▁_	-12374
.0%	-12375
VELOP	-12376
▁cart	-12377
▁neighb	-12378
treatment	-12379
▁Aircraft	-12380
Provincial	-12381
▁Structural	-12382
▁commodities	-12383
iac	-12384
▁104	-12385
iders	-12386
▁HMCS	-12387
cience	-12388
▁imprison	-12389
▁cancelled	-12390
▁occasions	-12391
▁GE	-12392
uity	-12393
▁ARE	-12394
ossil	-12395
reton	-12396
▁Body	-12397
taking	-12398
ordinary	-12399
▁Academy	-12400
▁vegetables	-12401
▁neighbourhood	-12402
▁lose	-12403
▁ballot	-12404
▁Fishing	-12405
▁Liaison	-12406
▁Economics	-12407
▁maternity	-12408
/09	-12409
oster	-12410
▁Show	-12411
▁spot	-12412
▁roots	-12413
▁beings	-12414
▁oceans	-12415
▁Quarter	-12416
▁failing	-12417
▁inhibit	-12418
▁manages	-12419
▁placing	-12420
▁constructive	-12421
mitt	-12422
▁$100	-12423
▁Battle	-12424
▁injured	-12425
▁radical	-12426
▁divisions	-12427
▁Infectious	-12428
▁Researchers	-12429
ICT	-12430
apt	-12431
asc	-12432
▁MOU	-12433
▁HEALTH	-12434
▁dumped	-12435
sibilities	-12436
▁arbitration	-12437
▁standardized	-12438
▁Ox	-12439
▁____	-12440
▁statis	-12441
pendable	-12442
▁Smoking	-12443
▁liaison	-12444
▁speakers	-12445
▁Indonesia	-12446
▁Producers	-12447
▁conventions	-12448
▁Superannuation	-12449
roke	-12450
ysts	-12451
▁Eur	-12452
▁Falls	-12453
▁absorb	-12454
▁Christian	-12455
▁proposing	-12456
▁targeting	-12457
▁distribute	-12458
▁Herzegovina	-12459
PO	-12460
▁bit	-12461
▁STATE	-12462
▁choos	-12463
▁depri	-12464
▁arrive	-12465
▁researcher	-12466
▁parliaments	-12467
▁(7)	-12468
▁210	-12469
Health	-12470
▁emotional	-12471
▁innovations	-12472
▁Specifically	-12473
pert	-12474
▁IND	-12475
▁Break	-12476
ectoral	-12477
▁Shared	-12478
▁broken	-12479
▁policing	-12480
eterminate	-12481
iff	-12482
agan	-12483
atom	-12484
geon	-12485
▁Jim	-12486
▁Heads	-12487
▁Laure	-12488
restrial	-12489
ICH	-12490
▁(70	-12491
▁957	-12492
itors	-12493
▁Camb	-12494
▁UNDP	-12495
atibility	-12496
▁prevented	-12497
"),	-12498
▁Na	-12499
tite	-12500
▁tom	-12501
▁attach	-12502
▁enacted	-12503
▁deducted	-12504
▁firearms	-12505
▁selecting	-12506
▁affordable	-12507
▁Appropriations	-12508
RB	-12509
auc	-12510
▁DPR	-12511
▁mice	-12512
▁Traff	-12513
▁insure	-12514
ficiency	-12515
▁clauses	-12516
vo	-12517
olly	-12518
▁COL	-12519
▁ISS	-12520
▁Nis	-12521
▁Bruce	-12522
▁plenary	-12523
▁retailers	-12524
KI	-12525
that	-12526
▁Dor	-12527
▁Fem	-12528
odies	-12529
▁Marsh	-12530
▁Metal	-12531
▁Andrew	-12532
▁artist	-12533
▁ascertain	-12534
▁contractors	-12535
▁Consideration	-12536
vie	-12537
erts	-12538
▁12.	-12539
▁Adver	-12540
▁morph	-12541
▁island	-12542
▁killed	-12543
gressive	-12544
▁Maximum	-12545
▁Existing	-12546
▁approves	-12547
▁superior	-12548
▁converted	-12549
▁charitable	-12550
cost	-12551
ÁÁÁÁ	-12552
▁180	-12553
▁alg	-12554
▁spok	-12555
▁Calls	-12556
▁fibres	-12557
▁DEVELOP	-12558
▁Campaign	-12559
▁Arrangements	-12560
▁incorporation	-12561
lose	-12562
▁(%)	-12563
▁Dia	-12564
▁Mel	-12565
/2001	-12566
posure	-12567
▁trace	-12568
▁Douglas	-12569
▁PROGRAM	-12570
▁reduces	-12571
▁downstream	-12572
IDE	-12573
OND	-12574
▁Esp	-12575
▁aids	-12576
▁vaccines	-12577
ships	-12578
▁User	-12579
ologic	-12580
▁Clerk	-12581
▁enorm	-12582
▁Integr	-12583
▁scrutiny	-12584
▁newspaper	-12585
▁safeguards	-12586
▁Constitutional	-12587
.1,	-12588
Part	-12589
otic	-12590
▁Pear	-12591
▁unsu	-12592
▁Greek	-12593
▁Edition	-12594
▁Turkish	-12595
▁exactly	-12596
committee	-12597
4).	-12598
LOY	-12599
lant	-12600
vert	-12601
third	-12602
▁prud	-12603
▁blank	-12604
▁robust	-12605
▁Guarant	-12606
▁examines	-12607
▁foregoing	-12608
▁executives	-12609
51	-12610
WS	-12611
etry	-12612
omer	-12613
soft	-12614
▁CHAP	-12615
ailand	-12616
▁Hudson	-12617
gression	-12618
▁Various	-12619
▁observer	-12620
▁inconsistent	-12621
▁traditionally	-12622
Or	-12623
asi	-12624
▁ENV	-12625
▁HTML	-12626
▁carb	-12627
▁trou	-12628
▁upcoming	-12629
▁appraisal	-12630
▁envisaged	-12631
▁Commissioners	-12632
-2-	-12633
det	-12634
win	-12635
▁4-	-12636
▁0.6	-12637
▁Deg	-12638
▁Emp	-12639
▁Jul	-12640
▁McM	-12641
▁$200	-12642
▁suffer	-12643
▁remarks	-12644
700	-12645
(2),	-12646
asse	-12647
▁stamp	-12648
▁($000)	-12649
▁linear	-12650
▁Violence	-12651
▁politics	-12652
▁revisions	-12653
▁Designated	-12654
▁ministerial	-12655
my	-12656
eneg	-12657
udinal	-12658
▁retrie	-12659
▁FINTRAC	-12660
▁Treaties	-12661
▁improper	-12662
▁respects	-12663
▁undertook	-12664
TK	-12665
▁OB	-12666
▁Sug	-12667
▁moist	-12668
▁spaces	-12669
▁Initial	-12670
▁Memorial	-12671
▁diameter	-12672
▁remedies	-12673
▁donations	-12674
▁terminated	-12675
laws	-12676
▁***	-12677
▁OHIM	-12678
▁(902)	-12679
▁Grain	-12680
▁Counter	-12681
▁linking	-12682
▁complied	-12683
▁advancing	-12684
▁theoretical	-12685
((	-12686
▁FIR	-12687
▁Mig	-12688
ounds	-12689
▁Answ	-12690
▁Just	-12691
weight	-12692
▁Carol	-12693
▁GOVERN	-12694
▁Belarus	-12695
▁Windsor	-12696
▁college	-12697
▁custody	-12698
▁dependence	-12699
dehyd	-12700
using	-12701
▁CIAT	-12702
▁Rout	-12703
▁ideal	-12704
▁pertin	-12705
▁whenever	-12706
▁delegates	-12707
▁incorrect	-12708
▁Biotechnology	-12709
best	-12710
▁cease	-12711
▁lumber	-12712
▁Equality	-12713
▁organize	-12714
.16	-12715
▁gall	-12716
▁gang	-12717
▁spoke	-12718
▁Scienti	-12719
.3%	-12720
film	-12721
oreal	-12722
▁Fall	-12723
▁Then	-12724
▁modest	-12725
▁potato	-12726
▁reflection	-12727
ITT	-12728
iral	-12729
▁FED	-12730
▁SYST	-12731
▁oversee	-12732
▁mutually	-12733
▁specially	-12734
▁attractive	-12735
▁contributor	-12736
▁6%	-12737
grap	-12738
▁Beh	-12739
▁slop	-12740
▁Banff	-12741
▁Exerc	-12742
▁champ	-12743
▁plastic	-12744
▁challenged	-12745
da	-12746
Que	-12747
ben	-12748
ibou	-12749
▁Bow	-12750
▁Dal	-12751
▁iii	-12752
▁incub	-12753
ressive	-12754
▁Actions	-12755
▁Disposal	-12756
▁statutes	-12757
▁Throughout	-12758
ADE	-12759
▁Po	-12760
▁CFI	-12761
▁Issu	-12762
▁enem	-12763
ritten	-12764
▁Offer	-12765
▁apart	-12766
▁bears	-12767
La	-12768
avik	-12769
▁Dial	-12770
▁quit	-12771
▁shif	-12772
▁filter	-12773
▁methyl	-12774
▁thermal	-12775
▁Hazardous	-12776
▁disasters	-12777
▁Highlights	-12778
▁continuation	-12779
▁distributors	-12780
▁questionnaires	-12781
LAN	-12782
▁GC	-12783
▁Ok	-12784
▁Si	-12785
ignty	-12786
▁Select	-12787
▁Failure	-12788
▁thousand	-12789
▁conditional	-12790
CY	-12791
itz	-12792
sur	-12793
▁DO	-12794
▁Hig	-12795
▁Club	-12796
▁gone	-12797
OURCES	-12798
▁Sports	-12799
▁ratios	-12800
▁altered	-12801
▁Continue	-12802
▁consumed	-12803
▁IA	-12804
(3)(	-12805
vised	-12806
▁Make	-12807
charge	-12808
▁Laval	-12809
▁Leban	-12810
▁trustee	-12811
▁Alternate	-12812
race	-12813
▁5.5	-12814
▁ACC	-12815
ordan	-12816
▁Cold	-12817
▁Coll	-12818
▁Gill	-12819
▁meal	-12820
▁TABLE	-12821
▁paras	-12822
▁archae	-12823
▁unders	-12824
▁2001-2002	-12825
urisdiction	-12826
ARS	-12827
▁9/	-12828
▁GO	-12829
▁103	-12830
▁steady	-12831
rentices	-12832
▁musical	-12833
▁discount	-12834
▁attempted	-12835
▁Preparation	-12836
▁Cad	-12837
▁Inn	-12838
IONAL	-12839
▁knew	-12840
▁Medium	-12841
▁Jacques	-12842
▁extends	-12843
▁experiencing	-12844
▁specification	-12845
07	-12846
▁EQU	-12847
▁Arms	-12848
▁wave	-12849
▁Daily	-12850
Ontario	-12851
▁Strong	-12852
▁enzyme	-12853
▁Captain	-12854
tifications	-12855
haus	-12856
▁Cod	-12857
▁FTA	-12858
▁adds	-12859
▁merits	-12860
▁modify	-12861
▁Mexican	-12862
▁Volunte	-12863
▁Assurance	-12864
LT	-12865
aded	-12866
aver	-12867
isted	-12868
▁Ride	-12869
▁SUPP	-12870
▁sout	-12871
losing	-12872
DUCTION	-12873
▁fluctu	-12874
▁amalgam	-12875
▁dignity	-12876
▁mileage	-12877
▁illustrate	-12878
▁institutes	-12879
UC	-12880
uba	-12881
▁TCE	-12882
▁Vacc	-12883
canada	-12884
▁Clark	-12885
▁Compet	-12886
▁carcin	-12887
▁mandated	-12888
▁Providing	-12889
▁Eurosystem	-12890
▁continuity	-12891
elt	-12892
▁EDG	-12893
▁Fif	-12894
▁pump	-12895
▁counts	-12896
▁Faculty	-12897
▁caution	-12898
▁suicide	-12899
▁maturity	-12900
▁convinced	-12901
▁compromise	-12902
EPP	-12903
éri	-12904
unior	-12905
▁basin	-12906
▁margins	-12907
▁contemporary	-12908
On	-12909
▁ESC	-12910
▁Goals	-12911
▁trout	-12912
▁Respect	-12913
discrimination	-12914
Sm	-12915
ONE	-12916
▁panels	-12917
▁optimal	-12918
atisfaction	-12919
▁incremental	-12920
6-	-12921
ups	-12922
▁da	-12923
▁alk	-12924
changed	-12925
▁neglig	-12926
▁calcium	-12927
▁Staffing	-12928
▁organizing	-12929
▁â	-12930
MAN	-12931
Par	-12932
vin	-12933
▁Ast	-12934
▁STR	-12935
▁(604)	-12936
▁2006)	-12937
▁Items	-12938
▁absent	-12939
▁recons	-12940
▁lasting	-12941
eorological	-12942
▁healthcare	-12943
▁SM	-12944
▁(51	-12945
▁Cyc	-12946
ateway	-12947
▁Niger	-12948
▁ethyl	-12949
entials	-12950
▁shelter	-12951
▁Explorer	-12952
▁coherence	-12953
▁nationality	-12954
ilty	-12955
▁7.2	-12956
▁Take	-12957
assion	-12958
ograms	-12959
▁francoph	-12960
▁hundreds	-12961
▁Facsimile	-12962
▁Comparison	-12963
▁Palestinian	-12964
▁unw	-12965
ordon	-12966
▁rooms	-12967
▁Korean	-12968
▁segments	-12969
▁sponsors	-12970
▁PAY	-12971
▁Ross	-12972
▁Domin	-12973
▁induced	-12974
▁illustrated	-12975
ESCO	-12976
/2000	-12977
▁pulp	-12978
▁Brian	-12979
▁Facts	-12980
▁TECHN	-12981
▁detain	-12982
▁poultry	-12983
▁Identity	-12984
▁Increasing	-12985
▁Stewardship	-12986
arel	-12987
obic	-12988
vate	-12989
▁phr	-12990
▁1950	-12991
▁canad	-12992
▁obesity	-12993
▁passage	-12994
▁Direction	-12995
▁federally	-12996
▁naturally	-12997
▁Strengthening	-12998
▁GM	-12999
rats	-13000
tiff	-13001
▁ACP	-13002
ompson	-13003
ounter	-13004
▁split	-13005
▁Campbell	-13006
▁Snow	-13007
▁tanks	-13008
▁intend	-13009
▁Liberal	-13010
▁systemic	-13011
▁yourself	-13012
vy	-13013
▁{	-13014
hma	-13015
ophistic	-13016
▁violent	-13017
▁royalties	-13018
FS	-13019
pi	-13020
▁1983	-13021
▁insp	-13022
▁Refugee	-13023
▁roughly	-13024
▁surfaces	-13025
▁Migration	-13026
▁Respondents	-13027
▁simultaneously	-13028
Ms	-13029
▁Ta	-13030
/00)	-13031
▁3.6	-13032
▁paint	-13033
▁ASSOCI	-13034
▁Express	-13035
▁constitution	-13036
LU	-13037
aid	-13038
▁7%	-13039
▁Gh	-13040
▁Ts	-13041
rone	-13042
▁(18	-13043
▁118	-13044
▁CENT	-13045
▁folk	-13046
utures	-13047
▁Solid	-13048
▁Better	-13049
▁patrol	-13050
▁yields	-13051
▁Morocco	-13052
▁wishing	-13053
▁wetlands	-13054
▁consisted	-13055
▁disciplinary	-13056
-2,	-13057
lyn	-13058
▁Guy	-13059
▁Sit	-13060
horse	-13061
ouncil	-13062
▁Satur	-13063
rolment	-13064
▁Thailand	-13065
▁obstacle	-13066
international	-13067
+00	-13068
2).	-13069
kers	-13070
▁amin	-13071
ilation	-13072
▁perpet	-13073
▁scores	-13074
▁elector	-13075
▁2:	-13076
▁AUTH	-13077
▁Wheat	-13078
▁modes	-13079
leading	-13080
▁wastes	-13081
▁reception	-13082
▁creativity	-13083
▁projections	-13084
▁preparedness	-13085
IRON	-13086
Line	-13087
+00:00	-13088
▁Swedish	-13089
▁analyze	-13090
cyclopedia	-13091
▁exploring	-13092
▁medicines	-13093
.]	-13094
AU	-13095
ght	-13096
TICE	-13097
anté	-13098
burn	-13099
▁$3,	-13100
▁Bat	-13101
▁PCBs	-13102
▁scales	-13103
▁grievance	-13104
▁Authorization	-13105
(6)	-13106
▁unt	-13107
▁weigh	-13108
▁uptake	-13109
arations	-13110
▁prolong	-13111
▁investor	-13112
▁magnetic	-13113
▁artificial	-13114
tir	-13115
▁Nisga	-13116
▁molec	-13117
▁ranged	-13118
▁seemed	-13119
rastruct	-13120
▁accused	-13121
▁undergo	-13122
▁Ray	-13123
effec	-13124
▁nort	-13125
▁pays	-13126
▁Deposit	-13127
▁interoper	-13128
▁Additionally	-13129
FO	-13130
emn	-13131
arer	-13132
cians	-13133
▁Brig	-13134
▁trem	-13135
▁meters	-13136
▁strictly	-13137
▁pertinent	-13138
▁Passeriformes	-13139
▁antimicrobial	-13140
LES	-13141
dem	-13142
▁WKH	-13143
▁Foods	-13144
▁bills	-13145
cession	-13146
▁Applicants	-13147
▁litigation	-13148
10,	-13149
mas	-13150
▁(15	-13151
ndrome	-13152
▁POLIC	-13153
▁inhib	-13154
▁Determin	-13155
▁gasoline	-13156
operatives	-13157
▁commencing	-13158
▁illustrates	-13159
IRE	-13160
TIV	-13161
bed	-13162
▁HAR	-13163
▁Ten	-13164
▁Balk	-13165
▁MUST	-13166
▁persu	-13167
▁avoided	-13168
▁extraction	-13169
▁assignments	-13170
▁demonstrating	-13171
▁tum	-13172
cence	-13173
ersed	-13174
program	-13175
▁optical	-13176
▁2000-2001	-13177
▁Frequently	-13178
2+	-13179
apes	-13180
lott	-13181
▁Fil	-13182
▁FORM	-13183
▁Const	-13184
▁shifts	-13185
▁Albania	-13186
▁nearest	-13187
published	-13188
▁Handbook	-13189
▁restrictive	-13190
▁819	-13191
▁NTA	-13192
▁Phil	-13193
▁fron	-13194
▁1992.	-13195
▁adjud	-13196
▁polar	-13197
▁Monteneg	-13198
▁globalization	-13199
▁EV	-13200
ager	-13201
▁ALL	-13202
▁Debt	-13203
▁SARS	-13204
▁NAICS	-13205
▁insec	-13206
▁eating	-13207
▁explored	-13208
▁Europeans	-13209
▁confident	-13210
▁advancement	-13211
éc	-13212
nam	-13213
home	-13214
enter	-13215
▁camer	-13216
▁restra	-13217
▁Chronic	-13218
▁reorgan	-13219
▁acquiring	-13220
▁taxpayers	-13221
▁Negotiations	-13222
▁commissioned	-13223
akh	-13224
iro	-13225
vol	-13226
hema	-13227
▁cuts	-13228
▁syner	-13229
▁Points	-13230
▁publishers	-13231
▁solidarity	-13232
▁translated	-13233
prot	-13234
▁Syd	-13235
▁urg	-13236
▁Duty	-13237
rovers	-13238
▁boats	-13239
▁raises	-13240
▁Opening	-13241
▁updating	-13242
▁reinforced	-13243
▁emergencies	-13244
lie	-13245
rea	-13246
▁Dam	-13247
▁Term	-13248
▁sleep	-13249
▁yellow	-13250
▁holiday	-13251
▁married	-13252
▁Deadline	-13253
▁disorder	-13254
▁exporting	-13255
▁commencement	-13256
Ps	-13257
DCs	-13258
URES	-13259
itan	-13260
▁VIA	-13261
▁pig	-13262
▁Eliz	-13263
ctoral	-13264
▁flying	-13265
▁Alcohol	-13266
▁CHAPTER	-13267
assessment	-13268
▁Ambassador	-13269
▁Nord	-13270
urable	-13271
▁fibre	-13272
▁juven	-13273
▁Former	-13274
▁faculty	-13275
▁museums	-13276
dependent	-13277
▁hardware	-13278
▁headings	-13279
▁guideline	-13280
▁remainder	-13281
▁distinguished	-13282
81	-13283
zes	-13284
▁IF	-13285
prov	-13286
▁Bad	-13287
▁Bol	-13288
atile	-13289
tique	-13290
▁reaff	-13291
ericton	-13292
▁organs	-13293
▁virtual	-13294
▁shipment	-13295
▁relocation	-13296
/20	-13297
ERG	-13298
▁Lot	-13299
▁Cath	-13300
▁miles	-13301
istance	-13302
)-	-13303
▁1989,	-13304
▁Kenya	-13305
▁conducts	-13306
▁Portugues	-13307
▁correctly	-13308
▁neighbouring	-13309
grou	-13310
ropol	-13311
▁MEPs	-13312
▁earn	-13313
▁conferred	-13314
▁influences	-13315
viet	-13316
▁CCCT	-13317
former	-13318
▁trades	-13319
▁shorter	-13320
▁adversely	-13321
▁prisoners	-13322
▁conceptual	-13323
▁Investments	-13324
▁Encyclopedia	-13325
▁Francophonie	-13326
OMM	-13327
loid	-13328
▁1.7	-13329
▁2020	-13330
▁SIMA	-13331
▁touch	-13332
▁congrat	-13333
▁approvals	-13334
▁regulators	-13335
▁photographs	-13336
▁vulnerability	-13337
notes	-13338
▁Much	-13339
▁Alaska	-13340
▁Storage	-13341
▁secured	-13342
▁Revision	-13343
▁balances	-13344
▁emergence	-13345
▁promising	-13346
▁appreciate	-13347
▁medication	-13348
▁Recognition	-13349
kin	-13350
lab	-13351
▁PROT	-13352
▁1993.	-13353
▁2005)	-13354
▁Restric	-13355
▁depreci	-13356
▁deferred	-13357
▁websites	-13358
▁sophistic	-13359
▁impression	-13360
▁allocations	-13361
▁communicating	-13362
HO	-13363
mers	-13364
▁song	-13365
▁Units	-13366
▁immune	-13367
▁guiding	-13368
▁referendum	-13369
▁imprisonment	-13370
▁unacceptable	-13371
dele	-13372
tele	-13373
▁Tier	-13374
▁herb	-13375
▁trips	-13376
▁Jordan	-13377
▁Parent	-13378
▁enrich	-13379
▁husband	-13380
▁recourse	-13381
▁cooperate	-13382
▁migratory	-13383
▁PSEA	-13384
Donald	-13385
▁SERVICE	-13386
▁Software	-13387
▁arranged	-13388
▁referral	-13389
▁apparently	-13390
▁Documentation	-13391
link	-13392
▁hem	-13393
▁baby	-13394
ipping	-13395
places	-13396
uition	-13397
▁EUROPA	-13398
▁Vienna	-13399
▁ENVIRON	-13400
▁answered	-13401
▁comprise	-13402
imensional	-13403
▁alignment	-13404
▁Consolidated	-13405
fast	-13406
ilst	-13407
▁breat	-13408
▁monitors	-13409
▁persistent	-13410
▁0,	-13411
▁2.6	-13412
▁Lord	-13413
▁army	-13414
▁migrant	-13415
▁Interior	-13416
▁charities	-13417
▁necessity	-13418
VD	-13419
osme	-13420
total	-13421
▁"...	-13422
Public	-13423
nement	-13424
▁Requests	-13425
▁mandates	-13426
▁Enterprises	-13427
▁nutritional	-13428
▁perceptions	-13429
▁Unfortunately	-13430
ags	-13431
▁Alg	-13432
▁NGO	-13433
▁Crop	-13434
▁Scot	-13435
▁Wild	-13436
▁hire	-13437
▁Result	-13438
▁marketed	-13439
▁commissions	-13440
/7	-13441
▁Ul	-13442
anes	-13443
▁PEI	-13444
▁cyt	-13445
liest	-13446
▁Marc	-13447
iploma	-13448
iration	-13449
▁Assets	-13450
▁Breton	-13451
▁aluminum	-13452
▁concentrate	-13453
▁eliminating	-13454
▁prospective	-13455
▁shareholders	-13456
▁administrators	-13457
.80	-13458
iler	-13459
▁108	-13460
▁Hur	-13461
otype	-13462
▁Analy	-13463
▁vitro	-13464
orption	-13465
▁tabling	-13466
▁drainage	-13467
▁lifetime	-13468
▁catalogue	-13469
▁weaknesses	-13470
▁continuously	-13471
Cs	-13472
5).	-13473
pin	-13474
fill	-13475
▁$40	-13476
▁NWT	-13477
adata	-13478
▁SARA	-13479
▁Virt	-13480
dehyde	-13481
▁argue	-13482
▁borne	-13483
▁evolved	-13484
▁2005-200	-13485
▁Elizabeth	-13486
▁attributes	-13487
▁discussing	-13488
▁initiation	-13489
▁Municipality	-13490
▁Representation	-13491
aug	-13492
▁EDC	-13493
Total	-13494
lders	-13495
▁Entry	-13496
▁creat	-13497
▁journalists	-13498
▁entrepreneur	-13499
▁220	-13500
March	-13501
icken	-13502
▁Wire	-13503
erated	-13504
▁Serge	-13505
▁Patents	-13506
▁Theatre	-13507
▁Teachers	-13508
▁endangered	-13509
.’	-13510
.07	-13511
STR	-13512
▁PhD	-13513
▁revis	-13514
support	-13515
▁Little	-13516
graduate	-13517
▁Portuguese	-13518
▁culturally	-13519
▁sovereignty	-13520
iop	-13521
pes	-13522
▁Os	-13523
▁kid	-13524
▁FIRST	-13525
▁Range	-13526
losures	-13527
▁Boards	-13528
▁continent	-13529
▁judgments	-13530
'.	-13531
po	-13532
POS	-13533
meta	-13534
▁75%	-13535
activ	-13536
iotic	-13537
omous	-13538
iatric	-13539
▁Aging	-13540
▁Reserves	-13541
▁portions	-13542
▁suggestion	-13543
▁secretariat	-13544
▁4%	-13545
▁Hu	-13546
IFIC	-13547
fall	-13548
▁moves	-13549
▁tight	-13550
▁talent	-13551
expected	-13552
▁aligned	-13553
▁dropped	-13554
lottetown	-13555
▁openness	-13556
▁warranted	-13557
elig	-13558
ffee	-13559
▁God	-13560
▁Ont	-13561
▁DIAND	-13562
▁couple	-13563
▁Promoting	-13564
▁Adjustment	-13565
/6	-13566
ères	-13567
▁PIP	-13568
▁1979	-13569
▁sail	-13570
▁annul	-13571
english	-13572
▁Muslim	-13573
▁argues	-13574
▁costly	-13575
▁Anderson	-13576
▁Colombia	-13577
▁Component	-13578
▁commenced	-13579
▁conviction	-13580
▁}	-13581
▁$50	-13582
▁123	-13583
▁ped	-13584
▁walls	-13585
▁drafted	-13586
▁statute	-13587
▁manifest	-13588
▁incumbent	-13589
▁decreasing	-13590
▁coordinator	-13591
▁Investigations	-13592
MG	-13593
GAN	-13594
quin	-13595
▁DRA	-13596
azines	-13597
▁Sunday	-13598
▁inland	-13599
▁noting	-13600
grounder	-13601
▁passing	-13602
▁pursuit	-13603
▁carriage	-13604
▁spawning	-13605
▁derivatives	-13606
▁examinations	-13607
2),	-13608
rium	-13609
▁tel	-13610
▁overw	-13611
▁debates	-13612
▁evening	-13613
▁perfect	-13614
▁Ecosystem	-13615
▁expressly	-13616
▁aggressive	-13617
▁Examination	-13618
▁disadvantaged	-13619
)?	-13620
/97	-13621
iced	-13622
aires	-13623
▁Ange	-13624
otions	-13625
▁Birds	-13626
▁Kyoto	-13627
▁Marks	-13628
▁interf	-13629
▁merger	-13630
▁string	-13631
▁reserved	-13632
▁comparing	-13633
▁Determination	-13634
▁107	-13635
istrib	-13636
▁penet	-13637
organic	-13638
▁AUTHOR	-13639
▁residues	-13640
▁classroom	-13641
Territorial	-13642
▁differently	-13643
▁temporarily	-13644
84	-13645
ITE	-13646
▁Mob	-13647
▁tab	-13648
▁pilots	-13649
▁voters	-13650
▁Facilit	-13651
▁recalls	-13652
▁selective	-13653
▁Montenegro	-13654
▁controvers	-13655
▁Architecture	-13656
=-	-13657
GS	-13658
.2)	-13659
LIA	-13660
RET	-13661
▁Fal	-13662
ennial	-13663
▁André	-13664
▁atoms	-13665
▁unusual	-13666
▁Thompson	-13667
▁colleges	-13668
▁hospitality	-13669
ja	-13670
ws	-13671
ulings	-13672
▁BOARD	-13673
▁exhibits	-13674
▁happened	-13675
▁informants	-13676
.1(	-13677
lle	-13678
▁TAR	-13679
eding	-13680
opard	-13681
riers	-13682
▁meter	-13683
▁Transf	-13684
▁categor	-13685
▁Voluntary	-13686
WE	-13687
▁Kb	-13688
▁ALDE	-13689
▁WADA	-13690
▁spin	-13691
▁Asked	-13692
▁Haiti	-13693
▁defer	-13694
▁stret	-13695
▁2007-08	-13696
▁trainees	-13697
▁constantly	-13698
TIN	-13699
ULE	-13700
dam	-13701
▁FY	-13702
LAND	-13703
▁1.8	-13704
bridge	-13705
essional	-13706
▁Charges	-13707
▁entries	-13708
▁parking	-13709
▁bulletin	-13710
▁compiled	-13711
information	-13712
▁Fredericton	-13713
▁systematically	-13714
/4	-13715
JEC	-13716
cfm	-13717
onal	-13718
▁Ens	-13719
▁mes	-13720
▁Star	-13721
▁pairs	-13722
▁enthus	-13723
▁Nursing	-13724
▁wireless	-13725
▁intervals	-13726
▁presently	-13727
▁Publishing	-13728
▁surprising	-13729
ès	-13730
▁Cat	-13731
▁corrid	-13732
▁plural	-13733
available	-13734
▁decreases	-13735
▁interface	-13736
▁unchanged	-13737
▁Millennium	-13738
▁productions	-13739
sum	-13740
▁HQ	-13741
▁coinc	-13742
▁utilized	-13743
▁resolving	-13744
▁Acquisition	-13745
▁ENVIRONMENT	-13746
isc	-13747
▁>>	-13748
▁pine	-13749
icious	-13750
▁timber	-13751
▁mapping	-13752
▁donation	-13753
▁pleasure	-13754
▁judgement	-13755
▁complicated	-13756
▁Modernization	-13757
▁Ly	-13758
▁13.	-13759
▁Jew	-13760
ATORY	-13761
▁stic	-13762
▁Saturday	-13763
▁Chemicals	-13764
▁Questionna	-13765
▁recruiting	-13766
▁unreasonable	-13767
▁DS	-13768
-198	-13769
XXXX	-13770
-2005	-13771
▁Adult	-13772
▁enemy	-13773
▁guilty	-13774
▁lawyer	-13775
▁Associates	-13776
ek	-13777
▁Loan	-13778
▁Peer	-13779
acters	-13780
▁reveal	-13781
▁contrad	-13782
▁expects	-13783
▁fitness	-13784
▁Officials	-13785
▁modelling	-13786
▁prominent	-13787
▁specimens	-13788
Ac	-13789
.21	-13790
June	-13791
abul	-13792
tised	-13793
▁duly	-13794
except	-13795
▁Books	-13796
▁liber	-13797
▁Epidem	-13798
▁Selected	-13799
▁Advertising	-13800
▁Proceedings	-13801
▁remediation	-13802
NF	-13803
añ	-13804
inus	-13805
▁201	-13806
▁4.0	-13807
EARCH	-13808
▁Very	-13809
▁push	-13810
umption	-13811
▁config	-13812
▁proxim	-13813
▁Modified	-13814
▁realities	-13815
▁Instrument	-13816
.17	-13817
▁BG	-13818
ENTS	-13819
orus	-13820
▁Umpire	-13821
ensitive	-13822
▁Achieve	-13823
▁audited	-13824
▁declare	-13825
▁tourist	-13826
▁Licensing	-13827
▁RESOURCES	-13828
▁Specialist	-13829
sch	-13830
▁GPT	-13831
▁Has	-13832
▁oils	-13833
▁Needs	-13834
▁hoped	-13835
▁legacy	-13836
▁restaur	-13837
▁pandemic	-13838
▁abandoned	-13839
▁fulfilling	-13840
▁Charlottetown	-13841
enh	-13842
inem	-13843
▁slip	-13844
▁Channel	-13845
▁islands	-13846
▁RESEARCH	-13847
▁Contractor	-13848
▁correlation	-13849
tle	-13850
ums	-13851
▁FS	-13852
/00;	-13853
Pierre	-13854
▁(416)	-13855
▁seals	-13856
▁prolif	-13857
ectivity	-13858
▁Freedom	-13859
▁drilling	-13860
▁prospect	-13861
▁valuation	-13862
▁REGULATIONS	-13863
▁accumulation	-13864
▁characterised	-13865
At	-13866
▁Ga	-13867
Note	-13868
made	-13869
▁VOC	-13870
▁PLAN	-13871
▁diagn	-13872
▁rarely	-13873
▁Village	-13874
▁postpon	-13875
▁accessed	-13876
▁credible	-13877
▁veterans	-13878
▁resistant	-13879
▁substitute	-13880
▁Civilization	-13881
fr	-13882
pur	-13883
▁cy	-13884
five	-13885
▁SUR	-13886
▁dece	-13887
▁norms	-13888
▁solve	-13889
▁Francis	-13890
▁differential	-13891
uma	-13892
acer	-13893
▁idrc	-13894
▁Conse	-13895
▁Until	-13896
▁Dispute	-13897
▁viruses	-13898
▁declines	-13899
▁Secondary	-13900
▁ambitious	-13901
▁corrections	-13902
▁Immunization	-13903
ETS	-13904
ius	-13905
▁CRT	-13906
▁(1),	-13907
▁overlap	-13908
▁therein	-13909
▁propriet	-13910
commercial	-13911
▁COMMITTEE	-13912
▁wheelchair	-13913
HI	-13914
ami	-13915
▁5)	-13916
▁craft	-13917
Exhibit	-13918
▁sewage	-13919
▁Savings	-13920
▁reverse	-13921
▁globally	-13922
respective	-13923
▁commented	-13924
▁sediments	-13925
▁Collections	-13926
▁Consultants	-13927
▁practitioner	-13928
ITION	-13929
▁1978	-13930
▁boys	-13931
ervice	-13932
▁surre	-13933
organisms	-13934
............	-13935
ultinational	-13936
▁harmonisation	-13937
TKF	-13938
unk	-13939
▁0.8	-13940
▁Ven	-13941
ISTER	-13942
▁Rose	-13943
▁empow	-13944
caution	-13945
▁10,000	-13946
▁Soviet	-13947
▁perman	-13948
financial	-13949
▁enormous	-13950
▁modernization	-13951
NRC	-13952
▁Toll	-13953
France	-13954
limited	-13955
▁Rideau	-13956
▁upgrade	-13957
▁effluent	-13958
▁rigorous	-13959
▁transnational	-13960
uous	-13961
▁Nan	-13962
ensed	-13963
▁severity	-13964
▁Stability	-13965
▁Eligibility	-13966
▁sponsorship	-13967
apped	-13968
▁didn	-13969
▁eyes	-13970
▁Neuro	-13971
▁Degree	-13972
▁Photos	-13973
▁2003-04	-13974
▁auditors	-13975
▁Entrepren	-13976
▁exercising	-13977
▁performers	-13978
imp	-13979
holm	-13980
▁15.	-13981
GRTKF	-13982
▁DATE	-13983
▁Shel	-13984
▁Balance	-13985
▁chaired	-13986
▁opposite	-13987
▁thematic	-13988
▁lifestyle	-13989
▁disturbance	-13990
enay	-13991
idal	-13992
▁Tal	-13993
▁parole	-13994
▁repeat	-13995
▁100,000	-13996
▁Welfare	-13997
▁caregivers	-13998
▁recreation	-13999
▁liberalization	-14000
ighth	-14001
▁anch	-14002
▁vill	-14003
forces	-14004
▁CATSA	-14005
▁Liber	-14006
▁Maria	-14007
▁Seniors	-14008
▁careers	-14009
▁deciding	-14010
▁retroactive	-14011
▁Considerations	-14012
hi	-14013
xi	-14014
▁RI	-14015
half	-14016
▁FAQ	-14017
▁Alger	-14018
▁Tower	-14019
▁ambient	-14020
▁advisors	-14021
▁profound	-14022
▁counterfe	-14023
dimensional	-14024
▁documentary	-14025
communication	-14026
▁peacekeeping	-14027
info	-14028
▁Gri	-14029
▁McL	-14030
▁GROUP	-14031
▁Tunis	-14032
verages	-14033
▁Estimated	-14034
▁displaced	-14035
ada	-14036
▁7/	-14037
▁GU	-14038
STRU	-14039
post	-14040
▁runs	-14041
▁fires	-14042
▁forums	-14043
▁photos	-14044
National	-14045
▁analyse	-14046
▁recipro	-14047
▁Critical	-14048
QG	-14049
1),	-14050
▁DM	-14051
▁ATR	-14052
ijing	-14053
▁dust	-14054
▁chose	-14055
▁clusters	-14056
Gu	-14057
.2%	-14058
gara	-14059
icon	-14060
▁Chic	-14061
▁Camer	-14062
▁fossil	-14063
▁coalition	-14064
▁emphasize	-14065
▁DEVELOPMENT	-14066
▁Therapeutic	-14067
▁Administrator	-14068
▁accomplishments	-14069
OT	-14070
mble	-14071
▁hat	-14072
▁inad	-14073
restim	-14074
▁Adobe	-14075
▁FINAN	-14076
setting	-14077
▁Auditors	-14078
▁designing	-14079
losed	-14080
▁1977	-14081
▁vice	-14082
indust	-14083
▁Pages	-14084
▁Markets	-14085
▁Promote	-14086
▁endorse	-14087
▁template	-14088
▁Coalition	-14089
▁accredited	-14090
▁́	-14091
estone	-14092
▁boxes	-14093
▁secre	-14094
▁Sample	-14095
▁insight	-14096
▁earliest	-14097
▁reconciliation	-14098
..."	-14099
▁STA	-14100
▁Syn	-14101
compe	-14102
erald	-14103
rying	-14104
▁Lunch	-14105
▁quotas	-14106
electric	-14107
▁Imports	-14108
▁LIMITED	-14109
▁mailing	-14110
▁massive	-14111
controlled	-14112
▁corrected	-14113
▁interconn	-14114
▁Implementing	-14115
%20	-14116
▁HA	-14117
Comp	-14118
Cons	-14119
▁Nov	-14120
child	-14121
haust	-14122
▁Harper	-14123
▁doping	-14124
▁beliefs	-14125
▁Guideline	-14126
▁successes	-14127
▁diversification	-14128
So	-14129
INGS	-14130
▁1988,	-14131
▁dairy	-14132
▁cohort	-14133
heastern	-14134
▁intense	-14135
▁shortly	-14136
▁exposures	-14137
▁collectively	-14138
kn	-14139
-4-	-14140
RES	-14141
▁EE	-14142
etus	-14143
tail	-14144
ranet	-14145
▁inev	-14146
erican	-14147
▁NORTH	-14148
▁Trail	-14149
▁APPROV	-14150
atherine	-14151
lamation	-14152
▁ceiling	-14153
▁dividends	-14154
▁Supervisory	-14155
map	-14156
vae	-14157
▁tract	-14158
▁builds	-14159
▁reward	-14160
aturated	-14161
essation	-14162
▁Poverty	-14163
▁Electricity	-14164
-98	-14165
▁fly	-14166
aylor	-14167
claim	-14168
▁salts	-14169
▁Berlin	-14170
▁delegate	-14171
▁Associations	-14172
Sc	-14173
eld	-14174
upp	-14175
DUCT	-14176
inea	-14177
offs	-14178
▁850	-14179
▁Ess	-14180
▁Jer	-14181
▁Stew	-14182
Quebec	-14183
▁Recre	-14184
▁coating	-14185
▁inhabit	-14186
▁Diabetes	-14187
▁adequacy	-14188
▁Substance	-14189
▁deadlines	-14190
▁personally	-14191
▁succession	-14192
HU	-14193
▁Postal	-14194
▁pupils	-14195
▁happens	-14196
▁characters	-14197
▁Appointment	-14198
5),	-14199
Dep	-14200
unn	-14201
▁3:	-14202
▁Ré	-14203
ried	-14204
▁Wet	-14205
▁Tool	-14206
▁erad	-14207
iagara	-14208
normal	-14209
▁Irish	-14210
▁precisely	-14211
▁simplified	-14212
▁thereafter	-14213
za	-14214
▁ble	-14215
▁shr	-14216
▁str	-14217
▁leak	-14218
▁NSERC	-14219
▁crises	-14220
▁disinf	-14221
▁Exports	-14222
▁Impacts	-14223
▁confined	-14224
▁clarified	-14225
▁upgrading	-14226
▁Controlled	-14227
▁importantly	-14228
▁terrestrial	-14229
BE	-14230
Min	-14231
noc	-14232
opic	-14233
▁LAC	-14234
antit	-14235
eyond	-14236
▁detri	-14237
▁meals	-14238
▁sight	-14239
▁PARLIA	-14240
▁outset	-14241
itudinal	-14242
▁2006-03	-14243
▁decides	-14244
▁symbols	-14245
rastructures	-14246
▁investigative	-14247
ETY	-14248
rapy	-14249
▁Far	-14250
▁cotton	-14251
viations	-14252
▁seafood	-14253
▁membrane	-14254
▁securing	-14255
▁wherever	-14256
13,	-14257
CAN	-14258
MIN	-14259
IVER	-14260
▁Tem	-14261
urate	-14262
▁vide	-14263
Ottawa	-14264
leting	-14265
owners	-14266
▁Chairs	-14267
▁feeling	-14268
▁petition	-14269
▁CORPORATION	-14270
▁Residential	-14271
ICA	-14272
benz	-14273
▁Rac	-14274
▁mic	-14275
▁Cere	-14276
▁doesn	-14277
▁custod	-14278
▁wonder	-14279
▁Reclass	-14280
▁tremend	-14281
ordinated	-14282
▁Corporal	-14283
▁learners	-14284
▁reservoir	-14285
▁positively	-14286
▁supervisors	-14287
▁dramatically	-14288
yr	-14289
MIS	-14290
fare	-14291
▁5.0	-14292
▁NCE	-14293
▁Bang	-14294
▁Corn	-14295
▁Gordon	-14296
▁furnish	-14297
▁Exercise	-14298
▁subclass	-14299
▁Budgetary	-14300
▁accelerate	-14301
élé	-14302
isure	-14303
▁Finn	-14304
▁wife	-14305
▁yearly	-14306
▁glucose	-14307
▁clearing	-14308
▁overhead	-14309
▁contracted	-14310
▁indeterminate	-14311
MAF	-14312
het	-14313
oes	-14314
ugg	-14315
=-=-	-14316
pine	-14317
▁HST	-14318
▁era	-14319
otypes	-14320
▁Mines	-14321
issance	-14322
▁blocks	-14323
▁caught	-14324
▁entail	-14325
authorized	-14326
▁finalized	-14327
▁DC	-14328
▁Eco	-14329
▁INV	-14330
▁bat	-14331
▁blind	-14332
▁fluor	-14333
▁allerg	-14334
▁informing	-14335
18)	-14336
▁PCH	-14337
▁Vic	-14338
▁eat	-14339
April	-14340
cents	-14341
▁(2),	-14342
▁Wall	-14343
istant	-14344
▁Agent	-14345
▁Death	-14346
mitting	-14347
function	-14348
▁Creation	-14349
▁analysed	-14350
▁Character	-14351
▁allowable	-14352
▁compensate	-14353
▁Disabilities	-14354
rip	-14355
▁8%	-14356
▁Ris	-14357
words	-14358
▁bone	-14359
▁swit	-14360
▁$1,000	-14361
▁EMPLOY	-14362
▁2008-200	-14363
▁claiming	-14364
▁drawings	-14365
▁interior	-14366
▁quarters	-14367
▁repayment	-14368
hermen	-14369
ounced	-14370
▁2002)	-14371
▁array	-14372
▁oxide	-14373
atching	-14374
▁DEPART	-14375
▁nominal	-14376
▁claimants	-14377
▁049	-14378
▁Laws	-14379
▁Figures	-14380
▁consultative	-14381
INS	-14382
ften	-14383
ivic	-14384
news	-14385
▁CTM	-14386
arked	-14387
▁Beau	-14388
▁lect	-14389
▁1991.	-14390
▁TRANS	-14391
▁Plants	-14392
▁segreg	-14393
▁taught	-14394
cellular	-14395
▁screened	-14396
▁regulating	-14397
▁Philippines	-14398
▁accelerated	-14399
■■	-14400
mus	-14401
ori	-14402
▁DB	-14403
seud	-14404
▁Beg	-14405
▁Gag	-14406
iciary	-14407
▁Lines	-14408
▁tends	-14409
▁refine	-14410
▁coupled	-14411
ochemical	-14412
▁Adoption	-14413
▁accepting	-14414
▁PARLIAMENT	-14415
▁inventions	-14416
RP	-14417
unt	-14418
hore	-14419
▁Did	-14420
▁pair	-14421
irical	-14422
▁INTRO	-14423
version	-14424
▁ranked	-14425
▁Judicial	-14426
▁envelope	-14427
▁verified	-14428
▁Alexander	-14429
▁dominated	-14430
▁engineers	-14431
▁impairment	-14432
FTA	-14433
loo	-14434
▁{\	-14435
rous	-14436
▁1).	-14437
▁Cou	-14438
▁EPO	-14439
▁McK	-14440
▁kill	-14441
▁OFFICE	-14442
▁matching	-14443
▁repealed	-14444
▁competency	-14445
▁appropriation	-14446
▁extraordinary	-14447
esis	-14448
meth	-14449
rals	-14450
▁14.	-14451
ateur	-14452
power	-14453
▁NIHB	-14454
▁doors	-14455
▁Column	-14456
▁cheque	-14457
▁cycles	-14458
▁reader	-14459
▁joining	-14460
insurance	-14461
▁Dialogue	-14462
▁Consumers	-14463
▁Specified	-14464
▁prioritiz	-14465
effectiveness	-14466
▁ECR	-14467
erman	-14468
▁Flow	-14469
▁cope	-14470
▁2007)	-14471
▁poore	-14472
liances	-14473
▁Clause	-14474
▁poster	-14475
▁talking	-14476
▁Measuring	-14477
▁economics	-14478
▁preferences	-14479
/94	-14480
▁102	-14481
▁FAS	-14482
▁vap	-14483
▁OSFI	-14484
driven	-14485
▁613-9	-14486
▁Stage	-14487
▁gifts	-14488
eliness	-14489
▁Across	-14490
▁grades	-14491
▁Exposure	-14492
▁contempl	-14493
▁Solutions	-14494
▁celebrate	-14495
▁Assessments	-14496
Pr	-14497
rot	-14498
▁RF	-14499
egal	-14500
wall	-14501
▁(25	-14502
▁Canal	-14503
▁ranks	-14504
gestion	-14505
process	-14506
station	-14507
▁Danish	-14508
▁Pharmac	-14509
▁Reasons	-14510
▁landing	-14511
▁nesting	-14512
▁unclear	-14513
▁Features	-14514
.1%	-14515
owl	-14516
/03/	-14517
▁$12	-14518
▁CER	-14519
▁Look	-14520
▁buff	-14521
iliary	-14522
ulsion	-14523
▁cance	-14524
ERATION	-14525
▁wished	-14526
learning	-14527
▁Johnson	-14528
▁Mississ	-14529
▁thereto	-14530
▁turning	-14531
▁allocate	-14532
▁epidemic	-14533
▁finances	-14534
▁invasive	-14535
▁Processes	-14536
▁reimbursed	-14537
sey	-14538
▁TER	-14539
member	-14540
▁faces	-14541
isations	-14542
▁Minimum	-14543
▁empower	-14544
▁attachment	-14545
▁physically	-14546
▁Submissions	-14547
/98	-14548
ilib	-14549
▁0.7	-14550
nesty	-14551
▁Hard	-14552
Employ	-14553
ambers	-14554
▁rocks	-14555
▁Unless	-14556
▁Freedoms	-14557
▁Multiple	-14558
▁confirms	-14559
▁foreseen	-14560
▁lifelong	-14561
▁tailored	-14562
▁ourselves	-14563
alo	-14564
▁95%	-14565
▁FRA	-14566
▁Fre	-14567
▁Flor	-14568
▁Util	-14569
iative	-14570
search	-14571
social	-14572
▁Seminar	-14573
▁Thunder	-14574
▁torture	-14575
▁validated	-14576
integration	-14577
▁coordinates	-14578
▁Establishments	-14579
6),	-14580
ATEG	-14581
tici	-14582
▁Hence	-14583
▁teach	-14584
located	-14585
▁Secure	-14586
▁wholly	-14587
Committee	-14588
▁spiritual	-14589
€"	-14590
agu	-14591
▁WE	-14592
lamm	-14593
▁191	-14594
▁Rod	-14595
▁Bear	-14596
▁ISBN	-14597
▁Costa	-14598
▁monop	-14599
▁pride	-14600
▁Competi	-14601
▁combine	-14602
▁journey	-14603
▁peaceful	-14604
▁Contracts	-14605
▁Universities	-14606
ths	-14607
yer	-14608
obia	-14609
apest	-14610
enger	-14611
▁ball	-14612
▁prey	-14613
Québec	-14614
▁Sydney	-14615
▁Angloph	-14616
▁moisture	-14617
▁Universal	-14618
▁benefited	-14619
▁behavioural	-14620
▁collaborate	-14621
▁extensively	-14622
▁facilitates	-14623
▁predominantly	-14624
max	-14625
.1.1	-14626
▁spon	-14627
andise	-14628
▁frust	-14629
induced	-14630
▁Louise	-14631
▁assists	-14632
▁payroll	-14633
▁repairs	-14634
▁explaining	-14635
ani	-14636
irk	-14637
▁Gi	-14638
agon	-14639
elph	-14640
▁Rus	-14641
▁GATS	-14642
▁REQU	-14643
erenced	-14644
▁Injury	-14645
▁safely	-14646
▁tackle	-14647
▁Niagara	-14648
▁Organic	-14649
▁entrust	-14650
▁correlated	-14651
▁settlements	-14652
▁statistically	-14653
▁0.9	-14654
▁Tai	-14655
▁Lang	-14656
▁Pros	-14657
▁[199	-14658
▁wear	-14659
▁hotel	-14660
AAAAAAAA	-14661
administ	-14662
▁2003-200	-14663
▁ministries	-14664
▁Francophones	-14665
.60	-14666
imb	-14667
irms	-14668
laci	-14669
▁RAD	-14670
iners	-14671
▁$10,	-14672
esterly	-14673
▁slowly	-14674
▁biggest	-14675
▁enjoyed	-14676
▁journals	-14677
▁enthusias	-14678
▁purchaser	-14679
▁inspectors	-14680
Ref	-14681
▁bon	-14682
▁Path	-14683
▁Españ	-14684
▁minute	-14685
▁Beijing	-14686
▁outdoor	-14687
▁Councils	-14688
▁Outreach	-14689
▁enrolled	-14690
▁Americans	-14691
pen	-14692
▁DA	-14693
▁EG	-14694
OUND	-14695
cles	-14696
▁(8)	-14697
books	-14698
▁horm	-14699
direct	-14700
▁TRIPS	-14701
▁2002-200	-14702
▁Messages	-14703
▁displays	-14704
▁shortage	-14705
▁reproduced	-14706
▁resolutions	-14707
▁Investigator	-14708
pc	-14709
ér	-14710
cie	-14711
▁NC	-14712
-360	-14713
dens	-14714
▁NFB	-14715
▁pest	-14716
pecies	-14717
▁ruled	-14718
▁urged	-14719
ierarch	-14720
▁Charge	-14721
▁freely	-14722
▁Abstract	-14723
▁chapters	-14724
▁platforms	-14725
▁specifies	-14726
WIPO	-14727
▁127	-14728
▁260	-14729
▁Vin	-14730
ppers	-14731
▁actu	-14732
[...]
