<unk>	0
<s>	0
</s>	0
▁t	-0
▁a	-1
in	-2
he	-3
on	-4
re	-5
ti	-6
er	-7
▁the	-8
an	-9
▁o	-10
en	-11
es	-12
or	-13
al	-14
▁p	-15
nd	-16
▁s	-17
▁c	-18
▁of	-19
▁in	-20
tion	-21
ro	-22
ed	-23
is	-24
▁f	-25
it	-26
▁and	-27
at	-28
ar	-29
ing	-30
▁C	-31
▁to	-32
ent	-33
▁w	-34
▁b	-35
ic	-36
▁m	-37
ation	-38
▁d	-39
▁re	-40
ec	-41
ad	-42
ou	-43
le	-44
▁T	-45
om	-46
as	-47
▁A	-48
ment	-49
ve	-50
il	-51
▁pro	-52
▁th	-53
▁e	-54
▁S	-55
st	-56
▁P	-57
ra	-58
ce	-59
▁n	-60
anad	-61
▁I	-62
00	-63
et	-64
▁Canad	-65
▁for	-66
▁h	-67
ver	-68
ur	-69
▁l	-70
ul	-71
ri	-72
ol	-73
▁2	-74
ts	-75
▁F	-76
▁M	-77
ly	-78
▁is	-79
ch	-80
se	-81
id	-82
▁g	-83
▁The	-84
▁(	-85
▁be	-86
▁con	-87
ge	-88
por	-89
▁on	-90
ter	-91
ity	-92
▁that	-93
ig	-94
im	-95
▁D	-96
lo	-97
▁1	-98
▁R	-99
uc	-100
ate	-101
ot	-102
▁com	-103
un	-104
ess	-105
▁as	-106
ers	-107
ir	-108
ion	-109
us	-110
ith	-111
ci	-112
▁E	-113
▁Canada	-114
el	-115
▁B	-116
▁or	-117
▁ex	-118
▁200	-119
ab	-120
ut	-121
ian	-122
▁with	-123
▁In	-124
▁N	-125
▁O	-126
ac	-127
▁are	-128
her	-129
▁st	-130
port	-131
ure	-132
▁de	-133
um	-134
qu	-135
▁an	-136
ect	-137
age	-138
▁by	-139
iti	-140
▁su	-141
ill	-142
ew	-143
pp	-144
▁Canadian	-145
ud	-146
ay	-147
duc	-148
▁al	-149
ram	-150
▁ac	-151
ff	-152
od	-153
▁H	-154
ations	-155
▁W	-156
und	-157
ult	-158
ist	-159
▁G	-160
res	-161
th	-162
ere	-163
▁y	-164
ow	-165
am	-166
▁L	-167
our	-168
gram	-169
▁•	-170
▁v	-171
▁inc	-172
op	-173
nt	-174
▁it	-175
ore	-176
ain	-177
▁wh	-178
tive	-179
__	-180
rom	-181
and	-182
em	-183
tic	-184
ld	-185
ust	-186
ear	-187
est	-188
orm	-189
▁Pro	-190
end	-191
ran	-192
art	-193
▁res	-194
▁im	-195
▁from	-196
iz	-197
▁cont	-198
ities	-199
ies	-200
ther	-201
if	-202
▁prov	-203
▁comp	-204
form	-205
▁at	-206
ments	-207
ational	-208
tiv	-209
▁comm	-210
gh	-211
ct	-212
ated	-213
▁not	-214
lic	-215
▁ad	-216
os	-217
ost	-218
▁sh	-219
over	-220
ance	-221
▁app	-222
tions	-223
▁en	-224
ue	-225
ak	-226
ork	-227
▁produc	-228
erv	-229
▁this	-230
▁U	-231
▁ha	-232
▁per	-233
lop	-234
ant	-235
▁$	-236
ire	-237
ber	-238
▁le	-239
ark	-240
ial	-241
able	-242
ag	-243
velop	-244
ub	-245
oc	-246
▁will	-247
ry	-248
up	-249
▁have	-250
ard	-251
ang	-252
ib	-253
so	-254
▁exp	-255
ould	-256
cess	-257
ary	-258
tern	-259
▁program	-260
▁ind	-261
▁ag	-262
all	-263
▁Con	-264
overn	-265
ap	-266
iv	-267
▁St	-268
▁3	-269
ep	-270
▁their	-271
omm	-272
og	-273
ric	-274
▁has	-275
▁ch	-276
iver	-277
ome	-278
ural	-279
ip	-280
▁was	-281
ign	-282
ervic	-283
rib	-284
ail	-285
ree	-286
ual	-287
▁-	-288
are	-289
▁19	-290
cial	-291
▁int	-292
ide	-293
ces	-294
igh	-295
ia	-296
ase	-297
▁r	-298
▁sp	-299
ents	-300
▁cons	-301
arket	-302
▁Re	-303
ount	-304
eral	-305
ood	-306
ors	-307
ich	-308
-0	-309
▁develop	-310
ine	-311
▁other	-312
▁Th	-313
lud	-314
▁year	-315
▁pl	-316
▁J	-317
▁commun	-318
pport	-319
▁he	-320
▁imp	-321
▁"	-322
ast	-323
formation	-324
angu	-325
lis	-326
use	-327
overnment	-328
ition	-329
▁man	-330
▁V	-331
▁which	-332
▁4	-333
ence	-334
ultural	-335
▁me	-336
low	-337
ade	-338
____	-339
eed	-340
▁reg	-341
ord	-342
▁par	-343
gan	-344
vel	-345
▁rec	-346
..	-347
▁gro	-348
▁its	-349
vi	-350
ren	-351
▁more	-352
ong	-353
▁ab	-354
▁As	-355
cip	-356
▁off	-357
ative	-358
act	-359
sion	-360
tit	-361
▁includ	-362
▁market	-363
per	-364
▁all	-365
▁fund	-366
ach	-367
▁und	-368
ari	-369
ee	-370
ell	-371
▁also	-372
econ	-373
▁resp	-374
ous	-375
▁work	-376
▁un	-377
▁under	-378
out	-379
▁incre	-380
▁qu	-381
▁Program	-382
▁Ag	-383
▁k	-384
▁can	-385
ervices	-386
ffic	-387
▁pub	-388
▁Comm	-389
▁whe	-390
ased	-391
ivers	-392
▁ar	-393
▁5	-394
jec	-395
olic	-396
▁us	-397
▁were	-398
▁ev	-399
▁new	-400
▁so	-401
▁over	-402
ical	-403
mp	-404
ection	-405
▁requ	-406
ternational	-407
enti	-408
ates	-409
▁dis	-410
ganiz	-411
one	-412
▁information	-413
ech	-414
ution	-415
ugh	-416
inal	-417
ility	-418
▁199	-419
ues	-420
▁This	-421
ive	-422
etw	-423
▁rel	-424
ex	-425
ater	-426
▁Ch	-427
erm	-428
tives	-429
▁out	-430
▁Q	-431
rough	-432
▁support	-433
oun	-434
ted	-435
▁tra	-436
iness	-437
▁been	-438
).	-439
ustry	-440
▁pre	-441
ures	-442
hip	-443
000	-444
▁des	-445
▁ass	-446
ject	-447
anguage	-448
usiness	-449
▁inv	-450
▁provid	-451
▁part	-452
ision	-453
-2	-454
rop	-455
tis	-456
ress	-457
ake	-458
▁ob	-459
▁Ex	-460
ific	-461
illion	-462
▁these	-463
▁than	-464
resent	-465
arch	-466
ism	-467
eg	-468
ens	-469
ll	-470
▁fin	-471
ite	-472
▁add	-473
ven	-474
ie	-475
ons	-476
▁sub	-477
▁Cont	-478
▁they	-479
▁6	-480
▁organiz	-481
▁Res	-482
oll	-483
umber	-484
▁str	-485
▁acc	-486
ok	-487
ible	-488
-1	-489
artment	-490
▁Un	-491
red	-492
ile	-493
ederal	-494
▁co	-495
ory	-496
ticip	-497
view	-498
ating	-499
ose	-500
▁we	-501
▁may	-502
▁you	-503
ages	-504
▁ins	-505
yst	-506
▁K	-507
een	-508
ax	-509
ied	-510
▁pri	-511
irect	-512
ever	-513
▁am	-514
olog	-515
▁need	-516
▁stud	-517
rans	-518
echn	-519
▁development	-520
▁2006	-521
▁such	-522
▁Ind	-523
▁j	-524
arm	-525
▁would	-526
▁through	-527
▁An	-528
righ	-529
▁one	-530
lish	-531
rit	-532
ace	-533
▁Ac	-534
ww	-535
tain	-536
▁Dep	-537
rade	-538
ince	-539
ystem	-540
▁rep	-541
ef	-542
hed	-543
ateg	-544
agement	-545
▁do	-546
▁services	-547
lement	-548
▁En	-549
get	-550
ings	-551
▁programs	-552
itage	-553
▁dec	-554
ports	-555
▁there	-556
ov	-557
▁public	-558
▁spec	-559
ected	-560
TI	-561
▁government	-562
les	-563
▁Man	-564
▁tim	-565
▁require	-566
▁Y	-567
▁activ	-568
ound	-569
ector	-570
▁eff	-571
▁funding	-572
▁For	-573
olicy	-574
rac	-575
▁applic	-576
ulture	-577
uring	-578
ame	-579
),	-580
▁ro	-581
ries	-582
▁It	-583
▁count	-584
ass	-585
▁import	-586
▁should	-587
iversity	-588
ack	-589
▁report	-590
▁cost	-591
amp	-592
.1	-593
ild	-594
▁cl	-595
▁2005	-596
rench	-597
▁iss	-598
ants	-599
▁New	-600
▁community	-601
▁use	-602
▁offic	-603
▁rese	-604
,000	-605
etween	-606
▁Min	-607
▁7	-608
ited	-609
econom	-610
aw	-611
▁French	-612
min	-613
ority	-614
ond	-615
▁process	-616
soci	-617
tim	-618
▁fir	-619
▁Department	-620
its	-621
cy	-622
ight	-623
old	-624
▁who	-625
▁million	-626
▁some	-627
▁particip	-628
ans	-629
▁contrib	-630
▁any	-631
▁ed	-632
▁years	-633
▁min	-634
▁between	-635
▁[	-636
▁production	-637
▁Ab	-638
▁grow	-639
ON	-640
▁industry	-641
ele	-642
als	-643
ning	-644
▁well	-645
utions	-646
▁econom	-647
cop	-648
ources	-649
▁number	-650
ister	-651
▁system	-652
ey	-653
▁di	-654
▁federal	-655
ners	-656
ission	-657
▁up	-658
ollow	-659
tt	-660
▁$1	-661
▁2007	-662
▁Her	-663
eren	-664
▁but	-665
wo	-666
▁level	-667
▁2004	-668
ancial	-669
▁Act	-670
ered	-671
▁Al	-672
▁gen	-673
mer	-674
▁Fran	-675
oth	-676
ont	-677
ality	-678
▁Offic	-679
▁pos	-680
alu	-681
▁8	-682
▁about	-683
▁research	-684
loy	-685
▁time	-686
omp	-687
________	-688
▁Ar	-689
▁av	-690
▁cent	-691
ort	-692
▁inter	-693
now	-694
ph	-695
▁–	-696
bec	-697
▁De	-698
▁international	-699
▁business	-700
▁cultural	-701
▁cre	-702
▁provide	-703
rad	-704
▁Government	-705
▁follow	-706
ob	-707
ration	-708
▁appro	-709
ract	-710
▁Sp	-711
ook	-712
.2	-713
▁9	-714
▁sign	-715
air	-716
itt	-717
echnolog	-718
ective	-719
reement	-720
▁trans	-721
ular	-722
▁Heritage	-723
oin	-724
▁dep	-725
▁most	-726
AN	-727
▁our	-728
▁access	-729
ional	-730
ines	-731
earch	-732
av	-733
▁products	-734
▁0	-735
▁dist	-736
▁must	-737
▁conc	-738
orld	-739
ption	-740
▁activities	-741
▁no	-742
ety	-743
▁into	-744
▁cap	-745
iod	-746
ervice	-747
road	-748
▁emp	-749
▁your	-750
▁pe	-751
▁two	-752
orig	-753
jects	-754
▁project	-755
▁form	-756
▁Ad	-757
ved	-758
▁bec	-759
original	-760
led	-761
ced	-762
▁el	-763
atives	-764
ward	-765
ER	-766
▁pur	-767
▁high	-768
ata	-769
ks	-770
▁avail	-771
▁We	-772
▁only	-773
▁lar	-774
▁group	-775
▁sector	-776
coph	-777
ays	-778
alth	-779
▁cur	-780
ble	-781
entif	-782
....	-783
▁instit	-784
▁ref	-785
ining	-786
ilm	-787
ss	-788
▁oper	-789
rent	-790
pos	-791
iron	-792
▁communities	-793
▁Wh	-794
ise	-795
▁provin	-796
▁disc	-797
▁educ	-798
very	-799
▁contin	-800
▁ens	-801
ru	-802
▁Canadians	-803
viron	-804
ability	-805
▁them	-806
▁coll	-807
▁Aboriginal	-808
▁rece	-809
▁]	-810
orpor	-811
▁each	-812
te	-813
▁language	-814
▁compan	-815
▁food	-816
▁sur	-817
▁det	-818
ults	-819
▁att	-820
▁organizations	-821
▁pers	-822
▁prom	-823
▁vari	-824
▁increase	-825
ys	-826
bers	-827
▁both	-828
erest	-829
ik	-830
▁mem	-831
▁On	-832
ally	-833
▁financial	-834
ES	-835
▁Minister	-836
▁made	-837
▁id	-838
vironment	-839
ca	-840
ized	-841
▁2003	-842
anguages	-843
▁how	-844
omes	-845
lan	-846
▁mon	-847
▁used	-848
▁available	-849
▁main	-850
▁Develop	-851
▁righ	-852
lp	-853
econd	-854
ency	-855
▁est	-856
aj	-857
▁val	-858
pportun	-859
▁consid	-860
enef	-861
▁Pub	-862
ees	-863
▁Cent	-864
▁dem	-865
▁Reg	-866
ators	-867
▁initi	-868
▁help	-869
▁App	-870
ool	-871
▁management	-872
▁Que	-873
▁pric	-874
▁adv	-875
▁objec	-876
▁perform	-877
▁plan	-878
▁term	-879
▁International	-880
▁including	-881
▁Inc	-882
▁meas	-883
▁exper	-884
▁del	-885
ital	-886
▁meet	-887
▁National	-888
ruc	-889
▁equ	-890
line	-891
ario	-892
▁impro	-893
▁policy	-894
▁10	-895
ove	-896
ange	-897
▁national	-898
wn	-899
▁first	-900
▁ra	-901
▁if	-902
ocu	-903
▁estab	-904
▁inf	-905
itions	-906
▁employ	-907
▁where	-908
▁interest	-909
▁represent	-910
ty	-911
▁indic	-912
.3	-913
ough	-914
▁sa	-915
▁pay	-916
der	-917
▁rem	-918
ined	-919
▁Par	-920
land	-921
▁How	-922
oard	-923
▁farm	-924
ient	-925
▁fore	-926
aking	-927
ank	-928
ges	-929
cent	-930
▁mod	-931
▁diff	-932
▁vis	-933
▁ann	-934
▁Francoph	-935
▁important	-936
▁within	-937
ties	-938
▁know	-939
▁travel	-940
OR	-941
▁gre	-942
▁implement	-943
▁provided	-944
▁projects	-945
▁those	-946
oura	-947
EN	-948
▁prof	-949
ten	-950
▁bu	-951
▁period	-952
▁addition	-953
▁official	-954
▁Cons	-955
yp	-956
▁Development	-957
▁strateg	-958
ntario	-959
▁Quebec	-960
ute	-961
▁Comp	-962
▁issues	-963
ix	-964
▁benef	-965
ause	-966
▁loc	-967
▁many	-968
uccess	-969
▁tot	-970
▁had	-971
ared	-972
▁fac	-973
ters	-974
▁data	-975
ases	-976
▁opportun	-977
▁sal	-978
ike	-979
▁direct	-980
ily	-981
ulation	-982
ople	-983
▁2002	-984
rin	-985
.5	-986
hen	-987
▁Research	-988
uth	-989
▁current	-990
tice	-991
usic	-992
▁set	-993
aluation	-994
cal	-995
▁&	-996
erence	-997
▁identif	-998
▁maj	-999
▁ensure	-1000
▁supp	-1001
ext	-1002
IS	-1003
hers	-1004
▁could	-1005
ize	-1006
ential	-1007
▁respons	-1008
▁include	-1009
▁following	-1010
▁costs	-1011
▁Ontario	-1012
io	-1013
▁aud	-1014
ful	-1015
minist	-1016
anc	-1017
▁$2	-1018
own	-1019
ting	-1020
eration	-1021
▁(1	-1022
echnology	-1023
▁vi	-1024
rain	-1025
▁design	-1026
opy	-1027
▁when	-1028
▁12	-1029
tics	-1030
▁Rec	-1031
▁growth	-1032
cep	-1033
▁results	-1034
▁consum	-1035
mall	-1036
omen	-1037
tif	-1038
ivid	-1039
▁distrib	-1040
▁economic	-1041
▁world	-1042
▁op	-1043
▁total	-1044
▁leg	-1045
edia	-1046
▁2001	-1047
▁partners	-1048
rol	-1049
▁20	-1050
ions	-1051
fore	-1052
▁key	-1053
▁def	-1054
▁signific	-1055
▁non	-1056
chool	-1057
sociation	-1058
ories	-1059
ick	-1060
RC	-1061
ature	-1062
ture	-1063
ommend	-1064
IC	-1065
▁Trade	-1066
▁invest	-1067
▁Services	-1068
ern	-1069
▁docu	-1070
▁Produc	-1071
▁comple	-1072
ination	-1073
▁Eng	-1074
▁Fund	-1075
ish	-1076
▁people	-1077
olum	-1078
▁There	-1079
riculture	-1080
▁result	-1081
▁country	-1082
verage	-1083
▁tre	-1084
▁ext	-1085
cil	-1086
▁low	-1087
▁cer	-1088
▁make	-1089
ittee	-1090
ving	-1091
ral	-1092
uman	-1093
▁Information	-1094
ample	-1095
▁trade	-1096
▁broad	-1097
iel	-1098
▁general	-1099
sp	-1100
▁education	-1101
▁being	-1102
ember	-1103
▁present	-1104
cri	-1105
itor	-1106
lished	-1107
▁fact	-1108
▁se	-1109
▁conf	-1110
-200	-1111
RA	-1112
orth	-1113
▁To	-1114
▁ent	-1115
ind	-1116
vey	-1117
TION	-1118
▁three	-1119
▁institutions	-1120
▁Direct	-1121
▁He	-1122
che	-1123
▁expected	-1124
▁review	-1125
▁quality	-1126
▁success	-1127
99	-1128
▁significant	-1129
ouncil	-1130
ross	-1131
▁Other	-1132
▁prac	-1133
IN	-1134
.4	-1135
▁Prov	-1136
istance	-1137
ness	-1138
▁Commun	-1139
▁These	-1140
▁percent	-1141
cast	-1142
ticular	-1143
eti	-1144
ibility	-1145
▁countries	-1146
ator	-1147
ocus	-1148
▁like	-1149
.0	-1150
▁members	-1151
▁lead	-1152
EC	-1153
▁invol	-1154
ividual	-1155
▁long	-1156
anding	-1157
▁increased	-1158
▁during	-1159
▁environment	-1160
etwork	-1161
oint	-1162
raph	-1163
▁ris	-1164
▁es	-1165
▁service	-1166
ource	-1167
▁particular	-1168
ogn	-1169
co	-1170
ording	-1171
az	-1172
errit	-1173
asing	-1174
urn	-1175
▁pop	-1176
ivery	-1177
▁order	-1178
▁account	-1179
▁Report	-1180
nov	-1181
▁students	-1182
▁provincial	-1183
▁Contract	-1184
▁Public	-1185
AL	-1186
lation	-1187
▁same	-1188
▁rate	-1189
▁|	-1190
andard	-1191
pl	-1192
hold	-1193
ask	-1194
▁application	-1195
atis	-1196
▁Commission	-1197
chie	-1198
▁ful	-1199
ield	-1200
ects	-1201
▁Me	-1202
▁address	-1203
ware	-1204
▁value	-1205
▁ret	-1206
▁person	-1207
▁So	-1208
▁needs	-1209
▁Industry	-1210
▁Co	-1211
▁small	-1212
50	-1213
▁Board	-1214
▁Centre	-1215
▁second	-1216
bert	-1217
ilities	-1218
otal	-1219
▁gu	-1220
▁experi	-1221
▁However	-1222
ote	-1223
▁met	-1224
▁bas	-1225
▁what	-1226
▁te	-1227
▁Agreement	-1228
ication	-1229
ice	-1230
▁resources	-1231
▁training	-1232
▁individual	-1233
▁objectives	-1234
roduc	-1235
▁based	-1236
▁rights	-1237
▁(2	-1238
ms	-1239
▁required	-1240
▁Official	-1241
▁11	-1242
▁companies	-1243
▁Per	-1244
▁tour	-1245
▁typ	-1246
fter	-1247
con	-1248
com	-1249
▁Business	-1250
▁chang	-1251
▁Council	-1252
▁very	-1253
▁areas	-1254
▁2000	-1255
▁Or	-1256
▁consult	-1257
▁US	-1258
▁achie	-1259
pr	-1260
▁good	-1261
▁respond	-1262
▁pot	-1263
▁◦	-1264
▁prot	-1265
rig	-1266
ledge	-1267
▁while	-1268
▁content	-1269
▁Market	-1270
▁hig	-1271
ming	-1272
-3	-1273
▁la	-1274
AR	-1275
▁focus	-1276
gest	-1277
▁water	-1278
ending	-1279
arly	-1280
▁related	-1281
▁go	-1282
alys	-1283
▁allow	-1284
▁auth	-1285
▁pres	-1286
▁car	-1287
▁Des	-1288
▁minority	-1289
ization	-1290
ately	-1291
▁English	-1292
urther	-1293
ived	-1294
▁groups	-1295
ework	-1296
ering	-1297
▁At	-1298
▁provides	-1299
uts	-1300
//	-1301
right	-1302
▁recogn	-1303
ttp	-1304
ramework	-1305
ricultural	-1306
▁shall	-1307
cies	-1308
▁large	-1309
://	-1310
▁poss	-1311
aterial	-1312
uch	-1313
▁IN	-1314
▁2006-0	-1315
me	-1316
▁Association	-1317
▁ph	-1318
▁school	-1319
ier	-1320
vision	-1321
meric	-1322
▁lim	-1323
▁tax	-1324
▁Ass	-1325
▁improve	-1326
▁among	-1327
▁less	-1328
▁et	-1329
udget	-1330
▁Plan	-1331
▁section	-1332
▁Gen	-1333
.,	-1334
▁Sup	-1335
▁show	-1336
▁health	-1337
tist	-1338
▁Date	-1339
range	-1340
▁15	-1341
▁example	-1342
▁United	-1343
mit	-1344
uce	-1345
▁contribution	-1346
▁Work	-1347
▁aff	-1348
▁mul	-1349
▁does	-1350
1,	-1351
▁University	-1352
▁evaluation	-1353
▁Acc	-1354
▁If	-1355
▁propos	-1356
ean	-1357
round	-1358
tical	-1359
▁impact	-1360
▁sim	-1361
language	-1362
."	-1363
▁performance	-1364
▁Ins	-1365
acity	-1366
▁Americ	-1367
▁specific	-1368
til	-1369
▁Policy	-1370
allen	-1371
▁govern	-1372
▁ques	-1373
▁2008	-1374
▁assess	-1375
▁determ	-1376
▁cle	-1377
▁recommend	-1378
▁Intern	-1379
▁her	-1380
▁own	-1381
tices	-1382
uture	-1383
alysis	-1384
▁sec	-1385
orities	-1386
.00	-1387
▁discus	-1388
aff	-1389
▁Management	-1390
▁crop	-1391
▁annual	-1392
ner	-1393
▁inst	-1394
▁see	-1395
▁http	-1396
▁compon	-1397
ended	-1398
▁because	-1399
arget	-1400
outh	-1401
▁rele	-1402
▁agree	-1403
other	-1404
▁Francophone	-1405
▁special	-1406
▁www	-1407
▁producers	-1408
abor	-1409
▁.	-1410
etter	-1411
hes	-1412
opyright	-1413
▁film	-1414
▁major	-1415
ring	-1416
ium	-1417
▁role	-1418
▁terms	-1419
▁book	-1420
www	-1421
▁demand	-1422
▁Bri	-1423
▁site	-1424
▁Cl	-1425
▁agreement	-1426
▁giv	-1427
▁enc	-1428
ouse	-1429
▁polic	-1430
▁2007-0	-1431
▁sales	-1432
ciety	-1433
erent	-1434
hib	-1435
CH	-1436
vate	-1437
ences	-1438
▁area	-1439
▁No	-1440
omestic	-1441
▁material	-1442
▁competi	-1443
▁reven	-1444
ients	-1445
cc	-1446
.6	-1447
ron	-1448
ars	-1449
▁administ	-1450
▁Part	-1451
▁Bank	-1452
iqu	-1453
hips	-1454
▁place	-1455
▁view	-1456
▁fe	-1457
conom	-1458
ropri	-1459
sel	-1460
▁cond	-1461
ug	-1462
ances	-1463
▁sel	-1464
af	-1465
▁music	-1466
▁since	-1467
▁product	-1468
▁average	-1469
▁Committee	-1470
▁Total	-1471
▁opportunities	-1472
▁remain	-1473
AF	-1474
▁requirements	-1475
▁control	-1476
elevision	-1477
▁decision	-1478
let	-1479
▁Tel	-1480
els	-1481
ically	-1482
▁sc	-1483
▁different	-1484
▁various	-1485
duce	-1486
encies	-1487
▁Ro	-1488
ications	-1489
▁respect	-1490
IT	-1491
gc	-1492
▁exist	-1493
▁found	-1494
▁strong	-1495
▁sug	-1496
ife	-1497
▁underst	-1498
▁levels	-1499
ret	-1500
0%	-1501
▁organization	-1502
▁March	-1503
▁effective	-1504
▁subs	-1505
▁Fin	-1506
berta	-1507
▁sit	-1508
tish	-1509
ulations	-1510
ified	-1511
vious	-1512
▁imm	-1513
▁case	-1514
▁works	-1515
▁Pri	-1516
ink	-1517
▁take	-1518
▁conduc	-1519
▁prep	-1520
▁languages	-1521
ina	-1522
▁state	-1523
▁cour	-1524
▁Imp	-1525
▁build	-1526
▁markets	-1527
▁Tra	-1528
▁regard	-1529
▁study	-1530
aries	-1531
ft	-1532
crib	-1533
▁income	-1534
▁find	-1535
.7	-1536
▁law	-1537
▁commit	-1538
ves	-1539
RO	-1540
fer	-1541
▁developed	-1542
▁Sen	-1543
13	-1544
▁Over	-1545
▁Internet	-1546
▁El	-1547
________________	-1548
▁price	-1549
atistics	-1550
AT	-1551
▁local	-1552
▁recent	-1553
▁Languages	-1554
airs	-1555
▁end	-1556
mary	-1557
▁associ	-1558
▁Web	-1559
ird	-1560
cription	-1561
▁Qu	-1562
ock	-1563
........	-1564
▁knowledge	-1565
▁foreign	-1566
▁Int	-1567
▁ser	-1568
urop	-1569
▁after	-1570
▁General	-1571
▁women	-1572
▁Ann	-1573
▁Food	-1574
▁reduc	-1575
.8	-1576
▁future	-1577
▁record	-1578
▁Ev	-1579
useum	-1580
otion	-1581
4,	-1582
▁Econom	-1583
▁artist	-1584
read	-1585
▁capacity	-1586
▁North	-1587
igible	-1588
▁concern	-1589
▁standard	-1590
▁establish	-1591
▁fam	-1592
▁NRC	-1593
ason	-1594
▁potential	-1595
ights	-1596
arter	-1597
▁increasing	-1598
▁better	-1599
agaz	-1600
pro	-1601
ction	-1602
atory	-1603
▁prin	-1604
ipment	-1605
▁All	-1606
ecial	-1607
▁Alberta	-1608
▁export	-1609
▁document	-1610
mb	-1611
▁across	-1612
▁British	-1613
lus	-1614
▁list	-1615
▁Im	-1616
irc	-1617
▁Dec	-1618
urs	-1619
▁Exp	-1620
▁amount	-1621
▁survey	-1622
▁target	-1623
▁regional	-1624
▁higher	-1625
ists	-1626
cept	-1627
▁appropri	-1628
the	-1629
▁participation	-1630
ED	-1631
mail	-1632
ograph	-1633
lob	-1634
▁18	-1635
▁Gu	-1636
▁continue	-1637
▁measures	-1638
▁culture	-1639
▁char	-1640
ecess	-1641
▁Director	-1642
bia	-1643
reng	-1644
▁share	-1645
▁risk	-1646
▁social	-1647
▁network	-1648
▁before	-1649
AD	-1650
▁Sh	-1651
arn	-1652
10	-1653
aken	-1654
perty	-1655
itob	-1656
▁profess	-1657
▁domestic	-1658
--	-1659
sw	-1660
au	-1661
▁relations	-1662
ibr	-1663
▁Le	-1664
▁Number	-1665
▁four	-1666
▁month	-1667
▁Is	-1668
ustice	-1669
ference	-1670
vention	-1671
▁due	-1672
▁trad	-1673
▁sk	-1674
▁challen	-1675
▁Gro	-1676
▁post	-1677
▁Agriculture	-1678
▁now	-1679
▁Sec	-1680
ones	-1681
▁last	-1682
everal	-1683
fact	-1684
▁Europ	-1685
ne	-1686
ames	-1687
▁Federal	-1688
▁States	-1689
▁initiatives	-1690
ticultural	-1691
AP	-1692
▁du	-1693
▁private	-1694
idence	-1695
though	-1696
▁occ	-1697
▁staff	-1698
▁$3	-1699
▁They	-1700
aim	-1701
▁What	-1702
▁exce	-1703
▁encoura	-1704
7,	-1705
▁funds	-1706
▁innov	-1707
▁delivery	-1708
iling	-1709
CC	-1710
▁With	-1711
▁Office	-1712
6,	-1713
▁integ	-1714
ancing	-1715
▁population	-1716
ery	-1717
▁cor	-1718
itoba	-1719
▁Pre	-1720
▁further	-1721
▁possible	-1722
.9	-1723
▁included	-1724
▁five	-1725
une	-1726
▁198	-1727
▁media	-1728
▁changes	-1729
ics	-1730
▁inform	-1731
itiz	-1732
wan	-1733
ued	-1734
▁arts	-1735
▁again	-1736
▁necess	-1737
▁refl	-1738
▁technology	-1739
askat	-1740
▁participants	-1741
▁Arts	-1742
▁approach	-1743
▁past	-1744
etail	-1745
hod	-1746
loc	-1747
▁Corpor	-1748
▁basis	-1749
▁lab	-1750
▁OF	-1751
for	-1752
▁Table	-1753
▁enh	-1754
ling	-1755
▁implementation	-1756
TC	-1757
estiv	-1758
▁whether	-1759
enses	-1760
IP	-1761
▁way	-1762
▁Ed	-1763
ident	-1764
▁Br	-1765
▁sum	-1766
based	-1767
▁benefits	-1768
▁child	-1769
▁13	-1770
▁Str	-1771
iversities	-1772
▁change	-1773
▁diversity	-1774
awa	-1775
lease	-1776
▁territ	-1777
▁received	-1778
▁established	-1779
▁issue	-1780
▁1,	-1781
▁estim	-1782
▁policies	-1783
▁clo	-1784
▁ver	-1785
▁real	-1786
ather	-1787
▁assistance	-1788
▁supply	-1789
▁Manitoba	-1790
endit	-1791
▁practices	-1792
▁additional	-1793
alf	-1794
rants	-1795
5,	-1796
▁Colum	-1797
▁act	-1798
▁1999	-1799
▁measure	-1800
istic	-1801
here	-1802
▁neg	-1803
▁agricultural	-1804
▁Trans	-1805
ufact	-1806
ercial	-1807
less	-1808
▁economy	-1809
▁conditions	-1810
▁full	-1811
▁budget	-1812
▁prices	-1813
▁distribution	-1814
▁action	-1815
▁cred	-1816
▁Service	-1817
▁aware	-1818
▁visit	-1819
▁working	-1820
▁Columbia	-1821
vis	-1822
fficient	-1823
▁hist	-1824
▁Saskat	-1825
artments	-1826
ging	-1827
ger	-1828
ATION	-1829
▁much	-1830
▁proble	-1831
▁play	-1832
OL	-1833
ention	-1834
▁appropriate	-1835
▁consider	-1836
▁Inter	-1837
▁analysis	-1838
▁using	-1839
▁streng	-1840
ually	-1841
▁mat	-1842
▁Support	-1843
▁given	-1844
ills	-1845
▁rest	-1846
▁grain	-1847
atus	-1848
riter	-1849
▁company	-1850
ash	-1851
▁Statistics	-1852
▁province	-1853
▁bel	-1854
uted	-1855
▁events	-1856
▁30	-1857
▁Mon	-1858
▁Mont	-1859
orts	-1860
▁care	-1861
ENT	-1862
▁tool	-1863
lobal	-1864
gin	-1865
ttawa	-1866
▁human	-1867
▁Aff	-1868
▁means	-1869
ilit	-1870
change	-1871
acts	-1872
▁provinces	-1873
▁Ph	-1874
ordin	-1875
UR	-1876
ept	-1877
utes	-1878
▁tourism	-1879
ets	-1880
▁agencies	-1881
day	-1882
▁web	-1883
▁Cultural	-1884
▁investment	-1885
▁overall	-1886
8,	-1887
▁Initi	-1888
▁Health	-1889
ID	-1890
▁billion	-1891
endent	-1892
till	-1893
▁indust	-1894
▁maintain	-1895
any	-1896
pose	-1897
lishers	-1898
ged	-1899
▁exam	-1900
ourable	-1901
▁struc	-1902
itive	-1903
▁corpor	-1904
▁2005-0	-1905
▁Instit	-1906
ule	-1907
holders	-1908
tity	-1909
▁pat	-1910
oper	-1911
▁Educ	-1912
▁best	-1913
▁certain	-1914
▁promote	-1915
way	-1916
▁marketing	-1917
AC	-1918
▁Prof	-1919
orial	-1920
▁greater	-1921
▁artists	-1922
▁systems	-1923
▁Ottawa	-1924
▁identified	-1925
vant	-1926
▁then	-1927
▁interview	-1928
▁Tour	-1929
▁range	-1930
▁framework	-1931
▁Dis	-1932
aring	-1933
▁While	-1934
lain	-1935
eness	-1936
ustom	-1937
ranch	-1938
itional	-1939
▁Mul	-1940
mission	-1941
▁Fir	-1942
▁Fax	-1943
▁activity	-1944
chewan	-1945
▁TH	-1946
▁several	-1947
▁14	-1948
rated	-1949
▁contain	-1950
▁field	-1951
▁his	-1952
▁liv	-1953
ury	-1954
▁orig	-1955
olun	-1956
▁Some	-1957
▁Organiz	-1958
acy	-1959
aper	-1960
▁few	-1961
▁developing	-1962
urance	-1963
rip	-1964
▁every	-1965
UL	-1966
urity	-1967
▁previous	-1968
lishing	-1969
▁/	-1970
▁component	-1971
reed	-1972
▁manag	-1973
▁Hon	-1974
▁departments	-1975
▁often	-1976
▁certif	-1977
▁Stud	-1978
%)	-1979
▁lo	-1980
▁considered	-1981
▁provision	-1982
▁land	-1983
wards	-1984
ribution	-1985
▁cover	-1986
▁respondents	-1987
vest	-1988
▁legis	-1989
▁includes	-1990
igital	-1991
▁Agency	-1992
site	-1993
▁regist	-1994
▁detail	-1995
adio	-1996
▁providing	-1997
pril	-1998
▁fun	-1999
▁Tele	-2000
▁eth	-2001
▁Affairs	-2002
ND	-2003
▁June	-2004
CO	-2005
ification	-2006
▁Jan	-2007
▁achieve	-2008
▁relative	-2009
▁even	-2010
akes	-2011
▁Strateg	-2012
man	-2013
iscal	-2014
▁exports	-2015
▁World	-2016
▁society	-2017
▁16	-2018
ectors	-2019
eb	-2020
2,	-2021
ris	-2022
▁25	-2023
▁fl	-2024
▁reports	-2025
▁eligible	-2026
ructure	-2027
▁right	-2028
rast	-2029
ck	-2030
▁request	-2031
▁short	-2032
▁stake	-2033
▁med	-2034
▁however	-2035
ense	-2036
▁PCH	-2037
▁describ	-2038
▁Saskatchewan	-2039
30	-2040
3,	-2041
▁read	-2042
▁noted	-2043
▁Aust	-2044
▁without	-2045
▁likely	-2046
▁agreements	-2047
▁Detail	-2048
▁audit	-2049
▁obtain	-2050
▁common	-2051
▁Economic	-2052
ched	-2053
▁method	-2054
operation	-2055
▁offer	-2056
ingu	-2057
▁rates	-2058
aid	-2059
▁involved	-2060
arks	-2061
oss	-2062
▁circ	-2063
onto	-2064
▁cri	-2065
ticulturalism	-2066
▁*	-2067
▁Fore	-2068
oronto	-2069
▁youth	-2070
to	-2071
▁Sub	-2072
ounts	-2073
▁experience	-2074
oung	-2075
term	-2076
▁region	-2077
▁identify	-2078
▁top	-2079
▁capital	-2080
rate	-2081
quent	-2082
incial	-2083
▁eng	-2084
echnical	-2085
▁television	-2086
▁did	-2087
▁claim	-2088
▁mand	-2089
ides	-2090
imum	-2091
▁Farm	-2092
▁undert	-2093
▁date	-2094
eek	-2095
▁Applic	-2096
▁purch	-2097
▁against	-2098
riteria	-2099
▁heritage	-2100
▁seed	-2101
▁collabor	-2102
▁necessary	-2103
▁sci	-2104
▁programming	-2105
▁Section	-2106
▁Agri	-2107
enditures	-2108
▁become	-2109
▁deal	-2110
▁First	-2111
gress	-2112
▁able	-2113
▁Human	-2114
▁Tre	-2115
▁Consult	-2116
▁April	-2117
▁diffic	-2118
▁outc	-2119
▁saf	-2120
▁recip	-2121
▁governments	-2122
ior	-2123
▁outs	-2124
ires	-2125
xim	-2126
ique	-2127
▁CM	-2128
iles	-2129
▁reported	-2130
go	-2131
▁model	-2132
▁universities	-2133
apan	-2134
▁institution	-2135
exic	-2136
▁opportunity	-2137
val	-2138
▁lic	-2139
▁apply	-2140
▁subject	-2141
▁hand	-2142
▁employees	-2143
▁responsible	-2144
▁open	-2145
▁const	-2146
▁Review	-2147
▁consist	-2148
ify	-2149
▁Toronto	-2150
▁Education	-2151
▁magaz	-2152
▁question	-2153
▁appear	-2154
):	-2155
▁Pl	-2156
ébec	-2157
onse	-2158
emp	-2159
▁17	-2160
echan	-2161
ectron	-2162
▁Val	-2163
year	-2164
▁State	-2165
▁still	-2166
▁Sector	-2167
AS	-2168
▁Honourable	-2169
▁call	-2170
estern	-2171
▁hold	-2172
ilar	-2173
▁air	-2174
@@	-2175
▁held	-2176
▁next	-2177
▁Community	-2178
▁belie	-2179
uk	-2180
▁event	-2181
▁technolog	-2182
-10	-2183
erences	-2184
ruit	-2185
▁sol	-2186
▁Project	-2187
▁sources	-2188
▁Japan	-2189
ouver	-2190
lia	-2191
▁Del	-2192
▁Mexic	-2193
▁down	-2194
▁suppl	-2195
▁gener	-2196
▁life	-2197
ourn	-2198
▁lower	-2199
▁1.	-2200
▁Programs	-2201
▁One	-2202
▁strategic	-2203
eptember	-2204
▁THE	-2205
▁Equ	-2206
umer	-2207
▁AP	-2208
▁Sport	-2209
ables	-2210
▁Rel	-2211
▁copyright	-2212
tiveness	-2213
▁efforts	-2214
ton	-2215
▁bar	-2216
▁back	-2217
atural	-2218
▁Group	-2219
▁Sum	-2220
▁trend	-2221
▁environmental	-2222
ules	-2223
Canad	-2224
▁More	-2225
▁revenues	-2226
60	-2227
ats	-2228
▁deb	-2229
uary	-2230
▁contact	-2231
▁Austral	-2232
▁doll	-2233
rative	-2234
▁reporting	-2235
casting	-2236
ME	-2237
▁limited	-2238
▁another	-2239
▁retail	-2240
▁stakeholders	-2241
▁existing	-2242
unsw	-2243
MP	-2244
unswick	-2245
200	-2246
▁exchange	-2247
40	-2248
▁Branch	-2249
roduction	-2250
▁princip	-2251
▁Cap	-2252
▁Cost	-2253
▁categ	-2254
itizens	-2255
estival	-2256
ither	-2257
▁Secret	-2258
ancouver	-2259
▁—	-2260
uly	-2261
▁strategy	-2262
liament	-2263
▁benefit	-2264
ependent	-2265
▁particularly	-2266
yal	-2267
▁December	-2268
ISTI	-2269
▁university	-2270
▁commercial	-2271
▁least	-2272
▁feed	-2273
▁contract	-2274
20	-2275
rial	-2276
▁firms	-2277
▁21	-2278
▁applications	-2279
▁making	-2280
▁che	-2281
▁consumer	-2282
▁May	-2283
70	-2284
▁fran	-2285
▁cases	-2286
▁standards	-2287
▁meeting	-2288
▁Com	-2289
▁immig	-2290
ann	-2291
▁third	-2292
▁Travel	-2293
▁manufact	-2294
▁Québec	-2295
,"	-2296
erg	-2297
▁final	-2298
ower	-2299
▁oil	-2300
eak	-2301
▁similar	-2302
▁property	-2303
▁objective	-2304
▁class	-2305
anced	-2306
roll	-2307
▁great	-2308
▁September	-2309
▁promotion	-2310
stain	-2311
oti	-2312
▁CAN	-2313
elines	-2314
19	-2315
▁sustain	-2316
▁Tourism	-2317
▁legal	-2318
▁audi	-2319
-9	-2320
▁situ	-2321
▁discussion	-2322
▁beh	-2323
▁Resources	-2324
▁CR	-2325
▁agriculture	-2326
ideo	-2327
lu	-2328
▁Mr	-2329
▁payments	-2330
▁Meas	-2331
▁documents	-2332
▁Description	-2333
▁mechan	-2334
inc	-2335
▁regions	-2336
put	-2337
▁planning	-2338
ST	-2339
▁writ	-2340
mar	-2341
▁TV	-2342
-11	-2343
food	-2344
▁submit	-2345
▁1998	-2346
row	-2347
▁Vancouver	-2348
osition	-2349
▁Film	-2350
▁compared	-2351
▁above	-2352
ré	-2353
▁understanding	-2354
AFC	-2355
gether	-2356
▁together	-2357
▁Brunswick	-2358
▁American	-2359
▁children	-2360
▁ath	-2361
▁ele	-2362
▁currently	-2363
light	-2364
▁largest	-2365
thern	-2366
▁Sci	-2367
EL	-2368
▁decre	-2369
▁department	-2370
);	-2371
▁plans	-2372
▁initiative	-2373
tivity	-2374
▁professional	-2375
▁global	-2376
▁Su	-2377
▁Sur	-2378
▁criteria	-2379
▁organ	-2380
ends	-2381
▁sport	-2382
▁$5	-2383
▁cho	-2384
▁importance	-2385
atic	-2386
▁point	-2387
▁January	-2388
▁Music	-2389
▁ethn	-2390
▁fiscal	-2391
▁sup	-2392
EM	-2393
▁adop	-2394
▁Form	-2395
ecting	-2396
ruction	-2397
▁assist	-2398
▁Am	-2399
▁Car	-2400
ximately	-2401
▁CO	-2402
vent	-2403
ins	-2404
▁41	-2405
ours	-2406
reg	-2407
▁growing	-2408
▁return	-2409
iter	-2410
▁ve	-2411
▁enter	-2412
▁months	-2413
▁purpose	-2414
▁(6	-2415
arning	-2416
▁Justice	-2417
▁bi	-2418
▁Home	-2419
▁Funding	-2420
aching	-2421
▁awareness	-2422
▁i	-2423
rant	-2424
sed	-2425
▁said	-2426
▁La	-2427
rastructure	-2428
RI	-2429
▁successful	-2430
tia	-2431
▁Environment	-2432
olle	-2433
▁quarter	-2434
ilingual	-2435
▁protection	-2436
▁sectors	-2437
ecu	-2438
▁materials	-2439
▁bal	-2440
▁Resp	-2441
▁position	-2442
CI	-2443
▁exhib	-2444
ober	-2445
▁Technology	-2446
▁custom	-2447
poses	-2448
iance	-2449
-8	-2450
king	-2451
acter	-2452
oney	-2453
ctober	-2454
▁generally	-2455
▁Lab	-2456
▁volun	-2457
▁challenges	-2458
▁extent	-2459
ox	-2460
▁directly	-2461
ready	-2462
Food	-2463
▁receive	-2464
idelines	-2465
▁multi	-2466
▁payment	-2467
onst	-2468
▁100	-2469
-12	-2470
▁employment	-2471
▁day	-2472
▁soil	-2473
▁grad	-2474
▁early	-2475
▁suggest	-2476
edi	-2477
9,	-2478
ectronic	-2479
▁Year	-2480
▁produced	-2481
▁she	-2482
▁equipment	-2483
▁skills	-2484
▁dra	-2485
▁individuals	-2486
ably	-2487
▁Out	-2488
▁Govern	-2489
▁below	-2490
▁taken	-2491
▁majority	-2492
ley	-2493
▁difficult	-2494
▁funded	-2495
▁reason	-2496
▁look	-2497
▁ON	-2498
▁exc	-2499
▁digital	-2500
TS	-2501
▁tr	-2502
▁monitor	-2503
▁AND	-2504
▁link	-2505
▁Nov	-2506
▁factors	-2507
▁expenses	-2508
▁studies	-2509
▁contributions	-2510
▁around	-2511
▁Win	-2512
The	-2513
going	-2514
▁ability	-2515
▁conducted	-2516
▁determine	-2517
▁facilit	-2518
action	-2519
▁Sco	-2520
▁purposes	-2521
ibrary	-2522
▁appl	-2523
▁Leg	-2524
▁positive	-2525
▁paid	-2526
▁create	-2527
▁type	-2528
DP	-2529
▁indicated	-2530
aches	-2531
▁mar	-2532
▁outside	-2533
DF	-2534
▁regarding	-2535
▁South	-2536
▁complete	-2537
▁System	-2538
▁Dist	-2539
ternal	-2540
▁Although	-2541
▁priorities	-2542
▁expenditures	-2543
▁Administ	-2544
▁art	-2545
▁adver	-2546
▁name	-2547
▁associated	-2548
ale	-2549
letes	-2550
▁October	-2551
▁Women	-2552
▁Rights	-2553
▁50	-2554
nership	-2555
▁promot	-2556
eep	-2557
▁effect	-2558
equ	-2559
ops	-2560
▁Bu	-2561
lantic	-2562
ave	-2563
▁comb	-2564
▁already	-2565
▁2008-0	-2566
▁mechanism	-2567
▁buy	-2568
▁European	-2569
▁Pat	-2570
▁tools	-2571
▁cal	-2572
▁China	-2573
▁producer	-2574
ests	-2575
mber	-2576
ruary	-2577
ecutive	-2578
ebruary	-2579
▁Initiative	-2580
onn	-2581
ices	-2582
ections	-2583
ising	-2584
▁credit	-2585
▁designed	-2586
11	-2587
▁young	-2588
ovember	-2589
▁Pa	-2590
▁Production	-2591
▁goods	-2592
ious	-2593
inguistic	-2594
cas	-2595
▁Particip	-2596
▁active	-2597
▁transfer	-2598
▁consumers	-2599
▁1997	-2600
▁member	-2601
▁relevant	-2602
▁etc	-2603
▁created	-2604
ht	-2605
▁deg	-2606
new	-2607
ked	-2608
▁free	-2609
▁page	-2610
▁close	-2611
▁net	-2612
▁clear	-2613
▁might	-2614
▁Financial	-2615
▁Access	-2616
▁family	-2617
▁Language	-2618
▁Germ	-2619
atab	-2620
▁types	-2621
▁reduce	-2622
▁enhance	-2623
▁questions	-2624
-4	-2625
pecial	-2626
▁$4	-2627
▁When	-2628
▁begin	-2629
▁assessment	-2630
▁Cal	-2631
raz	-2632
time	-2633
▁emer	-2634
inks	-2635
▁Pe	-2636
DU	-2637
rep	-2638
ommun	-2639
▁Pres	-2640
▁encourage	-2641
not	-2642
▁Emp	-2643
▁negoti	-2644
oliti	-2645
▁representatives	-2646
▁Contact	-2647
▁22	-2648
ised	-2649
▁industries	-2650
▁(3	-2651
▁either	-2652
▁outcomes	-2653
most	-2654
▁Aud	-2655
▁structure	-2656
▁Scotia	-2657
rup	-2658
phone	-2659
▁Nova	-2660
ned	-2661
▁fall	-2662
luding	-2663
▁Und	-2664
▁February	-2665
▁strategies	-2666
1)	-2667
▁demonst	-2668
▁Prot	-2669
▁host	-2670
▁plant	-2671
▁2004-0	-2672
▁wide	-2673
▁author	-2674
eal	-2675
▁Tax	-2676
▁agri	-2677
▁forecast	-2678
▁pass	-2679
▁Name	-2680
pecially	-2681
▁dest	-2682
ired	-2683
▁Games	-2684
▁Foreign	-2685
US	-2686
▁coordin	-2687
▁1996	-2688
mination	-2689
▁learning	-2690
▁ow	-2691
oh	-2692
▁publishers	-2693
unic	-2694
▁alloc	-2695
▁Value	-2696
▁move	-2697
TA	-2698
endix	-2699
ath	-2700
▁serv	-2701
▁Parliament	-2702
▁creation	-2703
▁proposed	-2704
eleb	-2705
film	-2706
▁Festival	-2707
▁gain	-2708
ives	-2709
▁team	-2710
etary	-2711
ingle	-2712
▁Coll	-2713
▁start	-2714
▁announ	-2715
▁nature	-2716
▁commitment	-2717
▁legislation	-2718
▁home	-2719
▁contribute	-2720
▁Delivery	-2721
entity	-2722
▁Action	-2723
▁ide	-2724
▁lack	-2725
iverse	-2726
▁proced	-2727
▁bank	-2728
▁Island	-2729
ceed	-2730
▁November	-2731
▁NS	-2732
▁Atlantic	-2733
▁operations	-2734
TM	-2735
▁And	-2736
tise	-2737
aly	-2738
▁Ob	-2739
unicip	-2740
▁trip	-2741
ulated	-2742
▁Indust	-2743
mon	-2744
izing	-2745
▁Copyright	-2746
80	-2747
▁23	-2748
▁By	-2749
ensive	-2750
▁others	-2751
▁imports	-2752
▁online	-2753
of	-2754
▁Province	-2755
orn	-2756
▁security	-2757
▁treat	-2758
▁PRO	-2759
▁acqu	-2760
▁according	-2761
▁Museum	-2762
▁museum	-2763
▁Add	-2764
▁influ	-2765
▁educational	-2766
▁asp	-2767
▁aim	-2768
▁CANAD	-2769
▁Pr	-2770
▁safety	-2771
ology	-2772
anti	-2773
olume	-2774
4)	-2775
▁+	-2776
▁processing	-2777
▁July	-2778
▁response	-2779
▁Framework	-2780
▁expect	-2781
EP	-2782
▁approximately	-2783
▁Af	-2784
▁decl	-2785
▁leaders	-2786
ili	-2787
▁subst	-2788
▁pack	-2789
ergy	-2790
▁six	-2791
ervation	-2792
▁athletes	-2793
▁independent	-2794
rown	-2795
KH	-2796
ises	-2797
▁innovation	-2798
▁Nations	-2799
▁especially	-2800
rid	-2801
igure	-2802
▁source	-2803
▁Corporation	-2804
▁Rep	-2805
▁primary	-2806
ple	-2807
▁eas	-2808
▁Media	-2809
▁context	-2810
▁Air	-2811
dic	-2812
▁having	-2813
▁press	-2814
▁Since	-2815
elling	-2816
▁fair	-2817
ems	-2818
aus	-2819
▁occur	-2820
▁Territ	-2821
▁Implement	-2822
▁loss	-2823
▁progress	-2824
▁revenue	-2825
▁values	-2826
▁poin	-2827
rand	-2828
eting	-2829
▁sound	-2830
▁Assistance	-2831
▁competitive	-2832
▁II	-2833
found	-2834
▁AAFC	-2835
▁just	-2836
▁labour	-2837
▁want	-2838
▁Our	-2839
▁technical	-2840
▁offered	-2841
portion	-2842
▁Programming	-2843
▁get	-2844
itation	-2845
ians	-2846
▁size	-2847
▁Network	-2848
▁Under	-2849
ode	-2850
▁evidence	-2851
▁express	-2852
-31	-2853
▁needed	-2854
▁completed	-2855
portation	-2856
▁consistent	-2857
iss	-2858
▁office	-2859
ried	-2860
▁building	-2861
▁Regional	-2862
▁mandate	-2863
▁accord	-2864
▁applicant	-2865
▁CA	-2866
▁Western	-2867
▁Evaluation	-2868
na	-2869
reen	-2870
▁partnership	-2871
ING	-2872
ream	-2873
▁ess	-2874
▁evalu	-2875
▁here	-2876
▁schools	-2877
▁job	-2878
sh	-2879
▁satis	-2880
▁half	-2881
▁teac	-2882
▁24	-2883
▁Culture	-2884
▁TO	-2885
▁variety	-2886
▁decisions	-2887
ways	-2888
ender	-2889
-5	-2890
".	-2891
AG	-2892
▁Vi	-2893
▁presented	-2894
▁facilities	-2895
▁technologies	-2896
then	-2897
yn	-2898
▁financing	-2899
▁recommendations	-2900
▁note	-2901
▁CON	-2902
tire	-2903
▁Appendix	-2904
▁Mexico	-2905
▁Perform	-2906
ler	-2907
▁resid	-2908
htm	-2909
▁operating	-2910
▁Sal	-2911
▁purs	-2912
▁(5	-2913
▁Invest	-2914
▁version	-2915
ban	-2916
▁Employ	-2917
▁publishing	-2918
▁Not	-2919
▁America	-2920
▁throughout	-2921
▁Period	-2922
iency	-2923
orthern	-2924
imin	-2925
▁problems	-2926
mark	-2927
oy	-2928
▁regular	-2929
tising	-2930
▁near	-2931
RAP	-2932
just	-2933
ares	-2934
uter	-2935
▁Mar	-2936
▁%	-2937
see	-2938
▁Z	-2939
▁tit	-2940
uel	-2941
...	-2942
▁Institute	-2943
▁linguistic	-2944
foundland	-2945
▁refer	-2946
75	-2947
ola	-2948
▁copy	-2949
▁situation	-2950
▁money	-2951
▁Oper	-2952
▁ways	-2953
▁associations	-2954
▁Survey	-2955
▁relationship	-2956
▁Special	-2957
cer	-2958
▁diverse	-2959
▁defin	-2960
by	-2961
ticle	-2962
▁advant	-2963
lig	-2964
▁published	-2965
▁sen	-2966
uty	-2967
self	-2968
MC	-2969
omin	-2970
ison	-2971
▁Senate	-2972
▁Prince	-2973
▁compar	-2974
app	-2975
venue	-2976
aren	-2977
▁concerns	-2978
▁obs	-2979
▁According	-2980
▁wheat	-2981
▁my	-2982
▁Broad	-2983
OC	-2984
▁Def	-2985
▁Comments	-2986
▁France	-2987
eng	-2988
▁participate	-2989
▁Op	-2990
▁Acad	-2991
",	-2992
lex	-2993
empor	-2994
▁deliver	-2995
66	-2996
▁max	-2997
LQ	-2998
▁test	-2999
▁therefore	-3000
▁Many	-3001
quently	-3002
▁aut	-3003
▁Pay	-3004
▁supported	-3005
aged	-3006
▁upon	-3007
uality	-3008
CISTI	-3009
ibilities	-3010
▁From	-3011
▁Count	-3012
▁partnerships	-3013
loph	-3014
▁mov	-3015
▁history	-3016
real	-3017
▁Port	-3018
razil	-3019
▁explo	-3020
CP	-3021
▁single	-3022
▁fees	-3023
▁bilingual	-3024
▁books	-3025
aps	-3026
72	-3027
▁personal	-3028
ored	-3029
▁Supp	-3030
ifically	-3031
▁inflation	-3032
▁intended	-3033
tle	-3034
▁advance	-3035
▁produce	-3036
▁Youth	-3037
unicipal	-3038
▁prepared	-3039
▁$10	-3040
▁Annual	-3041
12	-3042
▁Iss	-3043
▁qual	-3044
▁responsibility	-3045
BC	-3046
epar	-3047
apers	-3048
▁infrastructure	-3049
▁Are	-3050
▁Export	-3051
▁involve	-3052
▁Newfoundland	-3053
▁expand	-3054
▁competition	-3055
▁Te	-3056
▁sites	-3057
RU	-3058
▁altern	-3059
▁days	-3060
▁rather	-3061
.:	-3062
5%	-3063
▁Most	-3064
▁businesses	-3065
▁prior	-3066
▁flow	-3067
................	-3068
▁OL	-3069
ached	-3070
▁status	-3071
olution	-3072
▁processes	-3073
leg	-3074
onie	-3075
▁crops	-3076
▁ongoing	-3077
▁Australia	-3078
olence	-3079
▁decline	-3080
▁Implementation	-3081
▁AU	-3082
ses	-3083
place	-3084
▁You	-3085
▁components	-3086
▁approved	-3087
▁character	-3088
▁Telefilm	-3089
▁accordance	-3090
▁satisf	-3091
▁Cour	-3092
▁camp	-3093
▁:	-3094
▁politi	-3095
▁series	-3096
▁regulations	-3097
▁board	-3098
▁communication	-3099
▁seg	-3100
▁student	-3101
▁Advis	-3102
▁shows	-3103
▁Brazil	-3104
▁Key	-3105
▁Disc	-3106
▁Provincial	-3107
▁fre	-3108
▁learn	-3109
atre	-3110
▁paper	-3111
▁proportion	-3112
▁Law	-3113
▁Reference	-3114
▁Vis	-3115
▁estimated	-3116
ites	-3117
▁2.	-3118
icate	-3119
▁renew	-3120
ordination	-3121
▁assum	-3122
ression	-3123
▁High	-3124
▁collaboration	-3125
ittle	-3126
▁continu	-3127
▁Conference	-3128
izes	-3129
▁done	-3130
▁Innov	-3131
▁IP	-3132
▁News	-3133
▁until	-3134
▁improved	-3135
▁Contribution	-3136
▁cat	-3137
▁Cur	-3138
▁Incre	-3139
▁Class	-3140
▁supporting	-3141
▁Recommend	-3142
▁distribut	-3143
▁strengthen	-3144
▁Press	-3145
cing	-3146
▁carry	-3147
ground	-3148
▁histor	-3149
▁relatively	-3150
eries	-3151
▁farmers	-3152
▁reflect	-3153
▁separ	-3154
porters	-3155
fic	-3156
org	-3157
▁step	-3158
▁recipients	-3159
ores	-3160
▁($	-3161
ournal	-3162
▁respective	-3163
▁administrative	-3164
▁website	-3165
▁Se	-3166
▁chain	-3167
▁Society	-3168
IL	-3169
▁clients	-3170
▁Europe	-3171
▁natural	-3172
-01	-3173
force	-3174
90	-3175
ugust	-3176
▁seen	-3177
▁rural	-3178
▁concer	-3179
osp	-3180
----	-3181
▁cash	-3182
eaking	-3183
▁commod	-3184
enn	-3185
olid	-3186
oul	-3187
▁put	-3188
▁problem	-3189
gs	-3190
▁described	-3191
▁age	-3192
▁keep	-3193
CT	-3194
▁limit	-3195
rie	-3196
▁Be	-3197
▁Spec	-3198
cope	-3199
aging	-3200
▁Book	-3201
▁Mem	-3202
▁original	-3203
▁provisions	-3204
▁turn	-3205
▁come	-3206
▁bring	-3207
▁Us	-3208
▁Met	-3209
▁Med	-3210
load	-3211
▁Net	-3212
▁laun	-3213
par	-3214
▁31	-3215
▁2004.	-3216
▁Ang	-3217
▁cannot	-3218
▁today	-3219
tig	-3220
▁acad	-3221
mental	-3222
iers	-3223
▁larger	-3224
▁(200	-3225
▁degree	-3226
▁believe	-3227
▁live	-3228
▁28	-3229
▁priority	-3230
reet	-3231
▁magazine	-3232
▁consultation	-3233
▁sugges	-3234
▁indicators	-3235
▁Publications	-3236
▁please	-3237
▁li	-3238
yc	-3239
atabase	-3240
.)	-3241
▁organic	-3242
active	-3243
▁oblig	-3244
▁Agricultural	-3245
▁towards	-3246
▁implemented	-3247
▁40	-3248
▁Id	-3249
ivil	-3250
▁Final	-3251
▁sy	-3252
▁Consumer	-3253
▁dri	-3254
tures	-3255
itable	-3256
▁users	-3257
DQ	-3258
▁balance	-3259
▁er	-3260
▁francoph	-3261
IA	-3262
▁Loc	-3263
ectiveness	-3264
▁amend	-3265
▁continued	-3266
▁Afric	-3267
▁radio	-3268
▁Do	-3269
▁ur	-3270
ival	-3271
▁anim	-3272
▁Royal	-3273
▁recognized	-3274
▁resource	-3275
know	-3276
west	-3277
▁force	-3278
cale	-3279
▁films	-3280
▁meetings	-3281
▁consumption	-3282
elt	-3283
ohn	-3284
▁power	-3285
▁incorpor	-3286
▁Communications	-3287
vance	-3288
▁defined	-3289
▁(199	-3290
anges	-3291
▁head	-3292
▁Att	-3293
marily	-3294
▁course	-3295
operatives	-3296
▁Hel	-3297
arent	-3298
41	-3299
ief	-3300
▁gradu	-3301
▁Executive	-3302
▁Account	-3303
▁traditional	-3304
lated	-3305
rai	-3306
look	-3307
entific	-3308
emporary	-3309
CA	-3310
▁file	-3311
▁dev	-3312
selves	-3313
itizenship	-3314
▁procedures	-3315
reak	-3316
▁SME	-3317
▁Standard	-3318
25	-3319
▁almost	-3320
abilities	-3321
CE	-3322
riers	-3323
▁ran	-3324
ateral	-3325
▁Grain	-3326
43	-3327
▁week	-3328
erson	-3329
umbers	-3330
▁Equipment	-3331
▁u	-3332
aign	-3333
▁2005,	-3334
▁continues	-3335
▁firm	-3336
▁yield	-3337
▁Convention	-3338
▁Imm	-3339
▁though	-3340
▁Inf	-3341
▁conn	-3342
▁times	-3343
ands	-3344
▁interviews	-3345
ivision	-3346
RE	-3347
ato	-3348
▁2,	-3349
▁goals	-3350
▁significantly	-3351
13)	-3352
▁collection	-3353
▁Day	-3354
▁Marketing	-3355
lers	-3356
▁dise	-3357
▁ground	-3358
▁applied	-3359
ocol	-3360
▁Site	-3361
▁liter	-3362
▁increases	-3363
▁August	-3364
▁visitors	-3365
▁communications	-3366
amples	-3367
▁accept	-3368
ime	-3369
▁clearly	-3370
▁Bl	-3371
▁constit	-3372
▁calc	-3373
▁fost	-3374
▁opin	-3375
▁Post	-3376
▁About	-3377
▁percentage	-3378
▁monitoring	-3379
ead	-3380
▁little	-3381
▁although	-3382
▁requires	-3383
▁committee	-3384
▁2004,	-3385
▁Found	-3386
▁Montreal	-3387
ellect	-3388
▁forms	-3389
▁cooperation	-3390
▁mo	-3391
lusion	-3392
▁impacts	-3393
▁reduced	-3394
▁elements	-3395
▁indicate	-3396
▁effects	-3397
▁Prom	-3398
▁substanti	-3399
enced	-3400
▁Further	-3401
▁spending	-3402
▁Regulations	-3403
ensus	-3404
lines	-3405
▁newsp	-3406
▁summer	-3407
▁regul	-3408
▁parties	-3409
arc	-3410
ocks	-3411
▁jur	-3412
▁adjust	-3413
▁reach	-3414
standing	-3415
back	-3416
▁Francophonie	-3417
2)	-3418
▁win	-3419
▁Non	-3420
▁coun	-3421
where	-3422
econdary	-3423
reci	-3424
▁expertise	-3425
▁Application	-3426
lor	-3427
▁primarily	-3428
house	-3429
▁Profess	-3430
▁administration	-3431
▁City	-3432
▁give	-3433
▁publications	-3434
▁BC	-3435
▁She	-3436
arl	-3437
▁por	-3438
▁repl	-3439
arant	-3440
▁31,	-3441
irt	-3442
▁Sc	-3443
erve	-3444
ogue	-3445
▁John	-3446
▁worksh	-3447
▁guidelines	-3448
pd	-3449
ariff	-3450
▁persp	-3451
▁teachers	-3452
▁applicable	-3453
prof	-3454
hens	-3455
▁2003,	-3456
▁leading	-3457
ipp	-3458
ographic	-3459
▁President	-3460
▁debt	-3461
ctions	-3462
ellectual	-3463
▁CP	-3464
▁video	-3465
▁function	-3466
▁productions	-3467
▁Organization	-3468
▁points	-3469
▁Edward	-3470
iving	-3471
▁norm	-3472
réal	-3473
▁Hist	-3474
ension	-3475
▁whole	-3476
▁Source	-3477
has	-3478
▁cop	-3479
▁mean	-3480
▁interp	-3481
▁(8	-3482
▁search	-3483
▁Main	-3484
▁registered	-3485
77	-3486
▁dire	-3487
▁plac	-3488
▁CANADA	-3489
▁2005.	-3490
▁joint	-3491
▁submitted	-3492
▁volume	-3493
▁electronic	-3494
▁Of	-3495
▁celeb	-3496
▁fully	-3497
▁House	-3498
▁territorial	-3499
estock	-3500
▁achieved	-3501
SO	-3502
▁actual	-3503
▁concent	-3504
▁arrange	-3505
▁let	-3506
▁Please	-3507
▁Guide	-3508
▁Budget	-3509
ersion	-3510
▁central	-3511
istics	-3512
▁circum	-3513
oor	-3514
▁specifically	-3515
ftware	-3516
que	-3517
resh	-3518
▁Water	-3519
44	-3520
aster	-3521
cific	-3522
▁findings	-3523
▁house	-3524
▁EU	-3525
LE	-3526
▁60	-3527
▁added	-3528
,000.00	-3529
fficiency	-3530
▁(613)	-3531
▁adequ	-3532
▁port	-3533
urement	-3534
erc	-3535
▁Radio	-3536
▁broadcas	-3537
500	-3538
SP	-3539
▁interests	-3540
td	-3541
ité	-3542
hest	-3543
▁files	-3544
rehens	-3545
rought	-3546
istry	-3547
▁unique	-3548
▁rules	-3549
eth	-3550
▁Income	-3551
▁Court	-3552
▁understand	-3553
ards	-3554
▁agreed	-3555
-6	-3556
▁explain	-3557
ukon	-3558
ati	-3559
WKH	-3560
▁Build	-3561
▁signed	-3562
▁Montréal	-3563
▁fish	-3564
▁GDP	-3565
▁Data	-3566
▁medium	-3567
▁centres	-3568
▁practice	-3569
▁CT	-3570
▁abroad	-3571
▁volunte	-3572
▁approval	-3573
▁decrease	-3574
▁EX	-3575
▁Meeting	-3576
be	-3577
uit	-3578
▁insurance	-3579
▁exceed	-3580
▁Position	-3581
▁base	-3582
crip	-3583
▁Top	-3584
▁tal	-3585
IPO	-3586
▁Red	-3587
▁bod	-3588
ibraries	-3589
▁Prin	-3590
▁detailed	-3591
chol	-3592
▁Analysis	-3593
▁Arch	-3594
▁facilitate	-3595
▁assets	-3596
▁recognition	-3597
▁news	-3598
▁Detailed	-3599
▁don	-3600
rador	-3601
▁chann	-3602
icial	-3603
▁along	-3604
▁discri	-3605
▁investments	-3606
ommod	-3607
▁offers	-3608
▁territories	-3609
▁applicants	-3610
▁2003.	-3611
▁known	-3612
RM	-3613
▁highly	-3614
▁feature	-3615
▁goal	-3616
irm	-3617
itality	-3618
▁association	-3619
▁Governor	-3620
▁jud	-3621
sure	-3622
▁Process	-3623
▁ne	-3624
racts	-3625
liance	-3626
rehensive	-3627
▁26	-3628
resents	-3629
▁Exhib	-3630
▁Innovation	-3631
▁proceed	-3632
▁corporate	-3633
gent	-3634
ariat	-3635
▁managers	-3636
osed	-3637
▁ensuring	-3638
▁recording	-3639
▁Property	-3640
▁CMF	-3641
avi	-3642
▁CW	-3643
▁Saf	-3644
oms	-3645
▁33	-3646
▁INC	-3647
illed	-3648
▁Commissioner	-3649
▁Region	-3650
ilies	-3651
▁themselves	-3652
rs	-3653
▁dollars	-3654
▁advertising	-3655
▁longer	-3656
98	-3657
▁Cer	-3658
▁AUCC	-3659
▁Investment	-3660
utri	-3661
inese	-3662
▁essential	-3663
▁promoting	-3664
▁ST	-3665
▁matter	-3666
▁3.	-3667
▁Mod	-3668
la	-3669
▁self	-3670
▁serve	-3671
▁represents	-3672
▁slight	-3673
▁Angloph	-3674
endor	-3675
▁subsid	-3676
▁innovative	-3677
▁sufficient	-3678
▁Street	-3679
▁Results	-3680
VI	-3681
▁Index	-3682
seed	-3683
aration	-3684
▁supports	-3685
▁farms	-3686
▁remains	-3687
asury	-3688
▁1990	-3689
▁line	-3690
▁Bi	-3691
▁foods	-3692
▁X	-3693
▁political	-3694
pite	-3695
15	-3696
%.	-3697
▁increasingly	-3698
▁taking	-3699
▁too	-3700
▁excell	-3701
▁(1)	-3702
▁municipal	-3703
oles	-3704
▁emphas	-3705
TO	-3706
▁Patent	-3707
▁Performance	-3708
▁itself	-3709
▁Products	-3710
▁That	-3711
▁Appro	-3712
▁useful	-3713
▁guide	-3714
▁persons	-3715
▁Chinese	-3716
▁undertaken	-3717
22	-3718
▁forward	-3719
▁consultations	-3720
45	-3721
HU	-3722
▁registration	-3723
wide	-3724
lusive	-3725
▁Foundation	-3726
▁academ	-3727
▁effort	-3728
In	-3729
▁statements	-3730
chedule	-3731
ological	-3732
▁treatment	-3733
we	-3734
▁publication	-3735
▁Ltd	-3736
ords	-3737
▁tonn	-3738
▁advantage	-3739
▁000	-3740
▁links	-3741
▁King	-3742
▁asked	-3743
▁ill	-3744
▁restric	-3745
▁CTC	-3746
oples	-3747
▁ded	-3748
▁Through	-3749
atures	-3750
ixed	-3751
▁patent	-3752
▁conduct	-3753
▁broadcasting	-3754
/0	-3755
▁Pric	-3756
▁Status	-3757
▁Francophones	-3758
▁27	-3759
▁attract	-3760
▁recently	-3761
▁Mc	-3762
▁UK	-3763
TER	-3764
▁basic	-3765
▁Figure	-3766
rupt	-3767
▁Yukon	-3768
▁School	-3769
▁statement	-3770
▁makes	-3771
▁Labrador	-3772
RQ	-3773
ux	-3774
▁bro	-3775
▁Auth	-3776
▁35	-3777
asons	-3778
▁aspects	-3779
▁run	-3780
▁instru	-3781
▁numbers	-3782
@@@@	-3783
▁presence	-3784
ese	-3785
▁smaller	-3786
▁critical	-3787
government	-3788
▁highest	-3789
HV	-3790
▁client	-3791
▁researc	-3792
▁mid	-3793
▁feel	-3794
▁stated	-3795
▁entire	-3796
▁Germany	-3797
▁category	-3798
▁Second	-3799
6)	-3800
igibility	-3801
▁interested	-3802
de	-3803
ii	-3804
ais	-3805
lementary	-3806
▁Strategic	-3807
▁introduc	-3808
▁Can	-3809
▁accomp	-3810
▁equity	-3811
▁operation	-3812
▁dollar	-3813
▁Help	-3814
ecommun	-3815
▁earl	-3816
▁Issues	-3817
dep	-3818
▁phys	-3819
▁relating	-3820
-04	-3821
▁bl	-3822
▁portion	-3823
▁Polic	-3824
▁mention	-3825
▁Communities	-3826
secondary	-3827
profit	-3828
▁Import	-3829
▁manufacturing	-3830
▁plants	-3831
▁Overview	-3832
gen	-3833
▁ge	-3834
▁attrib	-3835
▁Mt	-3836
▁Search	-3837
▁complex	-3838
▁Environmental	-3839
WL	-3840
▁Sim	-3841
▁proposal	-3842
▁authority	-3843
orage	-3844
apter	-3845
▁Docu	-3846
lative	-3847
▁models	-3848
▁audience	-3849
▁informants	-3850
ulate	-3851
vered	-3852
▁During	-3853
▁grants	-3854
▁mechanisms	-3855
▁efficient	-3856
▁som	-3857
▁caus	-3858
▁track	-3859
▁collective	-3860
▁proper	-3861
▁complain	-3862
▁permit	-3863
▁meat	-3864
▁ethnic	-3865
▁Legis	-3866
▁fruit	-3867
▁attend	-3868
-20	-3869
▁Company	-3870
erved	-3871
▁once	-3872
▁valu	-3873
▁living	-3874
▁sustainable	-3875
-02	-3876
iting	-3877
▁Whe	-3878
▁prem	-3879
▁Crown	-3880
▁manner	-3881
eter	-3882
rolled	-3883
SC	-3884
racism	-3885
▁West	-3886
▁covered	-3887
▁Secretariat	-3888
MM	-3889
aint	-3890
resp	-3891
▁--	-3892
▁Northern	-3893
missions	-3894
▁justice	-3895
ien	-3896
ille	-3897
Canada	-3898
▁Social	-3899
88	-3900
▁Revenue	-3901
▁Where	-3902
▁committed	-3903
▁flex	-3904
▁rise	-3905
▁$6	-3906
Canadian	-3907
-03	-3908
▁dam	-3909
▁sess	-3910
OU	-3911
▁whose	-3912
▁trends	-3913
▁Magaz	-3914
▁Fam	-3915
▁1995	-3916
▁har	-3917
▁SMEs	-3918
▁Current	-3919
▁Territories	-3920
▁29	-3921
int	-3922
nip	-3923
▁identity	-3924
▁followed	-3925
▁governance	-3926
▁announced	-3927
▁influence	-3928
▁fav	-3929
▁Asia	-3930
▁Treasury	-3931
▁energy	-3932
▁integrated	-3933
▁old	-3934
▁Design	-3935
▁manufacture	-3936
▁science	-3937
▁comprehensive	-3938
▁tonnes	-3939
-7	-3940
zen	-3941
▁tend	-3942
▁Art	-3943
▁mark	-3944
▁Colle	-3945
▁party	-3946
▁Har	-3947
▁visible	-3948
▁suggested	-3949
▁accountability	-3950
▁CH	-3951
son	-3952
igration	-3953
▁Northwest	-3954
▁FOR	-3955
▁les	-3956
▁earn	-3957
oid	-3958
▁minimum	-3959
00,000	-3960
ét	-3961
ror	-3962
▁gall	-3963
▁origin	-3964
iled	-3965
MS	-3966
tenance	-3967
▁Speak	-3968
▁families	-3969
nipeg	-3970
▁Training	-3971
oult	-3972
aily	-3973
▁Associ	-3974
▁partner	-3975
MA	-3976
▁upd	-3977
eties	-3978
atch	-3979
▁networks	-3980
▁prevent	-3981
▁shared	-3982
▁monetary	-3983
▁selected	-3984
vincial	-3985
▁reduction	-3986
minal	-3987
▁corre	-3988
▁reference	-3989
set	-3990
▁negative	-3991
▁immigrants	-3992
vacy	-3993
▁Kore	-3994
▁representative	-3995
▁fee	-3996
▁experiences	-3997
gary	-3998
▁sold	-3999
▁always	-4000
▁effectively	-4001
▁gran	-4002
agraph	-4003
oultry	-4004
▁felt	-4005
wise	-4006
▁magazines	-4007
tary	-4008
▁speak	-4009
▁UN	-4010
face	-4011
ulty	-4012
▁Vendor	-4013
▁expressed	-4014
▁format	-4015
▁cross	-4016
▁stage	-4017
airy	-4018
▁juris	-4019
▁thus	-4020
▁sched	-4021
wh	-4022
▁methods	-4023
▁Assess	-4024
▁Publishers	-4025
▁categories	-4026
▁Back	-4027
▁2001,	-4028
▁allows	-4029
▁issued	-4030
▁led	-4031
▁worth	-4032
luded	-4033
ply	-4034
▁But	-4035
▁2002.	-4036
▁definition	-4037
▁subsection	-4038
▁CD	-4039
▁called	-4040
▁light	-4041
▁49	-4042
▁Safety	-4043
ET	-4044
▁=	-4045
hic	-4046
▁centre	-4047
ERS	-4048
head	-4049
▁equal	-4050
▁Working	-4051
▁compet	-4052
▁museums	-4053
▁violence	-4054
▁earlier	-4055
▁Cor	-4056
▁Child	-4057
EA	-4058
éd	-4059
▁32	-4060
▁rap	-4061
▁contributed	-4062
▁Average	-4063
▁Senator	-4064
▁recommended	-4065
▁lat	-4066
▁incen	-4067
▁later	-4068
agr	-4069
▁popular	-4070
▁arch	-4071
▁hard	-4072
▁imported	-4073
▁addressed	-4074
br	-4075
▁197	-4076
▁researchers	-4077
▁QC	-4078
▁bo	-4079
▁courses	-4080
▁say	-4081
rene	-4082
▁face	-4083
▁determined	-4084
▁42	-4085
arents	-4086
▁2007-03	-4087
▁far	-4088
▁2006,	-4089
%,	-4090
▁green	-4091
▁accounts	-4092
rich	-4093
▁principles	-4094
ches	-4095
▁scope	-4096
▁sense	-4097
▁maximum	-4098
▁differences	-4099
cont	-4100
▁took	-4101
▁Monitor	-4102
▁Summary	-4103
▁shown	-4104
tistic	-4105
▁amounts	-4106
▁loan	-4107
▁usually	-4108
▁Use	-4109
▁challenge	-4110
pe	-4111
▁Fac	-4112
▁Diversity	-4113
puts	-4114
▁Each	-4115
▁Objec	-4116
ography	-4117
▁Advisory	-4118
▁requirement	-4119
▁offices	-4120
▁operators	-4121
▁insp	-4122
▁wel	-4123
▁veget	-4124
▁Opportun	-4125
▁core	-4126
ittees	-4127
▁soci	-4128
HQ	-4129
▁phot	-4130
▁opinion	-4131
▁Distribution	-4132
▁purchase	-4133
▁Prai	-4134
▁proposals	-4135
▁sell	-4136
OD	-4137
▁guarant	-4138
▁carried	-4139
reme	-4140
reprene	-4141
▁authors	-4142
▁Winnipeg	-4143
▁consideration	-4144
▁abs	-4145
▁Strategy	-4146
▁targeted	-4147
▁industrial	-4148
ift	-4149
uss	-4150
▁profit	-4151
55	-4152
▁written	-4153
operative	-4154
ée	-4155
▁Cri	-4156
▁sent	-4157
▁Impro	-4158
▁think	-4159
▁options	-4160
▁Television	-4161
reat	-4162
▁behalf	-4163
▁PDF	-4164
ai	-4165
▁AG	-4166
uting	-4167
▁Corporate	-4168
▁Telephone	-4169
ederation	-4170
▁recognize	-4171
ecommunications	-4172
mes	-4173
itorial	-4174
▁agency	-4175
oph	-4176
▁Requ	-4177
▁creating	-4178
▁jurisdic	-4179
-30	-4180
▁Crop	-4181
▁actions	-4182
inations	-4183
▁entit	-4184
IRAP	-4185
table	-4186
rees	-4187
▁beginning	-4188
ots	-4189
▁2006.	-4190
tification	-4191
▁Bill	-4192
stances	-4193
▁Ministry	-4194
▁red	-4195
ansion	-4196
rust	-4197
▁improving	-4198
▁Cre	-4199
▁alternative	-4200
▁discrimination	-4201
▁Two	-4202
▁spons	-4203
▁located	-4204
▁involvement	-4205
▁AL	-4206
SS	-4207
▁agents	-4208
▁represented	-4209
▁CWB	-4210
▁Union	-4211
▁separate	-4212
▁teaching	-4213
28	-4214
▁log	-4215
▁option	-4216
▁Pacific	-4217
▁database	-4218
order	-4219
▁concerning	-4220
▁scale	-4221
▁enable	-4222
▁disease	-4223
▁Agree	-4224
▁Library	-4225
▁initial	-4226
▁reasons	-4227
▁leadership	-4228
.5%	-4229
vers	-4230
▁Science	-4231
▁profession	-4232
html	-4233
▁col	-4234
▁2002,	-4235
▁discussed	-4236
ening	-4237
sewhere	-4238
▁arg	-4239
▁toward	-4240
▁relig	-4241
▁certified	-4242
overy	-4243
ah	-4244
▁documentation	-4245
▁Sw	-4246
▁travellers	-4247
▁representing	-4248
▁eg	-4249
market	-4250
itors	-4251
▁Page	-4252
FIC	-4253
▁officials	-4254
rum	-4255
▁Prime	-4256
▁regulatory	-4257
cell	-4258
▁appreci	-4259
▁quan	-4260
▁strength	-4261
▁livestock	-4262
33	-4263
igures	-4264
▁slightly	-4265
ray	-4266
▁obtained	-4267
ape	-4268
ager	-4269
▁Char	-4270
▁Directorate	-4271
▁urban	-4272
▁protect	-4273
▁slow	-4274
▁officers	-4275
▁inves	-4276
▁perce	-4277
▁Acadian	-4278
ene	-4279
ude	-4280
▁adap	-4281
changes	-4282
▁Centres	-4283
▁Conf	-4284
▁text	-4285
▁Ministers	-4286
aur	-4287
▁ten	-4288
▁advice	-4289
▁description	-4290
▁integration	-4291
▁Sy	-4292
▁trust	-4293
▁receip	-4294
▁corn	-4295
actions	-4296
▁discuss	-4297
▁sett	-4298
▁investig	-4299
▁obligations	-4300
▁conference	-4301
afood	-4302
▁appears	-4303
▁assign	-4304
▁otherwise	-4305
▁brand	-4306
▁coordination	-4307
hat	-4308
▁Bar	-4309
▁CTF	-4310
▁Your	-4311
unav	-4312
mical	-4313
▁reviewed	-4314
▁accep	-4315
▁risks	-4316
▁Competi	-4317
▁draw	-4318
▁trips	-4319
▁affect	-4320
▁Broadcasting	-4321
DI	-4322
▁Finance	-4323
▁colle	-4324
▁Speaker	-4325
nel	-4326
greg	-4327
▁attention	-4328
▁Citizenship	-4329
iring	-4330
rozen	-4331
▁mail	-4332
▁copies	-4333
ivered	-4334
unavut	-4335
▁Enter	-4336
▁circumstances	-4337
▁uses	-4338
isk	-4339
ula	-4340
▁Email	-4341
fol	-4342
▁formal	-4343
▁Publishing	-4344
▁fresh	-4345
▁departmental	-4346
▁tariff	-4347
ull	-4348
▁yet	-4349
▁Lead	-4350
related	-4351
▁Overall	-4352
▁expectations	-4353
ault	-4354
lined	-4355
▁mus	-4356
▁1994	-4357
▁space	-4358
▁transportation	-4359
eeds	-4360
▁improvement	-4361
▁Contrib	-4362
▁Expenses	-4363
▁Maj	-4364
EMENT	-4365
▁rapid	-4366
▁invent	-4367
▁minorities	-4368
DC	-4369
▁dou	-4370
lications	-4371
ma	-4372
▁season	-4373
▁adopted	-4374
14	-4375
istant	-4376
igence	-4377
▁hours	-4378
mont	-4379
respond	-4380
▁civil	-4381
▁approaches	-4382
tivities	-4383
▁award	-4384
▁$8	-4385
ineering	-4386
yond	-4387
▁tele	-4388
▁Members	-4389
▁Small	-4390
▁beyond	-4391
▁Regist	-4392
▁(2)	-4393
ticles	-4394
▁claims	-4395
▁follows	-4396
▁affected	-4397
anel	-4398
ided	-4399
▁factor	-4400
▁barriers	-4401
erce	-4402
ider	-4403
▁Term	-4404
▁campaign	-4405
Language	-4406
▁Relations	-4407
▁internal	-4408
▁3,	-4409
ousing	-4410
▁Administration	-4411
▁details	-4412
▁measurement	-4413
▁exerc	-4414
▁late	-4415
▁'	-4416
▁Secretary	-4417
▁quick	-4418
▁schol	-4419
▁raised	-4420
▁Success	-4421
▁accommod	-4422
▁subse	-4423
DA	-4424
ITY	-4425
▁See	-4426
▁Standards	-4427
▁Industrial	-4428
▁PL	-4429
▁deleg	-4430
off	-4431
18	-4432
▁libraries	-4433
▁resulting	-4434
▁output	-4435
▁creative	-4436
▁kind	-4437
▁wish	-4438
▁discussions	-4439
tainment	-4440
▁ownership	-4441
96	-4442
dom	-4443
▁Defence	-4444
▁profile	-4445
▁sections	-4446
▁court	-4447
ellow	-4448
▁Ques	-4449
▁men	-4450
▁parts	-4451
▁2006-03	-4452
97	-4453
▁delivered	-4454
▁2010	-4455
▁computer	-4456
lass	-4457
▁mainly	-4458
▁why	-4459
PP	-4460
▁effectiveness	-4461
AB	-4462
territ	-4463
▁Calgary	-4464
▁Recommendation	-4465
▁cyc	-4466
▁states	-4467
rict	-4468
▁Deputy	-4469
▁Officer	-4470
▁sample	-4471
▁Professional	-4472
▁tw	-4473
▁Code	-4474
ertil	-4475
▁concept	-4476
▁perspective	-4477
▁Africa	-4478
▁selection	-4479
▁Study	-4480
47	-4481
▁records	-4482
▁referred	-4483
▁establishment	-4484
▁immedi	-4485
3)	-4486
II	-4487
ott	-4488
▁Av	-4489
▁Che	-4490
canad	-4491
▁4.	-4492
▁Dr	-4493
▁Exper	-4494
▁broadcasters	-4495
▁artistic	-4496
▁Di	-4497
▁Online	-4498
▁anticip	-4499
▁Opportunities	-4500
▁Est	-4501
▁input	-4502
▁Events	-4503
mpic	-4504
▁enterpr	-4505
▁physical	-4506
estivals	-4507
▁annually	-4508
35	-4509
isure	-4510
▁reform	-4511
pper	-4512
come	-4513
▁2001.	-4514
MENT	-4515
▁Audit	-4516
▁began	-4517
▁comments	-4518
▁recipient	-4519
▁Family	-4520
▁Nunavut	-4521
▁SP	-4522
▁titles	-4523
▁Related	-4524
26	-4525
▁Building	-4526
▁takes	-4527
▁eligibility	-4528
icated	-4529
▁Works	-4530
▁helped	-4531
asp	-4532
▁Sk	-4533
▁table	-4534
▁reached	-4535
▁exception	-4536
▁Ren	-4537
▁Typ	-4538
▁clar	-4539
▁compliance	-4540
ishe	-4541
ict	-4542
▁Jean	-4543
▁manage	-4544
▁racism	-4545
▁Magazine	-4546
▁Exports	-4547
▁relationships	-4548
porter	-4549
▁Ge	-4550
▁emerging	-4551
▁items	-4552
minister	-4553
ane	-4554
▁Capital	-4555
rass	-4556
eff	-4557
▁Mich	-4558
▁Right	-4559
95	-4560
▁Parties	-4561
▁clim	-4562
isheries	-4563
▁Pur	-4564
▁Assessment	-4565
▁CF	-4566
▁York	-4567
▁estimates	-4568
▁distributed	-4569
raw	-4570
▁z	-4571
comp	-4572
▁Systems	-4573
icro	-4574
▁Division	-4575
▁substantial	-4576
▁nutri	-4577
▁largely	-4578
▁collected	-4579
▁designated	-4580
ita	-4581
▁fail	-4582
▁Both	-4583
▁Parts	-4584
▁suppliers	-4585
iche	-4586
▁APP	-4587
TH	-4588
▁mer	-4589
▁implementing	-4590
▁hot	-4591
mbass	-4592
TE	-4593
▁academic	-4594
lete	-4595
▁2005-200	-4596
▁organized	-4597
ultures	-4598
▁mission	-4599
▁certification	-4600
▁,	-4601
▁mentioned	-4602
ids	-4603
▁Country	-4604
▁suggests	-4605
▁reasonable	-4606
67	-4607
▁Payments	-4608
akers	-4609
RF	-4610
more	-4611
▁focused	-4612
▁household	-4613
urk	-4614
▁Conc	-4615
-15	-4616
▁indicates	-4617
▁Lear	-4618
▁citizens	-4619
▁operational	-4620
▁3000	-4621
▁Article	-4622
ette	-4623
▁rati	-4624
▁illust	-4625
▁customers	-4626
marks	-4627
▁Industries	-4628
▁corporation	-4629
▁Organizations	-4630
estic	-4631
▁ir	-4632
▁efficiency	-4633
▁maintenance	-4634
▁Grow	-4635
▁acknow	-4636
▁Univers	-4637
▁EXP	-4638
▁library	-4639
▁expansion	-4640
▁Forum	-4641
▁planned	-4642
▁List	-4643
arters	-4644
▁answ	-4645
▁incur	-4646
▁availability	-4647
▁Agreements	-4648
racy	-4649
▁37	-4650
▁choice	-4651
▁licens	-4652
▁parents	-4653
anks	-4654
▁Pot	-4655
governmental	-4656
veys	-4657
▁spring	-4658
▁Mus	-4659
oming	-4660
▁dram	-4661
making	-4662
▁notice	-4663
▁Website	-4664
▁Projects	-4665
▁commission	-4666
▁util	-4667
▁Activities	-4668
▁newspapers	-4669
48	-4670
▁presentation	-4671
ilt	-4672
▁views	-4673
▁distributors	-4674
RP	-4675
semb	-4676
▁Tit	-4677
▁changing	-4678
▁RE	-4679
▁arri	-4680
▁storage	-4681
▁exporters	-4682
raft	-4683
▁Cred	-4684
▁sharing	-4685
SL	-4686
▁Announ	-4687
▁Participants	-4688
▁aimed	-4689
▁workers	-4690
17	-4691
▁stores	-4692
▁allowed	-4693
▁entitled	-4694
▁corporations	-4695
orrow	-4696
▁positions	-4697
▁internationally	-4698
▁senior	-4699
▁contracts	-4700
▁experienced	-4701
▁enough	-4702
▁2.1	-4703
▁listed	-4704
▁software	-4705
ilot	-4706
▁Control	-4707
▁Reports	-4708
▁counter	-4709
ump	-4710
▁break	-4711
▁introduced	-4712
HG	-4713
down	-4714
▁tem	-4715
▁43	-4716
▁via	-4717
▁came	-4718
▁Studies	-4719
arge	-4720
▁ship	-4721
▁autom	-4722
▁Manufact	-4723
▁harm	-4724
▁45	-4725
▁participating	-4726
ditions	-4727
oon	-4728
▁closely	-4729
▁Camp	-4730
▁avoid	-4731
▁contained	-4732
▁attemp	-4733
1.	-4734
▁mess	-4735
manent	-4736
▁audiences	-4737
23	-4738
▁Saint	-4739
▁techn	-4740
▁sale	-4741
▁x	-4742
▁requests	-4743
▁productivity	-4744
▁respectively	-4745
%).	-4746
▁retain	-4747
rations	-4748
▁external	-4749
▁34	-4750
ength	-4751
VE	-4752
-23	-4753
monton	-4754
▁ideas	-4755
▁Partners	-4756
work	-4757
▁Head	-4758
▁Present	-4759
▁Measures	-4760
65	-4761
ae	-4762
▁Supply	-4763
▁adequate	-4764
▁Les	-4765
▁Benef	-4766
speaking	-4767
▁fields	-4768
play	-4769
▁Gall	-4770
ialogue	-4771
▁Histor	-4772
▁remov	-4773
▁Natural	-4774
ured	-4775
▁Lo	-4776
▁Lim	-4777
▁user	-4778
ectric	-4779
▁faculty	-4780
▁location	-4781
▁confidence	-4782
▁correspond	-4783
▁opp	-4784
lands	-4785
▁helps	-4786
▁administer	-4787
▁$7	-4788
▁38	-4789
▁$20	-4790
ience	-4791
folio	-4792
including	-4793
▁Cat	-4794
terns	-4795
▁Fl	-4796
ublic	-4797
reach	-4798
▁Inst	-4799
▁workshops	-4800
▁Ref	-4801
▁super	-4802
▁confirm	-4803
▁supplies	-4804
%),	-4805
ruptcy	-4806
ectives	-4807
▁receiving	-4808
▁ple	-4809
▁Senior	-4810
ls	-4811
▁SU	-4812
▁Another	-4813
ION	-4814
▁soy	-4815
▁prob	-4816
▁background	-4817
▁Indic	-4818
▁arrangements	-4819
sc	-4820
ynam	-4821
rating	-4822
oice	-4823
IR	-4824
▁Team	-4825
▁police	-4826
▁permanent	-4827
LA	-4828
▁negotiations	-4829
OS	-4830
▁cause	-4831
▁pursu	-4832
▁Promotion	-4833
▁jobs	-4834
▁spent	-4835
▁launched	-4836
▁cities	-4837
ilateral	-4838
▁agent	-4839
▁AC	-4840
ewhat	-4841
▁Immigration	-4842
ictim	-4843
▁sens	-4844
lying	-4845
▁dry	-4846
▁Wheat	-4847
▁stock	-4848
▁Protocol	-4849
▁solutions	-4850
ony	-4851
ectrum	-4852
▁After	-4853
▁Partnership	-4854
▁ord	-4855
▁elimin	-4856
▁Profile	-4857
▁figures	-4858
aboratory	-4859
▁Risk	-4860
▁virt	-4861
▁instruction	-4862
ront	-4863
▁offering	-4864
▁Prac	-4865
▁Asian	-4866
▁Eff	-4867
▁Archives	-4868
oot	-4869
▁Chief	-4870
ECT	-4871
ustain	-4872
▁aggreg	-4873
▁vary	-4874
▁voluntary	-4875
-28	-4876
Pro	-4877
▁employee	-4878
▁personnel	-4879
arily	-4880
50,000	-4881
▁India	-4882
▁Compon	-4883
▁Kingdom	-4884
▁editorial	-4885
▁requested	-4886
▁Classification	-4887
bean	-4888
▁index	-4889
▁seek	-4890
▁concerned	-4891
▁Employment	-4892
ha	-4893
▁Journal	-4894
▁recruit	-4895
▁Oly	-4896
▁Chair	-4897
▁Dem	-4898
ribun	-4899
▁Technical	-4900
▁der	-4901
eline	-4902
▁foster	-4903
▁modern	-4904
▁dealing	-4905
▁CBC	-4906
▁beef	-4907
▁pros	-4908
▁stream	-4909
▁difference	-4910
losure	-4911
▁Annex	-4912
thening	-4913
entially	-4914
▁features	-4915
▁scientific	-4916
▁weak	-4917
ANG	-4918
▁Schedule	-4919
▁institutional	-4920
ded	-4921
5)	-4922
▁Finally	-4923
▁segment	-4924
bu	-4925
▁Sales	-4926
rief	-4927
▁minim	-4928
▁optim	-4929
▁doing	-4930
hood	-4931
ATE	-4932
OP	-4933
comm	-4934
▁Based	-4935
TD	-4936
UN	-4937
▁50%	-4938
▁Edmonton	-4939
▁paragraph	-4940
▁Contributions	-4941
▁professionals	-4942
ilk	-4943
-14	-4944
▁Insp	-4945
▁vision	-4946
16	-4947
▁Medical	-4948
▁accessible	-4949
rient	-4950
▁disse	-4951
▁MAP	-4952
▁renewal	-4953
St	-4954
▁Sel	-4955
▁accepted	-4956
▁demonstrate	-4957
▁4.1	-4958
▁Bay	-4959
▁says	-4960
▁allocated	-4961
▁Cooperation	-4962
▁considerable	-4963
▁Mac	-4964
▁Manager	-4965
▁Document	-4966
▁commodities	-4967
▁sav	-4968
▁destination	-4969
EW	-4970
▁70	-4971
▁CIPO	-4972
▁Indian	-4973
▁conflic	-4974
VW	-4975
-19	-4976
▁advis	-4977
▁stocks	-4978
▁Minority	-4979
▁direction	-4980
▁Protection	-4981
▁Initiatives	-4982
▁grant	-4983
artmental	-4984
DS	-4985
emin	-4986
vised	-4987
▁Also	-4988
▁enhanced	-4989
▁examples	-4990
provincial	-4991
és	-4992
▁rule	-4993
▁winter	-4994
▁relation	-4995
▁accounting	-4996
▁Title	-4997
▁Theatre	-4998
rency	-4999
▁funda	-5000
▁sports	-5001
▁telephone	-5002
▁CRTC	-5003
▁coverage	-5004
▁entry	-5005
▁steps	-5006
rable	-5007
rates	-5008
▁enj	-5009
▁secondary	-5010
bur	-5011
IG	-5012
FOR	-5013
▁Any	-5014
▁Soci	-5015
▁analy	-5016
▁numer	-5017
▁circulation	-5018
▁36	-5019
free	-5020
▁Parks	-5021
▁trading	-5022
▁Es	-5023
▁2000,	-5024
▁commitments	-5025
AGE	-5026
▁Once	-5027
isition	-5028
agn	-5029
▁Winter	-5030
▁Insurance	-5031
▁extensive	-5032
▁3.2	-5033
▁Common	-5034
▁except	-5035
▁interpret	-5036
▁elev	-5037
gov	-5038
▁Mal	-5039
▁Argent	-5040
FA	-5041
▁APF	-5042
▁responses	-5043
▁Australian	-5044
▁francophone	-5045
▁improvements	-5046
▁barley	-5047
▁functions	-5048
tified	-5049
▁taxes	-5050
part	-5051
▁hon	-5052
▁Measurement	-5053
IDA	-5054
▁Rele	-5055
▁operate	-5056
▁serious	-5057
▁gas	-5058
ceptions	-5059
produc	-5060
▁stable	-5061
▁Spe	-5062
▁10%	-5063
▁Cle	-5064
▁Quality	-5065
▁equality	-5066
▁expression	-5067
.0%	-5068
▁Week	-5069
▁city	-5070
ocultural	-5071
NG	-5072
riends	-5073
▁entreprene	-5074
cultural	-5075
VCO	-5076
lisher	-5077
certain	-5078
▁broadcast	-5079
▁specified	-5080
▁historical	-5081
46	-5082
▁3.1	-5083
▁resulted	-5084
▁Consulting	-5085
▁producing	-5086
▁Guidelines	-5087
▁disp	-5088
▁loans	-5089
▁simply	-5090
▁Japanese	-5091
ondon	-5092
pping	-5093
▁conver	-5094
49	-5095
▁75	-5096
▁90	-5097
▁Planning	-5098
ev	-5099
▁20%	-5100
▁seven	-5101
▁worked	-5102
▁2003-200	-5103
▁reducing	-5104
▁hop	-5105
▁incurred	-5106
▁Anglophone	-5107
departmental	-5108
▁Col	-5109
▁Step	-5110
▁cultures	-5111
iven	-5112
▁forum	-5113
▁Global	-5114
▁rev	-5115
▁Charter	-5116
▁rail	-5117
▁performing	-5118
(1)	-5119
oup	-5120
29	-5121
▁Tod	-5122
▁brief	-5123
▁WTO	-5124
▁2005-06	-5125
-16	-5126
▁brought	-5127
▁literature	-5128
▁cut	-5129
▁conse	-5130
ESS	-5131
▁Sound	-5132
▁anti	-5133
▁body	-5134
itting	-5135
▁Black	-5136
▁multiple	-5137
▁check	-5138
▁Chapter	-5139
▁immigration	-5140
▁construction	-5141
TP	-5142
▁canad	-5143
▁specialized	-5144
ait	-5145
urkey	-5146
ement	-5147
▁Mexican	-5148
▁Product	-5149
TAL	-5150
▁Paul	-5151
▁WH	-5152
▁helping	-5153
rier	-5154
▁Excell	-5155
IV	-5156
territorial	-5157
▁Bec	-5158
▁RES	-5159
arian	-5160
▁Know	-5161
▁Rural	-5162
▁contains	-5163
▁combined	-5164
otechnology	-5165
▁Introduction	-5166
with	-5167
▁raise	-5168
▁nearly	-5169
▁things	-5170
▁Transfer	-5171
ished	-5172
==	-5173
-21	-5174
▁Ms	-5175
▁looking	-5176
▁Statement	-5177
ert	-5178
times	-5179
ureau	-5180
▁Electronic	-5181
-06	-5182
▁hog	-5183
▁East	-5184
lusions	-5185
▁decade	-5186
-07	-5187
▁80	-5188
▁daily	-5189
ertiliz	-5190
ribunal	-5191
▁Dest	-5192
▁cere	-5193
▁fuel	-5194
▁grown	-5195
▁Previous	-5196
▁bill	-5197
▁nation	-5198
▁visits	-5199
▁)	-5200
uge	-5201
▁owner	-5202
▁Respons	-5203
▁marg	-5204
▁outlined	-5205
fers	-5206
▁(7	-5207
sell	-5208
▁vehic	-5209
▁achieving	-5210
▁5.	-5211
▁characteristics	-5212
▁species	-5213
–0	-5214
▁Ret	-5215
▁Sing	-5216
▁reve	-5217
▁coming	-5218
▁Increased	-5219
▁residents	-5220
▁Privacy	-5221
▁Moreover	-5222
FP	-5223
ush	-5224
▁1.1	-5225
▁Russ	-5226
▁Level	-5227
▁domin	-5228
2.	-5229
icken	-5230
▁behavi	-5231
▁competitiveness	-5232
▁dur	-5233
▁leav	-5234
▁writing	-5235
▁released	-5236
▁generated	-5237
DO	-5238
▁pest	-5239
abled	-5240
▁Identity	-5241
▁laws	-5242
▁Conse	-5243
▁examined	-5244
▁join	-5245
▁establishing	-5246
-199	-5247
▁became	-5248
▁Price	-5249
idd	-5250
▁going	-5251
▁continuing	-5252
rence	-5253
▁sex	-5254
ongue	-5255
▁animal	-5256
▁Queen	-5257
▁Enh	-5258
▁quite	-5259
▁Today	-5260
▁words	-5261
▁Challen	-5262
▁retailers	-5263
-18	-5264
▁Given	-5265
emed	-5266
erenti	-5267
▁Interest	-5268
▁depos	-5269
illage	-5270
▁thous	-5271
▁Interview	-5272
▁Video	-5273
aces	-5274
▁Security	-5275
rap	-5276
▁pressure	-5277
▁Dav	-5278
▁Hal	-5279
▁Thus	-5280
▁achievement	-5281
▁changed	-5282
▁surveys	-5283
ras	-5284
▁attrac	-5285
▁letter	-5286
▁committees	-5287
▁$1,	-5288
▁eight	-5289
▁spread	-5290
▁informed	-5291
plus	-5292
▁Police	-5293
farm	-5294
▁4.2	-5295
▁Costs	-5296
▁served	-5297
▁equival	-5298
pdf	-5299
anish	-5300
▁frozen	-5301
▁commodity	-5302
▁authorities	-5303
▁4,	-5304
▁Rece	-5305
▁Universities	-5306
▁lines	-5307
▁vitality	-5308
▁DE	-5309
▁former	-5310
▁fulf	-5311
▁granted	-5312
▁previously	-5313
-08	-5314
bour	-5315
▁presents	-5316
▁statistics	-5317
▁representation	-5318
▁Circ	-5319
uction	-5320
▁grains	-5321
▁meaning	-5322
-13	-5323
ser	-5324
▁AB	-5325
▁Note	-5326
▁accur	-5327
▁Financing	-5328
▁NO	-5329
▁College	-5330
▁element	-5331
▁festivals	-5332
▁intellectual	-5333
▁River	-5334
▁stories	-5335
▁administered	-5336
▁transactions	-5337
iding	-5338
▁gender	-5339
▁providers	-5340
enda	-5341
▁mob	-5342
▁territory	-5343
ubs	-5344
▁5%	-5345
ened	-5346
▁Integ	-5347
rolling	-5348
▁officer	-5349
▁Assistant	-5350
bound	-5351
▁2.2	-5352
▁distin	-5353
▁leisure	-5354
▁amendments	-5355
▁FR	-5356
▁controls	-5357
night	-5358
▁Bas	-5359
▁roles	-5360
▁Propos	-5361
DUC	-5362
été	-5363
abil	-5364
iques	-5365
▁Sustain	-5366
▁licence	-5367
▁Central	-5368
amb	-5369
▁Spain	-5370
▁unless	-5371
▁View	-5372
▁TOTAL	-5373
▁destinations	-5374
▁Korea	-5375
▁Despite	-5376
▁compens	-5377
▁phase	-5378
orse	-5379
▁Care	-5380
▁technological	-5381
▁damage	-5382
▁depend	-5383
▁completion	-5384
3.	-5385
▁evol	-5386
▁prefer	-5387
titution	-5388
▁promotional	-5389
fund	-5390
ought	-5391
▁London	-5392
-22	-5393
▁explore	-5394
▁Forms	-5395
▁Capacity	-5396
gred	-5397
▁big	-5398
▁never	-5399
▁premium	-5400
▁Furthermore	-5401
li	-5402
-17	-5403
-27	-5404
--------	-5405
▁2005-03	-5406
▁harvest	-5407
▁generation	-5408
ULE	-5409
▁Aut	-5410
▁Estim	-5411
▁German	-5412
▁release	-5413
▁Fisheries	-5414
▁$0	-5415
▁mother	-5416
▁55	-5417
▁managed	-5418
ana	-5419
▁charge	-5420
lin	-5421
ench	-5422
▁rot	-5423
▁projected	-5424
▁CC	-5425
▁talent	-5426
▁summary	-5427
▁wee	-5428
▁Road	-5429
▁targets	-5430
▁Transportation	-5431
ques	-5432
apore	-5433
▁occup	-5434
▁nor	-5435
▁solid	-5436
▁theatre	-5437
▁sessions	-5438
Ch	-5439
life	-5440
▁Custom	-5441
▁channels	-5442
▁download	-5443
▁ven	-5444
▁Force	-5445
▁PR	-5446
▁dialogue	-5447
42	-5448
-25	-5449
ole	-5450
-05	-5451
aut	-5452
enditure	-5453
▁2006-10	-5454
▁Coordin	-5455
enous	-5456
▁2006-11	-5457
▁journal	-5458
▁maintained	-5459
▁dynam	-5460
▁players	-5461
▁marketplace	-5462
▁satisfaction	-5463
▁tel	-5464
ighted	-5465
▁enjoy	-5466
▁notes	-5467
▁divers	-5468
▁membership	-5469
inf	-5470
like	-5471
▁Years	-5472
▁margin	-5473
astern	-5474
▁coaches	-5475
▁2002-200	-5476
ISA	-5477
▁CAVCO	-5478
▁Trend	-5479
▁quickly	-5480
▁involving	-5481
▁subsequent	-5482
4.	-5483
▁(0	-5484
▁Eg	-5485
▁wind	-5486
▁democ	-5487
▁2007-02	-5488
-26	-5489
rug	-5490
▁article	-5491
▁comment	-5492
▁graduates	-5493
▁setting	-5494
▁Response	-5495
▁indirect	-5496
▁transition	-5497
-99	-5498
ultim	-5499
▁Represent	-5500
▁allocation	-5501
▁Therefore	-5502
▁preparation	-5503
▁valid	-5504
ournals	-5505
thing	-5506
▁Order	-5507
▁matters	-5508
▁recorded	-5509
MF	-5510
forcement	-5511
▁2000.	-5512
▁Legal	-5513
▁galleries	-5514
ULT	-5515
▁Party	-5516
aced	-5517
ster	-5518
▁mis	-5519
ointed	-5520
quarters	-5521
▁reflects	-5522
▁somewhat	-5523
▁print	-5524
▁becoming	-5525
▁processed	-5526
▁AS	-5527
▁sw	-5528
oring	-5529
employ	-5530
▁prepare	-5531
-09	-5532
▁2007.	-5533
▁shipp	-5534
▁Bureau	-5535
ois	-5536
▁transp	-5537
▁compris	-5538
▁Fre	-5539
▁emb	-5540
▁examination	-5541
▁ratio	-5542
▁royal	-5543
seas	-5544
▁screen	-5545
▁peoples	-5546
▁numerous	-5547
▁directors	-5548
▁Inspection	-5549
▁Learning	-5550
▁Sites	-5551
▁613	-5552
uck	-5553
▁Sign	-5554
rators	-5555
▁boards	-5556
▁predic	-5557
▁estimate	-5558
▁examine	-5559
ANGU	-5560
▁gives	-5561
▁duality	-5562
▁performances	-5563
ealand	-5564
▁Follow	-5565
▁protected	-5566
▁1.2	-5567
▁Only	-5568
tically	-5569
▁buyers	-5570
▁valuable	-5571
SA	-5572
▁Good	-5573
▁5,	-5574
▁Commercial	-5575
/200	-5576
▁war	-5577
index	-5578
▁participated	-5579
▁unit	-5580
▁outcome	-5581
atistical	-5582
-24	-5583
used	-5584
▁title	-5585
▁Among	-5586
▁Mount	-5587
▁Recip	-5588
▁Because	-5589
▁marginal	-5590
9.	-5591
ORT	-5592
▁Zealand	-5593
▁instruments	-5594
▁gap	-5595
▁ethnocultural	-5596
yd	-5597
iable	-5598
▁Rules	-5599
▁round	-5600
▁length	-5601
▁2005-2006	-5602
Os	-5603
alled	-5604
85	-5605
▁Mé	-5606
▁dead	-5607
▁idea	-5608
▁wild	-5609
FORM	-5610
▁Its	-5611
▁discip	-5612
▁broader	-5613
▁comparison	-5614
▁dro	-5615
▁scen	-5616
▁Outlook	-5617
▁Singapore	-5618
▁consolid	-5619
▁undertake	-5620
▁Exhibit	-5621
▁selling	-5622
▁adoption	-5623
loor	-5624
▁parent	-5625
▁implications	-5626
▁curric	-5627
▁yields	-5628
▁Several	-5629
lets	-5630
▁Prep	-5631
▁musical	-5632
▁seafood	-5633
▁Lat	-5634
▁Such	-5635
▁2007,	-5636
▁Commons	-5637
▁Prairie	-5638
▁budgets	-5639
▁Bro	-5640
▁happ	-5641
▁Dire	-5642
▁OFFIC	-5643
▁oilseed	-5644
iversary	-5645
book	-5646
▁defic	-5647
▁clause	-5648
▁excess	-5649
▁linked	-5650
▁principal	-5651
▁Producers	-5652
▁fundamental	-5653
▁offset	-5654
▁Case	-5655
▁Credit	-5656
▁Tribunal	-5657
PID	-5658
▁Green	-5659
▁dairy	-5660
▁Bal	-5661
▁pages	-5662
▁potato	-5663
DQG	-5664
etit	-5665
▁bul	-5666
▁Again	-5667
▁ultim	-5668
▁creators	-5669
pped	-5670
▁David	-5671
▁Volun	-5672
▁Oce	-5673
▁prop	-5674
▁Micha	-5675
▁surface	-5676
cl	-5677
▁48	-5678
▁plus	-5679
▁cul	-5680
▁Contin	-5681
▁pestic	-5682
▁emphasis	-5683
▁practical	-5684
▁excellence	-5685
unch	-5686
▁rein	-5687
▁canola	-5688
▁healthy	-5689
▁declined	-5690
▁relevance	-5691
aire	-5692
▁LTD	-5693
▁agrees	-5694
▁cattle	-5695
alyst	-5696
▁Chile	-5697
▁accounted	-5698
▁recognizes	-5699
▁Future	-5700
▁Gallery	-5701
▁exclusive	-5702
pay	-5703
▁Go	-5704
▁Grants	-5705
▁2004-200	-5706
OG	-5707
haps	-5708
▁Address	-5709
-29	-5710
illing	-5711
▁currency	-5712
▁Box	-5713
▁shel	-5714
economic	-5715
ett	-5716
▁fixed	-5717
▁losses	-5718
▁legislative	-5719
▁strengthening	-5720
▁3.3	-5721
▁Mor	-5722
▁Month	-5723
▁religious	-5724
ze	-5725
▁Off	-5726
▁Impact	-5727
▁Directors	-5728
▁satisfied	-5729
▁95	-5730
grad	-5731
▁pow	-5732
ganic	-5733
▁Find	-5734
urities	-5735
▁2006-07	-5736
▁Argentina	-5737
PIDP	-5738
▁Artist	-5739
▁announce	-5740
▁typically	-5741
▁developments	-5742
IAN	-5743
▁box	-5744
ental	-5745
▁filing	-5746
▁Technolog	-5747
bt	-5748
OLC	-5749
water	-5750
▁Pers	-5751
▁advoc	-5752
▁Between	-5753
▁Estab	-5754
▁Change	-5755
▁register	-5756
▁FI	-5757
▁conven	-5758
▁Eth	-5759
▁Young	-5760
▁incorporated	-5761
SB	-5762
vere	-5763
▁left	-5764
▁concluded	-5765
▁inventory	-5766
▁launch	-5767
▁Computer	-5768
ictor	-5769
▁CISTI	-5770
▁structures	-5771
INE	-5772
ouses	-5773
▁Links	-5774
avil	-5775
▁mix	-5776
▁Eligible	-5777
▁ever	-5778
ussion	-5779
▁65	-5780
▁equivalent	-5781
▁Intellectual	-5782
▁Multi	-5783
▁victim	-5784
▁2004-05	-5785
▁remaining	-5786
▁collections	-5787
HR	-5788
▁ec	-5789
▁Improve	-5790
▁incentives	-5791
▁settlement	-5792
esty	-5793
ludes	-5794
▁facility	-5795
▁Up	-5796
iquid	-5797
▁Inuit	-5798
▁jurisdiction	-5799
▁Participation	-5800
ruct	-5801
encing	-5802
▁resol	-5803
▁Contacts	-5804
▁poll	-5805
▁Retail	-5806
▁uncertain	-5807
▁AN	-5808
▁Read	-5809
▁Percent	-5810
▁maintaining	-5811
▁Land	-5812
▁Rout	-5813
ancy	-5814
▁heav	-5815
▁weeks	-5816
▁Digital	-5817
Total	-5818
▁tongue	-5819
▁actually	-5820
rc	-5821
▁comes	-5822
▁Content	-5823
93	-5824
▁orient	-5825
EAS	-5826
▁Additional	-5827
▁Laboratory	-5828
Cs	-5829
IM	-5830
ias	-5831
▁experts	-5832
▁movement	-5833
ades	-5834
▁placed	-5835
room	-5836
▁Provide	-5837
▁Destination	-5838
27	-5839
rab	-5840
▁spok	-5841
emn	-5842
mbassy	-5843
atically	-5844
▁normally	-5845
▁Objectives	-5846
yl	-5847
▁ter	-5848
▁display	-5849
▁entrepreneurs	-5850
▁1-8	-5851
▁away	-5852
▁stay	-5853
▁AF	-5854
▁farming	-5855
▁occurred	-5856
▁Elsewhere	-5857
▁encouraged	-5858
63	-5859
▁saw	-5860
▁stat	-5861
▁divid	-5862
▁articles	-5863
▁sometimes	-5864
▁5.1	-5865
▁fourth	-5866
▁returns	-5867
▁owners	-5868
▁describe	-5869
▁decreased	-5870
▁Will	-5871
▁timely	-5872
exp	-5873
▁Major	-5874
lude	-5875
▁vent	-5876
▁1999,	-5877
▁filed	-5878
▁Component	-5879
▁OLMC	-5880
5,000	-5881
ifications	-5882
▁poor	-5883
▁Their	-5884
▁widely	-5885
rigation	-5886
▁Specified	-5887
▁economies	-5888
▁Scientific	-5889
rael	-5890
▁constrain	-5891
ACT	-5892
iliar	-5893
▁easy	-5894
▁engaged	-5895
▁minister	-5896
ales	-5897
▁label	-5898
▁exchanges	-5899
▁flexibility	-5900
▁7,	-5901
▁surplus	-5902
▁ingred	-5903
▁seeking	-5904
▁extended	-5905
ica	-5906
holder	-5907
▁recommendation	-5908
ulties	-5909
▁occas	-5910
▁compete	-5911
ously	-5912
▁rent	-5913
▁reflected	-5914
▁Record	-5915
▁Target	-5916
▁pilot	-5917
▁career	-5918
SE	-5919
▁Map	-5920
▁Imports	-5921
▁western	-5922
den	-5923
rolment	-5924
timedia	-5925
▁moving	-5926
▁outlook	-5927
▁Domestic	-5928
▁bilateral	-5929
83	-5930
lle	-5931
atell	-5932
▁sole	-5933
▁receipt	-5934
▁testing	-5935
▁drop	-5936
▁dedicated	-5937
▁anticipated	-5938
▁establishments	-5939
medi	-5940
odes	-5941
▁true	-5942
PDF	-5943
ville	-5944
▁Paper	-5945
▁Infrastructure	-5946
ker	-5947
▁audio	-5948
▁recovery	-5949
▁volunteers	-5950
▁enterprises	-5951
▁ago	-5952
▁Trends	-5953
▁authorized	-5954
▁Administrative	-5955
▁Fe	-5956
▁End	-5957
erves	-5958
rator	-5959
▁Census	-5960
▁latest	-5961
vie	-5962
emor	-5963
▁bur	-5964
▁vac	-5965
ertilizer	-5966
aters	-5967
ifying	-5968
outhern	-5969
tension	-5970
▁Subs	-5971
▁Accountability	-5972
▁traffic	-5973
▁Show	-5974
▁Children	-5975
▁excellent	-5976
ips	-5977
▁Don	-5978
▁Rail	-5979
▁facing	-5980
▁stronger	-5981
▁Trust	-5982
▁limits	-5983
ctive	-5984
▁highl	-5985
▁exercise	-5986
▁generate	-5987
▁strongly	-5988
▁volunteer	-5989
▁publisher	-5990
▁populations	-5991
▁CN	-5992
▁...	-5993
▁Method	-5994
▁Victor	-5995
elligence	-5996
fort	-5997
coming	-5998
cipitation	-5999
▁Pop	-6000
▁visual	-6001
ART	-6002
udes	-6003
▁mut	-6004
▁eggs	-6005
enders	-6006
.4%	-6007
▁Kong	-6008
▁assessed	-6009
ulum	-6010
osing	-6011
▁mach	-6012
▁pour	-6013
▁stead	-6014
▁Rem	-6015
▁simple	-6016
▁periodical	-6017
▁determining	-6018
▁2%	-6019
-2000	-6020
▁Room	-6021
▁pork	-6022
▁regime	-6023
▁Olympic	-6024
▁chemical	-6025
▁stations	-6026
▁Measuring	-6027
met	-6028
▁SEN	-6029
▁CRRF	-6030
▁Energy	-6031
▁rising	-6032
▁channel	-6033
▁evaluate	-6034
8.	-6035
▁39	-6036
▁War	-6037
▁1998,	-6038
▁applies	-6039
▁scholars	-6040
▁behaviour	-6041
▁recordings	-6042
aise	-6043
cton	-6044
▁pursuant	-6045
▁é	-6046
▁places	-6047
▁readers	-6048
▁Yes	-6049
▁prohib	-6050
▁Employees	-6051
▁licensing	-6052
19)	-6053
▁2)	-6054
▁Lic	-6055
ying	-6056
▁vers	-6057
▁Private	-6058
▁interpretation	-6059
▁spir	-6060
▁built	-6061
unction	-6062
▁distance	-6063
▁1980	-6064
▁Hong	-6065
▁pred	-6066
▁replace	-6067
En	-6068
abit	-6069
▁Local	-6070
▁overview	-6071
▁necessarily	-6072
sembly	-6073
▁introduction	-6074
▁cycle	-6075
▁Location	-6076
▁pen	-6077
▁exists	-6078
▁normal	-6079
▁condition	-6080
DW	-6081
▁map	-6082
▁capture	-6083
▁attended	-6084
4%	-6085
▁sun	-6086
▁People	-6087
▁units	-6088
▁actively	-6089
▁transfers	-6090
▁encouraging	-6091
▁modified	-6092
aud	-6093
▁mind	-6094
ools	-6095
ienne	-6096
▁extreme	-6097
▁expanded	-6098
▁rational	-6099
▁Job	-6100
▁store	-6101
▁organizational	-6102
▁conservation	-6103
▁PE	-6104
▁br	-6105
▁criminal	-6106
21	-6107
▁aid	-6108
▁emissions	-6109
ération	-6110
▁multicultural	-6111
▁4%	-6112
inery	-6113
▁Park	-6114
▁addressing	-6115
▁try	-6116
▁Embassy	-6117
rogen	-6118
▁NISA	-6119
lies	-6120
▁BPIDP	-6121
▁package	-6122
▁remained	-6123
▁Expenditures	-6124
UM	-6125
▁Person	-6126
▁savings	-6127
▁graduate	-6128
▁Adv	-6129
OM	-6130
UH	-6131
▁Million	-6132
licit	-6133
limin	-6134
avilion	-6135
▁Tim	-6136
▁sets	-6137
▁games	-6138
▁varieties	-6139
▁Departmental	-6140
▁$9	-6141
▁COMM	-6142
▁posted	-6143
▁customer	-6144
▁depending	-6145
▁methodology	-6146
oriz	-6147
▁Trad	-6148
olumes	-6149
liminary	-6150
▁Legislation	-6151
▁collaborative	-6152
▁2.3	-6153
irds	-6154
▁Rest	-6155
▁choose	-6156
▁demands	-6157
▁identifying	-6158
mbol	-6159
stream	-6160
▁Phone	-6161
▁labels	-6162
▁constant	-6163
▁observed	-6164
▁perceived	-6165
bon	-6166
▁15%	-6167
▁complaints	-6168
9)	-6169
ierre	-6170
▁side	-6171
▁Markets	-6172
▁appointed	-6173
▁(3)	-6174
TIONS	-6175
▁becomes	-6176
▁consequ	-6177
TING	-6178
ifax	-6179
▁reveal	-6180
▁century	-6181
.8%	-6182
▁IRAP	-6183
▁Task	-6184
▁engage	-6185
▁expanding	-6186
▁greenhouse	-6187
▁coordinators	-6188
uct	-6189
▁gains	-6190
▁2003-04	-6191
▁Eastern	-6192
▁Respond	-6193
▁acquisition	-6194
▁maxim	-6195
▁racial	-6196
▁rapidly	-6197
▁quot	-6198
▁lives	-6199
▁afford	-6200
▁awards	-6201
▁Université	-6202
▁participant	-6203
▁Mat	-6204
▁Time	-6205
▁fewer	-6206
▁contributing	-6207
▁Ext	-6208
▁aims	-6209
▁deemed	-6210
▁amended	-6211
▁pi	-6212
spec	-6213
▁400	-6214
▁Consultations	-6215
▁Pol	-6216
▁sus	-6217
▁sure	-6218
▁conflict	-6219
▁Bel	-6220
▁Avail	-6221
▁showc	-6222
▁Manufacturing	-6223
▁30%	-6224
▁Den	-6225
▁mass	-6226
▁NA	-6227
▁safe	-6228
▁principle	-6229
.6%	-6230
▁Israel	-6231
▁Indicators	-6232
▁banks	-6233
Un	-6234
▁Summer	-6235
▁medical	-6236
▁managing	-6237
▁combination	-6238
▁3%	-6239
▁white	-6240
▁Limited	-6241
▁Questions	-6242
▁Life	-6243
▁alone	-6244
▁Peoples	-6245
▁6,	-6246
▁AD	-6247
▁path	-6248
▁seems	-6249
▁belong	-6250
▁calculated	-6251
▁fem	-6252
▁leaf	-6253
ici	-6254
door	-6255
▁prosp	-6256
▁deep	-6257
ATIONS	-6258
funded	-6259
▁clean	-6260
▁pursue	-6261
▁Spanish	-6262
▁Background	-6263
ICS	-6264
▁Gre	-6265
▁acts	-6266
taining	-6267
▁poultry	-6268
▁involves	-6269
▁convention	-6270
▁Bul	-6271
▁weeds	-6272
▁expenditure	-6273
▁expos	-6274
▁Awards	-6275
@@@@@@@@	-6276
▁Planned	-6277
82	-6278
▁secure	-6279
▁affecting	-6280
▁Institutions	-6281
▁6.	-6282
▁Ent	-6283
quality	-6284
▁measured	-6285
▁stim	-6286
makers	-6287
▁exemp	-6288
▁freed	-6289
▁council	-6290
▁regulation	-6291
▁preservation	-6292
▁concentration	-6293
EO	-6294
eterm	-6295
▁finding	-6296
▁workshop	-6297
73	-6298
itig	-6299
▁1993	-6300
▁journals	-6301
▁reaching	-6302
▁schedule	-6303
LV	-6304
▁housing	-6305
▁Activity	-6306
▁CONT	-6307
utures	-6308
▁2007-01	-6309
.50	-6310
LQJ	-6311
▁Upd	-6312
▁Consum	-6313
▁performed	-6314
▁jus	-6315
▁absence	-6316
▁license	-6317
▁Victoria	-6318
net	-6319
atellite	-6320
▁controlled	-6321
7%	-6322
▁Transport	-6323
▁foundation	-6324
▁Competition	-6325
-00	-6326
▁den	-6327
▁allowing	-6328
▁Liter	-6329
▁caused	-6330
▁directed	-6331
▁adapt	-6332
▁Require	-6333
▁revised	-6334
▁Contents	-6335
▁Federation	-6336
▁vegetables	-6337
▁Down	-6338
▁preced	-6339
▁Société	-6340
▁2006-200	-6341
.7%	-6342
▁seem	-6343
igenous	-6344
▁despite	-6345
▁Dan	-6346
▁NAT	-6347
▁debate	-6348
▁dispos	-6349
▁Poultry	-6350
▁46	-6351
▁$10,	-6352
▁1997,	-6353
▁appeal	-6354
heritage	-6355
▁interpre	-6356
An	-6357
ervations	-6358
▁flexible	-6359
▁purchased	-6360
▁Consultants	-6361
.9%	-6362
▁cris	-6363
undred	-6364
▁regularly	-6365
▁Conditions	-6366
▁Nor	-6367
▁card	-6368
▁soon	-6369
–200	-6370
ratic	-6371
▁Pest	-6372
▁replaced	-6373
▁define	-6374
▁shares	-6375
▁stress	-6376
▁qualified	-6377
▁francophones	-6378
▁Type	-6379
▁border	-6380
▁2006-12	-6381
▁Rate	-6382
▁root	-6383
▁dance	-6384
▁NSF	-6385
isual	-6386
:00	-6387
inem	-6388
▁SEC	-6389
▁identification	-6390
▁reality	-6391
▁advanced	-6392
▁historic	-6393
pch	-6394
▁Ste	-6395
▁Even	-6396
itness	-6397
▁competit	-6398
▁addresses	-6399
NA	-6400
▁Métis	-6401
▁Growth	-6402
▁appoint	-6403
▁Gas	-6404
oices	-6405
▁behind	-6406
▁Sciences	-6407
▁56	-6408
▁kg	-6409
WLRQ	-6410
▁learned	-6411
▁employed	-6412
▁Portfolio	-6413
GX	-6414
itionally	-6415
▁task	-6416
ireless	-6417
herlands	-6418
▁Criminal	-6419
▁Monetary	-6420
▁situations	-6421
▁Recommendations	-6422
▁URM	-6423
comes	-6424
▁played	-6425
▁consists	-6426
▁familiar	-6427
▁theme	-6428
▁Notice	-6429
▁climate	-6430
▁quantity	-6431
▁01	-6432
▁1.3	-6433
▁nine	-6434
▁grass	-6435
production	-6436
yers	-6437
▁Fair	-6438
▁Four	-6439
▁Event	-6440
▁duties	-6441
▁Distrib	-6442
ARY	-6443
▁Free	-6444
▁room	-6445
▁1999.	-6446
EX	-6447
▁interim	-6448
▁AM	-6449
lock	-6450
▁prec	-6451
▁Halifax	-6452
Al	-6453
▁1%	-6454
▁attit	-6455
▁questionna	-6456
▁Mo	-6457
inces	-6458
▁road	-6459
▁weight	-6460
▁periods	-6461
▁2001-200	-6462
list	-6463
▁inj	-6464
▁Engineering	-6465
86	-6466
adi	-6467
win	-6468
sing	-6469
▁OLA	-6470
▁lay	-6471
▁wholes	-6472
▁consulted	-6473
▁existence	-6474
▁perm	-6475
▁Standing	-6476
▁enhancing	-6477
▁immersion	-6478
▁recruitment	-6479
onds	-6480
▁shift	-6481
▁giving	-6482
▁restaur	-6483
▁northern	-6484
TML	-6485
URE	-6486
▁Next	-6487
▁Notes	-6488
▁story	-6489
▁exported	-6490
▁Recording	-6491
▁sustainability	-6492
ECH	-6493
▁53	-6494
vals	-6495
▁40%	-6496
▁grew	-6497
ilarly	-6498
▁ahead	-6499
isation	-6500
▁easily	-6501
▁forest	-6502
▁object	-6503
▁buildings	-6504
fare	-6505
dn	-6506
▁Hosp	-6507
alogue	-6508
▁owned	-6509
▁borrow	-6510
▁dé	-6511
▁leader	-6512
▁Following	-6513
iam	-6514
cribed	-6515
▁Model	-6516
▁Recogn	-6517
▁Quarter	-6518
▁Netherlands	-6519
imension	-6520
▁2006-09	-6521
▁Profiles	-6522
▁manufacturers	-6523
▁Attend	-6524
▁Spending	-6525
▁delegation	-6526
▁Super	-6527
dis	-6528
▁QU	-6529
▁1991	-6530
▁Host	-6531
▁Format	-6532
curement	-6533
▁appreciation	-6534
RS	-6535
▁eros	-6536
▁Producer	-6537
▁ready	-6538
rame	-6539
▁focuses	-6540
▁exhibition	-6541
▁conferences	-6542
▁Corporations	-6543
onne	-6544
laugh	-6545
▁Compan	-6546
▁liquid	-6547
▁director	-6548
▁liability	-6549
▁63	-6550
TIVE	-6551
▁Technologies	-6552
▁him	-6553
▁hundred	-6554
▁Celeb	-6555
▁withd	-6556
▁summar	-6557
▁newspaper	-6558
▁frequently	-6559
▁demonstrated	-6560
▁sl	-6561
▁25%	-6562
▁pool	-6563
▁Republic	-6564
▁starting	-6565
▁guarantee	-6566
SH	-6567
▁Decision	-6568
▁Discussion	-6569
uing	-6570
▁Pic	-6571
▁overseas	-6572
▁older	-6573
utional	-6574
▁Identif	-6575
▁Exchange	-6576
▁interactive	-6577
OW	-6578
alog	-6579
▁dig	-6580
▁nit	-6581
▁IPOLC	-6582
▁willing	-6583
▁accurate	-6584
PM	-6585
édération	-6586
▁Resource	-6587
ero	-6588
▁sm	-6589
▁History	-6590
▁distinct	-6591
▁certificate	-6592
nrc	-6593
overty	-6594
ourcing	-6595
▁favour	-6596
▁hosting	-6597
100	-6598
▁whom	-6599
▁Version	-6600
▁handling	-6601
▁Announces	-6602
▁proceedings	-6603
ford	-6604
▁5.2	-6605
berry	-6606
▁send	-6607
quency	-6608
▁Provinces	-6609
IB	-6610
venues	-6611
▁rich	-6612
▁rose	-6613
▁viewed	-6614
▁Ath	-6615
▁race	-6616
▁thought	-6617
▁advances	-6618
▁Monitoring	-6619
▁micro	-6620
▁feedback	-6621
24	-6622
▁ICT	-6623
▁Categ	-6624
▁Moncton	-6625
▁aggregate	-6626
▁song	-6627
▁delay	-6628
▁bodies	-6629
▁Anglophones	-6630
▁possibility	-6631
▁Rich	-6632
▁harmon	-6633
▁2006-05	-6634
▁outputs	-6635
▁indicator	-6636
▁Oil	-6637
▁processors	-6638
AND	-6639
▁Diff	-6640
▁Long	-6641
▁Round	-6642
LIC	-6643
▁Latin	-6644
▁acquired	-6645
▁beneficial	-6646
▁African	-6647
▁objects	-6648
▁connection	-6649
▁500	-6650
▁lot	-6651
▁Fact	-6652
▁lowest	-6653
▁Optical	-6654
▁Controlling	-6655
▁CCO	-6656
▁Teac	-6657
▁Place	-6658
▁collect	-6659
▁Benefits	-6660
▁segments	-6661
▁Including	-6662
▁30,	-6663
roduce	-6664
▁refers	-6665
▁differenti	-6666
gency	-6667
▁Renew	-6668
▁seeded	-6669
▁2002-03	-6670
▁writers	-6671
▁greatest	-6672
▁Legislative	-6673
▁municipalities	-6674
▁III	-6675
▁Operating	-6676
BS	-6677
▁fell	-6678
▁Fédération	-6679
▁considering	-6680
osen	-6681
▁Core	-6682
▁intern	-6683
▁expense	-6684
▁outstanding	-6685
flow	-6686
▁Vice	-6687
▁gross	-6688
▁names	-6689
▁temper	-6690
atabases	-6691
▁difficulties	-6692
▁accommodation	-6693
▁1)	-6694
uate	-6695
▁trees	-6696
▁choices	-6697
▁interviewed	-6698
▁word	-6699
abling	-6700
▁orders	-6701
▁contacts	-6702
▁Li	-6703
auth	-6704
▁suc	-6705
letin	-6706
▁Fish	-6707
▁Champ	-6708
▁Member	-6709
▁Students	-6710
▁Ele	-6711
▁Treat	-6712
▁erosion	-6713
QU	-6714
umb	-6715
istan	-6716
▁Hays	-6717
▁Regions	-6718
▁enforcement	-6719
▁supermarket	-6720
▁leaves	-6721
▁subsidies	-6722
IAL	-6723
▁milk	-6724
▁correct	-6725
▁instance	-6726
CR	-6727
▁CI	-6728
▁NF	-6729
▁image	-6730
▁conducting	-6731
erate	-6732
▁coast	-6733
▁Robert	-6734
owned	-6735
▁1996,	-6736
▁Const	-6737
▁plays	-6738
▁Associations	-6739
▁restrictions	-6740
▁6.1	-6741
sized	-6742
▁feas	-6743
▁Real	-6744
▁Three	-6745
▁versus	-6746
▁Currently	-6747
▁securities	-6748
alls	-6749
iction	-6750
▁2006-04	-6751
▁intervention	-6752
▁Italy	-6753
▁capita	-6754
▁started	-6755
▁significance	-6756
▁updated	-6757
▁Important	-6758
▁communicate	-6759
▁pleased	-6760
▁purchasing	-6761
▁contemporary	-6762
VER	-6763
▁Staff	-6764
▁leave	-6765
▁amendment	-6766
▁Terms	-6767
▁Center	-6768
business	-6769
▁stability	-6770
fully	-6771
▁gather	-6772
▁CANADIAN	-6773
▁Pavilion	-6774
▁stages	-6775
▁acknowled	-6776
cf	-6777
▁au	-6778
iner	-6779
▁vast	-6780
▁sought	-6781
▁2006-02	-6782
▁specialty	-6783
tify	-6784
▁Feed	-6785
▁bench	-6786
vy	-6787
▁FA	-6788
▁CIDA	-6789
ANGUAGE	-6790
▁comply	-6791
▁Focus	-6792
▁Labour	-6793
itz	-6794
▁cultiv	-6795
▁select	-6796
▁thereby	-6797
ECD	-6798
▁$30	-6799
riend	-6800
▁Area	-6801
▁fast	-6802
▁match	-6803
▁panel	-6804
▁Routes	-6805
▁shipments	-6806
▁stri	-6807
▁Phase	-6808
▁spend	-6809
▁credits	-6810
▁evolution	-6811
▁locations	-6812
▁MA	-6813
▁Plant	-6814
▁weather	-6815
▁explained	-6816
▁Requirements	-6817
▁achievements	-6818
arts	-6819
▁pic	-6820
▁cited	-6821
▁Violence	-6822
▁contributes	-6823
▁Fiscal	-6824
▁Against	-6825
▁curriculum	-6826
2%	-6827
94	-6828
urch	-6829
▁196	-6830
▁USA	-6831
▁Collabor	-6832
▁successfully	-6833
ateway	-6834
▁holders	-6835
advant	-6836
▁dynamic	-6837
▁advisory	-6838
▁acceptance	-6839
▁bankruptcy	-6840
raf	-6841
▁300	-6842
▁entered	-6843
▁monthly	-6844
▁enrolment	-6845
▁interesting	-6846
▁Fees	-6847
▁flag	-6848
▁Civil	-6849
▁entity	-6850
▁Knowledge	-6851
▁immediately	-6852
tein	-6853
▁CONS	-6854
▁themes	-6855
▁reviews	-6856
▁terminal	-6857
1%	-6858
▁0%	-6859
▁Anim	-6860
▁Chart	-6861
▁ré	-6862
canada	-6863
▁Foods	-6864
▁Museums	-6865
ufficient	-6866
ows	-6867
▁IT	-6868
lick	-6869
▁load	-6870
▁Material	-6871
▁Sol	-6872
▁repay	-6873
ilitary	-6874
▁6%	-6875
▁inclusion	-6876
▁Collective	-6877
▁culturally	-6878
5.	-6879
ERV	-6880
▁Ca	-6881
▁Expo	-6882
mative	-6883
▁affili	-6884
▁incentive	-6885
▁anniversary	-6886
▁applying	-6887
▁division	-6888
▁conclusions	-6889
▁Ne	-6890
ridge	-6891
usion	-6892
▁Award	-6893
▁holid	-6894
run	-6895
▁His	-6896
amber	-6897
▁EN	-6898
▁Grad	-6899
▁trace	-6900
▁solution	-6901
▁techniques	-6902
ald	-6903
▁03	-6904
▁Sm	-6905
▁Aid	-6906
▁fung	-6907
▁awarded	-6908
▁Practices	-6909
▁delivering	-6910
uro	-6911
▁Bever	-6912
▁INFORM	-6913
▁Rac	-6914
▁duty	-6915
orient	-6916
worm	-6917
▁ones	-6918
▁Streng	-6919
▁buying	-6920
▁derived	-6921
▁Brazilian	-6922
EF	-6923
Ex	-6924
IST	-6925
▁minutes	-6926
▁Consultation	-6927
lom	-6928
▁ask	-6929
itect	-6930
▁answer	-6931
▁Advance	-6932
ectricity	-6933
▁festival	-6934
▁immediate	-6935
▁$15	-6936
▁bio	-6937
ething	-6938
▁Panel	-6939
▁Native	-6940
▁session	-6941
▁Applications	-6942
iry	-6943
▁INTER	-6944
▁courts	-6945
represent	-6946
▁extension	-6947
▁postsecondary	-6948
GRA	-6949
tre	-6950
itizen	-6951
▁Plans	-6952
▁Altern	-6953
▁message	-6954
▁Dur	-6955
▁tourists	-6956
▁IV	-6957
loss	-6958
commun	-6959
▁Economy	-6960
FRA	-6961
▁(4	-6962
wood	-6963
▁tick	-6964
▁dissemination	-6965
HQW	-6966
▁(819)	-6967
eminars	-6968
▁aspect	-6969
▁Saskatoon	-6970
▁suggestions	-6971
.3%	-6972
▁nom	-6973
▁cand	-6974
▁meets	-6975
▁Return	-6976
▁immigrant	-6977
ania	-6978
andon	-6979
gence	-6980
▁Past	-6981
▁occurs	-6982
▁Student	-6983
▁acceptable	-6984
▁transaction	-6985
76	-6986
▁58	-6987
ulating	-6988
▁agenda	-6989
▁attached	-6990
▁distributor	-6991
▁DOC	-6992
theless	-6993
▁assurance	-6994
36	-6995
▁1970	-6996
▁Chain	-6997
▁remed	-6998
verages	-6999
▁extend	-7000
▁Commerce	-7001
▁promotes	-7002
VD	-7003
ARD	-7004
▁drin	-7005
▁sexual	-7006
▁Stephen	-7007
▁devices	-7008
efore	-7009
under	-7010
idance	-7011
▁param	-7012
▁latter	-7013
da	-7014
▁cr	-7015
ATOR	-7016
▁Soil	-7017
▁code	-7018
▁Within	-7019
▁volumes	-7020
rice	-7021
▁irrigation	-7022
▁Registration	-7023
▁(20	-7024
entist	-7025
▁Grand	-7026
▁calls	-7027
imination	-7028
▁describes	-7029
▁multimedia	-7030
8)	-7031
▁7.	-7032
▁Freed	-7033
▁cell	-7034
▁valued	-7035
▁mandatory	-7036
▁variables	-7037
rew	-7038
▁shar	-7039
▁Peter	-7040
▁Turkey	-7041
level	-7042
▁moved	-7043
▁parti	-7044
▁fairly	-7045
▁perhaps	-7046
▁inspection	-7047
▁Campaign	-7048
▁Objective	-7049
▁AAP	-7050
added	-7051
▁infring	-7052
▁keeping	-7053
▁Assembly	-7054
▁Increase	-7055
▁advantages	-7056
point	-7057
▁faced	-7058
▁6.2	-7059
▁motiv	-7060
▁Regina	-7061
▁stabil	-7062
▁Purpose	-7063
rity	-7064
▁$24,	-7065
▁opening	-7066
▁Companies	-7067
▁highlight	-7068
▁societies	-7069
▁comparable	-7070
▁Using	-7071
▁parliament	-7072
eters	-7073
olven	-7074
▁proud	-7075
▁formula	-7076
▁1992	-7077
▁Fort	-7078
▁INFORMATION	-7079
▁tri	-7080
lishes	-7081
▁Adver	-7082
▁Short	-7083
atform	-7084
▁Offices	-7085
▁Database	-7086
▁exhibits	-7087
▁Reporting	-7088
▁strengths	-7089
▁Respondents	-7090
▁translation	-7091
▁Jud	-7092
▁dil	-7093
erving	-7094
▁charges	-7095
▁sponsors	-7096
▁mor	-7097
▁Russia	-7098
▁reading	-7099
television	-7100
▁Printable	-7101
▁difficulty	-7102
▁biotechnology	-7103
ta	-7104
(2)	-7105
▁supplier	-7106
▁sensitive	-7107
▁citizenship	-7108
ung	-7109
usias	-7110
▁gave	-7111
▁peace	-7112
▁chosen	-7113
▁forces	-7114
▁depends	-7115
criptions	-7116
▁compensation	-7117
▁perspectives	-7118
▁Ur	-7119
eches	-7120
▁millions	-7121
▁adjustments	-7122
▁considerations	-7123
▁animals	-7124
▁assumed	-7125
▁investors	-7126
CD	-7127
▁diss	-7128
istent	-7129
▁colour	-7130
7.	-7131
UP	-7132
▁8%	-7133
celer	-7134
▁earned	-7135
▁overnight	-7136
▁COMP	-7137
▁White	-7138
▁Speech	-7139
▁Volume	-7140
▁covers	-7141
▁explor	-7142
▁Organic	-7143
▁probably	-7144
▁profitability	-7145
WK	-7146
ador	-7147
enty	-7148
kers	-7149
utors	-7150
▁showed	-7151
rob	-7152
▁NB	-7153
▁$40	-7154
▁ACC	-7155
essel	-7156
oment	-7157
▁15,	-7158
▁surv	-7159
▁wine	-7160
▁threat	-7161
▁Operations	-7162
role	-7163
▁Notices	-7164
▁patterns	-7165
▁NG	-7166
▁adult	-7167
▁Economics	-7168
ruits	-7169
▁images	-7170
▁Software	-7171
▁2003-2004	-7172
▁worldwide	-7173
no	-7174
▁MB	-7175
▁friends	-7176
▁purchases	-7177
▁classes	-7178
▁bookings	-7179
YC	-7180
IES	-7181
ara	-7182
arency	-7183
▁Recent	-7184
▁passed	-7185
laughter	-7186
▁prevention	-7187
▁coordinated	-7188
itative	-7189
▁nar	-7190
isher	-7191
▁100%	-7192
▁Equity	-7193
▁transl	-7194
▁reliable	-7195
▁Similarly	-7196
▁something	-7197
▁Books	-7198
reshold	-7199
▁Subject	-7200
▁lists	-7201
▁greatly	-7202
▁Authority	-7203
▁complement	-7204
cript	-7205
▁Vari	-7206
▁pace	-7207
ensity	-7208
▁prosper	-7209
▁tonne	-7210
▁poverty	-7211
effective	-7212
▁earnings	-7213
▁preparing	-7214
▁transport	-7215
allow	-7216
▁Dance	-7217
▁ensures	-7218
▁instead	-7219
▁properly	-7220
▁Countries	-7221
▁OR	-7222
ishes	-7223
▁Mach	-7224
▁went	-7225
▁neigh	-7226
▁disadvant	-7227
rist	-7228
▁12,	-7229
▁jurisdictions	-7230
cons	-7231
atisf	-7232
▁reput	-7233
▁symbol	-7234
▁outreach	-7235
▁resolution	-7236
rd	-7237
MAF	-7238
▁hosp	-7239
▁URMULE	-7240
▁Payment	-7241
▁serving	-7242
▁Alliance	-7243
ham	-7244
nes	-7245
▁Rob	-7246
▁divided	-7247
▁Sustainable	-7248
CIMS	-7249
rais	-7250
▁Lou	-7251
▁driven	-7252
ios	-7253
asure	-7254
while	-7255
▁PART	-7256
tirement	-7257
▁contrast	-7258
▁Uk	-7259
uled	-7260
uses	-7261
orand	-7262
▁Collection	-7263
▁conclusion	-7264
can	-7265
▁Sources	-7266
▁finance	-7267
▁requiring	-7268
▁constitute	-7269
___	-7270
▁8,	-7271
▁BE	-7272
▁Due	-7273
▁Max	-7274
▁herb	-7275
Ontario	-7276
▁respondent	-7277
▁entertainment	-7278
Th	-7279
▁Who	-7280
▁piec	-7281
▁Divers	-7282
▁easier	-7283
resident	-7284
▁Temporary	-7285
▁Partnerships	-7286
▁80%	-7287
idents	-7288
ativity	-7289
▁exhibit	-7290
▁invited	-7291
▁surround	-7292
▁Disclosure	-7293
▁fertilizer	-7294
▁44	-7295
▁decided	-7296
▁uncertainty	-7297
OND	-7298
rips	-7299
▁Mond	-7300
ership	-7301
▁multil	-7302
▁1999-2000	-7303
▁performers	-7304
▁Certification	-7305
▁IMP	-7306
icide	-7307
rorism	-7308
▁expert	-7309
▁receives	-7310
▁containing	-7311
él	-7312
▁lif	-7313
amination	-7314
▁Productions	-7315
▁83	-7316
enger	-7317
▁Paris	-7318
▁everyone	-7319
ectic	-7320
▁NATCP	-7321
▁Third	-7322
vile	-7323
▁attempt	-7324
▁preserve	-7325
.2%	-7326
rete	-7327
▁lost	-7328
▁Those	-7329
▁asset	-7330
▁extra	-7331
tention	-7332
lication	-7333
▁spectrum	-7334
▁elsewhere	-7335
▁travelling	-7336
▁compos	-7337
▁Coast	-7338
▁topics	-7339
▁distingu	-7340
▁Exhibition	-7341
oir	-7342
LINE	-7343
weet	-7344
▁Veg	-7345
▁Does	-7346
▁item	-7347
▁vital	-7348
▁chains	-7349
▁rating	-7350
▁Customs	-7351
▁pension	-7352
employment	-7353
▁initiated	-7354
olk	-7355
ANCE	-7356
▁10,	-7357
▁4.3	-7358
▁Lake	-7359
▁Volunte	-7360
▁geographic	-7361
▁Coordination	-7362
▁rely	-7363
▁royalties	-7364
▁attributed	-7365
▁constraints	-7366
▁PAP	-7367
▁PER	-7368
▁Phot	-7369
▁really	-7370
▁2007-08	-7371
ns	-7372
ps	-7373
▁04	-7374
▁Sa	-7375
ineau	-7376
▁1998.	-7377
▁Proced	-7378
▁unable	-7379
▁bringing	-7380
WP	-7381
med	-7382
▁68	-7383
aceu	-7384
▁Low	-7385
▁termin	-7386
▁Prepared	-7387
rag	-7388
▁66	-7389
rest	-7390
igned	-7391
▁rough	-7392
▁stand	-7393
▁inputs	-7394
▁modest	-7395
terb	-7396
▁sho	-7397
▁spirit	-7398
▁acknowledge	-7399
lied	-7400
▁Prairies	-7401
▁engineering	-7402
RY	-7403
azz	-7404
▁7%	-7405
▁BO	-7406
▁amb	-7407
▁Less	-7408
▁Franco	-7409
▁regardless	-7410
▁considerably	-7411
92	-7412
400	-7413
▁Mov	-7414
▁Full	-7415
▁bott	-7416
▁conv	-7417
armaceu	-7418
▁intermedi	-7419
▁submission	-7420
▁9,	-7421
▁Amend	-7422
▁Changes	-7423
▁competitors	-7424
LY	-7425
nam	-7426
▁$2,	-7427
riters	-7428
▁Tools	-7429
▁arising	-7430
▁envelop	-7431
▁victims	-7432
▁extremely	-7433
▁interviewees	-7434
Ab	-7435
We	-7436
.10	-7437
▁02	-7438
inary	-7439
isting	-7440
▁treated	-7441
▁reserves	-7442
▁Hot	-7443
▁Cash	-7444
▁Autom	-7445
▁adults	-7446
▁consensus	-7447
▁recommends	-7448
▁exhibitions	-7449
bum	-7450
▁CB	-7451
▁FSL	-7452
mitted	-7453
▁double	-7454
UD	-7455
race	-7456
▁60%	-7457
▁Aware	-7458
▁charged	-7459
▁succeed	-7460
▁carrying	-7461
▁2.5	-7462
ession	-7463
▁Dairy	-7464
▁surveyed	-7465
▁Constitution	-7466
▁Suite	-7467
▁email	-7468
ibly	-7469
astic	-7470
▁Before	-7471
law	-7472
▁OECD	-7473
▁Organizational	-7474
▁administrators	-7475
lim	-7476
▁12%	-7477
rance	-7478
▁Floor	-7479
▁2001-02	-7480
▁tillage	-7481
▁Potential	-7482
▁arrangement	-7483
FS	-7484
▁(50	-7485
▁voice	-7486
▁superv	-7487
▁benefici	-7488
▁salaries	-7489
▁confirmed	-7490
▁generations	-7491
As	-7492
ropol	-7493
▁suff	-7494
atching	-7495
▁relate	-7496
▁employers	-7497
iation	-7498
▁sugar	-7499
▁pricing	-7500
TIC	-7501
ronom	-7502
▁adopt	-7503
▁crime	-7504
ATIONAL	-7505
▁senators	-7506
▁fostering	-7507
▁understood	-7508
oly	-7509
roup	-7510
build	-7511
▁conj	-7512
▁fine	-7513
▁tell	-7514
▁formed	-7515
▁freedom	-7516
▁resistance	-7517
ago	-7518
pub	-7519
uff	-7520
iplom	-7521
OOD	-7522
▁expensive	-7523
▁limitations	-7524
▁substantially	-7525
qui	-7526
▁RC	-7527
▁tast	-7528
▁tests	-7529
ovisual	-7530
▁PROGRA	-7531
▁instrument	-7532
▁outlets	-7533
▁celebrate	-7534
PS	-7535
df	-7536
▁Role	-7537
Schedule	-7538
▁packages	-7539
▁inclusive	-7540
▁Historical	-7541
▁Hand	-7542
▁Strong	-7543
▁2000-01	-7544
▁Awareness	-7545
▁8.	-7546
▁uns	-7547
month	-7548
▁hope	-7549
▁ties	-7550
▁Inves	-7551
▁drawn	-7552
oriented	-7553
▁Findings	-7554
▁Gl	-7555
▁aqu	-7556
▁bid	-7557
▁Cree	-7558
▁front	-7559
▁Nation	-7560
▁serves	-7561
▁(41	-7562
▁Liv	-7563
▁meal	-7564
▁Oceans	-7565
▁distinc	-7566
▁tariffs	-7567
▁prescribed	-7568
▁Independent	-7569
600	-7570
▁MAN	-7571
▁pul	-7572
▁Emer	-7573
▁argu	-7574
▁shif	-7575
▁Commit	-7576
▁receipts	-7577
▁distribute	-7578
New	-7579
▁2.4	-7580
oured	-7581
▁2008.	-7582
▁beans	-7583
▁exporting	-7584
199	-7585
▁Em	-7586
person	-7587
▁nations	-7588
▁outdoor	-7589
▁vehicle	-7590
▁assigned	-7591
WR	-7592
▁Cab	-7593
athe	-7594
▁150	-7595
▁spa	-7596
▁2006-06	-7597
7)	-7598
▁Mart	-7599
▁death	-7600
▁Racism	-7601
▁complementary	-7602
VES	-7603
▁OLMCs	-7604
▁quarterly	-7605
▁Log	-7606
▁1243	-7607
▁movie	-7608
▁niche	-7609
▁manure	-7610
▁demographic	-7611
▁Age	-7612
▁Rev	-7613
UT	-7614
fin	-7615
▁My	-7616
▁ce	-7617
▁fa	-7618
amer	-7619
tile	-7620
▁Last	-7621
▁Mail	-7622
▁Mean	-7623
▁Large	-7624
▁Personal	-7625
▁exposure	-7626
▁households	-7627
▁contracting	-7628
▁Avenue	-7629
▁figure	-7630
▁protein	-7631
▁Question	-7632
▁revealed	-7633
▁Structure	-7634
▁statistical	-7635
▁47	-7636
▁chicken	-7637
▁futures	-7638
▁communaut	-7639
▁dependent	-7640
▁Confederation	-7641
▁$25	-7642
▁cohe	-7643
▁Field	-7644
▁acquire	-7645
▁Policies	-7646
▁explicit	-7647
▁variable	-7648
▁Directive	-7649
▁exceptions	-7650
orough	-7651
▁Carib	-7652
▁crisis	-7653
▁equitable	-7654
▁pesticides	-7655
▁cable	-7656
▁mutual	-7657
▁databases	-7658
▁threshold	-7659
▁presentations	-7660
▁CSC	-7661
▁Orig	-7662
uition	-7663
▁Great	-7664
▁papers	-7665
▁2006-08	-7666
▁manager	-7667
▁ri	-7668
▁HTML	-7669
▁movies	-7670
osph	-7671
casts	-7672
ilipp	-7673
orized	-7674
▁Download	-7675
▁concentrated	-7676
▁Have	-7677
▁Meat	-7678
▁chapter	-7679
▁workplace	-7680
▁transferred	-7681
▁Presentation	-7682
▁questionnaire	-7683
ody	-7684
▁bound	-7685
▁dates	-7686
▁durum	-7687
▁train	-7688
▁candid	-7689
▁attendance	-7690
▁SERV	-7691
▁Harper	-7692
▁consent	-7693
▁whereas	-7694
▁visibility	-7695
▁(9	-7696
▁Cere	-7697
▁soils	-7698
▁Indeed	-7699
▁OFFICE	-7700
▁powers	-7701
▁remote	-7702
▁85	-7703
▁phone	-7704
arations	-7705
ington	-7706
▁hosted	-7707
▁guidance	-7708
iro	-7709
men	-7710
▁Never	-7711
▁severe	-7712
▁suitable	-7713
▁19,	-7714
▁cruc	-7715
▁holding	-7716
▁exporter	-7717
isms	-7718
▁kept	-7719
atineau	-7720
▁Accord	-7721
▁Category	-7722
▁Bilingual	-7723
▁measuring	-7724
Pa	-7725
verse	-7726
▁venues	-7727
ructions	-7728
▁2007-200	-7729
▁entering	-7730
▁Documents	-7731
▁instances	-7732
▁Consequently	-7733
▁GCIMS	-7734
▁mostly	-7735
▁Enhance	-7736
▁acceler	-7737
▁getting	-7738
▁2000-200	-7739
▁rationale	-7740
▁preliminary	-7741
▁disabilities	-7742
LO	-7743
▁Micro	-7744
ossible	-7745
▁weakness	-7746
▁alternatives	-7747
CM	-7748
inet	-7749
utory	-7750
sector	-7751
▁decide	-7752
▁bilingualism	-7753
▁em	-7754
ivic	-7755
oted	-7756
▁VII	-7757
▁game	-7758
▁horiz	-7759
▁wealth	-7760
▁privile	-7761
▁teacher	-7762
▁colleges	-7763
▁dimension	-7764
▁eliminate	-7765
▁subscription	-7766
▁(30	-7767
chang	-7768
▁Viet	-7769
▁peas	-7770
▁black	-7771
▁struct	-7772
▁signing	-7773
▁underlying	-7774
▁Bo	-7775
AFTA	-7776
▁FED	-7777
iaison	-7778
▁2007-05	-7779
▁assessing	-7780
▁Applicants	-7781
WG	-7782
▁blue	-7783
▁tree	-7784
idential	-7785
▁employer	-7786
▁linkages	-7787
▁cook	-7788
▁moist	-7789
▁Series	-7790
▁shocks	-7791
▁weekly	-7792
▁Michael	-7793
▁ju	-7794
orti	-7795
ulner	-7796
▁Should	-7797
▁Releases	-7798
▁platform	-7799
▁integrity	-7800
▁encourages	-7801
▁SK	-7802
▁Better	-7803
▁Spring	-7804
▁payable	-7805
▁deadline	-7806
▁maximize	-7807
▁Precipitation	-7808
ARK	-7809
such	-7810
▁1.0	-7811
▁Mark	-7812
▁surpr	-7813
▁reject	-7814
▁Examples	-7815
▁transmission	-7816
▁PM	-7817
mpos	-7818
▁sty	-7819
▁PLAN	-7820
▁hear	-7821
▁Chris	-7822
▁removed	-7823
AM	-7824
isc	-7825
▁privacy	-7826
")	-7827
▁dup	-7828
which	-7829
▁closer	-7830
▁ending	-7831
▁Establish	-7832
▁Exchanges	-7833
▁workforce	-7834
▁Diversification	-7835
MAYC	-7836
▁templ	-7837
titative	-7838
▁vegetable	-7839
▁Challenges	-7840
▁reputation	-7841
87	-7842
▁Unit	-7843
▁Every	-7844
▁holds	-7845
▁________	-7846
▁taxation	-7847
▁satellite	-7848
▁backgrounds	-7849
▁ingredients	-7850
▁Ka	-7851
amin	-7852
beans	-7853
oting	-7854
olvency	-7855
▁Amount	-7856
▁Prices	-7857
▁audits	-7858
▁canadienne	-7859
bs	-7860
▁73	-7861
▁dug	-7862
irtual	-7863
▁equally	-7864
▁Colleges	-7865
▁capabilities	-7866
▁KB	-7867
====	-7868
ifth	-7869
cepts	-7870
iances	-7871
▁Spectrum	-7872
▁returned	-7873
▁Applicant	-7874
▁20,	-7875
▁COR	-7876
▁$11,	-7877
▁SENATE	-7878
▁Supreme	-7879
▁pointed	-7880
▁interven	-7881
▁obtaining	-7882
▁potentially	-7883
▁Tom	-7884
▁egg	-7885
▁None	-7886
▁female	-7887
▁unlike	-7888
**	-7889
END	-7890
▁unf	-7891
specific	-7892
▁integral	-7893
▁2004-2005	-7894
▁procedure	-7895
▁biological	-7896
TIES	-7897
sites	-7898
▁Perm	-7899
▁habit	-7900
▁causes	-7901
▁withdraw	-7902
▁Territory	-7903
▁informant	-7904
BER	-7905
EST	-7906
▁Calc	-7907
▁theat	-7908
▁Forest	-7909
▁Update	-7910
▁deposit	-7911
▁subscrib	-7912
▁nutrition	-7913
▁Percentage	-7914
▁Population	-7915
▁indicating	-7916
burse	-7917
raser	-7918
▁info	-7919
▁Loans	-7920
▁analys	-7921
▁determination	-7922
:30	-7923
ICES	-7924
▁MSO	-7925
▁Occ	-7926
▁waters	-7927
▁thousand	-7928
▁Advertising	-7929
BA	-7930
▁Coun	-7931
▁graph	-7932
▁mitig	-7933
▁Princip	-7934
▁drought	-7935
▁Excellence	-7936
▁conventional	-7937
▁pan	-7938
▁Joint	-7939
▁Korean	-7940
▁opened	-7941
▁operates	-7942
▁Dam	-7943
▁north	-7944
perform	-7945
▁projec	-7946
▁diseases	-7947
▁planting	-7948
▁Associates	-7949
TV	-7950
▁(4)	-7951
▁14,	-7952
▁IND	-7953
▁lik	-7954
alian	-7955
▁permitted	-7956
700	-7957
des	-7958
heast	-7959
known	-7960
▁grade	-7961
▁chance	-7962
▁jointly	-7963
▁ultimately	-7964
from	-7965
▁weed	-7966
▁Purch	-7967
▁simpl	-7968
GH	-7969
coh	-7970
▁CG	-7971
ains	-7972
ether	-7973
▁Cross	-7974
▁marked	-7975
▁definitions	-7976
▁transparency	-7977
▁LE	-7978
aiwan	-7979
quiries	-7980
▁Specific	-7981
▁insufficient	-7982
ils	-7983
▁Ir	-7984
▁Mad	-7985
▁Wind	-7986
▁letters	-7987
▁thousands	-7988
ho	-7989
300	-7990
eef	-7991
ibli	-7992
▁gene	-7993
▁Fraser	-7994
▁taxpay	-7995
▁creativity	-7996
9%	-7997
▁PO	-7998
▁491	-7999
unately	-8000
▁enabling	-8001
att	-8002
▁18,	-8003
iture	-8004
whe	-8005
ship	-8006
▁CCA	-8007
▁San	-8008
beral	-8009
▁England	-8010
▁airline	-8011
▁desired	-8012
▁produces	-8013
▁consultant	-8014
dle	-8015
http	-8016
▁70%	-8017
▁Wal	-8018
▁aux	-8019
icides	-8020
▁abuse	-8021
▁2007-06	-8022
▁Gatineau	-8023
▁commemor	-8024
▁consequences	-8025
▁Ra	-8026
ghan	-8027
lear	-8028
mond	-8029
charge	-8030
▁explan	-8031
▁ceremon	-8032
▁decades	-8033
RIC	-8034
▁11,	-8035
▁Now	-8036
▁fax	-8037
Table	-8038
▁hect	-8039
▁thank	-8040
▁Others	-8041
▁Housing	-8042
▁Indones	-8043
▁picture	-8044
▁sciences	-8045
▁declining	-8046
▁temporary	-8047
▁promo	-8048
ogether	-8049
▁intent	-8050
▁viable	-8051
▁Philipp	-8052
▁oilseeds	-8053
▁diligence	-8054
▁Processing	-8055
▁networking	-8056
▁Hig	-8057
epend	-8058
▁assume	-8059
▁baseline	-8060
▁believes	-8061
++	-8062
91	-8063
▁3)	-8064
▁Sus	-8065
pread	-8066
▁alle	-8067
▁1997.	-8068
▁Greater	-8069
▁Criteria	-8070
▁publicly	-8071
▁Caribbean	-8072
▁Wel	-8073
▁bulk	-8074
▁Revenues	-8075
▁Hog	-8076
ACTOR	-8077
▁appe	-8078
▁crucial	-8079
▁invested	-8080
▁2006-2007	-8081
pre	-8082
▁TRA	-8083
▁fit	-8084
aties	-8085
▁WIPO	-8086
erland	-8087
▁Client	-8088
▁lob	-8089
▁sti	-8090
▁draft	-8091
▁ethno	-8092
▁heard	-8093
▁deficit	-8094
▁raising	-8095
▁visited	-8096
idespread	-8097
▁complaint	-8098
▁accomplish	-8099
▁evaluations	-8100
FF	-8101
ffee	-8102
icine	-8103
iform	-8104
ilation	-8105
▁2006-01	-8106
▁roughly	-8107
▁outbound	-8108
bed	-8109
▁gaps	-8110
▁wood	-8111
ception	-8112
▁Reclass	-8113
▁incomes	-8114
▁Coordinator	-8115
▁9%	-8116
▁2007-04	-8117
▁claimed	-8118
▁renewed	-8119
▁retention	-8120
Ar	-8121
avik	-8122
▁Prem	-8123
▁Wild	-8124
▁breed	-8125
riendly	-8126
▁Forces	-8127
▁movements	-8128
IO	-8129
Que	-8130
care	-8131
▁Gold	-8132
▁truc	-8133
▁landsc	-8134
▁varies	-8135
▁permits	-8136
▁contents	-8137
▁Understanding	-8138
▁Line	-8139
▁WHER	-8140
rights	-8141
▁judicial	-8142
▁Hospitality	-8143
▁Parliamentary	-8144
ria	-8145
▁13%	-8146
▁boost	-8147
▁pests	-8148
▁update	-8149
▁Enterpr	-8150
▁interns	-8151
▁Bankruptcy	-8152
▁indication	-8153
▁surrounding	-8154
▁Open	-8155
▁zero	-8156
▁Defin	-8157
▁UMAYC	-8158
▁waste	-8159
▁Taiwan	-8160
umulated	-8161
▁governing	-8162
▁engagement	-8163
▁Ma	-8164
tian	-8165
▁Here	-8166
▁promoted	-8167
car	-8168
▁Obs	-8169
▁fat	-8170
▁Look	-8171
mposium	-8172
ulatory	-8173
▁master	-8174
▁speaking	-8175
▁competing	-8176
▁scholarly	-8177
cfm	-8178
▁vs	-8179
▁0.0	-8180
▁Exc	-8181
▁VAN	-8182
▁Seed	-8183
▁pref	-8184
ishing	-8185
▁Details	-8186
▁Approximately	-8187
61	-8188
▁HR	-8189
▁nurs	-8190
▁drive	-8191
▁leads	-8192
ctional	-8193
▁colleag	-8194
▁Priorities	-8195
▁Entertainment	-8196
CS	-8197
bi	-8198
gage	-8199
unes	-8200
▁USDA	-8201
▁Visit	-8202
▁default	-8203
▁failure	-8204
▁welcome	-8205
aker	-8206
avig	-8207
▁10,000	-8208
▁profits	-8209
▁District	-8210
▁elevator	-8211
▁minimize	-8212
▁opinions	-8213
▁Individual	-8214
▁reductions	-8215
▁investigation	-8216
37	-8217
IE	-8218
.1%	-8219
ROM	-8220
ida	-8221
▁PA	-8222
▁ste	-8223
▁(198	-8224
▁Stories	-8225
▁affairs	-8226
▁showing	-8227
▁tourist	-8228
▁shipping	-8229
▁Municipal	-8230
▁democratic	-8231
fe	-8232
▁ca	-8233
▁raw	-8234
▁band	-8235
▁DOCLINE	-8236
▁Without	-8237
▁venture	-8238
▁Expected	-8239
▁concrete	-8240
▁dissemin	-8241
▁realized	-8242
▁flo	-8243
elled	-8244
▁socio	-8245
▁brings	-8246
▁operator	-8247
▁disclosure	-8248
▁disciplines	-8249
SUR	-8250
▁(+	-8251
kind	-8252
▁gra	-8253
▁RMAF	-8254
▁James	-8255
▁gallery	-8256
▁lawyers	-8257
▁Gaz	-8258
▁Flag	-8259
▁Mand	-8260
▁isol	-8261
▁Appeal	-8262
▁tables	-8263
▁headquarters	-8264
▁traceability	-8265
ieu	-8266
▁54	-8267
▁120	-8268
▁$12,	-8269
▁Decl	-8270
▁Geor	-8271
▁buyer	-8272
▁meant	-8273
▁tours	-8274
eligible	-8275
.).	-8276
pri	-8277
▁57	-8278
ught	-8279
▁Ban	-8280
▁exem	-8281
▁vehicles	-8282
Man	-8283
▁FIN	-8284
▁Syn	-8285
etting	-8286
▁vessel	-8287
▁Bulletin	-8288
▁visiting	-8289
date	-8290
▁Available	-8291
▁Challenge	-8292
▁responding	-8293
éri	-8294
outs	-8295
trad	-8296
▁3.4	-8297
offic	-8298
▁flows	-8299
▁engine	-8300
urniture	-8301
▁obvious	-8302
▁intensive	-8303
▁packaging	-8304
▁viability	-8305
cher	-8306
▁injury	-8307
6.	-8308
800	-8309
VEL	-8310
tra	-8311
zed	-8312
inema	-8313
▁Conn	-8314
▁usage	-8315
▁salmon	-8316
▁2002-2003	-8317
▁51	-8318
▁11%	-8319
▁CAD	-8320
▁Enc	-8321
▁brow	-8322
▁drama	-8323
▁invention	-8324
▁assessments	-8325
▁environmentally	-8326
held	-8327
well	-8328
▁Why	-8329
▁RCMP	-8330
▁broch	-8331
▁hotel	-8332
▁Paraly	-8333
▁audited	-8334
▁degrees	-8335
▁obligation	-8336
-66	-8337
iforn	-8338
▁Hosting	-8339
▁nitrogen	-8340
▁Libraries	-8341
▁president	-8342
▁orientation	-8343
UND	-8344
uels	-8345
▁1.5	-8346
▁Summit	-8347
▁customs	-8348
ographical	-8349
▁Provision	-8350
▁Intelligence	-8351
DV	-8352
arth	-8353
▁Corre	-8354
▁evaluated	-8355
uling	-8356
▁Pierre	-8357
▁virtually	-8358
crimination	-8359
▁identifies	-8360
▁periodicals	-8361
▁195	-8362
▁Neg	-8363
▁kit	-8364
▁sponsored	-8365
▁structural	-8366
▁Nevertheless	-8367
▁Issue	-8368
▁roots	-8369
▁wages	-8370
▁Railway	-8371
▁Renewal	-8372
▁conform	-8373
▁believed	-8374
▁attractive	-8375
-95	-8376
MCLA	-8377
▁813	-8378
▁Peace	-8379
▁citizen	-8380
Aboriginal	-8381
▁Integrated	-8382
overed	-8383
▁1995,	-8384
▁adding	-8385
▁essentially	-8386
UB	-8387
ki	-8388
Eng	-8389
▁16,	-8390
▁vide	-8391
▁mixed	-8392
▁belief	-8393
▁Chamber	-8394
▁imposed	-8395
▁attitudes	-8396
▁executive	-8397
▁strengthened	-8398
cis	-8399
▁SO	-8400
▁sem	-8401
iddle	-8402
ihood	-8403
▁burs	-8404
▁flour	-8405
▁native	-8406
▁enabled	-8407
▁grounds	-8408
▁hearing	-8409
▁subsidy	-8410
▁benchmark	-8411
▁nationally	-8412
▁61	-8413
▁9.	-8414
▁110	-8415
being	-8416
▁File	-8417
urning	-8418
▁fluct	-8419
atories	-8420
reation	-8421
▁Consumers	-8422
▁intention	-8423
▁Governance	-8424
▁documented	-8425
▁enterprise	-8426
cs	-8427
TMs	-8428
▁Ter	-8429
▁une	-8430
▁CRIC	-8431
▁Veter	-8432
▁desire	-8433
▁narrow	-8434
itzerland	-8435
▁tracking	-8436
▁incorporate	-8437
▁17,	-8438
▁Carry	-8439
▁Share	-8440
▁skilled	-8441
▁Outcomes	-8442
NB	-8443
NR	-8444
▁Afghan	-8445
▁Mounted	-8446
▁creates	-8447
▁duration	-8448
▁literary	-8449
▁supplied	-8450
▁breakdown	-8451
▁Excellency	-8452
▁undertaking	-8453
▁ii	-8454
▁23,	-8455
▁printed	-8456
vironmental	-8457
▁attributes	-8458
▁Governments	-8459
▁1:	-8460
vail	-8461
▁Gra	-8462
▁Best	-8463
▁apparent	-8464
▁consulting	-8465
84	-8466
FR	-8467
URES	-8468
▁$50	-8469
▁ITC	-8470
▁Debt	-8471
▁FRAN	-8472
▁Start	-8473
▁meals	-8474
▁relates	-8475
▁Speeches	-8476
las	-8477
▁CEO	-8478
▁Tex	-8479
uracy	-8480
▁foot	-8481
▁Areas	-8482
▁Fruit	-8483
▁arise	-8484
▁seeks	-8485
▁soybean	-8486
▁Incorpor	-8487
FK	-8488
▁Ve	-8489
▁wr	-8490
▁13,	-8491
▁mal	-8492
wealth	-8493
uneration	-8494
▁supplement	-8495
cap	-8496
haul	-8497
▁SUPP	-8498
iencies	-8499
▁Compar	-8500
▁census	-8501
▁construc	-8502
▁NW	-8503
irth	-8504
▁Pass	-8505
arians	-8506
▁vulner	-8507
▁abandon	-8508
▁reflecting	-8509
▁multilateral	-8510
▁accessibility	-8511
mpt	-8512
▁judge	-8513
orandum	-8514
▁capable	-8515
▁observations	-8516
CAN	-8517
▁po	-8518
acco	-8519
▁yes	-8520
▁signs	-8521
athered	-8522
▁namely	-8523
▁opposed	-8524
▁commonly	-8525
▁beverages	-8526
▁pertaining	-8527
effectiveness	-8528
cel	-8529
eur	-8530
CIAL	-8531
elle	-8532
▁DES	-8533
▁PEI	-8534
▁que	-8535
▁gold	-8536
▁Gateway	-8537
▁comprised	-8538
▁protecting	-8539
▁feasibility	-8540
▁67	-8541
▁il	-8542
fran	-8543
▁Inv	-8544
▁Sun	-8545
inner	-8546
▁2005-02	-8547
▁trained	-8548
▁Professor	-8549
ota	-8550
aving	-8551
utable	-8552
▁Friends	-8553
▁covering	-8554
én	-8555
adata	-8556
obile	-8557
▁Certif	-8558
▁Skills	-8559
▁guides	-8560
▁Clients	-8561
▁responded	-8562
▁convenience	-8563
31	-8564
iors	-8565
▁$12	-8566
agers	-8567
▁AGRE	-8568
▁peer	-8569
▁snow	-8570
uay	-8571
▁GM	-8572
▁TPM	-8573
▁aged	-8574
▁Ensure	-8575
▁evident	-8576
▁moisture	-8577
Provincial	-8578
▁passenger	-8579
▁Interviews	-8580
▁profitable	-8581
▁Directories	-8582
▁corresponding	-8583
yt	-8584
ibre	-8585
▁25,	-8586
▁26,	-8587
▁Meet	-8588
▁councils	-8589
▁elevators	-8590
represented	-8591
▁counterpar	-8592
▁Publication	-8593
fect	-8594
vity	-8595
▁Jos	-8596
▁Anti	-8597
▁PFRA	-8598
▁seeds	-8599
ifornia	-8600
▁FIMCLA	-8601
▁heavily	-8602
▁announcement	-8603
Ad	-8604
za	-8605
lot	-8606
▁Ham	-8607
▁REP	-8608
▁disag	-8609
▁wider	-8610
mitting	-8611
▁lender	-8612
▁interaction	-8613
▁quantitative	-8614
urb	-8615
endar	-8616
otive	-8617
▁album	-8618
▁houses	-8619
building	-8620
▁welfare	-8621
▁Freedoms	-8622
▁integrate	-8623
▁Suppl	-8624
▁1998-99	-8625
▁specify	-8626
▁virtual	-8627
▁granting	-8628
▁maintains	-8629
urable	-8630
▁south	-8631
▁elected	-8632
▁clearing	-8633
▁Strategies	-8634
▁retirement	-8635
URA	-8636
Comm	-8637
▁pride	-8638
entists	-8639
▁formats	-8640
▁univers	-8641
▁beverage	-8642
▁wildlife	-8643
▁Recipient	-8644
▁parameters	-8645
HW	-8646
Hz	-8647
oman	-8648
▁NEW	-8649
▁ment	-8650
▁Worksh	-8651
▁offence	-8652
letter	-8653
▁theory	-8654
▁recover	-8655
▁prospects	-8656
acc	-8657
aux	-8658
jud	-8659
▁1.4	-8660
▁STE	-8661
ecution	-8662
▁FACTOR	-8663
▁Pictures	-8664
▁protocol	-8665
▁preparations	-8666
aci	-8667
▁05	-8668
▁AR	-8669
ERAL	-8670
lott	-8671
▁rig	-8672
▁Cond	-8673
ortgage	-8674
▁treaty	-8675
▁freight	-8676
▁Paralympic	-8677
▁composition	-8678
cery	-8679
▁town	-8680
Territ	-8681
▁Tariff	-8682
▁Progress	-8683
▁AGREEMENT	-8684
▁2005-03-31	-8685
▁pip	-8686
▁tom	-8687
▁entirely	-8688
▁scenario	-8689
▁Recipients	-8690
▁directions	-8691
▁restaurants	-8692
)(	-8693
▁52	-8694
ENCE	-8695
▁goes	-8696
▁Veget	-8697
▁edition	-8698
▁Regulatory	-8699
▁completely	-8700
▁Switzerland	-8701
▁00	-8702
▁ID	-8703
▁Ré	-8704
ston	-8705
▁row	-8706
oints	-8707
▁Wash	-8708
apping	-8709
▁Films	-8710
▁messages	-8711
▁adequately	-8712
RIB	-8713
canadian	-8714
▁enables	-8715
VS	-8716
sy	-8717
lit	-8718
amed	-8719
▁ALI	-8720
▁Bio	-8721
▁susp	-8722
▁honour	-8723
▁excluded	-8724
▁Americans	-8725
▁perception	-8726
CF	-8727
ctor	-8728
▁(0)	-8729
▁squ	-8730
▁cuts	-8731
ardship	-8732
▁Artists	-8733
▁Italian	-8734
▁Stock	-8735
▁merch	-8736
▁carbon	-8737
▁install	-8738
▁soybeans	-8739
▁adjustment	-8740
▁favourable	-8741
▁qualitative	-8742
▁Communication	-8743
dy	-8744
CAD	-8745
▁vir	-8746
▁draf	-8747
timavik	-8748
▁branch	-8749
▁enrich	-8750
▁fruits	-8751
▁envelope	-8752
▁Livestock	-8753
▁guarantees	-8754
▁residential	-8755
▁sn	-8756
cole	-8757
▁rare	-8758
▁repe	-8759
▁William	-8760
▁importer	-8761
▁belonging	-8762
rone	-8763
▁kil	-8764
▁$100	-8765
ancell	-8766
▁1-800	-8767
▁Funds	-8768
▁Advant	-8769
▁2004-11	-8770
▁clarify	-8771
▁$3,	-8772
▁anc	-8773
▁toler	-8774
olitical	-8775
▁concepts	-8776
▁occasion	-8777
▁exceeding	-8778
▁Departments	-8779
▁classification	-8780
900	-8781
band	-8782
duct	-8783
▁Fed	-8784
▁Barn	-8785
▁cards	-8786
iciency	-8787
▁accompan	-8788
▁moderate	-8789
▁Estimates	-8790
▁Proactive	-8791
▁Educational	-8792
▁Commonwealth	-8793
gun	-8794
ethe	-8795
▁27,	-8796
▁DVD	-8797
scale	-8798
▁Live	-8799
▁Outs	-8800
▁fill	-8801
▁reim	-8802
▁Colom	-8803
▁burden	-8804
▁moment	-8805
▁proven	-8806
▁accuracy	-8807
▁gathered	-8808
▁outlines	-8809
▁pressures	-8810
ez	-8811
▁je	-8812
▁Sch	-8813
▁peak	-8814
tition	-8815
▁Urban	-8816
▁visitor	-8817
▁Indonesia	-8818
DIX	-8819
iler	-8820
▁21,	-8821
▁499	-8822
▁stem	-8823
orders	-8824
▁Yellow	-8825
▁bottom	-8826
▁device	-8827
▁margins	-8828
▁removal	-8829
▁Performing	-8830
▁functional	-8831
IZ	-8832
utor	-8833
▁dom	-8834
▁Ethn	-8835
Quebec	-8836
▁Check	-8837
▁Christ	-8838
▁Higher	-8839
▁fluctu	-8840
▁Gazette	-8841
▁introduce	-8842
▁portfolio	-8843
▁Procedures	-8844
▁facilitating	-8845
aine	-8846
▁spe	-8847
third	-8848
▁Belg	-8849
English	-8850
▁Vision	-8851
▁varied	-8852
▁auction	-8853
▁coordinate	-8854
▁Nou	-8855
uters	-8856
▁Fred	-8857
▁Claim	-8858
▁Schol	-8859
▁Potato	-8860
inational	-8861
▁Internal	-8862
ken	-8863
▁Pan	-8864
tious	-8865
▁biod	-8866
▁Newsp	-8867
▁kinds	-8868
▁Reform	-8869
▁2008-07	-8870
▁reviewing	-8871
▁California	-8872
CL	-8873
ama	-8874
ugg	-8875
▁Ha	-8876
alle	-8877
▁3.5	-8878
▁WCA	-8879
▁hom	-8880
ENDIX	-8881
▁Chicken	-8882
RCH	-8883
▁Very	-8884
▁Appoint	-8885
▁Release	-8886
▁operated	-8887
▁proposes	-8888
▁frequency	-8889
▁negotiated	-8890
▁widespread	-8891
▁comparative	-8892
lore	-8893
tier	-8894
uten	-8895
▁lit	-8896
▁Base	-8897
▁Beef	-8898
▁Pack	-8899
changed	-8900
▁Consider	-8901
▁scheduled	-8902
▁continuous	-8903
FL	-8904
▁78	-8905
▁18%	-8906
inder	-8907
▁Play	-8908
▁heart	-8909
▁Mission	-8910
▁PROGRAM	-8911
▁WHEREAS	-8912
▁APPENDIX	-8913
▁focusing	-8914
▁literacy	-8915
▁releases	-8916
▁investing	-8917
▁Declaration	-8918
side	-8919
rafts	-8920
▁exped	-8921
▁photograph	-8922
CAR	-8923
ORK	-8924
oli	-8925
rat	-8926
velo	-8927
,000.	-8928
adequ	-8929
attle	-8930
quiry	-8931
▁Mill	-8932
▁youn	-8933
▁COMMUN	-8934
▁middle	-8935
▁solely	-8936
▁Feature	-8937
▁machinery	-8938
▁sustained	-8939
▁Ber	-8940
▁cou	-8941
▁advertis	-8942
.20	-8943
aug	-8944
oke	-8945
arie	-8946
board	-8947
▁viol	-8948
abilit	-8949
stronom	-8950
▁dropped	-8951
▁Solutions	-8952
▁attending	-8953
▁coordinator	-8954
▁Conservation	-8955
tible	-8956
▁$14,	-8957
income	-8958
▁chart	-8959
▁adapted	-8960
▁fulfill	-8961
▁electron	-8962
▁showcase	-8963
▁neighbour	-8964
▁preferred	-8965
▁disability	-8966
▁accountable	-8967
▁Administrator	-8968
▁TR	-8969
cost	-8970
ockey	-8971
ificant	-8972
▁hotels	-8973
▁precise	-8974
▁Katimavik	-8975
ultinational	-8976
----------------	-8977
CB	-8978
log	-8979
iders	-8980
▁Wood	-8981
▁listing	-8982
64	-8983
irty	-8984
itim	-8985
minent	-8986
▁1996.	-8987
▁NAICS	-8988
▁PRODUC	-8989
▁2004-10	-8990
▁Denmark	-8991
▁vacation	-8992
▁Exporting	-8993
▁Prevention	-8994
ye	-8995
erred	-8996
▁Mass	-8997
▁speed	-8998
▁ministers	-8999
▁realities	-9000
.-	-9001
gu	-9002
▁sheet	-9003
▁Comple	-9004
▁Damage	-9005
▁Demand	-9006
▁athlete	-9007
▁digitiz	-9008
▁premiums	-9009
▁creditors	-9010
▁targeting	-9011
▁highlighted	-9012
▁consistently	-9013
▁reproduction	-9014
WA	-9015
▁SR	-9016
OLOG	-9017
▁24,	-9018
etown	-9019
ifies	-9020
▁begun	-9021
▁exact	-9022
▁minor	-9023
▁election	-9024
▁Volunteer	-9025
▁Construction	-9026
GE	-9027
urt	-9028
ESCO	-9029
▁Elev	-9030
▁born	-9031
▁2005-01	-9032
▁Teachers	-9033
▁advocacy	-9034
▁liabilities	-9035
▁constitutional	-9036
mo	-9037
sim	-9038
rack	-9039
▁heavy	-9040
▁overl	-9041
▁wares	-9042
▁adjusted	-9043
▁southern	-9044
▁2006-03-31	-9045
iant	-9046
ugee	-9047
▁unc	-9048
hentic	-9049
▁Incen	-9050
▁NAFTA	-9051
selling	-9052
▁remove	-9053
▁2001-2002	-9054
▁Competitive	-9055
▁5.3	-9056
iment	-9057
▁Flor	-9058
▁Miche	-9059
▁craft	-9060
▁steady	-9061
▁emerged	-9062
▁reforms	-9063
▁Produced	-9064
▁800	-9065
▁pet	-9066
▁Bern	-9067
▁routes	-9068
▁Generally	-9069
▁negotiating	-9070
▁authorization	-9071
▁("	-9072
alers	-9073
▁sche	-9074
▁prime	-9075
▁qualify	-9076
▁trustee	-9077
▁Materials	-9078
ora	-9079
▁Ow	-9080
▁$13,	-9081
▁NSFs	-9082
▁(2000	-9083
▁Costa	-9084
▁Prior	-9085
▁timing	-9086
▁Conseil	-9087
▁typical	-9088
▁counterparts	-9089
ache	-9090
▁Let	-9091
auses	-9092
orture	-9093
▁Seafood	-9094
▁ranging	-9095
▁Historic	-9096
▁discover	-9097
▁evolving	-9098
▁meaningful	-9099
▁remuneration	-9100
▁(51	-9101
▁Pet	-9102
▁doub	-9103
▁champ	-9104
▁turkey	-9105
▁conjunction	-9106
▁Doc	-9107
▁1986	-9108
▁2009	-9109
▁penal	-9110
▁proof	-9111
berries	-9112
▁gained	-9113
▁leverage	-9114
▁transform	-9115
▁highlights	-9116
lam	-9117
▁62	-9118
▁CS	-9119
▁colum	-9120
▁deals	-9121
▁delays	-9122
▁architect	-9123
▁Developing	-9124
▁constitutes	-9125
▁consultants	-9126
81	-9127
XQ	-9128
ke	-9129
▁lenti	-9130
▁disclo	-9131
▁motion	-9132
▁apprais	-9133
▁holdings	-9134
▁parliamentary	-9135
It	-9136
▁hy	-9137
acro	-9138
▁22,	-9139
▁Ver	-9140
▁warm	-9141
tities	-9142
▁George	-9143
▁Leader	-9144
aculture	-9145
▁someone	-9146
▁certainly	-9147
ino	-9148
ulf	-9149
progs	-9150
▁Break	-9151
etheless	-9152
▁lessons	-9153
▁composed	-9154
▁servants	-9155
▁designation	-9156
RUW	-9157
aval	-9158
▁won	-9159
▁Swed	-9160
▁fire	-9161
▁phen	-9162
▁pick	-9163
icates	-9164
▁Achie	-9165
assment	-9166
▁accred	-9167
▁playing	-9168
▁organize	-9169
▁accompanied	-9170
▁cooperative	-9171
▁specialists	-9172
▁spot	-9173
ashion	-9174
visual	-9175
▁Domin	-9176
▁parks	-9177
▁venue	-9178
▁lesser	-9179
▁viewing	-9180
▁provider	-9181
▁religion	-9182
▁Champions	-9183
EB	-9184
eric	-9185
rive	-9186
▁Clo	-9187
▁bus	-9188
▁div	-9189
aires	-9190
▁$15,	-9191
▁hiring	-9192
▁holiday	-9193
▁Accommod	-9194
▁SERVICES	-9195
▁audiovisual	-9196
▁calculation	-9197
raine	-9198
ourage	-9199
▁overs	-9200
through	-9201
▁designs	-9202
▁origins	-9203
▁Chemical	-9204
▁licensed	-9205
▁Circulation	-9206
YV	-9207
bit	-9208
anol	-9209
▁wet	-9210
▁Five	-9211
▁Rock	-9212
▁park	-9213
reland	-9214
▁2007-10	-9215
community	-9216
▁bankrupt	-9217
▁importers	-9218
▁Frequently	-9219
▁attributable	-9220
▁supermarkets	-9221
32	-9222
FW	-9223
eci	-9224
▁76	-9225
▁Egg	-9226
▁Sav	-9227
▁Canola	-9228
▁Treaty	-9229
▁diplom	-9230
▁mailing	-9231
▁Washington	-9232
▁organizing	-9233
▁Reclassified	-9234
▁commissioned	-9235
05	-9236
ested	-9237
▁dried	-9238
▁effic	-9239
viation	-9240
▁Virtual	-9241
reciation	-9242
▁Subjects	-9243
▁productive	-9244
▁wage	-9245
linary	-9246
▁maple	-9247
▁Territorial	-9248
orne	-9249
▁28,	-9250
▁Gal	-9251
▁Vehic	-9252
▁Primary	-9253
▁dispute	-9254
▁station	-9255
▁restricted	-9256
▁unemployment	-9257
obe	-9258
total	-9259
utral	-9260
export	-9261
▁deter	-9262
▁exempt	-9263
▁Speaking	-9264
▁diversification	-9265
IF	-9266
▁Gh	-9267
hing	-9268
iber	-9269
▁ice	-9270
▁sea	-9271
anger	-9272
▁Portug	-9273
▁appointment	-9274
▁hyd	-9275
arios	-9276
▁rend	-9277
irable	-9278
velopp	-9279
▁shape	-9280
▁Attendee	-9281
▁Southern	-9282
▁accompany	-9283
89	-9284
enez	-9285
▁17%	-9286
▁Six	-9287
▁$16,	-9288
ompass	-9289
▁twice	-9290
▁nominal	-9291
▁statutory	-9292
▁influenced	-9293
▁Afghanistan	-9294
?"	-9295
JEC	-9296
aria	-9297
tique	-9298
▁Hill	-9299
▁Link	-9300
▁Crime	-9301
▁Middle	-9302
▁balances	-9303
▁ultimate	-9304
info	-9305
▁2.0	-9306
▁hate	-9307
▁bread	-9308
▁topic	-9309
▁Inform	-9310
▁partly	-9311
▁salary	-9312
▁worker	-9313
▁$10,000	-9314
controlled	-9315
▁considers	-9316
ya	-9317
ams	-9318
rec	-9319
▁250	-9320
▁Hall	-9321
▁1997-9	-9322
▁farmer	-9323
▁wishes	-9324
▁Patents	-9325
educ	-9326
▁GRO	-9327
avour	-9328
dfait	-9329
ipped	-9330
▁Well	-9331
▁skill	-9332
ranches	-9333
▁makers	-9334
▁growers	-9335
▁incident	-9336
▁MIN	-9337
▁REG	-9338
▁nes	-9339
▁Blue	-9340
▁Mess	-9341
▁Grains	-9342
▁Richard	-9343
▁Russian	-9344
▁publish	-9345
(1)(	-9346
RIBU	-9347
ogen	-9348
▁14%	-9349
▁MARK	-9350
▁remin	-9351
▁legacy	-9352
ropriate	-9353
▁carriers	-9354
▁informal	-9355
▁possibly	-9356
▁revision	-9357
▁impossible	-9358
▁succession	-9359
▁exclusively	-9360
▁innovations	-9361
▁Discrimination	-9362
oler	-9363
▁10.	-9364
▁IYV	-9365
iesel	-9366
rical	-9367
▁VANOC	-9368
PA	-9369
maeci	-9370
party	-9371
▁coup	-9372
▁stip	-9373
herent	-9374
▁indemn	-9375
▁originally	-9376
▁Fri	-9377
orney	-9378
urers	-9379
▁Ireland	-9380
▁93	-9381
uests	-9382
▁Hold	-9383
▁glob	-9384
aneous	-9385
▁sweet	-9386
▁strict	-9387
efficient	-9388
▁Charlott	-9389
▁enrolled	-9390
▁examines	-9391
▁alliances	-9392
▁examining	-9393
▁Experience	-9394
▁Facilities	-9395
▁Registered	-9396
RUN	-9397
▁4.4	-9398
▁hyp	-9399
▁bond	-9400
uation	-9401
▁Nutri	-9402
▁Rates	-9403
▁nights	-9404
▁subscribers	-9405
ARS	-9406
▁ap	-9407
week	-9408
▁Toll	-9409
iative	-9410
roleum	-9411
▁ITCan	-9412
▁Times	-9413
▁spoken	-9414
▁2004-12	-9415
▁Supports	-9416
▁Secretaries	-9417
▁groundwater	-9418
▁celebrations	-9419
▁wa	-9420
AAFC	-9421
angible	-9422
ignment	-9423
lements	-9424
▁bacter	-9425
▁Advisor	-9426
▁assisting	-9427
▁Increasing	-9428
▁evaluating	-9429
▁Methodology	-9430
Qu	-9431
▁$4,	-9432
▁CPP	-9433
▁Dou	-9434
enezuel	-9435
▁Determ	-9436
▁holder	-9437
▁campaigns	-9438
▁capability	-9439
canadianheritage	-9440
HO	-9441
App	-9442
▁EL	-9443
▁Cdn	-9444
aired	-9445
class	-9446
▁readily	-9447
▁witness	-9448
▁colleagues	-9449
▁Recognition	-9450
▁accommodate	-9451
▁consistency	-9452
▁subsequently	-9453
nial	-9454
▁bre	-9455
irical	-9456
▁depth	-9457
▁Academ	-9458
alliative	-9459
▁Proposed	-9460
▁discount	-9461
▁steadily	-9462
▁survival	-9463
▁underway	-9464
ila	-9465
▁Bou	-9466
▁Cover	-9467
▁Paulo	-9468
Pacific	-9469
▁argued	-9470
ophistic	-9471
▁respecting	-9472
▁PRIN	-9473
▁vola	-9474
upport	-9475
adequate	-9476
erennial	-9477
▁Farmers	-9478
▁patents	-9479
▁Effective	-9480
▁encompass	-9481
▁beneficiaries	-9482
▁1/	-9483
▁AWP	-9484
itals	-9485
▁hire	-9486
▁truly	-9487
▁segreg	-9488
location	-9489
▁2008-03	-9490
▁Storage	-9491
▁Approach	-9492
▁district	-9493
▁Meanwhile	-9494
▁carefully	-9495
▁landscape	-9496
▁preceding	-9497
▁Regulation	-9498
▁Integration	-9499
▁OU	-9500
▁35%	-9501
▁ANN	-9502
▁(416)	-9503
▁teams	-9504
▁UNESCO	-9505
▁anyone	-9506
Ac	-9507
▁DNR	-9508
▁hum	-9509
field	-9510
▁Smith	-9511
lossary	-9512
▁Groups	-9513
▁habitat	-9514
▁Networks	-9515
▁indirectly	-9516
▁Responsible	-9517
▁stakeholder	-9518
▁transparent	-9519
ENTI	-9520
▁Ser	-9521
▁obst	-9522
arding	-9523
▁Asked	-9524
▁codes	-9525
▁doubt	-9526
portive	-9527
▁mobile	-9528
▁Americas	-9529
▁potatoes	-9530
▁rejected	-9531
▁stimulate	-9532
▁attracting	-9533
▁eventually	-9534
IGH	-9535
▁IS	-9536
itch	-9537
▁civic	-9538
▁enact	-9539
raction	-9540
▁yellow	-9541
▁CNMF	-9542
▁rice	-9543
▁attain	-9544
▁appeared	-9545
▁Advantage	-9546
▁preserved	-9547
▁Conclusion	-9548
▁SCH	-9549
▁Shel	-9550
ulates	-9551
▁Goods	-9552
▁paying	-9553
outheast	-9554
▁Existing	-9555
▁wireless	-9556
____________	-9557
▁temperature	-9558
▁EC	-9559
▁Jo	-9560
ifer	-9561
uralism	-9562
▁relief	-9563
▁predomin	-9564
▁mainstream	-9565
▁Accommodation	-9566
BR	-9567
▁EG	-9568
▁OB	-9569
▁75%	-9570
▁Chic	-9571
ailand	-9572
▁1994,	-9573
▁artic	-9574
▁Animal	-9575
▁pattern	-9576
▁younger	-9577
▁seminars	-9578
▁democracy	-9579
▁formation	-9580
▁collecting	-9581
▁PUB	-9582
▁Mary	-9583
ptions	-9584
▁dimin	-9585
▁Together	-9586
▁Venezuel	-9587
▁dramatic	-9588
▁printing	-9589
▁outsourcing	-9590
PE	-9591
xy	-9592
bal	-9593
▁HA	-9594
▁(90	-9595
▁+44	-9596
chers	-9597
onald	-9598
▁samp	-9599
▁Audio	-9600
▁deduc	-9601
▁copying	-9602
▁phenomen	-9603
▁properties	-9604
▁traditions	-9605
▁documentary	-9606
▁replacement	-9607
▁submissions	-9608
FO	-9609
PH	-9610
isons	-9611
▁bind	-9612
▁dans	-9613
▁recon	-9614
▁Pension	-9615
▁legitim	-9616
▁$100,000	-9617
▁Immersion	-9618
▁scientists	-9619
▁consolidation	-9620
▁64	-9621
acing	-9622
▁aver	-9623
▁sequ	-9624
▁tons	-9625
▁chick	-9626
▁2004-09	-9627
▁compare	-9628
▁2008-200	-9629
▁Approval	-9630
▁systemic	-9631
veloppement	-9632
▁Indigenous	-9633
▁responsive	-9634
ij	-9635
UAL	-9636
laim	-9637
olute	-9638
▁Need	-9639
▁Clean	-9640
▁Majesty	-9641
▁Musical	-9642
▁Whether	-9643
▁economics	-9644
Mul	-9645
NRC	-9646
dist	-9647
▁90%	-9648
flower	-9649
▁Malays	-9650
▁Practice	-9651
▁entities	-9652
▁independ	-9653
▁forecasts	-9654
elph	-9655
elve	-9656
▁COL	-9657
ishery	-9658
▁acting	-9659
ervatory	-9660
graduate	-9661
▁artwork	-9662
▁neither	-9663
▁realize	-9664
▁attracted	-9665
▁enhancement	-9666
▁instructions	-9667
▁7.1	-9668
▁Dev	-9669
lings	-9670
▁Albert	-9671
▁faster	-9672
▁railway	-9673
▁Priority	-9674
▁exemption	-9675
▁Statistical	-9676
].	-9677
▁86	-9678
atur	-9679
otyp	-9680
develop	-9681
entions	-9682
section	-9683
▁$5,000	-9684
▁Enhancement	-9685
▁Ministerial	-9686
▁distinctive	-9687
▁establishes	-9688
gn	-9689
▁96	-9690
▁16%	-9691
▁Mer	-9692
▁Much	-9693
ortium	-9694
▁Louis	-9695
▁click	-9696
▁Barnes	-9697
▁inherent	-9698
▁Entreprene	-9699
▁broadcaster	-9700
▁Specifically	-9701
uis	-9702
élé	-9703
▁ABC	-9704
legal	-9705
▁2008,	-9706
▁Daily	-9707
▁college	-9708
mentation	-9709
▁focussed	-9710
▁Eligibility	-9711
my	-9712
sen	-9713
NBAP	-9714
▁Vir	-9715
grams	-9716
otech	-9717
rison	-9718
▁route	-9719
▁Almost	-9720
▁rental	-9721
▁wanted	-9722
▁Benefit	-9723
▁Certain	-9724
▁treaties	-9725
rey	-9726
▁CAR	-9727
▁prai	-9728
▁Medium	-9729
▁websites	-9730
▁Alternative	-9731
▁Marketplace	-9732
.01	-9733
OURC	-9734
▁Aqu	-9735
tility	-9736
Alberta	-9737
▁grades	-9738
▁manual	-9739
▁fishing	-9740
▁slaughter	-9741
▁Linguistic	-9742
DE	-9743
rise	-9744
▁Arc	-9745
▁oils	-9746
retion	-9747
▁spoke	-9748
elihood	-9749
▁thanks	-9750
▁Vietnam	-9751
▁unlikely	-9752
▁measurable	-9753
▁elimination	-9754
exc	-9755
▁77	-9756
▁(000	-9757
▁Corn	-9758
▁else	-9759
aining	-9760
ieuten	-9761
▁Expos	-9762
▁Grant	-9763
▁genres	-9764
▁Maximum	-9765
▁Opening	-9766
▁reduces	-9767
▁Participant	-9768
▁AT	-9769
onom	-9770
utch	-9771
▁ACT	-9772
ilton	-9773
ontal	-9774
▁Scot	-9775
▁enth	-9776
▁1,000	-9777
▁Actual	-9778
▁Church	-9779
▁Weekly	-9780
▁devoted	-9781
▁driving	-9782
▁Committees	-9783
itan	-9784
▁rob	-9785
▁joined	-9786
▁deposits	-9787
▁military	-9788
▁thorough	-9789
▁presenting	-9790
▁procurement	-9791
▁88	-9792
imes	-9793
▁5.4	-9794
state	-9795
▁(11)	-9796
▁Stake	-9797
▁union	-9798
▁closed	-9799
▁trying	-9800
▁Thunder	-9801
ieutenant	-9802
▁speakers	-9803
▁Indicator	-9804
▁Summative	-9805
▁permission	-9806
▁weaknesses	-9807
do	-9808
▁Friday	-9809
▁Making	-9810
Business	-9811
▁Superint	-9812
▁Improvement	-9813
xic	-9814
ITED	-9815
ruce	-9816
▁472	-9817
▁CCP	-9818
▁Just	-9819
▁bloc	-9820
▁Early	-9821
▁lifesty	-9822
▁Thailand	-9823
▁infected	-9824
▁reproduc	-9825
▁resident	-9826
▁sophistic	-9827
▁vulnerable	-9828
▁exploitation	-9829
▁correspondence	-9830
auc	-9831
▁Sug	-9832
▁Size	-9833
▁marks	-9834
▁Analyst	-9835
▁Belgium	-9836
▁Congress	-9837
▁dominant	-9838
▁shopping	-9839
▁celebration	-9840
▁Has	-9841
cribe	-9842
ounds	-9843
comers	-9844
▁incons	-9845
▁notion	-9846
▁substit	-9847
Re	-9848
ABLE	-9849
rait	-9850
▁MII	-9851
zation	-9852
▁twenty	-9853
▁resolve	-9854
▁pesticide	-9855
CW	-9856
OCAN	-9857
SOCI	-9858
lder	-9859
▁4.5	-9860
▁fil	-9861
▁mot	-9862
▁Pork	-9863
▁save	-9864
▁INTERN	-9865
▁Visual	-9866
▁$50,000	-9867
▁dealers	-9868
▁Complain	-9869
▁insectic	-9870
▁overcome	-9871
▁connected	-9872
▁discrimin	-9873
▁experiencing	-9874
▁intermediate	-9875
▁Ec	-9876
osit	-9877
▁CVI	-9878
▁McG	-9879
▁Pal	-9880
ticals	-9881
▁1991,	-9882
▁Calcul	-9883
▁Concer	-9884
▁turned	-9885
▁mineral	-9886
▁nothing	-9887
fortunately	-9888
ni	-9889
▁SE	-9890
bury	-9891
▁Durum	-9892
▁appreciate	-9893
▁sufficiently	-9894
▁759	-9895
▁rip	-9896
▁vib	-9897
▁acid	-9898
▁Cattle	-9899
▁spaces	-9900
▁eastern	-9901
▁utilized	-9902
▁initially	-9903
▁surprising	-9904
PC	-9905
IDS	-9906
bro	-9907
sey	-9908
fast	-9909
seau	-9910
▁shap	-9911
▁macro	-9912
▁County	-9913
▁Negoti	-9914
▁leaving	-9915
▁Officers	-9916
▁standing	-9917
▁frameworks	-9918
▁domestically	-9919
▁infringement	-9920
▁multinational	-9921
Ind	-9922
vae	-9923
acks	-9924
▁Lower	-9925
▁begins	-9926
▁notably	-9927
▁labelling	-9928
▁variation	-9929
▁Electricity	-9930
▁declaration	-9931
▁recognizing	-9932
Is	-9933
egu	-9934
depth	-9935
enture	-9936
▁hired	-9937
▁liquidity	-9938
▁prominent	-9939
performance	-9940
▁aboriginal	-9941
▁proficiency	-9942
▁Biotechnology	-9943
▁Collaboration	-9944
EMS	-9945
Fran	-9946
prin	-9947
▁22%	-9948
abric	-9949
▁Make	-9950
thirds	-9951
▁Monday	-9952
official	-9953
▁feeding	-9954
▁Machinery	-9955
▁unchanged	-9956
▁Certificate	-9957
▁challenging	-9958
./	-9959
odge	-9960
▁Men	-9961
▁SCI	-9962
▁Enth	-9963
▁toll	-9964
▁Power	-9965
▁Arrange	-9966
▁Ukraine	-9967
▁minimal	-9968
▁importing	-9969
Territorial	-9970
▁99	-9971
shore	-9972
ULTURE	-9973
▁renov	-9974
▁obstac	-9975
▁Auditor	-9976
▁LANGUAGE	-9977
▁licences	-9978
▁monitors	-9979
▁reasonably	-9980
▁(10	-9981
▁voy	-9982
▁Brief	-9983
▁Simon	-9984
▁classified	-9985
▁indigenous	-9986
▁administers	-9987
▁automatically	-9988
oa	-9989
▁19%	-9990
▁CFIA	-9991
▁hour	-9992
▁Grade	-9993
▁2004-06	-9994
▁Balance	-9995
▁founded	-9996
▁Relevance	-9997
▁residence	-9998
▁References	-9999
armaceutical	-10000
▁Superintendent	-10001
▁Ice	-10002
▁Rog	-10003
▁ban	-10004
▁1960	-10005
▁radi	-10006
▁NNBAP	-10007
▁Cabinet	-10008
▁Terminal	-10009
▁calendar	-10010
▁Buildings	-10011
▁manufacturer	-10012
▁traditionally	-10013
▁Da	-10014
omas	-10015
ECTED	-10016
▁Like	-10017
▁ranked	-10018
▁balanced	-10019
▁taxpayer	-10020
unicipality	-10021
▁intelligence	-10022
bank	-10023
mosp	-10024
▁REC	-10025
▁cars	-10026
lights	-10027
▁revital	-10028
▁clientele	-10029
▁gathering	-10030
▁wholesale	-10031
La	-10032
PR	-10033
ANT	-10034
ISH	-10035
▁Cub	-10036
orous	-10037
▁pati	-10038
million	-10039
▁clauses	-10040
▁59	-10041
▁CTM	-10042
▁soft	-10043
▁chair	-10044
▁fight	-10045
writers	-10046
▁2008-02	-10047
▁grocery	-10048
▁rotation	-10049
▁publicity	-10050
▁tradition	-10051
▁completing	-10052
▁supportive	-10053
aby	-10054
▁CL	-10055
▁0.5	-10056
▁Rio	-10057
ressed	-10058
▁Agencies	-10059
▁Veterans	-10060
▁candidates	-10061
▁prosperity	-10062
éb	-10063
VWU	-10064
bre	-10065
▁72	-10066
▁$13	-10067
▁Jew	-10068
▁error	-10069
usiasts	-10070
▁Receip	-10071
▁careers	-10072
▁nutrient	-10073
▁assignment	-10074
YST	-10075
str	-10076
ding	-10077
▁NOT	-10078
inter	-10079
▁1988	-10080
▁Hear	-10081
▁Miss	-10082
▁NSCs	-10083
▁Pilot	-10084
▁Valley	-10085
▁videos	-10086
▁catalog	-10087
▁compati	-10088
▁viewers	-10089
▁regulated	-10090
71	-10091
kn	-10092
Based	-10093
▁Test	-10094
▁scal	-10095
▁navig	-10096
▁watch	-10097
▁remark	-10098
▁Options	-10099
▁interpreted	-10100
word	-10101
▁bon	-10102
aling	-10103
cious	-10104
▁Vern	-10105
▁beet	-10106
▁fashion	-10107
▁helpful	-10108
▁liberal	-10109
▁analyses	-10110
▁classroom	-10111
du	-10112
anim	-10113
▁MOU	-10114
▁MUS	-10115
▁ended	-10116
▁hypot	-10117
▁propri	-10118
▁defence	-10119
.25	-10120
AIS	-10121
anda	-10122
▁29,	-10123
▁CMA	-10124
▁miss	-10125
istler	-10126
lining	-10127
ourses	-10128
▁birth	-10129
▁Mariti	-10130
▁advise	-10131
▁adverse	-10132
▁reserve	-10133
▁powerful	-10134
▁Authorities	-10135
▁OP	-10136
THER	-10137
▁Ken	-10138
▁flu	-10139
▁Norm	-10140
▁Daniel	-10141
▁ancest	-10142
▁hectares	-10143
▁Providing	-10144
▁logistics	-10145
▁respected	-10146
▁complexity	-10147
▁characterized	-10148
▁Representative	-10149
▁5.5	-10150
▁Lar	-10151
▁Text	-10152
▁edge	-10153
▁Gross	-10154
▁block	-10155
▁drain	-10156
▁forth	-10157
▁Barley	-10158
▁damages	-10159
▁sharply	-10160
▁thereof	-10161
▁Evidence	-10162
▁perceptions	-10163
▁coordinating	-10164
ées	-10165
▁$60	-10166
▁21%	-10167
▁23%	-10168
▁EIP	-10169
ading	-10170
break	-10171
▁frag	-10172
▁none	-10173
▁tends	-10174
ewardship	-10175
▁Chairman	-10176
▁demonstrates	-10177
zing	-10178
▁Firms	-10179
▁06	-10180
rary	-10181
rium	-10182
▁(19	-10183
agnos	-10184
▁ideal	-10185
▁Agenda	-10186
▁signals	-10187
▁frequent	-10188
▁Strategis	-10189
▁authentic	-10190
▁scenarios	-10191
ilib	-10192
leaf	-10193
pass	-10194
risk	-10195
arity	-10196
discip	-10197
vement	-10198
▁brands	-10199
▁costly	-10200
▁federally	-10201
▁negotiation	-10202
▁globalization	-10203
umin	-10204
▁Mur	-10205
▁stop	-10206
axseed	-10207
▁Basic	-10208
▁taste	-10209
iration	-10210
▁APPLIC	-10211
▁combat	-10212
▁coaching	-10213
▁assumptions	-10214
agne	-10215
▁tail	-10216
▁AGRIC	-10217
▁coffee	-10218
▁streams	-10219
▁studied	-10220
▁mobility	-10221
▁upcoming	-10222
▁connections	-10223
5-	-10224
▁Bon	-10225
▁homes	-10226
terbelt	-10227
▁Impacts	-10228
▁analyst	-10229
President	-10230
▁Advanced	-10231
▁benefited	-10232
ney	-10233
fish	-10234
▁(5)	-10235
asion	-10236
▁bills	-10237
▁wells	-10238
▁outline	-10239
▁educated	-10240
▁Universal	-10241
▁discretion	-10242
▁Operational	-10243
▁Representatives	-10244
Le	-10245
▁Tw	-10246
aves	-10247
▁GST	-10248
▁genre	-10249
▁hands	-10250
osystem	-10251
▁Sports	-10252
▁2007-11	-10253
▁Articles	-10254
▁thinking	-10255
▁Procurement	-10256
▁Charlottetown	-10257
Multiculturalism	-10258
Ag	-10259
▁CGC	-10260
▁1981	-10261
▁Persp	-10262
▁night	-10263
iability	-10264
▁Providers	-10265
how	-10266
omet	-10267
rors	-10268
▁6.3	-10269
▁Sud	-10270
▁bad	-10271
▁Josée	-10272
▁fairs	-10273
▁ASSOCI	-10274
antities	-10275
▁Malaysia	-10276
▁Magazines	-10277
▁everything	-10278
ds	-10279
ua	-10280
▁tro	-10281
▁Bell	-10282
▁pump	-10283
▁upgrad	-10284
▁affects	-10285
▁consumed	-10286
Net	-10287
ECHN	-10288
URAL	-10289
▁3.0	-10290
▁Cyc	-10291
▁$21,	-10292
▁Cath	-10293
▁Fare	-10294
▁pain	-10295
▁spect	-10296
▁legisl	-10297
▁clarity	-10298
▁Metropol	-10299
▁compiled	-10300
▁successes	-10301
▁2008-07-31	-10302
▁ingredient	-10303
▁SA	-10304
WGSC	-10305
▁Pen	-10306
▁cro	-10307
DWLRQ	-10308
gment	-10309
▁CORP	-10310
▁named	-10311
▁pursuing	-10312
▁donations	-10313
▁nutrients	-10314
▁illustrate	-10315
▁officially	-10316
▁preferences	-10317
bc	-10318
ura	-10319
▁Luc	-10320
▁pays	-10321
▁mount	-10322
▁differ	-10323
▁speech	-10324
▁conclude	-10325
▁declines	-10326
▁Directory	-10327
▁negotiate	-10328
▁Friendship	-10329
▁IB	-10330
ilos	-10331
▁ALL	-10332
▁stra	-10333
olving	-10334
▁1995.	-10335
▁lands	-10336
▁Lieutenant	-10337
▁harassment	-10338
arb	-10339
▁ep	-10340
ENTS	-10341
berg	-10342
riven	-10343
▁drug	-10344
ennial	-10345
▁30002	-10346
▁Fresh	-10347
▁Master	-10348
▁Throne	-10349
▁falling	-10350
▁Attorney	-10351
▁catalogue	-10352
▁affordable	-10353
▁Conclusions	-10354
▁undergraduate	-10355
NO	-10356
UE	-10357
YH	-10358
▁LA	-10359
STRU	-10360
▁Mel	-10361
osite	-10362
▁Cell	-10363
▁Ship	-10364
▁told	-10365
▁zone	-10366
▁newly	-10367
▁Norway	-10368
▁disapp	-10369
▁liaison	-10370
▁OFFICIAL	-10371
▁Receipts	-10372
▁Catalogue	-10373
▁oversight	-10374
▁separately	-10375
▁Philippines	-10376
▁Sustainability	-10377
POS	-10378
rog	-10379
roy	-10380
she	-10381
top	-10382
▁éd	-10383
▁10-	-10384
▁430	-10385
lical	-10386
▁Expl	-10387
▁ages	-10388
▁falls	-10389
▁tested	-10390
▁concert	-10391
▁tickets	-10392
▁branches	-10393
▁retained	-10394
▁generating	-10395
▁attractions	-10396
▁consecutive	-10397
▁geographical	-10398
non	-10399
oma	-10400
▁Tow	-10401
▁Folk	-10402
▁huge	-10403
rorist	-10404
ulative	-10405
ructuring	-10406
▁cohesion	-10407
▁develops	-10408
▁Southeast	-10409
▁Voluntary	-10410
34	-10411
NC	-10412
▁RP	-10413
▁(%)	-10414
▁11.	-10415
▁fear	-10416
ensing	-10417
▁Brand	-10418
▁Guelph	-10419
▁campus	-10420
▁touring	-10421
▁anything	-10422
▁limiting	-10423
▁retailer	-10424
▁2007-2008	-10425
▁proceeding	-10426
ORD	-10427
mend	-10428
▁160	-10429
▁4.0	-10430
▁MHz	-10431
▁pas	-10432
ppers	-10433
▁Brit	-10434
▁Clim	-10435
ysical	-10436
▁unions	-10437
▁2007-07	-10438
▁lending	-10439
▁optimal	-10440
▁regards	-10441
▁repayment	-10442
39	-10443
▁**	-10444
▁997	-10445
▁oce	-10446
issue	-10447
▁bear	-10448
▁hogs	-10449
▁floor	-10450
english	-10451
LANGUAGE	-10452
isitions	-10453
▁biggest	-10454
▁explains	-10455
▁Arab	-10456
▁Take	-10457
▁jump	-10458
▁mere	-10459
▁trig	-10460
▁array	-10461
▁cater	-10462
▁partn	-10463
ologies	-10464
▁depart	-10465
▁mature	-10466
▁suscep	-10467
ensation	-10468
▁arrival	-10469
▁carrier	-10470
▁merchand	-10471
▁decreasing	-10472
▁Correctional	-10473
▁lag	-10474
stand	-10475
▁ende	-10476
organiz	-10477
▁planted	-10478
▁Meetings	-10479
▁Workshop	-10480
▁breeding	-10481
▁explored	-10482
▁emergence	-10483
▁opposition	-10484
▁notification	-10485
)?	-10486
VH	-10487
cks	-10488
▁Corp	-10489
▁Radi	-10490
▁apple	-10491
▁clust	-10492
▁actors	-10493
▁attach	-10494
▁stands	-10495
▁2007-09	-10496
▁ethanol	-10497
▁Enhanced	-10498
▁Highlights	-10499
▁quantities	-10500
▁Unfortunately	-10501
UC	-10502
ym	-10503
0%)	-10504
def	-10505
iens	-10506
▁Som	-10507
▁Rule	-10508
▁STRA	-10509
▁Allow	-10510
▁GROUP	-10511
▁player	-10512
▁subsidi	-10513
▁uniform	-10514
▁absolute	-10515
.),	-10516
vive	-10517
▁Mot	-10518
count	-10519
olved	-10520
▁Peru	-10521
commerce	-10522
▁2008-09	-10523
▁Restaur	-10524
▁advertise	-10525
▁efficiently	-10526
PCH	-10527
▁qui	-10528
group	-10529
▁mill	-10530
▁Maple	-10531
▁seats	-10532
▁Instru	-10533
▁Ceremon	-10534
▁barrier	-10535
▁flights	-10536
▁Scholars	-10537
▁archives	-10538
▁accessing	-10539
▁acknowledged	-10540
▁administering	-10541
.30	-10542
DUN	-10543
▁Yet	-10544
eeping	-10545
▁drawing	-10546
▁Forecast	-10547
▁Improved	-10548
▁Newsroom	-10549
vironments	-10550
▁projections	-10551
▁shareholders	-10552
edge	-10553
▁NTP	-10554
▁Copy	-10555
▁OBJEC	-10556
▁faith	-10557
▁Resear	-10558
▁Visits	-10559
▁liable	-10560
▁Glossary	-10561
▁internet	-10562
▁subjects	-10563
▁financially	-10564
KR	-10565
XW	-10566
ka	-10567
sor	-10568
▁pp	-10569
▁$5,	-10570
▁OSB	-10571
▁mil	-10572
after	-10573
▁1989	-10574
▁heat	-10575
▁Olymp	-10576
▁dealt	-10577
▁Border	-10578
▁Martin	-10579
▁signal	-10580
▁Accounts	-10581
▁Lawrence	-10582
▁template	-10583
▁occurring	-10584
▁popularity	-10585
▁credibility	-10586
▁71	-10587
sych	-10588
▁$11	-10589
▁Did	-10590
▁Sea	-10591
▁tex	-10592
▁wid	-10593
EDULE	-10594
▁Jane	-10595
▁Word	-10596
▁alcoh	-10597
habilit	-10598
▁atmosp	-10599
▁ratios	-10600
▁pleasure	-10601
▁emphasized	-10602
▁systematic	-10603
▁collectives	-10604
Sp	-10605
erry	-10606
▁WIT	-10607
ORITY	-10608
ericton	-10609
▁dugout	-10610
▁window	-10611
▁Looking	-10612
▁promising	-10613
▁Leadership	-10614
▁consisting	-10615
▁distributing	-10616
▁supplementary	-10617
ky	-10618
Bri	-10619
▁98	-10620
▁CDs	-10621
TIVES	-10622
allel	-10623
front	-10624
▁Fall	-10625
razing	-10626
▁Nature	-10627
▁filled	-10628
▁answers	-10629
▁defining	-10630
▁versions	-10631
▁Inflation	-10632
▁exploration	-10633
ELL	-10634
FVS	-10635
See	-10636
olf	-10637
Jean	-10638
estab	-10639
▁bids	-10640
▁strugg	-10641
▁vibrant	-10642
▁Commemor	-10643
▁Wireless	-10644
▁missions	-10645
▁profiles	-10646
▁Venezuela	-10647
▁marginally	-10648
▁scholarships	-10649
▁IC	-10650
▁Mi	-10651
ATES	-10652
▁sil	-10653
redit	-10654
▁Nord	-10655
▁Types	-10656
▁acres	-10657
▁piece	-10658
raising	-10659
▁noting	-10660
gressive	-10661
▁Schools	-10662
▁connect	-10663
▁evolved	-10664
▁locally	-10665
▁shipped	-10666
▁matching	-10667
▁turnover	-10668
▁harvested	-10669
traditional	-10670
▁Periodical	-10671
▁accomplished	-10672
éco	-10673
▁gl	-10674
▁fle	-10675
▁estate	-10676
ilibrium	-10677
▁closing	-10678
▁discipline	-10679
▁Distributed	-10680
▁economically	-10681
asks	-10682
▁Mid	-10683
▁cab	-10684
andom	-10685
opsis	-10686
▁Comb	-10687
▁sing	-10688
▁(204)	-10689
▁Ocean	-10690
▁spray	-10691
▁Arctic	-10692
▁judges	-10693
▁defines	-10694
▁exceeded	-10695
▁withheld	-10696
▁empirical	-10697
atisfaction	-10698
▁97	-10699
▁2.6	-10700
▁Town	-10701
▁Adobe	-10702
▁Space	-10703
▁bonds	-10704
▁herein	-10705
▁Request	-10706
▁Proposal	-10707
▁examiner	-10708
▁submitting	-10709
@@@@@@@@@@@@@@@@	-10710
TEG	-10711
tte	-10712
▁MP	-10713
tien	-10714
▁Hun	-10715
▁LBR	-10716
▁magn	-10717
urrent	-10718
▁scene	-10719
▁Marine	-10720
▁inside	-10721
▁postal	-10722
▁comprom	-10723
▁governed	-10724
▁resolved	-10725
▁totalled	-10726
▁2000-2001	-10727
▁dominated	-10728
▁emergency	-10729
▁partially	-10730
international	-10731
ulph	-10732
▁BAS	-10733
▁McC	-10734
▁$20,	-10735
▁Barb	-10736
▁spin	-10737
▁upper	-10738
▁Frozen	-10739
▁Verner	-10740
▁settle	-10741
▁describing	-10742
▁elementary	-10743
▁INTERNATIONAL	-10744
EY	-10745
▁24%	-10746
▁NSC	-10747
▁sand	-10748
ulings	-10749
▁argue	-10750
▁incomp	-10751
▁Announce	-10752
▁stressed	-10753
▁chemicals	-10754
▁2007-03-31	-10755
▁Insolvency	-10756
▁likelihood	-10757
rar	-10758
▁OT	-10759
▁Tro	-10760
▁alg	-10761
▁Call	-10762
▁menu	-10763
French	-10764
▁Farms	-10765
▁MANAG	-10766
▁TECHN	-10767
▁Single	-10768
▁forced	-10769
▁gaining	-10770
▁putting	-10771
▁sectoral	-10772
▁Christian	-10773
▁proactive	-10774
▁realistic	-10775
▁occurrence	-10776
▁Fredericton	-10777
▁sophisticated	-10778
▁electronically	-10779
tin	-10780
uds	-10781
▁ou	-10782
ébéco	-10783
▁Club	-10784
▁cold	-10785
▁birds	-10786
▁desirable	-10787
▁inadequate	-10788
▁Significant	-10789
▁stabilization	-10790
▁$14	-10791
▁Wil	-10792
value	-10793
▁FUND	-10794
▁SUMM	-10795
▁wond	-10796
▁Ghana	-10797
▁reper	-10798
▁Stabil	-10799
▁broker	-10800
▁handle	-10801
▁Leisure	-10802
▁samples	-10803
▁mandates	-10804
▁shipment	-10805
▁Maintenance	-10806
JK	-10807
VIN	-10808
▁07	-10809
▁talk	-10810
▁curve	-10811
▁inequ	-10812
▁split	-10813
▁Poland	-10814
▁safegu	-10815
▁Florida	-10816
▁symbols	-10817
▁CONTRIBU	-10818
▁Directed	-10819
▁performer	-10820
▁reinforce	-10821
environmental	-10822
▁développement	-10823
▁ta	-10824
cnrc	-10825
page	-10826
▁Buen	-10827
▁roll	-10828
ruguay	-10829
▁(514)	-10830
▁owing	-10831
▁domain	-10832
▁twelve	-10833
▁2008-04	-10834
▁STRATEG	-10835
▁Investig	-10836
▁references	-10837
▁translated	-10838
▁explanation	-10839
At	-10840
pt	-10841
upp	-10842
▁RO	-10843
▁600	-10844
▁NFB	-10845
ateur	-10846
orter	-10847
▁1993,	-10848
▁shell	-10849
▁Persons	-10850
▁analyze	-10851
▁cutting	-10852
▁childhood	-10853
VA	-10854
CCP	-10855
HUV	-10856
RAC	-10857
VEN	-10858
▁TA	-10859
case	-10860
raud	-10861
▁$17	-10862
orship	-10863
▁lever	-10864
▁indeed	-10865
▁verify	-10866
authored	-10867
▁Savings	-10868
▁lentils	-10869
▁allowance	-10870
▁displayed	-10871
▁Institutes	-10872
▁anticipate	-10873
.75	-10874
four	-10875
titut	-10876
▁EDUC	-10877
owment	-10878
▁$0.00	-10879
icating	-10880
▁Clause	-10881
▁Consid	-10882
▁blight	-10883
▁amongst	-10884
▁commerce	-10885
▁duplication	-10886
(3)	-10887
ANS	-10888
empl	-10889
▁2).	-10890
▁819	-10891
▁CAP	-10892
mented	-10893
▁Immig	-10894
▁thing	-10895
▁Ambass	-10896
▁educate	-10897
▁Managing	-10898
▁mandated	-10899
aboratories	-10900
▁accurately	-10901
▁Availability	-10902
lla	-10903
▁0.1	-10904
▁iii	-10905
▁NAFC	-10906
▁TPMs	-10907
ospace	-10908
▁5,000	-10909
▁prove	-10910
factory	-10911
▁Mechan	-10912
▁intends	-10913
▁regimes	-10914
▁Emergency	-10915
$1	-10916
68	-10917
OLA	-10918
pan	-10919
tes	-10920
▁Ok	-10921
▁HER	-10922
ITIES	-10923
▁FOOD	-10924
▁Techn	-10925
▁frame	-10926
▁cereal	-10927
▁emerge	-10928
ectionery	-10929
▁railways	-10930
▁structured	-10931
yer	-10932
Line	-10933
eleg	-10934
irst	-10935
▁12.	-10936
▁Oda	-10937
▁tied	-10938
bridge	-10939
itored	-10940
simile	-10941
▁SOCAN	-10942
itivity	-10943
▁CONSUL	-10944
▁Invent	-10945
▁Muslim	-10946
▁stored	-10947
erospace	-10948
▁tuition	-10949
▁Literature	-10950
▁precipitation	-10951
ITS	-10952
COME	-10953
ooth	-10954
ownt	-10955
stud	-10956
vous	-10957
▁Cop	-10958
▁fix	-10959
▁west	-10960
▁wants	-10961
▁monies	-10962
▁Compliance	-10963
▁eliminated	-10964
▁guaranteed	-10965
▁Translation	-10966
▁investigate	-10967
▁91	-10968
▁NL	-10969
Part	-10970
▁180	-10971
▁Kit	-10972
▁Dise	-10973
eminar	-10974
▁ports	-10975
▁corner	-10976
▁robust	-10977
▁possess	-10978
▁varying	-10979
▁Creation	-10980
▁Components	-10981
▁predominant	-10982
TN	-10983
iii	-10984
▁Race	-10985
▁1985,	-10986
▁absor	-10987
▁obser	-10988
lophone	-10989
▁reader	-10990
▁Oilseed	-10991
▁explicitly	-10992
disciplinary	-10993
▁verification	-10994
▁Institutional	-10995
lank	-10996
▁Way	-10997
▁Burs	-10998
▁Jazz	-10999
▁Self	-11000
▁acre	-11001
titude	-11002
▁looks	-11003
▁Context	-11004
▁tremend	-11005
▁attempts	-11006
▁sampling	-11007
▁Quarterly	-11008
▁excessive	-11009
▁newcomers	-11010
▁Amendments	-11011
fr	-11012
▁69	-11013
aser	-11014
olly	-11015
leton	-11016
▁Rend	-11017
▁beer	-11018
▁imag	-11019
racial	-11020
▁shock	-11021
iveness	-11022
justice	-11023
▁Faculty	-11024
▁Reserve	-11025
▁running	-11026
▁Continue	-11027
▁monitored	-11028
▁reimburse	-11029
▁dramatically	-11030
▁92	-11031
▁GH	-11032
▁ang	-11033
▁Agro	-11034
▁EXPO	-11035
▁rated	-11036
▁tight	-11037
alition	-11038
jection	-11039
▁seeding	-11040
▁seniors	-11041
▁Editorial	-11042
▁Festivals	-11043
▁Symposium	-11044
▁contractual	-11045
▁Multicultural	-11046
▁incorporation	-11047
▁08	-11048
▁Deg	-11049
▁spas	-11050
public	-11051
▁Gender	-11052
▁Prepar	-11053
▁square	-11054
▁perfect	-11055
▁Athletes	-11056
▁discharge	-11057
▁excluding	-11058
▁summative	-11059
▁conversion	-11060
▁Institution	-11061
▁distinction	-11062
▁foundations	-11063
▁2:	-11064
usal	-11065
akings	-11066
▁Hotel	-11067
▁franco	-11068
▁Uruguay	-11069
reational	-11070
▁Traditional	-11071
▁communicated	-11072
▁SD	-11073
ecom	-11074
▁$7,	-11075
abeth	-11076
▁Milk	-11077
▁bidd	-11078
▁Sweden	-11079
▁column	-11080
▁larvae	-11081
▁counsel	-11082
▁lenders	-11083
▁astronom	-11084
▁fisheries	-11085
▁incidence	-11086
▁Additionally	-11087
▁environments	-11088
▁Er	-11089
▁(60	-11090
▁Brown	-11091
▁Privy	-11092
▁solic	-11093
ocolate	-11094
▁thirty	-11095
▁Climate	-11096
▁overlap	-11097
▁Operation	-11098
▁Accordingly	-11099
-77	-11100
KER	-11101
rix	-11102
VIEW	-11103
▁arm	-11104
▁cru	-11105
TMENT	-11106
herche	-11107
▁Marie	-11108
▁juice	-11109
▁write	-11110
▁convey	-11111
▁Airport	-11112
▁exceeds	-11113
▁SCHEDULE	-11114
.02	-11115
▁1-	-11116
▁87	-11117
rugs	-11118
▁Bur	-11119
▁TER	-11120
▁Thé	-11121
▁reb	-11122
▁ski	-11123
ennes	-11124
grade	-11125
ourse	-11126
▁Egyp	-11127
▁confir	-11128
▁Assurance	-11129
▁Proposals	-11130
▁termination	-11131
▁depreciation	-11132
.03	-11133
Rec	-11134
gar	-11135
▁FM	-11136
ORTS	-11137
oses	-11138
▁1.7	-11139
April	-11140
acies	-11141
robat	-11142
▁Glob	-11143
▁Agent	-11144
▁penet	-11145
▁Message	-11146
▁Managers	-11147
▁forestry	-11148
yr	-11149
Res	-11150
▁Ben	-11151
▁blo	-11152
▁unp	-11153
▁Kenn	-11154
▁Crops	-11155
▁apples	-11156
▁forage	-11157
▁height	-11158
▁causing	-11159
▁predict	-11160
▁metadata	-11161
▁Political	-11162
▁remainder	-11163
▁electricity	-11164
▁incremental	-11165
MO	-11166
▁Tob	-11167
eyond	-11168
▁$18,	-11169
▁Info	-11170
▁moth	-11171
driven	-11172
uclear	-11173
oration	-11174
▁Manual	-11175
▁2005-09	-11176
▁2008-05	-11177
▁External	-11178
▁Consulate	-11179
▁CONSULTING	-11180
▁Newspapers	-11181
▁exhibitors	-11182
▁filmmakers	-11183
▁presenters	-11184
ERT	-11185
ILL	-11186
alk	-11187
oil	-11188
This	-11189
arer	-11190
▁Hard	-11191
ACTION	-11192
riting	-11193
▁Scope	-11194
▁brown	-11195
▁yearly	-11196
▁Applied	-11197
▁Mortgage	-11198
▁EDUCATION	-11199
▁Estimated	-11200
▁Exporters	-11201
▁assumption	-11202
▁mechanical	-11203
▁photographs	-11204
WH	-11205
oi	-11206
▁IMA	-11207
▁ign	-11208
ingly	-11209
erated	-11210
licated	-11211
▁remedy	-11212
National	-11213
▁2004-04	-11214
▁Austria	-11215
▁borders	-11216
▁Outreach	-11217
▁Broadcast	-11218
▁comprises	-11219
▁computers	-11220
▁privilege	-11221
▁illustrated	-11222
RL	-11223
▁XX	-11224
chen	-11225
▁Jac	-11226
▁TBS	-11227
▁alt	-11228
rooms	-11229
▁gone	-11230
▁Equal	-11231
▁faces	-11232
▁Tables	-11233
▁theore	-11234
erential	-11235
▁2005-05	-11236
▁advised	-11237
▁circuit	-11238
▁signature	-11239
▁counselling	-11240
▁fluctuations	-11241
▁Stabilization	-11242
38	-11243
KL	-11244
▁tap	-11245
Europ	-11246
appro	-11247
armon	-11248
▁Acqu	-11249
▁oats	-11250
forced	-11251
▁NTPFVS	-11252
▁PUBLIC	-11253
▁albums	-11254
▁reward	-11255
▁finally	-11256
▁assisted	-11257
▁academics	-11258
▁confusion	-11259
▁accompanying	-11260
▁administrator	-11261
▁harmonization	-11262
▁possibilities	-11263
NS	-11264
AIN	-11265
▁Du	-11266
ague	-11267
anne	-11268
hesis	-11269
ograp	-11270
store	-11271
▁$17,	-11272
▁Leaf	-11273
▁Dutch	-11274
▁pasta	-11275
▁Experts	-11276
▁neutral	-11277
▁wishing	-11278
▁musicians	-11279
▁preference	-11280
▁calculations	-11281
▁independence	-11282
RON	-11283
.1.1	-11284
WKHU	-11285
days	-11286
icks	-11287
▁INT	-11288
▁NWT	-11289
▁auto	-11290
▁Wholes	-11291
▁debtor	-11292
▁simult	-11293
▁ticket	-11294
atisfied	-11295
olerance	-11296
▁Century	-11297
▁Monthly	-11298
▁Records	-11299
▁Various	-11300
▁choosing	-11301
habilitation	-11302
▁accomplishments	-11303
.60	-11304
▁Ke	-11305
ENCH	-11306
main	-11307
▁125	-11308
▁CPI	-11309
▁tender	-11310
▁Courses	-11311
▁banking	-11312
▁mustard	-11313
ographies	-11314
▁passport	-11315
▁laboratory	-11316
▁comparisons	-11317
ros	-11318
audi	-11319
home	-11320
▁Seg	-11321
▁NGOs	-11322
Québec	-11323
▁assim	-11324
▁Commod	-11325
▁Rendez	-11326
▁fellow	-11327
▁guests	-11328
▁Concern	-11329
▁fishery	-11330
▁Olympics	-11331
▁introducing	-11332
▁Manufacturers	-11333
62	-11334
-97	-11335
arel	-11336
▁RCI	-11337
early	-11338
▁$23,	-11339
ingent	-11340
▁aside	-11341
▁mobil	-11342
▁Letter	-11343
▁blocks	-11344
▁crafts	-11345
▁mediation	-11346
▁Transition	-11347
▁Consumption	-11348
▁illustrates	-11349
han	-11350
lar	-11351
▁2.7	-11352
▁Mag	-11353
▁Sao	-11354
▁aph	-11355
burgh	-11356
eless	-11357
▁cool	-11358
▁Guarant	-11359
▁Highway	-11360
▁Teacher	-11361
▁survive	-11362
▁commented	-11363
▁reliability	-11364
▁Compensation	-11365
DG	-11366
oo	-11367
▁6.4	-11368
▁HIV	-11369
ander	-11370
oline	-11371
▁Nurs	-11372
▁Chann	-11373
▁McGill	-11374
▁saying	-11375
▁comfort	-11376
▁Discover	-11377
▁argument	-11378
▁restaurant	-11379
kg	-11380
uls	-11381
▁EV	-11382
▁LL	-11383
▁SH	-11384
blem	-11385
IVERS	-11386
▁Eddy	-11387
▁laid	-11388
▁Organ	-11389
▁ruling	-11390
▁unders	-11391
▁accessed	-11392
▁2008-2009	-11393
▁nationale	-11394
▁reception	-11395
▁horizontal	-11396
BP	-11397
FC	-11398
OUR	-11399
▁81	-11400
uits	-11401
▁(54	-11402
▁0.2	-11403
▁rég	-11404
arden	-11405
books	-11406
ships	-11407
▁MSOs	-11408
OURCES	-11409
ilosoph	-11410
process	-11411
▁secret	-11412
▁tabled	-11413
▁Factors	-11414
▁Mandate	-11415
▁Compared	-11416
▁arrivals	-11417
▁quarters	-11418
▁Travellers	-11419
▁aggressive	-11420
▁variations	-11421
▁GO	-11422
▁26%	-11423
▁CCC	-11424
▁REL	-11425
▁1000	-11426
▁pure	-11427
▁suit	-11428
▁Banff	-11429
▁displ	-11430
▁monop	-11431
ransask	-11432
▁linking	-11433
▁vessels	-11434
▁Visitors	-11435
▁vertical	-11436
▁animation	-11437
▁migration	-11438
▁Mrs	-11439
▁tob	-11440
▁vig	-11441
velle	-11442
▁barg	-11443
▁clin	-11444
cience	-11445
engers	-11446
ennium	-11447
▁artif	-11448
▁Modern	-11449
▁Superv	-11450
▁2008-01	-11451
▁heading	-11452
▁transit	-11453
umulative	-11454
▁adopting	-11455
▁drinking	-11456
▁engaging	-11457
▁licenses	-11458
▁periodic	-11459
▁preventing	-11460
▁specifications	-11461
cia	-11462
▁UP	-11463
bing	-11464
rawn	-11465
▁Pow	-11466
▁Sam	-11467
▁male	-11468
▁Deleg	-11469
▁teach	-11470
ishment	-11471
▁Victim	-11472
▁Conduct	-11473
▁Supplier	-11474
▁formally	-11475
▁repeated	-11476
▁Commitment	-11477
▁temperatures	-11478
eu	-11479
Del	-11480
edy	-11481
enz	-11482
map	-11483
▁09	-11484
▁3-	-11485
▁adj	-11486
▁vine	-11487
inning	-11488
▁MUSIC	-11489
▁hosts	-11490
▁minist	-11491
▁2005-11	-11492
▁winning	-11493
▁allocate	-11494
▁MANAGEMENT	-11495
▁requesting	-11496
▁appropriately	-11497
▁5-	-11498
2000	-11499
AGES	-11500
laws	-11501
▁1.6	-11502
▁bak	-11503
chest	-11504
▁sear	-11505
YSTEMS	-11506
▁Jason	-11507
▁$25,000	-11508
▁featured	-11509
▁statutes	-11510
▁Attending	-11511
▁organisms	-11512
long	-11513
▁190	-11514
▁27%	-11515
▁TEL	-11516
▁pig	-11517
▁$19,	-11518
▁cust	-11519
▁Tower	-11520
▁facts	-11521
▁sharp	-11522
support	-11523
▁Virgin	-11524
▁pieces	-11525
▁Judicial	-11526
▁electric	-11527
▁bursaries	-11528
▁screening	-11529
▁distinguish	-11530
CG	-11531
XU	-11532
mas	-11533
▁4)	-11534
▁Iran	-11535
▁OFFS	-11536
▁issu	-11537
▁poly	-11538
▁Democ	-11539
ULTURAL	-11540
izabeth	-11541
▁2003/0	-11542
national	-11543
▁$500,000	-11544
▁Steering	-11545
▁gradually	-11546
▁determines	-11547
orp	-11548
▁(6)	-11549
▁33%	-11550
VELOP	-11551
▁ease	-11552
▁priv	-11553
cripts	-11554
▁novel	-11555
▁Accomp	-11556
▁accused	-11557
▁cancell	-11558
▁exposed	-11559
▁pasture	-11560
▁Literary	-11561
▁equipped	-11562
▁Certified	-11563
▁composers	-11564
▁offerings	-11565
▁resistant	-11566
▁terrorist	-11567
▁Championships	-11568
CPP	-11569
ami	-11570
ione	-11571
▁BMP	-11572
▁Ens	-11573
reton	-11574
▁mild	-11575
▁stic	-11576
▁ocean	-11577
employed	-11578
▁insects	-11579
▁enthusias	-11580
▁Enthusiasts	-11581
▁manufactured	-11582
ENS	-11583
TIA	-11584
burs	-11585
▁Mis	-11586
▁Soy	-11587
▁cas	-11588
claim	-11589
▁Ange	-11590
▁CENT	-11591
▁exec	-11592
▁onto	-11593
▁Lunch	-11594
▁fifth	-11595
▁Having	-11596
▁expects	-11597
▁tobacco	-11598
hand	-11599
iger	-11600
uous	-11601
▁3.6	-11602
▁Spa	-11603
▁pun	-11604
STRUC	-11605
lders	-11606
▁Card	-11607
▁REPORT	-11608
▁happen	-11609
▁insect	-11610
▁ceremony	-11611
▁medicine	-11612
▁schedules	-11613
▁seedlings	-11614
▁Efficiency	-11615
▁forecasted	-11616
▁certificates	-11617
▁interventions	-11618
TAWA	-11619
aska	-11620
stop	-11621
▁haz	-11622
▁pré	-11623
▁tab	-11624
▁cong	-11625
ourism	-11626
▁bibli	-11627
▁style	-11628
ruption	-11629
▁FRENCH	-11630
▁quotas	-11631
▁2004-08	-11632
▁Britain	-11633
▁SUMMARY	-11634
▁satisfy	-11635
▁Includes	-11636
▁financed	-11637
▁theatres	-11638
▁Associate	-11639
▁directory	-11640
▁sunflower	-11641
▁terrorism	-11642
▁phenomenon	-11643
▁concentrations	-11644
▁cm	-11645
elts	-11646
▁EDC	-11647
▁WEL	-11648
▁Loan	-11649
▁feat	-11650
▁rock	-11651
onents	-11652
▁rooms	-11653
▁DEVELOP	-11654
▁determin	-11655
▁Treatment	-11656
▁ineligible	-11657
▁Coordinators	-11658
brid	-11659
rick	-11660
▁ASS	-11661
▁LIM	-11662
iface	-11663
▁oral	-11664
Pierre	-11665
▁alter	-11666
▁chief	-11667
organic	-11668
sharing	-11669
▁Ground	-11670
▁Minist	-11671
▁phosph	-11672
▁refund	-11673
▁assumes	-11674
▁extract	-11675
ellington	-11676
▁interact	-11677
▁Ambassador	-11678
▁descriptions	-11679
▁subscriptions	-11680
ég	-11681
▁GL	-11682
▁VI	-11683
▁(40	-11684
▁0.3	-11685
▁Qual	-11686
▁Musée	-11687
▁supra	-11688
▁marine	-11689
▁raises	-11690
ondation	-11691
▁Seminars	-11692
▁founding	-11693
▁__________	-11694
▁integrating	-11695
▁scholarship	-11696
▁contamination	-11697
▁independently	-11698
Ph	-11699
▁Cut	-11700
▁Rap	-11701
▁SEA	-11702
ordon	-11703
ximity	-11704
▁Offer	-11705
▁Ethnic	-11706
▁defend	-11707
ographics	-11708
▁Elimination	-11709
.11	-11710
zes	-11711
▁Ul	-11712
etal	-11713
▁$16	-11714
▁Fat	-11715
▁Alex	-11716
▁Fire	-11717
▁sail	-11718
▁imper	-11719
▁Beyond	-11720
riterion	-11721
▁assists	-11722
▁refined	-11723
▁cyclical	-11724
▁respects	-11725
▁shortage	-11726
▁confident	-11727
AU	-11728
▁Ba	-11729
char	-11730
iest	-11731
▁CRA	-11732
illar	-11733
▁CAIS	-11734
▁Lack	-11735
▁adds	-11736
Figure	-11737
alling	-11738
▁LANGU	-11739
▁cream	-11740
▁tasks	-11741
▁Racial	-11742
▁forums	-11743
▁proved	-11744
▁scheme	-11745
▁Effects	-11746
▁contamin	-11747
▁Greenhouse	-11748
▁Roundtable	-11749
▁susceptible	-11750
▁circumvention	-11751
EU	-11752
vd	-11753
ulp	-11754
gart	-11755
▁GEN	-11756
▁Own	-11757
▁Slo	-11758
horse	-11759
stone	-11760
▁OLEP	-11761
▁SPEA	-11762
▁Star	-11763
▁kits	-11764
atever	-11765
bility	-11766
▁propose	-11767
▁Airlines	-11768
▁Logistics	-11769
▁conflicts	-11770
▁selecting	-11771
hr	-11772
yes	-11773
▁Ni	-11774
▁Tr	-11775
▁GOL	-11776
acute	-11777
▁$22,	-11778
▁Band	-11779
▁2005)	-11780
▁Reduc	-11781
▁Trips	-11782
▁Author	-11783
▁fallen	-11784
▁2004-07	-11785
▁Session	-11786
▁organis	-11787
▁captured	-11788
▁oriented	-11789
▁Elizabeth	-11790
▁admission	-11791
▁perennial	-11792
▁Wellington	-11793
▁restructuring	-11794
add	-11795
dge	-11796
▁Je	-11797
▁km	-11798
iana	-11799
▁Tri	-11800
ubber	-11801
▁Cook	-11802
▁Sand	-11803
▁ACCEP	-11804
▁loading	-11805
▁Provides	-11806
▁Contracts	-11807
▁checklist	-11808
▁offenders	-11809
▁Anniversary	-11810
GXF	-11811
ala	-11812
▁79	-11813
Mart	-11814
▁OAG	-11815
knife	-11816
stuff	-11817
▁2007–0	-11818
▁voices	-11819
▁insight	-11820
▁whereby	-11821
▁deterior	-11822
▁obstacles	-11823
OT	-11824
ume	-11825
June	-11826
▁NSO	-11827
March	-11828
etric	-11829
fallow	-11830
▁Aires	-11831
▁arbit	-11832
▁logic	-11833
▁timef	-11834
▁ACTION	-11835
▁Réseau	-11836
▁2005-04	-11837
▁lasting	-11838
▁Occasion	-11839
▁parallel	-11840
▁TECHNOLOG	-11841
▁calculate	-11842
▁summarized	-11843
▁Enterprises	-11844
▁diversified	-11845
▁documentaries	-11846
sex	-11847
▁SUR	-11848
▁fly	-11849
ATORS	-11850
ented	-11851
idity	-11852
▁$200	-11853
▁CMHR	-11854
▁Drug	-11855
▁visa	-11856
▁(306)	-11857
▁1994.	-11858
▁chlor	-11859
▁lease	-11860
▁syrup	-11861
▁Radioc	-11862
▁Thomas	-11863
▁edible	-11864
▁editor	-11865
▁1997-98	-11866
▁Acrobat	-11867
▁careful	-11868
▁superior	-11869
▁efficiencies	-11870
▁governmental	-11871
Cont	-11872
▁ISO	-11873
▁PWGSC	-11874
▁eating	-11875
▁handled	-11876
▁Military	-11877
▁discovery	-11878
▁educators	-11879
▁inception	-11880
▁atmosphere	-11881
▁advancement	-11882
52	-11883
-50	-11884
.05	-11885
ado	-11886
▁74	-11887
▁Sl	-11888
▁1.8	-11889
▁29%	-11890
▁STM	-11891
▁Tun	-11892
NAICS	-11893
acent	-11894
itary	-11895
▁Inuk	-11896
cession	-11897
▁Buenos	-11898
▁Thanks	-11899
▁listen	-11900
▁Islands	-11901
▁doubled	-11902
▁downward	-11903
▁reflection	-11904
▁summarizes	-11905
▁sensitivity	-11906
▁competitions	-11907
mm	-11908
IRU	-11909
erk	-11910
▁BI	-11911
ghai	-11912
▁Ant	-11913
▁Bre	-11914
▁Desk	-11915
▁Shan	-11916
▁WCAR	-11917
stract	-11918
▁2,000	-11919
▁Apple	-11920
▁veter	-11921
▁CORPOR	-11922
▁Screen	-11923
▁doctor	-11924
▁tomato	-11925
▁Councils	-11926
▁equation	-11927
▁Furniture	-11928
▁exercised	-11929
▁watershed	-11930
▁accordingly	-11931
▁positioning	-11932
ede	-11933
▁inh	-11934
▁1971	-11935
Saskat	-11936
▁Still	-11937
▁diver	-11938
▁guided	-11939
▁rarely	-11940
paragraph	-11941
▁Colombia	-11942
▁Wildlife	-11943
▁analysts	-11944
▁contrary	-11945
▁outbreak	-11946
▁extending	-11947
▁Accounting	-11948
▁affiliated	-11949
▁preserving	-11950
▁journalists	-11951
69	-11952
ROP	-11953
irls	-11954
▁2.8	-11955
▁Ven	-11956
aming	-11957
avail	-11958
▁lose	-11959
▁runs	-11960
▁quota	-11961
▁Michel	-11962
▁2008-06	-11963
▁Chicago	-11964
▁alleged	-11965
▁Broadcas	-11966
▁remember	-11967
▁tremendous	-11968
▁consequence	-11969
-04,	-11970
▁Bras	-11971
▁Penn	-11972
▁trial	-11973
▁Advent	-11974
▁Rental	-11975
▁économ	-11976
========	-11977
▁Explore	-11978
Committee	-11979
▁fairness	-11980
▁Elections	-11981
▁organizers	-11982
▁volatility	-11983
▁confidential	-11984
.90	-11985
ICE	-11986
imp	-11987
isp	-11988
▁45%	-11989
▁INS	-11990
▁Jim	-11991
▁Jul	-11992
▁hit	-11993
arest	-11994
chard	-11995
▁Scen	-11996
▁Evalu	-11997
▁errors	-11998
▁2005-10	-11999
▁Instead	-12000
▁Proceed	-12001
▁implies	-12002
▁posters	-12003
▁appropriation	-12004
Wh	-12005
yle	-12006
DUST	-12007
ican	-12008
GXVWU	-12009
▁push	-12010
▁Creek	-12011
▁missing	-12012
▁torture	-12013
▁Beverley	-12014
▁Hamilton	-12015
▁farmland	-12016
▁Licensing	-12017
▁Memorandum	-12018
▁Accumulated	-12019
▁NT	-12020
ifty	-12021
orus	-12022
▁ISP	-12023
▁SPE	-12024
▁cod	-12025
▁Gene	-12026
▁Maur	-12027
▁blank	-12028
mentals	-12029
▁couple	-12030
▁Authors	-12031
▁Francis	-12032
▁autonom	-12033
▁disagree	-12034
▁holidays	-12035
▁hundreds	-12036
▁investor	-12037
▁Vegetable	-12038
▁pollution	-12039
▁Businesses	-12040
ACK	-12041
ynch	-12042
▁Bea	-12043
▁Dub	-12044
▁Ill	-12045
atter	-12046
identi	-12047
▁Graph	-12048
▁Relig	-12049
ircraft	-12050
▁INDUST	-12051
▁Rather	-12052
▁infection	-12053
▁proximity	-12054
▁Definitions	-12055
▁PS	-12056
tici	-12057
▁PCT	-12058
▁Audi	-12059
▁Marc	-12060
▁Peas	-12061
▁Sher	-12062
▁ware	-12063
▁Bench	-12064
▁Topics	-12065
▁random	-12066
▁Figures	-12067
▁PERFORM	-12068
▁reveals	-12069
▁disposal	-12070
▁Improving	-12071
▁brochures	-12072
▁classical	-12073
▁exploring	-12074
▁dimensions	-12075
▁DEVELOPMENT	-12076
▁importantly	-12077
▁variability	-12078
MB	-12079
▁Deb	-12080
▁voc	-12081
▁PLRP	-12082
▁arms	-12083
▁sizes	-12084
▁dispar	-12085
▁2007-12	-12086
▁Leading	-12087
▁Regular	-12088
▁illegal	-12089
▁prevail	-12090
▁occasional	-12091
▁eliminating	-12092
HS	-12093
RB	-12094
NED	-12095
▁GMP	-12096
▁Adap	-12097
▁arrived	-12098
▁broadly	-12099
▁cereals	-12100
▁$250,000	-12101
▁undertakings	-12102
▁pharmaceutical	-12103
$2	-12104
.04	-12105
.40	-12106
nce	-12107
▁SC	-12108
oked	-12109
▁28%	-12110
RODUC	-12111
arium	-12112
▁Doug	-12113
▁Upon	-12114
▁crush	-12115
▁enorm	-12116
▁OTTAWA	-12117
▁Promote	-12118
▁browser	-12119
▁deliber	-12120
▁existed	-12121
▁Vehicles	-12122
▁Processed	-12123
▁deadlines	-12124
▁Whitehorse	-12125
▁optimistic	-12126
▁Identification	-12127
VX	-12128
▁SW	-12129
gone	-12130
mble	-12131
rose	-12132
▁7.2	-12133
▁eat	-12134
▁Eggs	-12135
▁Math	-12136
▁maps	-12137
icians	-12138
▁INDIC	-12139
▁Laval	-12140
▁dated	-12141
▁virus	-12142
country	-12143
▁Origin	-12144
▁Unless	-12145
▁mental	-12146
▁FEDERAL	-12147
▁Controls	-12148
▁analyzed	-12149
▁drawings	-12150
▁hardware	-12151
▁pathogen	-12152
▁Regarding	-12153
▁Yellowknife	-12154
▁commissions	-12155
▁photography	-12156
74	-12157
owl	-12158
asts	-12159
nerg	-12160
rama	-12161
▁5.0	-12162
▁ISS	-12163
reats	-12164
video	-12165
▁Jack	-12166
▁dism	-12167
unesse	-12168
▁Adjust	-12169
▁affirm	-12170
▁bought	-12171
▁builds	-12172
▁slowly	-12173
▁grazing	-12174
▁lobster	-12175
▁Mountain	-12176
▁overhead	-12177
cellaneous	-12178
▁curricula	-12179
▁emphasize	-12180
▁universal	-12181
▁celebrating	-12182
▁collaborate	-12183
▁wholesalers	-12184
79	-12185
ALL	-12186
dem	-12187
erts	-12188
prov	-12189
▁coh	-12190
▁vote	-12191
▁Earth	-12192
▁Cinema	-12193
▁trials	-12194
▁nursery	-12195
▁updates	-12196
▁Consolid	-12197
▁Memorial	-12198
▁reconcil	-12199
▁compatible	-12200
▁differential	-12201
zz	-12202
MPA	-12203
TIS	-12204
abe	-12205
▁GE	-12206
▁IL	-12207
▁da	-12208
▁Exam	-12209
▁PROJ	-12210
orting	-12211
▁Cable	-12212
▁merit	-12213
▁ranks	-12214
▁sheets	-12215
▁street	-12216
▁chilled	-12217
▁royalty	-12218
▁drainage	-12219
▁finished	-12220
▁theatrical	-12221
▁Researchers	-12222
▁knowledgeable	-12223
▁pr	-12224
ULTS	-12225
▁$80	-12226
▁13.	-12227
▁EFP	-12228
throp	-12229
▁Days	-12230
▁Then	-12231
▁Thank	-12232
▁relies	-12233
▁SPEAKER	-12234
▁Telecom	-12235
▁Complete	-12236
▁Identify	-12237
▁declared	-12238
▁tangible	-12239
▁yourself	-12240
▁Promoting	-12241
▁controlling	-12242
▁CCI	-12243
▁DEL	-12244
▁Van	-12245
▁Gran	-12246
▁Kenney	-12247
▁metres	-12248
▁mining	-12249
▁Parents	-12250
▁Printed	-12251
▁Selected	-12252
▁friendly	-12253
▁policing	-12254
▁Registrar	-12255
▁delegates	-12256
▁lifestyle	-12257
▁occupancy	-12258
appropriate	-12259
▁Fertilizer	-12260
▁Supporting	-12261
▁Throughout	-12262
▁exceptional	-12263
LW	-12264
wa	-12265
▁94	-12266
▁TB	-12267
▁Dry	-12268
▁bias	-12269
astics	-12270
▁Money	-12271
▁risen	-12272
▁québéco	-12273
▁Creating	-12274
▁Institut	-12275
▁Shanghai	-12276
▁studying	-12277
▁Celebrate	-12278
MI	-12279
pet	-12280
offs	-12281
▁PRI	-12282
▁san	-12283
▁Tend	-12284
mptoms	-12285
▁Frank	-12286
▁downt	-12287
▁Salmon	-12288
▁broken	-12289
▁pertin	-12290
expected	-12291
portions	-12292
▁endorse	-12293
▁pursued	-12294
▁ventures	-12295
▁technique	-12296
▁undertook	-12297
▁Nonetheless	-12298
▁facilitated	-12299
▁Headquarters	-12300
KB	-12301
NE	-12302
pret	-12303
▁Nit	-12304
▁POL	-12305
itude	-12306
ugees	-12307
uries	-12308
▁2006)	-12309
▁clubs	-12310
▁direc	-12311
▁Moving	-12312
▁poster	-12313
itations	-12314
▁SENATOR	-12315
▁evening	-12316
▁airlines	-12317
▁LANGUAGES	-12318
▁aggregates	-12319
▁collectors	-12320
▁Appointment	-12321
999	-12322
SPB	-12323
half	-12324
▁era	-12325
green	-12326
▁SARS	-12327
▁rout	-12328
▁FINAN	-12329
▁moral	-12330
▁Morris	-12331
▁invite	-12332
ressions	-12333
▁booking	-12334
▁ranking	-12335
▁seriously	-12336
▁Enterprise	-12337
▁palliative	-12338
▁facilitates	-12339
▁internships	-12340
▁q	-12341
ivi	-12342
▁170	-12343
▁eco	-12344
▁1987	-12345
▁lear	-12346
UATION	-12347
▁Bibli	-12348
▁Light	-12349
service	-12350
▁MARKET	-12351
▁Unlike	-12352
▁assemb	-12353
▁portal	-12354
▁runoff	-12355
criptive	-12356
▁insights	-12357
▁budgetary	-12358
▁legitimate	-12359
▁Instruction	-12360
-60	-12361
osa	-12362
▁89	-12363
▁RR	-12364
cass	-12365
otic	-12366
▁130	-12367
▁Beg	-12368
▁Big	-12369
ovine	-12370
▁Sold	-12371
▁star	-12372
ourney	-12373
▁Dodge	-12374
▁stems	-12375
ediment	-12376
▁Poster	-12377
▁SPEECH	-12378
▁tradem	-12379
lophones	-12380
▁Elevator	-12381
▁adequacy	-12382
▁judgment	-12383
▁adaptation	-12384
▁Celebration	-12385
▁constructed	-12386
▁expressions	-12387
AA	-12388
ba	-12389
vo	-12390
(4)	-12391
RCP	-12392
YOND	-12393
mers	-12394
note	-12395
that	-12396
▁Nic	-12397
entials	-12398
▁BEYOND	-12399
▁breach	-12400
▁briefly	-12401
excluding	-12402
indergart	-12403
▁Accessed	-12404
▁Equality	-12405
▁constitu	-12406
Government	-12407
▁2003-2004,	-12408
▁accelerate	-12409
▁characteristic	-12410
Gen	-12411
lict	-12412
▁140	-12413
▁Jun	-12414
ician	-12415
ricts	-12416
wheat	-12417
▁Rati	-12418
▁east	-12419
▁pulse	-12420
▁impose	-12421
▁shifts	-12422
▁WELCOME	-12423
▁2003-04,	-12424
▁EXPECTED	-12425
▁Authorized	-12426
▁PERFORMANCE	-12427
▁confectionery	-12428
.80	-12429
EAT	-12430
▁350	-12431
▁Jer	-12432
inger	-12433
inity	-12434
▁$500	-12435
▁Sett	-12436
▁flat	-12437
▁Egypt	-12438
▁Ethics	-12439
▁arrive	-12440
▁deploy	-12441
▁unanim	-12442
▁biotech	-12443
▁warrant	-12444
▁attitude	-12445
▁hearings	-12446
▁Signature	-12447
▁strongest	-12448
▁Documentation	-12449
EE	-12450
FI	-12451
doc	-12452
iff	-12453
cape	-12454
▁(18	-12455
▁Ple	-12456
RIWKH	-12457
oping	-12458
▁Move	-12459
Action	-12460
Americ	-12461
▁Laure	-12462
▁Sheet	-12463
▁psych	-12464
istence	-12465
▁fertil	-12466
▁looked	-12467
▁unfair	-12468
▁upward	-12469
▁1999-00	-12470
▁brokers	-12471
▁partial	-12472
▁Describe	-12473
▁Investments	-12474
▁proportions	-12475
▁historically	-12476
.;	-12477
Reg	-12478
▁Cz	-12479
▁od	-12480
alfa	-12481
▁$6,	-12482
▁Cuba	-12483
aratus	-12484
earing	-12485
▁moves	-12486
▁critic	-12487
▁denied	-12488
▁weaken	-12489
▁SPEECHES	-12490
▁Incentive	-12491
▁RESOURCES	-12492
▁institutes	-12493
▁Contracting	-12494
coll	-12495
▁dign	-12496
▁Texas	-12497
▁plain	-12498
▁stars	-12499
▁tended	-12500
ructures	-12501
▁Charles	-12502
▁Facilit	-12503
▁Refugee	-12504
▁campuses	-12505
▁straight	-12506
▁Programme	-12507
▁exclusion	-12508
▁shortages	-12509
identiality	-12510
▁volunteerism	-12511
▁methodologies	-12512
FH	-12513
Dec	-12514
▁82	-12515
adie	-12516
▁vit	-12517
,000)	-12518
rained	-12519
▁shoot	-12520
▁Gordon	-12521
▁Rogers	-12522
▁Season	-12523
▁failed	-12524
▁seeing	-12525
ecutives	-12526
▁Lending	-12527
▁calling	-12528
▁pending	-12529
▁Synopsis	-12530
▁brochure	-12531
▁impacted	-12532
▁contacted	-12533
indergarten	-12534
▁Subsection	-12535
Saskatchewan	-12536
▁Preliminary	-12537
▁inconsistent	-12538
qc	-12539
rus	-12540
ths	-12541
ATED	-12542
▁(70	-12543
▁ADM	-12544
ECTOR	-12545
igent	-12546
▁notices	-12547
▁shorter	-12548
▁Slaughter	-12549
COA	-12550
asc	-12551
▁4-	-12552
bell	-12553
▁$35	-12554
▁220	-12555
▁Jav	-12556
▁Sit	-12557
▁Squ	-12558
▁hoc	-12559
veill	-12560
▁Cape	-12561
▁Rica	-12562
Commun	-12563
▁Camer	-12564
▁aging	-12565
▁sides	-12566
▁DocDel	-12567
▁prosec	-12568
▁exclude	-12569
▁sponsor	-12570
RODUCTION	-12571
STRUCTION	-12572
▁Contemporary	-12573
gon	-12574
iny	-12575
mph	-12576
▁NY	-12577
OMES	-12578
enth	-12579
▁Rot	-12580
backs	-12581
erald	-12582
▁(21)	-12583
▁Jose	-12584
▁gift	-12585
ribute	-12586
▁Georg	-12587
▁Meals	-12588
▁doesn	-12589
operate	-12590
▁Reader	-12591
▁Select	-12592
▁fabric	-12593
▁smooth	-12594
▁binding	-12595
▁combine	-12596
▁Handbook	-12597
▁Whistler	-12598
▁discounts	-12599
▁herbicides	-12600
▁treatments	-12601
OH	-12602
Ont	-12603
WTO	-12604
ona	-12605
▁py	-12606
onia	-12607
▁31%	-12608
ILITY	-12609
MENTS	-12610
trans	-12611
▁SRDP	-12612
elefilm	-12613
endices	-12614
letters	-12615
▁danger	-12616
▁preval	-12617
▁Drought	-12618
▁Growers	-12619
▁reliance	-12620
▁supervis	-12621
▁Inventory	-12622
▁recherche	-12623
established	-12624
▁intentions	-12625
armaceuticals	-12626
▁assimilation	-12627
▁demonstrating	-12628
▁CAS	-12629
▁aug	-12630
print	-12631
riage	-12632
▁ACTI	-12633
▁RESP	-12634
▁door	-12635
▁semi	-12636
antive	-12637
▁Death	-12638
▁Michif	-12639
▁Pestic	-12640
▁photos	-12641
▁powder	-12642
▁utility	-12643
available	-12644
▁Automotive	-12645
▁continuity	-12646
▁culturelle	-12647
80)	-12648
May	-12649
▁$75	-12650
▁Cro	-12651
▁Vol	-12652
▁desk	-12653
▁skin	-12654
winter	-12655
▁2002)	-12656
akistan	-12657
▁Condemn	-12658
▁exploit	-12659
▁Original	-12660
▁Overseas	-12661
▁Fondation	-12662
▁featuring	-12663
productions	-12664
▁Consortium	-12665
▁Innovative	-12666
▁practition	-12667
▁AGRICULTURE	-12668
▁Commemoration	-12669
▁(15	-12670
50.00	-12671
▁Sant	-12672
credit	-12673
▁Brian	-12674
▁abund	-12675
▁lingu	-12676
▁Circle	-12677
▁Harmon	-12678
▁butter	-12679
Francoph	-12680
committee	-12681
▁dynamics	-12682
▁Expertise	-12683
▁Ownership	-12684
▁Recreation	-12685
▁advertisers	-12686
▁acquisitions	-12687
▁Strengthening	-12688
gers	-12689
plan	-12690
▁6.5	-12691
▁Anne	-12692
illars	-12693
ortion	-12694
▁colon	-12695
▁hopes	-12696
▁SECOND	-12697
▁Ukrain	-12698
▁cheese	-12699
erations	-12700
▁Express	-12701
▁Forward	-12702
▁Outside	-12703
▁Tuition	-12704
▁Writers	-12705
▁exactly	-12706
▁rebound	-12707
▁residue	-12708
▁riparian	-12709
▁2002-2003,	-12710
▁passengers	-12711
▁withdrawal	-12712
▁Instruments	-12713
▁recreational	-12714
LT	-12715
HVV	-12716
TAR	-12717
riel	-12718
▁$24	-12719
▁0.6	-12720
▁514	-12721
▁8.1	-12722
▁Ave	-12723
EARCH	-12724
abits	-12725
estim	-12726
▁Quan	-12727
asting	-12728
▁finds	-12729
▁ethics	-12730
▁franch	-12731
▁ranges	-12732
▁traded	-12733
▁secured	-12734
▁initiate	-12735
▁appearance	-12736
▁boundaries	-12737
▁accumulated	-12738
▁equilibrium	-12739
▁biodiversity	-12740
▁entrepreneur	-12741
▁Responsibility	-12742
▁SL	-12743
data	-12744
five	-12745
otes	-12746
urer	-12747
▁NGO	-12748
▁Rom	-12749
▁Set	-12750
▁Wed	-12751
▁Sund	-12752
▁brid	-12753
▁(2004	-12754
▁Czech	-12755
▁straw	-12756
▁Breton	-12757
▁Create	-12758
▁Living	-12759
▁Station	-12760
▁invoices	-12761
▁Inuktitut	-12762
▁foodstuff	-12763
▁hospitality	-12764
▁theoretical	-12765
▁utilization	-12766
▁standardized	-12767
▁disadvantaged	-12768
hi	-12769
.15	-12770
Jan	-12771
▁BY	-12772
▁0.7	-12773
▁tub	-12774
comed	-12775
▁APTN	-12776
ousands	-12777
▁Assist	-12778
terbelts	-12779
▁RESULTS	-12780
▁prairie	-12781
veillance	-12782
▁Carleton	-12783
▁marketed	-12784
▁Published	-12785
▁ecosystem	-12786
▁Principles	-12787
▁incomplete	-12788
▁disadvantage	-12789
HP	-12790
WD	-12791
wt	-12792
For	-12793
TIT	-12794
born	-12795
rous	-12796
sels	-12797
▁Nort	-12798
▁Turn	-12799
▁agro	-12800
▁lies	-12801
▁salt	-12802
▁tips	-12803
▁unus	-12804
▁(2003	-12805
▁Draft	-12806
strateg	-12807
▁Assets	-12808
▁Renoir	-12809
▁modify	-12810
ractions	-12811
▁employs	-12812
▁enacted	-12813
▁routine	-12814
▁MINORITY	-12815
▁disputes	-12816
commercial	-12817
▁alternate	-12818
▁Comparison	-12819
▁positioned	-12820
▁APPLICATION	-12821
▁Entrepreneur	-12822
▁Negotiations	-12823
1/	-12824
edu	-12825
emb	-12826
oto	-12827
▁ét	-12828
empt	-12829
ités	-12830
▁FIT	-12831
LEMENT	-12832
▁score	-12833
▁Motion	-12834
▁Option	-12835
▁Sudbury	-12836
▁refused	-12837
▁anywhere	-12838
▁justified	-12839
▁prohibited	-12840
▁Stakeholders	-12841
▁clarification	-12842
▁modifications	-12843
AY	-12844
Gu	-12845
har	-12846
▁vo	-12847
▁SOL	-12848
media	-12849
▁boom	-12850
▁reti	-12851
▁OTHER	-12852
▁Thurs	-12853
▁horse	-12854
▁scola	-12855
▁shops	-12856
uration	-12857
▁Fourth	-12858
▁phases	-12859
▁repair	-12860
▁suited	-12861
▁Minimum	-12862
▁Similar	-12863
▁approve	-12864
▁caution	-12865
▁chickpe	-12866
▁machine	-12867
▁Reduction	-12868
▁placement	-12869
▁Restaurant	-12870
▁Strengthen	-12871
▁satisfactory	-12872
▁discriminatory	-12873
OK	-12874
EEC	-12875
ERY	-12876
FVI	-12877
ece	-12878
ball	-12879
orer	-12880
▁Opp	-12881
▁bit	-12882
▁fer	-12883
▁CMEC	-12884
▁cher	-12885
▁euro	-12886
ewater	-12887
▁1992,	-12888
▁Chang	-12889
ENTIFIC	-12890
acities	-12891
▁Windsor	-12892
▁justify	-12893
▁manages	-12894
▁Architect	-12895
▁advancing	-12896
▁tolerance	-12897
▁Successful	-12898
▁commercially	-12899
▁consolidated	-12900
▁SB	-12901
Farm	-12902
IONS	-12903
▁$70	-12904
▁Old	-12905
angue	-12906
▁vice	-12907
ressive	-12908
▁Dinner	-12909
▁Jewish	-12910
▁Madrid	-12911
▁Reduce	-12912
▁Janeiro	-12913
terrorism	-12914
▁Employee	-12915
▁auditors	-12916
ertilizers	-12917
▁Locations	-12918
▁philosoph	-12919
▁Definition	-12920
▁Administrators	-12921
▁qualifications	-12922
7%)	-12923
loo	-12924
▁Ky	-12925
EPAR	-12926
aler	-12927
ocoa	-12928
▁2.9	-12929
▁Fil	-12930
▁HACCP	-12931
▁2005-12	-12932
▁Indians	-12933
▁bidding	-12934
▁senator	-12935
▁sending	-12936
etermined	-12937
▁Purchase	-12938
▁RESEARCH	-12939
▁disaster	-12940
▁decreases	-12941
▁generates	-12942
▁Humanities	-12943
▁contractor	-12944
▁promotions	-12945
(1	-12946
IDE	-12947
ISS	-12948
bage	-12949
▁15.	-12950
▁Fuel	-12951
▁MEAS	-12952
▁biop	-12953
apters	-12954
racing	-12955
▁Drive	-12956
▁meats	-12957
ectoral	-12958
▁613-95	-12959
IVERSITY	-12960
ervative	-12961
▁Rulings	-12962
▁aligned	-12963
▁surpass	-12964
▁Maritime	-12965
▁remedies	-12966
▁welcomed	-12967
▁renovation	-12968
▁observation	-12969
▁CONTRIBUTION	-12970
ICK	-12971
IPS	-12972
oes	-12973
VERN	-12974
core	-12975
▁USD	-12976
▁Adop	-12977
▁Gasp	-12978
▁Tool	-12979
▁chem	-12980
▁rank	-12981
around	-12982
health	-12983
▁Lands	-12984
ogenous	-12985
▁Agents	-12986
▁Conver	-12987
▁Nearly	-12988
▁Though	-12989
▁slower	-12990
ountered	-12991
▁LIMITED	-12992
▁Premium	-12993
▁genetic	-12994
▁Richmond	-12995
▁amounted	-12996
▁isolated	-12997
▁offences	-12998
▁premises	-12999
▁regarded	-13000
▁Household	-13001
▁cultivars	-13002
▁attainment	-13003
▁cumulative	-13004
▁downloading	-13005
▁acknowledges	-13006
Nor	-13007
▁84	-13008
▁DG	-13009
▁cy	-13010
anci	-13011
arse	-13012
news	-13013
only	-13014
▁MEC	-13015
indust	-13016
quarter	-13017
▁Levels	-13018
▁asking	-13019
aneously	-13020
▁Clearly	-13021
▁kilomet	-13022
▁Creative	-13023
▁globally	-13024
▁maturity	-13025
▁packaged	-13026
▁FINANCIAL	-13027
▁Ukrainian	-13028
▁furniture	-13029
▁ourselves	-13030
▁platforms	-13031
▁presently	-13032
▁Metropolis	-13033
▁insolvency	-13034
▁suggesting	-13035
▁économique	-13036
▁nutritional	-13037
▁Satisfaction	-13038
▁francophonie	-13039
▁collaborations	-13040
Co	-13041
sk	-13042
.12	-13043
pur	-13044
ste	-13045
▁TX	-13046
▁af	-13047
igan	-13048
▁700	-13049
▁DRM	-13050
▁lin	-13051
▁mig	-13052
focus	-13053
onent	-13054
▁1985	-13055
▁wait	-13056
Econom	-13057
France	-13058
bursed	-13059
▁Brook	-13060
▁Which	-13061
▁arran	-13062
▁retro	-13063
▁Former	-13064
▁taught	-13065
▁Village	-13066
▁placing	-13067
▁unknown	-13068
Canadians	-13069
▁Portugal	-13070
▁Salaries	-13071
▁bacteria	-13072
▁Bilateral	-13073
▁Decisions	-13074
▁timeframe	-13075
▁limitation	-13076
▁cooperatives	-13077
▁incorporating	-13078
▁macroeconomic	-13079
-70	-13080
uan	-13081
▁LQ	-13082
abul	-13083
▁CCD	-13084
falfa	-13085
uates	-13086
uming	-13087
vents	-13088
▁Adequ	-13089
▁Carol	-13090
▁heads	-13091
▁Points	-13092
▁Counsel	-13093
▁contest	-13094
▁malting	-13095
itigation	-13096
▁openness	-13097
▁Encourage	-13098
▁Officials	-13099
▁INDICATORS	-13100
▁capacities	-13101
▁Supplementary	-13102
Les	-13103
ICAL	-13104
aste	-13105
grow	-13106
hist	-13107
▁$18	-13108
chair	-13109
▁Stat	-13110
▁scan	-13111
endors	-13112
mation	-13113
▁Motor	-13114
▁usual	-13115
British	-13116
▁wonder	-13117
▁happens	-13118
▁legally	-13119
▁Pakistan	-13120
▁archival	-13121
▁enormous	-13122
▁feasible	-13123
▁opposite	-13124
▁suffered	-13125
▁concludes	-13126
▁remarkable	-13127
ommunication	-13128
withstanding	-13129
▁instrumental	-13130
ASK	-13131
lay	-13132
ifts	-13133
▁37%	-13134
▁Cod	-13135
▁NOR	-13136
amble	-13137
rella	-13138
▁Kent	-13139
contin	-13140
ounter	-13141
▁Seven	-13142
▁analog	-13143
▁Finland	-13144
▁Invests	-13145
▁enforce	-13146
ticulture	-13147
▁Medicine	-13148
▁concerts	-13149
▁Frequency	-13150
▁Satellite	-13151
▁observers	-13152
▁templates	-13153
▁constantly	-13154
▁invitation	-13155
▁functioning	-13156
▁probability	-13157
78	-13158
yo	-13159
CDN	-13160
rel	-13161
▁-1	-13162
▁Sir	-13163
▁got	-13164
plant	-13165
▁MCPP	-13166
▁OUTC	-13167
▁Util	-13168
orable	-13169
▁Learn	-13170
▁grand	-13171
▁merger	-13172
▁Recruit	-13173
▁assault	-13174
authorized	-13175
▁conceptual	-13176
▁memorandum	-13177
▁encountered	-13178
▁collectively	-13179
.1)	-13180
rot	-13181
ringe	-13182
▁ACOA	-13183
▁Leth	-13184
▁ends	-13185
itious	-13186
▁algae	-13187
▁Filing	-13188
▁intend	-13189
▁cooking	-13190
▁grading	-13191
▁inquiry	-13192
published	-13193
▁Character	-13194
▁borrowing	-13195
▁geography	-13196
▁herbicide	-13197
▁2007-03-30	-13198
▁forecasting	-13199
▁originating	-13200
▁sponsorship	-13201
-35	-13202
-85	-13203
▁fo	-13204
▁LOC	-13205
aware	-13206
▁buck	-13207
▁iden	-13208
regist	-13209
▁(902)	-13210
▁1990,	-13211
▁booth	-13212
▁chose	-13213
intended	-13214
▁nearest	-13215
financial	-13216
▁Forestry	-13217
▁proceeds	-13218
▁Coalition	-13219
▁Publisher	-13220
▁intensity	-13221
▁publishes	-13222
▁surpluses	-13223
▁terminology	-13224
▁willingness	-13225
▁announcements	-13226
LI	-13227
▁iv	-13228
veau	-13229
▁Fem	-13230
▁NIC	-13231
▁pol	-13232
▁wor	-13233
arked	-13234
▁Camb	-13235
▁SPEC	-13236
▁Cycle	-13237
▁Novel	-13238
▁hence	-13239
▁writer	-13240
▁$40,000	-13241
▁Captain	-13242
▁Carling	-13243
▁FUNDING	-13244
▁Perhaps	-13245
▁diagnos	-13246
▁plastic	-13247
▁Multimedia	-13248
▁subsidiary	-13249
▁thresholds	-13250
▁Shelterbelt	-13251
▁disseminate	-13252
▁substantive	-13253
▁demonstration	-13254
cm	-13255
Int	-13256
cre	-13257
ena	-13258
▁HD	-13259
▁mL	-13260
ados	-13261
▁14.	-13262
▁bed	-13263
effic	-13264
ettes	-13265
▁Flow	-13266
houses	-13267
ograms	-13268
▁Andrew	-13269
▁evolve	-13270
▁fulfil	-13271
▁statis	-13272
▁Targets	-13273
▁Handling	-13274
▁abilities	-13275
Per	-13276
soft	-13277
▁$8,	-13278
▁Nan	-13279
▁Ord	-13280
hetic	-13281
toire	-13282
using	-13283
▁Bang	-13284
▁Mack	-13285
▁ANNEX	-13286
▁Adult	-13287
▁sulph	-13288
▁Acknow	-13289
▁Choice	-13290
▁notify	-13291
▁Liaison	-13292
▁editors	-13293
September	-13294
▁comprise	-13295
▁Expansion	-13296
▁Settlement	-13297
▁analytical	-13298
▁Individuals	-13299
▁Interactive	-13300
▁communautés	-13301
▁conditional	-13302
▁incidentals	-13303
▁Announcement	-13304
";	-13305
Am	-13306
si	-13307
ova	-13308
▁2-	-13309
▁3:	-13310
▁Po	-13311
idad	-13312
rost	-13313
stat	-13314
▁$22	-13315
▁201	-13316
▁953	-13317
▁pal	-13318
omics	-13319
utrace	-13320
▁Basis	-13321
▁guest	-13322
▁cheque	-13323
▁oversee	-13324
▁Lethbridge	-13325
▁segregation	-13326
▁Distributors	-13327
▁INTRODUCTION	-13328
▁summerfallow	-13329
FX	-13330
ILE	-13331
ups	-13332
rimp	-13333
▁32%	-13334
▁7.3	-13335
onnel	-13336
▁GHTS	-13337
▁Merc	-13338
▁Phil	-13339
▁Tier	-13340
claimed	-13341
western	-13342
▁Margin	-13343
November	-13344
▁destroy	-13345
▁drivers	-13346
▁ratings	-13347
▁threats	-13348
pretation	-13349
▁Dialogue	-13350
▁Electric	-13351
▁NATIONAL	-13352
▁Intermedi	-13353
▁exemptions	-13354
▁explaining	-13355
▁paragraphs	-13356
▁importation	-13357
▁Preservation	-13358
ulse	-13359
▁1.9	-13360
▁CPA	-13361
▁CSB	-13362
▁FDA	-13363
▁Sil	-13364
North	-13365
aylor	-13366
▁Laur	-13367
▁WITH	-13368
Donald	-13369
entral	-13370
▁doors	-13371
special	-13372
utraceu	-13373
▁Mathieu	-13374
▁Partner	-13375
▁answered	-13376
▁displays	-13377
▁petroleum	-13378
▁constraint	-13379
▁possession	-13380
▁transmitted	-13381
▁Productivity	-13382
▁communicating	-13383
▁inappropriate	-13384
éo	-13385
tax	-13386
-11)	-13387
subs	-13388
▁55%	-13389
▁Syl	-13390
▁ren	-13391
enzie	-13392
▁$1.5	-13393
▁FROM	-13394
ipping	-13395
▁catch	-13396
▁songs	-13397
_______	-13398
▁2008-08	-13399
▁CONSULT	-13400
▁Initial	-13401
▁SUPPORT	-13402
▁weighted	-13403
▁Secondary	-13404
▁consisted	-13405
▁Established	-13406
▁MUSICACTION	-13407
▁predictable	-13408
▁confirmation	-13409
▁Competitiveness	-13410
SD	-13411
uf	-13412
AST	-13413
atin	-13414
burg	-13415
▁1,0	-13416
▁34%	-13417
▁PhD	-13418
▁hun	-13419
▁pea	-13420
▁mist	-13421
Ottawa	-13422
▁Horiz	-13423
▁drugs	-13424
▁girls	-13425
▁$1,000	-13426
▁Fellow	-13427
▁Orient	-13428
▁button	-13429
▁merely	-13430
ceptable	-13431
▁multipl	-13432
▁observe	-13433
▁reverse	-13434
uccessful	-13435
▁Rational	-13436
▁securing	-13437
▁Continued	-13438
▁evaluators	-13439
▁mitigation	-13440
▁Observatory	-13441
▁Implications	-13442
Or	-13443
3%)	-13444
PRO	-13445
but	-13446
agan	-13447
ucks	-13448
uity	-13449
▁$9,	-13450
▁0.4	-13451
▁39%	-13452
▁Ten	-13453
▁phr	-13454
LQWKH	-13455
ijing	-13456
▁Euro	-13457
▁Greg	-13458
▁mite	-13459
iteurs	-13460
▁Print	-13461
itarian	-13462
versely	-13463
▁Claims	-13464
▁degrad	-13465
▁Licence	-13466
▁delayed	-13467
▁issuing	-13468
▁Ceremony	-13469
▁Facility	-13470
▁Register	-13471
▁champion	-13472
▁donation	-13473
▁hatching	-13474
▁sporting	-13475
infoexport	-13476
▁appraisal	-13477
▁specialist	-13478
▁supervision	-13479
▁competencies	-13480
▁individually	-13481
▁Incorporation	-13482
WS	-13483
bo	-13484
FRQ	-13485
cle	-13486
▁4.6	-13487
▁8.2	-13488
▁Ast	-13489
▁MER	-13490
TARIO	-13491
▁Acts	-13492
▁Rose	-13493
▁sort	-13494
licate	-13495
▁Label	-13496
▁Scott	-13497
▁nomin	-13498
▁cancer	-13499
▁dugouts	-13500
▁Beverage	-13501
▁exciting	-13502
▁translate	-13503
▁merchandise	-13504
▁digitization	-13505
FT	-13506
pc	-13507
fig	-13508
Term	-13509
▁0.8	-13510
▁Keep	-13511
▁synt	-13512
▁Goals	-13513
▁INVES	-13514
▁Niger	-13515
▁Theme	-13516
▁Would	-13517
▁wines	-13518
▁Sheila	-13519
▁charts	-13520
▁receiv	-13521
▁ordered	-13522
▁Feedback	-13523
▁Thursday	-13524
▁champions	-13525
▁designing	-13526
▁renewable	-13527
▁bargaining	-13528
▁appreciated	-13529
Med	-13530
agu	-13531
ira	-13532
▁85%	-13533
trade	-13534
▁Laun	-13535
▁iron	-13536
direct	-13537
search	-13538
▁(2001	-13539
▁elect	-13540
▁woman	-13541
▁Active	-13542
▁crimes	-13543
▁Solution	-13544
▁demanding	-13545
▁Resolution	-13546
▁negatively	-13547
53	-13548
cr	-13549
▁Ol	-13550
made	-13551
obia	-13552
▁(12	-13553
▁Cru	-13554
▁fed	-13555
ainte	-13556
ourced	-13557
tiques	-13558
▁teles	-13559
▁Mobile	-13560
▁Permit	-13561
▁presum	-13562
▁styles	-13563
European	-13564
▁Ongoing	-13565
▁broiler	-13566
▁convers	-13567
▁generic	-13568
▁Elements	-13569
▁Ensuring	-13570
▁drafting	-13571
▁mutually	-13572
▁Announced	-13573
▁outlining	-13574
▁Exposition	-13575
▁customized	-13576
▁discussing	-13577
▁recreation	-13578
▁installation	-13579
▁neighbourhood	-13580
bl	-13581
mt	-13582
XJK	-13583
▁Dé	-13584
.1.2	-13585
▁APC	-13586
▁Tal	-13587
▁bean	-13588
▁INDEM	-13589
▁Often	-13590
▁crude	-13591
acional	-13592
▁613-99	-13593
▁spouse	-13594
▁bursary	-13595
▁promise	-13596
▁Graduate	-13597
▁Multiple	-13598
▁assuming	-13599
▁Guarantee	-13600
▁certainty	-13601
▁motivated	-13602
▁contracted	-13603
▁recruiting	-13604
▁aquaculture	-13605
▁centralized	-13606
▁progressive	-13607
▁accreditation	-13608
▁confidentiality	-13609
xx	-13610
arsh	-13611
fall	-13612
iane	-13613
rink	-13614
▁38%	-13615
▁Ara	-13616
▁DIS	-13617
▁Ira	-13618
integ	-13619
▁Sale	-13620
▁Snow	-13621
▁Needs	-13622
▁Refer	-13623
▁Saudi	-13624
▁Until	-13625
▁Wednes	-13626
▁cycles	-13627
products	-13628
▁flaxseed	-13629
▁mitigate	-13630
▁Principal	-13631
▁comparing	-13632
▁travelers	-13633
▁automotive	-13634
▁fertilizers	-13635
▁Incorporated	-13636
250	-13637
GDP	-13638
UST	-13639
via	-13640
xls	-13641
▁Sn	-13642
tial	-13643
▁65%	-13644
▁Lob	-13645
Offic	-13646
Trans	-13647
▁Clin	-13648
▁NSOs	-13649
▁pose	-13650
please	-13651
rovers	-13652
▁Click	-13653
▁Islam	-13654
▁Lakes	-13655
▁hydro	-13656
culture	-13657
▁2008–0	-13658
▁canned	-13659
▁sovere	-13660
▁PROJECT	-13661
▁Welcome	-13662
▁beliefs	-13663
▁notable	-13664
▁totaled	-13665
▁delivers	-13666
▁whatever	-13667
▁attribute	-13668
▁compensate	-13669
▁positively	-13670
▁unilingual	-13671
▁expectation	-13672
▁foodservice	-13673
▁Collaborative	-13674
oz	-13675
-75	-13676
GAN	-13677
eva	-13678
▁Il	-13679
▁mg	-13680
dney	-13681
orre	-13682
▁42%	-13683
▁Gar	-13684
▁Ray	-13685
odium	-13686
▁Plus	-13687
▁Trip	-13688
▁jazz	-13689
ulsory	-13690
VINCIAL	-13691
▁Subsid	-13692
▁langue	-13693
▁locate	-13694
▁enjoyed	-13695
▁Catholic	-13696
▁Nouvelle	-13697
▁residual	-13698
▁staffing	-13699
▁Accompany	-13700
▁criterion	-13701
▁professor	-13702
▁travelled	-13703
▁Completion	-13704
▁Irrigation	-13705
▁comprising	-13706
▁newsletter	-13707
So	-13708
-96	-13709
two	-13710
▁HP	-13711
oche	-13712
▁$19	-13713
▁BSE	-13714
▁Ess	-13715
▁SAL	-13716
▁Bour	-13717
▁baby	-13718
border	-13719
▁(1998	-13720
▁1988,	-13721
▁crown	-13722
achelor	-13723
alities	-13724
▁outset	-13725
▁reluct	-13726
American	-13727
Atlantic	-13728
friendly	-13729
▁airport	-13730
▁Supervis	-13731
▁transmit	-13732
▁arguments	-13733
▁protocols	-13734
▁disposable	-13735
▁problematic	-13736
/03	-13737
12)	-13738
2-4	-13739
VIS	-13740
▁Hy	-13741
▁ry	-13742
athy	-13743
▁Pun	-13744
▁mode	-13745
▁Plants	-13746
▁donors	-13747
▁elabor	-13748
▁entail	-13749
ordinary	-13750
▁Douglas	-13751
▁custody	-13752
▁highway	-13753
▁joining	-13754
▁graphics	-13755
▁residues	-13756
▁formative	-13757
▁fungicides	-13758
▁consultative	-13759
▁participates	-13760
▁Condemnations	-13761
▁interprovincial	-13762
EG	-13763
HA	-13764
WW	-13765
fl	-13766
oe	-13767
Bon	-13768
Min	-13769
sub	-13770
PDUN	-13771
SRUW	-13772
imal	-13773
▁scr	-13774
▁shr	-13775
ERSON	-13776
otton	-13777
▁Tony	-13778
▁shop	-13779
eacute	-13780
ockeye	-13781
riving	-13782
▁Profit	-13783
▁Reason	-13784
▁mildew	-13785
▁Futures	-13786
▁clearer	-13787
▁ensured	-13788
▁refusal	-13789
▁broadleaf	-13790
▁discusses	-13791
orticulture	-13792
▁2005-2006,	-13793
▁catalogues	-13794
▁inventories	-13795
2/	-13796
Br	-13797
QC	-13798
VL	-13799
],	-13800
").	-13801
10,	-13802
EAL	-13803
IGN	-13804
Par	-13805
ada	-13806
eat	-13807
rif	-13808
▁-0	-13809
isia	-13810
▁BRI	-13811
▁Dig	-13812
▁Hol	-13813
▁Mil	-13814
▁PAR	-13815
▁Pos	-13816
▁ber	-13817
worth	-13818
▁IRCP	-13819
▁folk	-13820
▁2003).	-13821
▁Banking	-13822
▁morning	-13823
▁Conflict	-13824
▁Estimate	-13825
▁rigorous	-13826
ransaskois	-13827
▁Aerospace	-13828
▁installed	-13829
▁Opposition	-13830
▁competence	-13831
▁executives	-13832
▁inequality	-13833
▁projection	-13834
▁Aquaculture	-13835
▁stewardship	-13836
▁organisations	-13837
-40	-13838
ITOR	-13839
tite	-13840
▁0.9	-13841
▁Cho	-13842
▁sac	-13843
▁van	-13844
▁Iraq	-13845
▁owns	-13846
▁Drama	-13847
▁OLSPB	-13848
General	-13849
▁Groupe	-13850
▁intens	-13851
▁prejud	-13852
▁density	-13853
▁Emerging	-13854
▁abandoned	-13855
▁automated	-13856
▁inquiries	-13857
▁conformity	-13858
▁Broadcasters	-13859
▁consequently	-13860
▁specification	-13861
FER	-13862
TAB	-13863
▁PC	-13864
hema	-13865
quet	-13866
▁COP	-13867
▁LAB	-13868
▁oxy	-13869
_____	-13870
istes	-13871
rapes	-13872
▁Susp	-13873
▁WHTI	-13874
asters	-13875
ifteen	-13876
▁Range	-13877
▁fuels	-13878
private	-13879
▁Geneva	-13880
▁bridge	-13881
▁freely	-13882
▁resort	-13883
industry	-13884
▁(54-11)	-13885
▁acreage	-13886
▁extends	-13887
▁fastest	-13888
▁settled	-13889
▁Scenario	-13890
▁cropping	-13891
▁excludes	-13892
▁searches	-13893
▁tailored	-13894
▁chocolate	-13895
▁identical	-13896
▁substance	-13897
▁impressive	-13898
▁influences	-13899
▁Expenditure	-13900
▁concentrate	-13901
▁municipality	-13902
ecommunication	-13903
PD	-13904
▁?	-13905
EDI	-13906
iced	-13907
▁Dun	-13908
▁Laf	-13909
▁Rod	-13910
▁eht	-13911
tonne	-13912
▁CHIN	-13913
▁COUN	-13914
▁Image	-13915
▁Stage	-13916
ariance	-13917
ophobia	-13918
▁50,000	-13919
▁Battle	-13920
▁Waters	-13921
▁drinks	-13922
Manitoba	-13923
▁Victims	-13924
▁Workers	-13925
▁approxim	-13926
▁portions	-13927
▁Galleries	-13928
▁retaining	-13929
▁Provisions	-13930
▁celebrated	-13931
▁copyrights	-13932
▁accelerated	-13933
▁Alternatives	-13934
▁Equalization	-13935
▁insecticides	-13936
▁reimbursement	-13937
No	-13938
YL	-13939
ui	-13940
HDU	-13941
TAs	-13942
pps	-13943
haus	-13944
tech	-13945
uron	-13946
▁43%	-13947
inson	-13948
letic	-13949
▁bars	-13950
▁diet	-13951
▁logo	-13952
EMENTS	-13953
Source	-13954
assess	-13955
necess	-13956
▁Clear	-13957
▁TABLE	-13958
▁toxic	-13959
▁20,000	-13960
▁habits	-13961
▁scales	-13962
▁sunset	-13963
▁trades	-13964
ducation	-13965
▁Bursary	-13966
▁stating	-13967
▁MEASURES	-13968
▁learners	-13969
▁Nutrition	-13970
▁Projected	-13971
▁acquiring	-13972
▁Programmes	-13973
▁accredited	-13974
▁continually	-13975
▁predominantly	-13976
▁questionnaires	-13977
▁revitalization	-13978
Ed	-13979
uv	-13980
KRJ	-13981
eas	-13982
▁LV	-13983
▁TK	-13984
ears	-13985
icon	-13986
about	-13987
▁OVER	-13988
▁Orna	-13989
▁PROC	-13990
Produc	-13991
ounced	-13992
▁(2005	-13993
▁Steps	-13994
▁cohes	-13995
▁debts	-13996
▁touch	-13997
▁tried	-13998
▁zones	-13999
▁2006–0	-14000
▁FedNor	-14001
▁Sydney	-14002
▁droits	-14003
▁hybrid	-14004
▁Traffic	-14005
▁improves	-14006
▁Worldwide	-14007
▁charitable	-14008
▁professors	-14009
▁justification	-14010
-55	-14011
repr	-14012
▁FAQ	-14013
▁Hom	-14014
▁Los	-14015
BERTA	-14016
INESS	-14017
elles	-14018
ogene	-14019
▁HRDC	-14020
odging	-14021
▁(2002	-14022
▁2004)	-14023
▁Grass	-14024
▁Point	-14025
▁Salon	-14026
▁TRADE	-14027
▁honey	-14028
▁truck	-14029
aluable	-14030
▁expiry	-14031
▁synerg	-14032
▁2005-08	-14033
▁Interim	-14034
▁Literacy	-14035
▁advocate	-14036
▁averaged	-14037
▁reaction	-14038
▁Churchill	-14039
▁hospitals	-14040
▁2002-2003.	-14041
▁Statements	-14042
▁kilometres	-14043
▁Acquisition	-14044
▁appointments	-14045
DR	-14046
ATCH	-14047
CIDA	-14048
▁5.7	-14049
▁hur	-14050
▁rue	-14051
▁Fost	-14052
except	-14053
stores	-14054
▁Advoc	-14055
▁feeds	-14056
▁shelf	-14057
forcing	-14058
▁memory	-14059
▁urgent	-14060
▁coupled	-14061
▁turning	-14062
▁metropol	-14063
▁refugees	-14064
▁Situation	-14065
▁penalties	-14066
▁attraction	-14067
▁ceremonies	-14068
▁GU	-14069
town	-14070
uese	-14071
▁Fox	-14072
▁Hat	-14073
▁gar	-14074
▁rid	-14075
fares	-14076
▁Oats	-14077
DITION	-14078
number	-14079
▁unity	-14080
January	-14081
▁Photos	-14082
▁driver	-14083
▁avoided	-14084
▁legacies	-14085
▁Facsimile	-14086
▁Wednesday	-14087
▁clearance	-14088
▁Civilization	-14089
▁communautaire	-14090
▁systematically	-14091
DUH	-14092
omb	-14093
▁EI	-14094
AIDS	-14095
▁41.	-14096
▁44%	-14097
▁LFP	-14098
▁tow	-14099
▁(972	-14100
▁accr	-14101
▁dark	-14102
nement	-14103
▁Eight	-14104
▁ORGAN	-14105
▁Satur	-14106
▁flood	-14107
▁loyal	-14108
Univers	-14109
▁Sainte	-14110
▁Taylor	-14111
▁seemed	-14112
▁Channel	-14113
▁pursuit	-14114
▁taxable	-14115
insurance	-14116
▁1998-199	-14117
▁Academic	-14118
▁slowdown	-14119
▁healthier	-14120
▁pertinent	-14121
▁Complaints	-14122
▁broadcasts	-14123
▁Examination	-14124
▁Representation	-14125
▁transformation	-14126
col	-14127
cwt	-14128
▁Ly	-14129
▁Si	-14130
▁Ts	-14131
uine	-14132
▁Bot	-14133
▁CIP	-14134
▁CUC	-14135
▁FFL	-14136
▁HUM	-14137
▁Hyd	-14138
▁Story	-14139
▁Yield	-14140
▁coinc	-14141
▁Experi	-14142
▁arrest	-14143
▁cinema	-14144
▁curren	-14145
▁Beijing	-14146
▁Georgia	-14147
▁carries	-14148
▁civilian	-14149
▁settings	-14150
▁districts	-14151
▁naturally	-14152
▁allocations	-14153
▁developmental	-14154
▁simultaneously	-14155
ADA	-14156
cos	-14157
fit	-14158
both	-14159
enay	-14160
fair	-14161
fold	-14162
▁CIC	-14163
▁Flo	-14164
▁GRA	-14165
▁cit	-14166
atics	-14167
▁CARD	-14168
▁SASK	-14169
▁1-888	-14170
▁Facts	-14171
▁dream	-14172
ateness	-14173
▁Accred	-14174
▁Indemn	-14175
▁metric	-14176
ediation	-14177
▁Efforts	-14178
▁massive	-14179
▁Approved	-14180
▁Coverage	-14181
▁OUTCOMES	-14182
▁organism	-14183
▁regulate	-14184
▁seasonal	-14185
▁Governors	-14186
▁Operators	-14187
▁conscious	-14188
▁container	-14189
▁listening	-14190
▁parenting	-14191
▁correlation	-14192
▁penetration	-14193
▁Establishment	-14194
▁practitioners	-14195
box	-14196
▁MO	-14197
ocal	-14198
▁God	-14199
▁Rup	-14200
▁hat	-14201
▁sto	-14202
agree	-14203
icted	-14204
ollar	-14205
▁Fung	-14206
▁UPCD	-14207
▁1991.	-14208
▁Codes	-14209
▁bands	-14210
▁derive	-14211
▁Premier	-14212
▁2005-06,	-14213
▁Changing	-14214
▁Families	-14215
▁bulletin	-14216
▁culturel	-14217
▁OBJECTIVE	-14218
▁Overnight	-14219
▁symposium	-14220
▁undergone	-14221
outstanding	-14222
▁Conversely	-14223
▁Importance	-14224
▁partnering	-14225
▁Opportunity	-14226
▁interactions	-14227
YS	-14228
sm	-14229
.06	-14230
LES	-14231
del	-14232
FAIT	-14233
HTML	-14234
éral	-14235
▁unw	-14236
reens	-14237
stock	-14238
▁duly	-14239
iennes	-14240
USINESS	-14241
▁Grades	-14242
▁Twenty	-14243
▁filter	-14244
▁Fishing	-14245
▁License	-14246
▁Methods	-14247
▁Movable	-14248
▁Surveys	-14249
▁bearing	-14250
▁broaden	-14251
▁refugee	-14252
▁utilize	-14253
▁2006-07,	-14254
▁Indirect	-14255
▁emission	-14256
▁talented	-14257
▁authorize	-14258
▁magnitude	-14259
▁beneficiary	-14260
▁consolidate	-14261
▁highlighting	-14262
ATA	-14263
XQW	-14264
lots	-14265
rape	-14266
arial	-14267
genta	-14268
study	-14269
Visual	-14270
access	-14271
▁Input	-14272
▁Ratio	-14273
▁borne	-14274
▁pregn	-14275
▁spite	-14276
ediments	-14277
▁2005-07	-14278
▁upgrade	-14279
▁airfares	-14280
▁branding	-14281
▁trucking	-14282
▁necessity	-14283
▁reproduce	-14284
▁reproduced	-14285
▁suggestion	-14286
▁calculating	-14287
▁complicated	-14288
▁Considerations	-14289
If	-14290
++++	-14291
azon	-14292
▁16.	-14293
▁447	-14294
▁Guy	-14295
teurs	-14296
▁Hull	-14297
▁foli	-14298
ourmet	-14299
▁DFAIT	-14300
▁Users	-14301
▁Watch	-14302
▁align	-14303
▁payer	-14304
▁2002).	-14305
▁Joseph	-14306
▁Murray	-14307
▁losing	-14308
▁prompt	-14309
Boniface	-14310
▁$20,000	-14311
▁Duality	-14312
▁Harvest	-14313
▁ONTARIO	-14314
▁SYSTEMS	-14315
▁Visible	-14316
▁Somewhat	-14317
▁conducts	-14318
▁deferred	-14319
▁scolaire	-14320
▁diversify	-14321
▁controvers	-14322
▁enrichment	-14323
▁foodstuffs	-14324
▁abandonment	-14325
▁architecture	-14326
51	-14327
bie	-14328
lab	-14329
▁$21	-14330
▁1).	-14331
▁Bid	-14332
maker	-14333
opard	-14334
▁Gill	-14335
▁Marg	-14336
▁epis	-14337
▁unve	-14338
▁DELIV	-14339
▁Lines	-14340
▁Sweet	-14341
keeping	-14342
olistic	-14343
▁betting	-14344
▁unclear	-14345
▁Sections	-14346
▁freedoms	-14347
▁Direction	-14348
▁Enrolment	-14349
▁Personnel	-14350
▁Petroleum	-14351
▁accession	-14352
▁associate	-14353
▁attendees	-14354
▁predicted	-14355
▁Incentives	-14356
▁Portuguese	-14357
▁benchmarks	-14358
▁leveraging	-14359
▁programmes	-14360
▁differently	-14361
▁Rehabilitation	-14362
▁MT	-14363
▁Rh	-14364
high	-14365
▁FCC	-14366
▁MET	-14367
▁PRA	-14368
▁Put	-14369
IONAL	-14370
▁fats	-14371
▁promp	-14372
▁solar	-14373
▁CENTRE	-14374
▁Symbol	-14375
▁flight	-14376
▁totals	-14377
▁shaping	-14378
ticularly	-14379
▁momentum	-14380
▁departure	-14381
▁mentoring	-14382
▁convenient	-14383
▁substances	-14384
▁unintended	-14385
▁Calculators	-14386
▁Proceedings	-14387
▁Preparedness	-14388
▁Miscellaneous	-14389
QG	-14390
Car	-14391
ORY	-14392
▁dr	-14393
Mail	-14394
conn	-14395
▁+55	-14396
▁Bol	-14397
▁EQU	-14398
▁Few	-14399
▁Lam	-14400
▁Lik	-14401
▁rad	-14402
-2002	-14403
▁Lean	-14404
Status	-14405
▁2007)	-14406
▁HUMAN	-14407
▁alike	-14408
▁alleg	-14409
▁paint	-14410
October	-14411
etitive	-14412
osphate	-14413
▁Hispan	-14414
▁Models	-14415
▁arises	-14416
▁100,000	-14417
▁Disease	-14418
▁Fathers	-14419
▁traders	-14420
Brunswick	-14421
▁aircraft	-14422
▁listings	-14423
▁validity	-14424
▁Southwest	-14425
▁finalized	-14426
▁plantings	-14427
▁searching	-14428
▁collateral	-14429
▁compilation	-14430
▁Appointments	-14431
SR	-14432
.13	-14433
▁IM	-14434
▁Ry	-14435
emat	-14436
▁CAC	-14437
▁DEC	-14438
▁Sex	-14439
▁ped	-14440
ewise	-14441
▁Carn	-14442
▁Made	-14443
▁Used	-14444
▁lect	-14445
called	-14446
▁613-9	-14447
▁fifty	-14448
▁recyc	-14449
ecurity	-14450
product	-14451
▁Funded	-14452
▁neighb	-14453
▁vendor	-14454
learning	-14455
▁$30,000	-14456
▁SECTION	-14457
▁illness	-14458
▁knowing	-14459
▁reaches	-14460
▁seminar	-14461
▁Acadians	-14462
▁COMMUNIC	-14463
▁catalyst	-14464
▁claimant	-14465
▁strictly	-14466
▁tomorrow	-14467
▁unnecess	-14468
expression	-14469
▁Chemicals	-14470
▁Suppliers	-14471
▁biodiesel	-14472
▁repertoire	-14473
▁CORPORATION	-14474
▁assignments	-14475
▁songwriters	-14476
▁Relationship	-14477
▁Complementary	-14478
-72	-14479
cat	-14480
▁ot	-14481
▁ts	-14482
Case	-14483
arms	-14484
ogam	-14485
tail	-14486
▁3.7	-14487
▁Arm	-14488
▁Cas	-14489
▁hal	-14490
ifers	-14491
luent	-14492
▁FORM	-14493
▁Laws	-14494
▁Pool	-14495
▁germ	-14496
▁levy	-14497
people	-14498
▁(604)	-14499
▁elder	-14500
▁glass	-14501
▁reaff	-14502
▁Arabia	-14503
▁1996-97	-14504
▁Outdoor	-14505
▁creator	-14506
▁Artistic	-14507
▁Champion	-14508
▁Cultures	-14509
▁Strongly	-14510
▁ordinary	-14511
▁politics	-14512
▁Rationale	-14513
▁converted	-14514
▁precisely	-14515
▁dedication	-14516
▁contributor	-14517
▁influencing	-14518
▁neighbouring	-14519
SI	-14520
TY	-14521
sg	-14522
ARM	-14523
ylv	-14524
▁WG	-14525
IBLE	-14526
July	-14527
shot	-14528
▁Rank	-14529
▁Skip	-14530
▁Tues	-14531
▁User	-14532
VITIES	-14533
▁Wales	-14534
▁donor	-14535
▁feels	-14536
▁Degree	-14537
▁attack	-14538
▁Tobacco	-14539
▁Witness	-14540
▁flavour	-14541
▁Concerns	-14542
▁Syngenta	-14543
▁diplomatic	-14544
▁contractors	-14545
fa	-14546
.28	-14547
CWB	-14548
bid	-14549
▁Ox	-14550
auti	-14551
copy	-14552
rued	-14553
take	-14554
▁BDC	-14555
▁Cul	-14556
▁Far	-14557
▁spp	-14558
iners	-14559
itely	-14560
▁Half	-14561
▁club	-14562
▁Clerk	-14563
▁Diane	-14564
▁lobby	-14565
▁weigh	-14566
sellers	-14567
▁Campus	-14568
▁Expert	-14569
▁Warner	-14570
▁geared	-14571
▁refine	-14572
▁relied	-14573
▁tracks	-14574
▁Mississ	-14575
▁dignity	-14576
▁feeling	-14577
▁clothing	-14578
▁ordering	-14579
▁acadienne	-14580
▁appearing	-14581
▁enquiries	-14582
▁revisions	-14583
▁Allocation	-14584
▁Calculator	-14585
▁contacting	-14586
▁fulfilling	-14587
▁unexpected	-14588
▁prospective	-14589
▁continuously	-14590
▁Interpretation	-14591
▁Municipalities	-14592
=3	-14593
FM	-14594
su	-14595
té	-14596
CES	-14597
▁HO	-14598
▁gn	-14599
ANTS	-14600
post	-14601
▁(52	-14602
▁mag	-14603
▁mir	-14604
▁Game	-14605
▁Maps	-14606
iliary	-14607
stairs	-14608
▁embod	-14609
▁irrig	-14610
▁troub	-14611
LQGXVWU	-14612
▁2004).	-14613
▁Across	-14614
▁Danish	-14615
▁merits	-14616
▁Minutes	-14617
▁assured	-14618
▁auditor	-14619
▁genuine	-14620
▁jeopard	-14621
▁Requests	-14622
▁restrict	-14623
▁updating	-14624
▁Argentine	-14625
▁Christmas	-14626
▁Depending	-14627
▁Paragraph	-14628
▁ambitious	-14629
▁broadband	-14630
▁disclosed	-14631
▁terminals	-14632
▁phosphorus	-14633
▁Enforcement	-14634
▁Perspective	-14635
KD	-14636
.14	-14637
5%)	-14638
All	-14639
INS	-14640
tun	-14641
IGHT	-14642
agog	-14643
onde	-14644
quin	-14645
ully	-14646
whel	-14647
▁3.9	-14648
▁XXX	-14649
▁ads	-14650
▁tea	-14651
bourg	-14652
ersed	-14653
grass	-14654
▁1950	-14655
▁lett	-14656
▁Copps	-14657
[...]
