<unk>	0
<s>	0
</s>	0
▁d	-0
es	-1
▁l	-2
on	-3
en	-4
▁p	-5
ti	-6
▁de	-7
an	-8
re	-9
▁c	-10
er	-11
▁s	-12
ou	-13
▁a	-14
ent	-15
in	-16
is	-17
tion	-18
qu	-19
et	-20
it	-21
▁la	-22
ar	-23
ur	-24
or	-25
▁des	-26
un	-27
▁et	-28
em	-29
▁m	-30
ation	-31
al	-32
▁les	-33
▁f	-34
ant	-35
▁pr	-36
▁à	-37
our	-38
▁le	-39
ch	-40
om	-41
▁t	-42
▁r	-43
▁qu	-44
ement	-45
▁au	-46
te	-47
és	-48
▁C	-49
▁n	-50
le	-51
ai	-52
▁v	-53
▁re	-54
▁en	-55
▁un	-56
▁du	-57
ont	-58
el	-59
▁L	-60
ic	-61
ra	-62
il	-63
ét	-64
▁par	-65
au	-66
res	-67
▁pro	-68
▁pour	-69
ans	-70
si	-71
ci	-72
00	-73
ri	-74
▁con	-75
ex	-76
ul	-77
us	-78
ce	-79
▁D	-80
▁com	-81
▁in	-82
▁2	-83
ad	-84
▁dé	-85
▁(	-86
im	-87
▁ou	-88
▁1	-89
▁b	-90
as	-91
tre	-92
ab	-93
ve	-94
▁sur	-95
▁T	-96
me	-97
que	-98
and	-99
▁P	-100
ers	-101
ous	-102
at	-103
ro	-104
▁S	-105
est	-106
oi	-107
pp	-108
li	-109
..	-110
▁dans	-111
se	-112
ée	-113
▁I	-114
ag	-115
les	-116
onn	-117
che	-118
▁g	-119
▁une	-120
▁A	-121
ort	-122
ac	-123
eu	-124
ig	-125
▁que	-126
▁qui	-127
ité	-128
▁ré	-129
ées	-130
aire	-131
erche	-132
▁R	-133
ér	-134
du	-135
anad	-136
urs	-137
iv	-138
ol	-139
tu	-140
os	-141
▁ét	-142
▁o	-143
▁é	-144
ven	-145
ment	-146
▁M	-147
ati	-148
▁ex	-149
▁su	-150
▁pl	-151
▁-	-152
▁est	-153
▁:	-154
▁ch	-155
▁200	-156
ien	-157
de	-158
imp	-159
▁aux	-160
pr	-161
ff	-162
▁rech	-163
ces	-164
ations	-165
ction	-166
di	-167
ale	-168
▁•	-169
ons	-170
ie	-171
orm	-172
▁recherche	-173
ign	-174
▁Canad	-175
ir	-176
ins	-177
ais	-178
▁ser	-179
aux	-180
ements	-181
ques	-182
ouv	-183
aires	-184
▁E	-185
am	-186
▁N	-187
▁Canada	-188
anté	-189
id	-190
▁pas	-191
cl	-192
pl	-193
mes	-194
▁j	-195
▁se	-196
ter	-197
én	-198
mand	-199
▁parti	-200
ure	-201
ants	-202
ate	-203
té	-204
....	-205
▁sont	-206
ann	-207
▁santé	-208
▁B	-209
ise	-210
▁ac	-211
ten	-212
ait	-213
▁mo	-214
entre	-215
▁ren	-216
▁Les	-217
elle	-218
ère	-219
▁Le	-220
▁vous	-221
une	-222
tions	-223
um	-224
app	-225
ain	-226
tes	-227
lis	-228
▁$	-229
▁so	-230
▁plus	-231
tr	-232
ours	-233
ersonn	-234
éd	-235
gra	-236
age	-237
ne	-238
ire	-239
▁3	-240
▁personn	-241
ence	-242
▁cont	-243
ec	-244
ique	-245
tif	-246
oc	-247
éri	-248
▁cons	-249
vic	-250
▁ave	-251
▁tra	-252
ités	-253
▁V	-254
▁F	-255
ts	-256
▁av	-257
▁h	-258
ance	-259
tres	-260
▁demand	-261
gram	-262
min	-263
▁tr	-264
ub	-265
RS	-266
▁fin	-267
end	-268
éc	-269
port	-270
▁app	-271
▁comm	-272
être	-273
titu	-274
ue	-275
▁ne	-276
▁po	-277
ap	-278
its	-279
emb	-280
▁ce	-281
▁mar	-282
ication	-283
▁imp	-284
▁peu	-285
ite	-286
▁produ	-287
able	-288
▁U	-289
▁servic	-290
▁O	-291
ès	-292
▁comp	-293
▁per	-294
▁co	-295
anc	-296
cip	-297
seign	-298
ond	-299
anis	-300
▁In	-301
__	-302
ss	-303
ier	-304
▁dis	-305
ail	-306
▁ont	-307
▁4	-308
▁été	-309
uti	-310
ésent	-311
sion	-312
▁être	-313
ay	-314
oy	-315
ut	-316
oir	-317
cul	-318
ette	-319
ises	-320
RSC	-321
▁reven	-322
▁rés	-323
▁La	-324
▁avec	-325
ph	-326
ob	-327
otre	-328
▁or	-329
▁mont	-330
ang	-331
ern	-332
ourn	-333
jet	-334
▁5	-335
▁program	-336
ot	-337
ganis	-338
▁tou	-339
▁ad	-340
elles	-341
▁bien	-342
▁form	-343
ion	-344
▁IRSC	-345
vent	-346
tiv	-347
▁rem	-348
▁G	-349
seignements	-350
ari	-351
ine	-352
ales	-353
ert	-354
sib	-355
▁entre	-356
év	-357
ivers	-358
els	-359
av	-360
ats	-361
stitu	-362
ré	-363
▁déc	-364
mis	-365
▁trans	-366
▁services	-367
▁«	-368
ens	-369
tin	-370
og	-371
▁renseignements	-372
▁pay	-373
▁décl	-374
tra	-375
form	-376
ôt	-377
▁H	-378
utilis	-379
▁dét	-380
▁march	-381
▁soci	-382
▁ann	-383
lé	-384
oit	-385
▁si	-386
vez	-387
ess	-388
▁fourn	-389
ents	-390
eff	-391
empl	-392
▁il	-393
ord	-394
iques	-395
........	-396
▁revenu	-397
▁non	-398
▁TP	-399
-0	-400
lement	-401
▁»	-402
▁donn	-403
osi	-404
▁dro	-405
emp	-406
rit	-407
ux	-408
eur	-409
-1	-410
rib	-411
▁déclar	-412
▁Com	-413
ors	-414
▁ob	-415
ég	-416
▁di	-417
▁6	-418
▁inter	-419
▁pub	-420
▁En	-421
▁gén	-422
▁19	-423
rer	-424
▁votre	-425
ax	-426
▁canad	-427
teur	-428
▁comme	-429
fin	-430
▁présent	-431
▁sub	-432
▁suiv	-433
▁canadien	-434
ente	-435
▁Un	-436
▁trav	-437
ois	-438
▁ces	-439
▁montant	-440
▁marchand	-441
ies	-442
ON	-443
ill	-444
▁commun	-445
▁8	-446
▁organis	-447
ves	-448
▁conc	-449
ult	-450
▁fait	-451
pe	-452
▁peut	-453
ES	-454
par	-455
▁li	-456
▁J	-457
▁rec	-458
▁9	-459
ici	-460
ères	-461
▁ti	-462
tég	-463
▁cette	-464
-2	-465
▁pos	-466
▁prov	-467
▁dire	-468
▁rég	-469
st	-470
▁eff	-471
▁gr	-472
▁%	-473
▁vis	-474
aut	-475
▁É	-476
cri	-477
▁marchandises	-478
).	-479
ures	-480
▁sou	-481
▁nom	-482
000	-483
▁cl	-484
été	-485
▁leur	-486
),	-487
▁dép	-488
aient	-489
éro	-490
ences	-491
ermin	-492
tic	-493
▁compr	-494
ui	-495
▁import	-496
▁financ	-497
ables	-498
▁travail	-499
int	-500
▁7	-501
ribu	-502
tionn	-503
lic	-504
▁Pour	-505
ille	-506
▁cherche	-507
▁pri	-508
▁utilis	-509
iti	-510
▁particip	-511
ing	-512
▁disp	-513
esp	-514
▁Pro	-515
op	-516
▁W	-517
tique	-518
acc	-519
cess	-520
▁col	-521
éth	-522
▁personnes	-523
impôt	-524
olog	-525
ard	-526
▁Si	-527
▁cas	-528
ER	-529
TI	-530
rais	-531
▁Il	-532
ances	-533
ib	-534
ass	-535
▁rel	-536
▁prop	-537
▁son	-538
▁demande	-539
tiques	-540
▁programme	-541
▁Ch	-542
▁dev	-543
ulaire	-544
équ	-545
▁–	-546
▁K	-547
eux	-548
alement	-549
AR	-550
▁direc	-551
ouvern	-552
▁Q	-553
ode	-554
ils	-555
ist	-556
èg	-557
▁nous	-558
ière	-559
▁ass	-560
▁acc	-561
pé	-562
____	-563
▁doit	-564
uméro	-565
▁aut	-566
▁pré	-567
▁rép	-568
bre	-569
met	-570
▁subven	-571
apport	-572
stitut	-573
AN	-574
liss	-575
▁dou	-576
▁gouvern	-577
▁dom	-578
▁déclaration	-579
osition	-580
ments	-581
▁cap	-582
▁0	-583
▁sy	-584
lab	-585
près	-586
alis	-587
▁Loi	-588
aines	-589
▁TPS	-590
▁génér	-591
lique	-592
ues	-593
ème	-594
▁conn	-595
▁y	-596
ouve	-597
des	-598
▁fond	-599
▁ver	-600
▁pai	-601
autres	-602
ice	-603
tis	-604
▁ar	-605
▁tax	-606
▁off	-607
▁ter	-608
ture	-609
▁personne	-610
ateur	-611
alu	-612
▁chercheurs	-613
▁min	-614
tivités	-615
▁Par	-616
ateurs	-617
▁poli	-618
▁at	-619
▁ques	-620
minis	-621
▁provin	-622
▁2006	-623
▁étab	-624
▁al	-625
iss	-626
▁partie	-627
iversité	-628
▁détermin	-629
incip	-630
▁deux	-631
employ	-632
oci	-633
teurs	-634
▁avant	-635
prise	-636
▁resp	-637
cep	-638
one	-639
ge	-640
▁particul	-641
▁mes	-642
▁princip	-643
▁sous	-644
VH	-645
elon	-646
IS	-647
AC	-648
missib	-649
In	-650
ative	-651
▁projet	-652
▁lign	-653
embre	-654
ême	-655
tratég	-656
lec	-657
ante	-658
▁ins	-659
▁programmes	-660
lication	-661
oration	-662
▁199	-663
▁am	-664
▁pre	-665
otal	-666
yl	-667
▁société	-668
aiss	-669
atif	-670
▁mati	-671
▁vers	-672
ez	-673
▁trait	-674
▁doc	-675
AS	-676
antes	-677
▁Con	-678
▁cad	-679
insi	-680
fér	-681
ilité	-682
▁diff	-683
▁tous	-684
IN	-685
EN	-686
▁2007	-687
▁remb	-688
▁fon	-689
▁gouvernement	-690
▁Re	-691
▁car	-692
▁vale	-693
année	-694
▁ég	-695
▁faire	-696
▁of	-697
▁lors	-698
▁an	-699
▁financement	-700
▁12	-701
▁droits	-702
▁douan	-703
▁rapport	-704
opp	-705
raph	-706
ision	-707
▁rembours	-708
formation	-709
▁stratég	-710
▁ses	-711
.1	-712
entif	-713
▁2005	-714
aine	-715
▁mal	-716
agraph	-717
▁où	-718
▁cours	-719
▁données	-720
oivent	-721
Un	-722
▁parten	-723
th	-724
▁reç	-725
▁autres	-726
▁leurs	-727
▁10	-728
▁fonction	-729
▁fa	-730
▁ainsi	-731
sid	-732
ital	-733
ov	-734
fication	-735
ains	-736
elopp	-737
ell	-738
▁produits	-739
▁◦	-740
▁cert	-741
lissement	-742
▁sci	-743
oire	-744
▁000	-745
tru	-746
atives	-747
ép	-748
▁peuvent	-749
▁cadre	-750
tenir	-751
▁mil	-752
itu	-753
iers	-754
▁afin	-755
amen	-756
▁frais	-757
▁paragraph	-758
ureau	-759
▁dont	-760
quer	-761
▁moins	-762
▁demandes	-763
▁numéro	-764
▁cal	-765
ém	-766
entes	-767
▁permet	-768
▁nation	-769
▁péri	-770
▁contribu	-771
ages	-772
réd	-773
mp	-774
▁autre	-775
▁prof	-776
▁nombre	-777
▁Vous	-778
▁indi	-779
▁public	-780
▁commer	-781
▁docu	-782
▁fac	-783
TVH	-784
▁exp	-785
▁dév	-786
AL	-787
▁malad	-788
▁mais	-789
ions	-790
▁im	-791
▁étu	-792
▁résult	-793
▁inf	-794
▁doivent	-795
▁ag	-796
▁formulaire	-797
oris	-798
▁ju	-799
▁Au	-800
▁vertu	-801
ticle	-802
▁préc	-803
anci	-804
enti	-805
▁admissib	-806
erc	-807
ca	-808
péci	-809
▁De	-810
clu	-811
sions	-812
OR	-813
▁même	-814
alité	-815
▁selon	-816
ches	-817
▁activités	-818
▁jus	-819
vir	-820
tifs	-821
................	-822
▁développ	-823
▁fi	-824
▁prév	-825
onc	-826
iens	-827
ssi	-828
duction	-829
▁Qu	-830
▁compte	-831
erv	-832
ach	-833
▁spéci	-834
▁enf	-835
▁nouv	-836
▁bén	-837
él	-838
FC	-839
▁droit	-840
ton	-841
▁pou	-842
nation	-843
▁Dans	-844
lir	-845
▁syst	-846
pes	-847
▁Ce	-848
▁2004	-849
▁organismes	-850
fic	-851
▁pays	-852
endant	-853
▁matière	-854
▁paragraphe	-855
▁st	-856
éli	-857
iste	-858
▁fins	-859
aque	-860
▁tout	-861
▁nouve	-862
rait	-863
▁repr	-864
exe	-865
13	-866
▁grou	-867
▁prem	-868
▁vie	-869
▁total	-870
▁aussi	-871
▁ten	-872
▁valeur	-873
éra	-874
▁Ét	-875
cteur	-876
eurs	-877
ind	-878
ase	-879
▁sa	-880
▁connaiss	-881
▁concern	-882
▁for	-883
▁consid	-884
▁faç	-885
ésid	-886
AD	-887
▁calcul	-888
ace	-889
(1	-890
lev	-891
och	-892
information	-893
import	-894
▁fournit	-895
▁th	-896
▁cor	-897
▁soit	-898
▁prix	-899
uis	-900
▁coû	-901
▁Ex	-902
era	-903
▁avez	-904
ectu	-905
ric	-906
Institut	-907
▁éc	-908
▁ligne	-909
▁ni	-910
ologie	-911
▁canadienne	-912
ox	-913
▁employ	-914
ct	-915
▁représent	-916
▁11	-917
▁DE	-918
▁cré	-919
fais	-920
ellement	-921
▁résid	-922
▁pouvez	-923
ide	-924
▁période	-925
crip	-926
▁commerci	-927
▁cau	-928
▁taxe	-929
▁formation	-930
▁possib	-931
▁contra	-932
0,	-933
seil	-934
▁Program	-935
fi	-936
▁créd	-937
▁également	-938
ww	-939
▁év	-940
▁internation	-941
▁On	-942
▁règ	-943
▁exemp	-944
ech	-945
▁résultats	-946
gis	-947
ets	-948
lig	-949
▁plan	-950
▁Dire	-951
▁seul	-952
isc	-953
▁après	-954
▁ind	-955
téri	-956
▁féd	-957
▁fr	-958
embres	-959
faisance	-960
▁développement	-961
▁financi	-962
érê	-963
▁Des	-964
orte	-965
▁bienfaisance	-966
▁tro	-967
eso	-968
tie	-969
orer	-970
endre	-971
cessus	-972
examen	-973
TION	-974
▁15	-975
élé	-976
ôle	-977
are	-978
▁initi	-979
▁enfants	-980
▁remboursement	-981
ministr	-982
▁façon	-983
gence	-984
iné	-985
éb	-986
vention	-987
▁beso	-988
hy	-989
▁Dr	-990
▁avoir	-991
jec	-992
▁béné	-993
ouver	-994
ctions	-995
aluation	-996
laboration	-997
enses	-998
tien	-999
▁né	-1000
▁temp	-1001
▁ans	-1002
▁connaissances	-1003
▁effectu	-1004
▁concernant	-1005
▁sera	-1006
▁modi	-1007
▁taux	-1008
IC	-1009
▁An	-1010
echn	-1011
▁année	-1012
▁biens	-1013
▁membres	-1014
èmes	-1015
▁chaque	-1016
étab	-1017
▁fonds	-1018
▁fisc	-1019
▁.	-1020
nes	-1021
article	-1022
▁soins	-1023
arif	-1024
ole	-1025
all	-1026
gag	-1027
rang	-1028
▁moy	-1029
▁pop	-1030
▁exig	-1031
RC	-1032
vis	-1033
▁men	-1034
▁toutes	-1035
ources	-1036
cc	-1037
exp	-1038
▁vos	-1039
▁dur	-1040
ASFC	-1041
▁politiques	-1042
▁douanes	-1043
eau	-1044
ust	-1045
▁dés	-1046
▁À	-1047
ress	-1048
▁Une	-1049
▁toute	-1050
▁contre	-1051
mun	-1052
▁subventions	-1053
▁ent	-1054
▁service	-1055
céd	-1056
▁processus	-1057
▁techn	-1058
▁véri	-1059
-3	-1060
▁rais	-1061
▁supp	-1062
▁condi	-1063
▁cour	-1064
▁date	-1065
▁and	-1066
ARC	-1067
▁titre	-1068
▁prior	-1069
tt	-1070
▁conf	-1071
2,	-1072
ération	-1073
avoir	-1074
jo	-1075
ario	-1076
organis	-1077
ément	-1078
▁clin	-1079
▁compris	-1080
▁nécess	-1081
▁loc	-1082
▁grand	-1083
▁défin	-1084
▁page	-1085
▁capital	-1086
▁produit	-1087
▁mon	-1088
▁man	-1089
▁export	-1090
▁contr	-1091
▁réun	-1092
▁fédér	-1093
20	-1094
OU	-1095
▁port	-1096
▁ges	-1097
▁scientif	-1098
application	-1099
ong	-1100
acité	-1101
ettre	-1102
▁Programme	-1103
▁Dé	-1104
▁provinci	-1105
▁trois	-1106
▁main	-1107
▁revenus	-1108
▁respons	-1109
▁détail	-1110
▁différ	-1111
▁maladies	-1112
tario	-1113
▁popul	-1114
RE	-1115
▁questions	-1116
▁chang	-1117
▁prest	-1118
férence	-1119
▁20	-1120
▁Co	-1121
isse	-1122
▁équ	-1123
export	-1124
édic	-1125
rim	-1126
vre	-1127
▁14	-1128
uses	-1129
▁[	-1130
ules	-1131
veau	-1132
▁Mont	-1133
________	-1134
▁op	-1135
▁impos	-1136
▁jour	-1137
▁montants	-1138
▁appro	-1139
▁méth	-1140
▁profes	-1141
▁norm	-1142
▁ci	-1143
▁seront	-1144
co	-1145
tive	-1146
ête	-1147
▁sans	-1148
▁Date	-1149
ministration	-1150
rn	-1151
▁rend	-1152
mping	-1153
oll	-1154
ud	-1155
ime	-1156
▁lieu	-1157
stituts	-1158
▁contrat	-1159
▁aff	-1160
10	-1161
▁domaine	-1162
▁devez	-1163
▁mise	-1164
lément	-1165
atis	-1166
tiss	-1167
▁mesure	-1168
▁plu	-1169
▁bi	-1170
▁on	-1171
act	-1172
▁sign	-1173
iversit	-1174
1,	-1175
▁système	-1176
emploi	-1177
▁contin	-1178
agn	-1179
ervic	-1180
▁TC	-1181
▁seulement	-1182
édi	-1183
tones	-1184
▁bureau	-1185
▁traitement	-1186
ochtones	-1187
▁13	-1188
tivité	-1189
50	-1190
▁dern	-1191
▁partenari	-1192
▁situ	-1193
sionn	-1194
liqu	-1195
▁notre	-1196
ature	-1197
IT	-1198
ières	-1199
▁ress	-1200
duire	-1201
inter	-1202
▁vente	-1203
▁dépenses	-1204
entreprise	-1205
▁/	-1206
cription	-1207
▁années	-1208
ient	-1209
(1)	-1210
ositions	-1211
▁Nous	-1212
eb	-1213
▁constitu	-1214
▁exemple	-1215
▁feu	-1216
Agence	-1217
▁part	-1218
▁demander	-1219
aj	-1220
cu	-1221
▁suivants	-1222
duc	-1223
▁30	-1224
illet	-1225
▁elle	-1226
▁obtenir	-1227
▁2008	-1228
▁ris	-1229
ition	-1230
ulaires	-1231
andid	-1232
▁politique	-1233
aw	-1234
nent	-1235
5,	-1236
out	-1237
▁sujet	-1238
til	-1239
▁entreprise	-1240
▁sé	-1241
voir	-1242
oment	-1243
▁accord	-1244
▁RE	-1245
nement	-1246
▁incl	-1247
▁temps	-1248
▁consult	-1249
imposition	-1250
duci	-1251
ourses	-1252
▁indiqu	-1253
▁particulier	-1254
bles	-1255
▁no	-1256
▁projets	-1257
arg	-1258
regis	-1259
isez	-1260
▁moyen	-1261
omm	-1262
▁moment	-1263
▁admissibles	-1264
▁entrepr	-1265
ars	-1266
▁2003	-1267
dess	-1268
▁Al	-1269
▁déterminer	-1270
yant	-1271
▁milli	-1272
▁cotis	-1273
▁Servic	-1274
▁bénéf	-1275
▁considér	-1276
▁production	-1277
▁18	-1278
onom	-1279
ipe	-1280
amin	-1281
aide	-1282
▁prob	-1283
▁élec	-1284
▁gestion	-1285
▁IN	-1286
▁base	-1287
ercice	-1288
iè	-1289
▁Université	-1290
oires	-1291
ution	-1292
ésident	-1293
inéa	-1294
urer	-1295
tribu	-1296
▁candid	-1297
▁prati	-1298
ÉU	-1299
étu	-1300
ancer	-1301
▁actu	-1302
ip	-1303
▁décision	-1304
éch	-1305
écur	-1306
▁Cette	-1307
▁savoir	-1308
▁remp	-1309
tection	-1310
▁div	-1311
meub	-1312
pt	-1313
Université	-1314
▁fiduci	-1315
▁médic	-1316
▁16	-1317
▁TM	-1318
▁mod	-1319
▁vue	-1320
resse	-1321
ATION	-1322
CI	-1323
oute	-1324
ommand	-1325
▁compl	-1326
▁publique	-1327
évaluation	-1328
▁Col	-1329
crivez	-1330
▁collec	-1331
tit	-1332
▁fab	-1333
vement	-1334
▁cli	-1335
-4	-1336
▁Ces	-1337
▁fam	-1338
▁communaut	-1339
utilisation	-1340
▁mesures	-1341
éh	-1342
euille	-1343
quis	-1344
▁site	-1345
▁je	-1346
▁conform	-1347
raient	-1348
▁région	-1349
oles	-1350
▁lorsque	-1351
▁associ	-1352
▁document	-1353
omb	-1354
▁lim	-1355
aî	-1356
ines	-1357
▁consul	-1358
▁suivantes	-1359
▁crédit	-1360
tement	-1361
ble	-1362
tric	-1363
▁env	-1364
aly	-1365
eure	-1366
▁priv	-1367
ulture	-1368
▁section	-1369
onib	-1370
▁reconn	-1371
▁Web	-1372
▁générale	-1373
alinéa	-1374
▁conjo	-1375
quête	-1376
▁question	-1377
ler	-1378
administration	-1379
MD	-1380
▁fem	-1381
▁bénéfici	-1382
▁annu	-1383
▁ayant	-1384
▁documents	-1385
if	-1386
▁(1	-1387
▁sec	-1388
▁cent	-1389
7,	-1390
▁Institut	-1391
▁personnel	-1392
crit	-1393
▁prom	-1394
-200	-1395
oront	-1396
▁doll	-1397
oronto	-1398
▁hum	-1399
▁Lors	-1400
▁loi	-1401
por	-1402
▁mois	-1403
40	-1404
▁disponib	-1405
6,	-1406
▁transf	-1407
gc	-1408
▁00	-1409
▁groupe	-1410
▁int	-1411
▁objec	-1412
▁pouv	-1413
▁ven	-1414
▁améli	-1415
▁nouvelles	-1416
▁cause	-1417
▁rempl	-1418
4,	-1419
istère	-1420
▁propos	-1421
SI	-1422
▁États	-1423
▁pe	-1424
ébec	-1425
▁étudi	-1426
awa	-1427
▁liv	-1428
▁engag	-1429
▁ressources	-1430
▁Pr	-1431
▁recommand	-1432
ète	-1433
ilis	-1434
▁certains	-1435
éléph	-1436
tron	-1437
▁point	-1438
.,	-1439
mission	-1440
écurité	-1441
▁nos	-1442
anv	-1443
TE	-1444
ilités	-1445
▁Direction	-1446
tention	-1447
▁désign	-1448
▁conditions	-1449
térieur	-1450
▁hab	-1451
▁ess	-1452
.2	-1453
▁nouveaux	-1454
▁Comité	-1455
ori	-1456
ttawa	-1457
▁lég	-1458
az	-1459
étés	-1460
▁dollars	-1461
ose	-1462
abilité	-1463
ich	-1464
▁était	-1465
tim	-1466
▁mili	-1467
éde	-1468
▁X	-1469
▁réalis	-1470
emble	-1471
ustri	-1472
▁31	-1473
gment	-1474
od	-1475
omp	-1476
tez	-1477
amment	-1478
anvier	-1479
▁cat	-1480
▁dém	-1481
▁supplément	-1482
▁Nom	-1483
onnement	-1484
▁niveau	-1485
▁dumping	-1486
unes	-1487
▁ach	-1488
▁sport	-1489
▁VI	-1490
▁participation	-1491
▁mand	-1492
ect	-1493
9,	-1494
action	-1495
▁femmes	-1496
▁voy	-1497
▁visant	-1498
▁minis	-1499
▁électron	-1500
ver	-1501
atifs	-1502
.00	-1503
▁Comment	-1504
▁pendant	-1505
▁employés	-1506
▁déb	-1507
▁reçu	-1508
▁déclarations	-1509
ENT	-1510
lu	-1511
isions	-1512
▁coût	-1513
fois	-1514
NE	-1515
8,	-1516
iqu	-1517
▁fourniture	-1518
▁Services	-1519
▁pen	-1520
édec	-1521
▁Centre	-1522
sieurs	-1523
iter	-1524
▁expl	-1525
ule	-1526
▁vol	-1527
▁recher	-1528
exportation	-1529
▁janvier	-1530
atéri	-1531
▁territ	-1532
▁conseil	-1533
▁log	-1534
▁mars	-1535
établissement	-1536
3,	-1537
▁protection	-1538
annexe	-1539
▁chez	-1540
itiative	-1541
su	-1542
ommes	-1543
Unis	-1544
gr	-1545
▁mul	-1546
▁tarif	-1547
▁imm	-1548
▁paiement	-1549
▁St	-1550
▁cell	-1551
▁soi	-1552
▁cel	-1553
▁soutien	-1554
PS	-1555
30	-1556
▁domaines	-1557
▁subvention	-1558
▁professionn	-1559
quelle	-1560
90	-1561
▁fournir	-1562
▁command	-1563
▁capacité	-1564
);	-1565
▁laquelle	-1566
▁conten	-1567
cid	-1568
▁Aut	-1569
onse	-1570
égor	-1571
▁partenaires	-1572
▁én	-1573
▁participants	-1574
▁priorités	-1575
▁transport	-1576
for	-1577
▁sup	-1578
▁bourses	-1579
tives	-1580
▁Ins	-1581
▁ty	-1582
euillez	-1583
ueil	-1584
▁25	-1585
▁nouveau	-1586
▁but	-1587
▁long	-1588
▁payer	-1589
▁cir	-1590
érêts	-1591
oup	-1592
avant	-1593
égard	-1594
uy	-1595
▁Bureau	-1596
man	-1597
▁vérification	-1598
▁1.	-1599
applique	-1600
▁organisme	-1601
▁gar	-1602
▁recherches	-1603
▁disposition	-1604
▁sécurité	-1605
pro	-1606
▁(2	-1607
ili	-1608
▁fiducie	-1609
enc	-1610
iversity	-1611
▁divers	-1612
▁pass	-1613
▁répond	-1614
itre	-1615
pri	-1616
tific	-1617
▁17	-1618
▁Reven	-1619
serv	-1620
ande	-1621
▁établi	-1622
LE	-1623
▁conjoint	-1624
bert	-1625
▁admissible	-1626
▁Québec	-1627
▁fédéral	-1628
On	-1629
oix	-1630
▁stratégique	-1631
▁offre	-1632
▁ph	-1633
▁province	-1634
▁100	-1635
www	-1636
▁rece	-1637
▁général	-1638
▁mandat	-1639
▁Canadiens	-1640
▁Y	-1641
▁plusieurs	-1642
▁proven	-1643
▁présente	-1644
▁Toronto	-1645
▁contrôle	-1646
▁pertin	-1647
▁comité	-1648
▁étrang	-1649
▁juin	-1650
▁provis	-1651
▁sociétés	-1652
ath	-1653
▁fois	-1654
▁cet	-1655
▁University	-1656
rs	-1657
rier	-1658
▁Mc	-1659
éhic	-1660
▁mis	-1661
gn	-1662
▁Mar	-1663
ites	-1664
▁éch	-1665
accise	-1666
▁national	-1667
▁24	-1668
UR	-1669
▁sal	-1670
êtes	-1671
Ontario	-1672
▁concours	-1673
ossi	-1674
▁Pl	-1675
acement	-1676
ril	-1677
▁El	-1678
venir	-1679
▁ment	-1680
▁besoin	-1681
▁catégor	-1682
rent	-1683
▁produire	-1684
▁auc	-1685
99	-1686
▁suite	-1687
oul	-1688
▁Lign	-1689
▁conséqu	-1690
▁aid	-1691
▁es	-1692
▁scientifique	-1693
urance	-1694
11	-1695
▁ils	-1696
▁Numéro	-1697
▁sept	-1698
arm	-1699
▁entreprises	-1700
▁régime	-1701
▁pres	-1702
▁certaines	-1703
OM	-1704
▁cancer	-1705
ministra	-1706
rée	-1707
▁enregis	-1708
▁dispositions	-1709
▁collaboration	-1710
organisme	-1711
▁k	-1712
▁médec	-1713
▁liste	-1714
▁probl	-1715
▁Cour	-1716
▁groupes	-1717
▁propri	-1718
▁appel	-1719
cier	-1720
▁piè	-1721
▁2002	-1722
▁lorsqu	-1723
▁jusqu	-1724
▁cin	-1725
▁réc	-1726
éléphone	-1727
▁autoris	-1728
nov	-1729
▁21	-1730
XX	-1731
▁comment	-1732
onne	-1733
trices	-1734
▁élev	-1735
▁ab	-1736
exercice	-1737
quel	-1738
cipl	-1739
ager	-1740
▁nature	-1741
itaires	-1742
▁secteur	-1743
▁décembre	-1744
▁culture	-1745
▁canadiens	-1746
▁véhic	-1747
ception	-1748
▁objectifs	-1749
II	-1750
▁réunion	-1751
▁multi	-1752
▁appr	-1753
▁aur	-1754
igin	-1755
▁»,	-1756
▁inc	-1757
▁anti	-1758
▁conclu	-1759
▁quel	-1760
▁reten	-1761
erg	-1762
puis	-1763
▁*	-1764
▁fonctionnement	-1765
▁posi	-1766
ticles	-1767
▁déduction	-1768
▁coûts	-1769
▁interven	-1770
▁nouvelle	-1771
▁ceux	-1772
orat	-1773
illes	-1774
▁besoins	-1775
éléc	-1776
cherche	-1777
80	-1778
▁première	-1779
érêt	-1780
RO	-1781
ru	-1782
ADRC	-1783
▁pourrait	-1784
alités	-1785
▁effic	-1786
▁personnels	-1787
ujet	-1788
ection	-1789
enf	-1790
▁lui	-1791
▁Rés	-1792
émor	-1793
ange	-1794
▁me	-1795
▁Conseil	-1796
60	-1797
fications	-1798
embl	-1799
▁millions	-1800
▁ministre	-1801
▁jours	-1802
▁Ann	-1803
▁50	-1804
▁milieu	-1805
▁sol	-1806
▁Form	-1807
▁Ré	-1808
ulle	-1809
▁jeunes	-1810
ret	-1811
▁uti	-1812
eal	-1813
▁not	-1814
▁pairs	-1815
andum	-1816
▁Div	-1817
▁contribuable	-1818
dro	-1819
▁directrices	-1820
assurance	-1821
odes	-1822
DE	-1823
ième	-1824
▁2001	-1825
part	-1826
▁».	-1827
rés	-1828
émorandum	-1829
pital	-1830
objet	-1831
ore	-1832
▁cer	-1833
atre	-1834
▁id	-1835
▁qualité	-1836
▁Santé	-1837
uide	-1838
▁précis	-1839
ulletin	-1840
cell	-1841
-03	-1842
▁géné	-1843
cr	-1844
tissement	-1845
▁Ottawa	-1846
▁22	-1847
rez	-1848
▁Ren	-1849
▁prestations	-1850
éthique	-1851
ealth	-1852
resp	-1853
▁servir	-1854
▁continu	-1855
vironnement	-1856
▁nov	-1857
▁Autres	-1858
▁TÉU	-1859
▁Règ	-1860
▁dossi	-1861
▁lignes	-1862
▁remplir	-1863
(2	-1864
ativement	-1865
ints	-1866
▁Gr	-1867
▁soient	-1868
vant	-1869
▁accep	-1870
▁destin	-1871
▁premier	-1872
▁publi	-1873
pec	-1874
ribun	-1875
▁Toute	-1876
GM	-1877
amp	-1878
▁Ar	-1879
▁mi	-1880
udg	-1881
▁études	-1882
▁risque	-1883
▁donné	-1884
▁avril	-1885
.0	-1886
▁atte	-1887
▁perte	-1888
▁alim	-1889
ueur	-1890
itation	-1891
atériel	-1892
▁procéd	-1893
▁avons	-1894
▁TPMD	-1895
▁$)	-1896
ront	-1897
▁présenter	-1898
▁mettre	-1899
importation	-1900
▁cro	-1901
▁initiatives	-1902
liquer	-1903
ène	-1904
att	-1905
▁App	-1906
accès	-1907
▁conformément	-1908
ira	-1909
imin	-1910
▁>	-1911
forc	-1912
▁ép	-1913
▁pati	-1914
ritann	-1915
améli	-1916
▁disc	-1917
▁évalu	-1918
▁déj	-1919
▁particuliers	-1920
axim	-1921
lè	-1922
▁rôle	-1923
▁nationale	-1924
illeurs	-1925
▁inform	-1926
▁paiements	-1927
berta	-1928
▁oblig	-1929
▁exigences	-1930
▁autochtones	-1931
▁populations	-1932
respond	-1933
▁administra	-1934
▁suivant	-1935
▁directeur	-1936
truc	-1937
▁économ	-1938
▁choix	-1939
▁phy	-1940
ACI	-1941
ples	-1942
▁the	-1943
▁crit	-1944
▁puis	-1945
▁clinique	-1946
▁KGM	-1947
cide	-1948
▁relatives	-1949
▁tarifaire	-1950
▁cinq	-1951
ritannique	-1952
▁origin	-1953
léments	-1954
▁rév	-1955
▁utiliser	-1956
ression	-1957
▁pol	-1958
▁enregistr	-1959
▁fournisse	-1960
▁Dem	-1961
▁offici	-1962
▁notamment	-1963
▁cotisations	-1964
▁payé	-1965
▁subs	-1966
▁principal	-1967
▁neur	-1968
▁correspond	-1969
ote	-1970
expl	-1971
▁méthode	-1972
▁Cal	-1973
▁sciences	-1974
▁class	-1975
▁population	-1976
▁envoy	-1977
irm	-1978
▁Nouv	-1979
ification	-1980
▁marché	-1981
ombie	-1982
▁1,	-1983
▁voyage	-1984
-9	-1985
éthyl	-1986
eront	-1987
PP	-1988
ource	-1989
ds	-1990
inf	-1991
arer	-1992
anti	-1993
▁physi	-1994
raî	-1995
▁transfert	-1996
▁comprend	-1997
▁septembre	-1998
seignement	-1999
alyse	-2000
pendant	-2001
▁précéd	-2002
▁provenant	-2003
êt	-2004
▁fav	-2005
▁Ad	-2006
ustrie	-2007
érer	-2008
▁maxim	-2009
ulg	-2010
réal	-2011
▁oct	-2012
▁applic	-2013
arb	-2014
.-	-2015
▁23	-2016
▁compt	-2017
TR	-2018
itaire	-2019
PC	-2020
erre	-2021
élaboration	-2022
▁quatre	-2023
▁maladie	-2024
IM	-2025
ivi	-2026
aff	-2027
▁ord	-2028
erts	-2029
▁instituts	-2030
▁compos	-2031
ration	-2032
inte	-2033
▁post	-2034
▁référence	-2035
pédi	-2036
▁termin	-2037
▁rep	-2038
ications	-2039
▁Rép	-2040
▁devrait	-2041
euvre	-2042
▁celui	-2043
▁stratégiques	-2044
ourse	-2045
▁Man	-2046
▁partenariats	-2047
▁faut	-2048
▁gen	-2049
oxy	-2050
igine	-2051
dessus	-2052
éraux	-2053
tenant	-2054
▁terme	-2055
▁pén	-2056
ettes	-2057
▁parties	-2058
▁supéri	-2059
Al	-2060
SE	-2061
-5	-2062
adresse	-2063
-01	-2064
use	-2065
70	-2066
▁vig	-2067
▁nécessaire	-2068
▁Th	-2069
▁déf	-2070
▁place	-2071
▁augment	-2072
▁sc	-2073
▁raison	-2074
▁articles	-2075
arch	-2076
12	-2077
▁agric	-2078
▁don	-2079
▁mondi	-2080
▁renforc	-2081
MENT	-2082
érations	-2083
▁partenariat	-2084
▁devant	-2085
Britannique	-2086
▁international	-2087
▁IT	-2088
▁éléments	-2089
▁vieil	-2090
équipe	-2091
▁mai	-2092
▁Ind	-2093
▁juillet	-2094
▁LA	-2095
actions	-2096
▁Tr	-2097
▁modè	-2098
▁tant	-2099
▁chois	-2100
ses	-2101
TA	-2102
▁budg	-2103
net	-2104
▁examin	-2105
▁inscrit	-2106
▁subséqu	-2107
▁attribu	-2108
▁intérêts	-2109
▁INC	-2110
omme	-2111
rication	-2112
▁Inscrivez	-2113
▁obten	-2114
ipes	-2115
▁assujet	-2116
autre	-2117
▁Lorsque	-2118
▁Montréal	-2119
otion	-2120
▁raisonn	-2121
▁fabrication	-2122
▁relativement	-2123
▁publications	-2124
ducation	-2125
cour	-2126
origine	-2127
▁Min	-2128
eures	-2129
▁appropri	-2130
tructure	-2131
rir	-2132
▁utilisés	-2133
obre	-2134
▁vigueur	-2135
▁électronique	-2136
meuble	-2137
▁Ag	-2138
prét	-2139
iquer	-2140
agit	-2141
▁aj	-2142
opie	-2143
▁permis	-2144
▁comport	-2145
▁VIH	-2146
▁(6	-2147
▁permett	-2148
▁caract	-2149
▁systèmes	-2150
▁voi	-2151
IL	-2152
▁Toutefois	-2153
asse	-2154
auf	-2155
▁Instituts	-2156
per	-2157
▁douane	-2158
▁commerciales	-2159
CH	-2160
dis	-2161
▁(000	-2162
▁règles	-2163
▁avis	-2164
▁CAN	-2165
▁Inter	-2166
▁ON	-2167
▁catégorie	-2168
▁preu	-2169
▁Colombie	-2170
▁fig	-2171
▁conse	-2172
étaire	-2173
▁DES	-2174
▁possible	-2175
▁e	-2176
▁syn	-2177
▁bénéficiaire	-2178
▁fais	-2179
▁compren	-2180
ableau	-2181
tionnaire	-2182
▁financière	-2183
ût	-2184
ribunal	-2185
▁cellules	-2186
PA	-2187
▁important	-2188
▁communiquer	-2189
rem	-2190
lais	-2191
veill	-2192
▁char	-2193
▁déjà	-2194
enquête	-2195
EL	-2196
▁facteurs	-2197
▁Fond	-2198
ination	-2199
▁TACI	-2200
▁Revenu	-2201
▁gra	-2202
▁vieillissement	-2203
▁proc	-2204
tière	-2205
ii	-2206
▁z	-2207
indre	-2208
grès	-2209
SM	-2210
tat	-2211
oncé	-2212
▁tenu	-2213
▁auprès	-2214
▁durant	-2215
ordonn	-2216
▁che	-2217
▁étaient	-2218
▁Health	-2219
oph	-2220
▁198	-2221
▁consultez	-2222
▁institu	-2223
▁pièces	-2224
lier	-2225
-8	-2226
écution	-2227
identi	-2228
▁intég	-2229
▁perman	-2230
-02	-2231
▁établiss	-2232
hn	-2233
US	-2234
issent	-2235
▁Total	-2236
▁réponse	-2237
exes	-2238
labor	-2239
▁travaux	-2240
ick	-2241
▁détaill	-2242
▁lesqu	-2243
▁principaux	-2244
▁travaille	-2245
appliqu	-2246
▁Im	-2247
▁facil	-2248
▁mentale	-2249
▁candidats	-2250
▁méc	-2251
▁critères	-2252
▁REER	-2253
▁compét	-2254
▁net	-2255
▁Règlement	-2256
▁communication	-2257
intention	-2258
▁liées	-2259
oth	-2260
▁liés	-2261
▁réduire	-2262
▁création	-2263
CR	-2264
évrier	-2265
▁eu	-2266
▁scientifiques	-2267
▁répar	-2268
▁commandes	-2269
▁améliorer	-2270
▁matières	-2271
▁all	-2272
isl	-2273
orts	-2274
▁rendement	-2275
▁Autochtones	-2276
oli	-2277
▁avait	-2278
ask	-2279
appro	-2280
apitre	-2281
▁TPAC	-2282
▁forme	-2283
▁ret	-2284
▁technologie	-2285
▁cop	-2286
▁prestation	-2287
▁Décl	-2288
▁utilisé	-2289
▁possibilités	-2290
achat	-2291
ron	-2292
▁étant	-2293
graph	-2294
ran	-2295
riel	-2296
▁inves	-2297
▁"	-2298
▁valeurs	-2299
▁Inc	-2300
▁nég	-2301
▁Montant	-2302
ocation	-2303
▁elles	-2304
lob	-2305
lor	-2306
ôles	-2307
▁www	-2308
▁ministère	-2309
▁rap	-2310
IG	-2311
▁font	-2312
54	-2313
▁importations	-2314
▁500	-2315
▁directement	-2316
▁chac	-2317
▁40	-2318
▁subséquente	-2319
▁celle	-2320
▁Ontario	-2321
▁type	-2322
tier	-2323
▁fournitures	-2324
▁prévention	-2325
areils	-2326
ouvent	-2327
▁bulletin	-2328
issez	-2329
intérêt	-2330
▁initiative	-2331
▁client	-2332
.10	-2333
▁termes	-2334
▁90	-2335
▁Elle	-2336
▁distin	-2337
étude	-2338
▁â	-2339
▁Command	-2340
-7	-2341
tex	-2342
▁très	-2343
▁changement	-2344
.3	-2345
ssoci	-2346
ograph	-2347
▁achet	-2348
industrie	-2349
▁problèmes	-2350
________________	-2351
ciplin	-2352
rite	-2353
ilisation	-2354
▁28	-2355
▁PD	-2356
▁planification	-2357
▁as	-2358
▁sein	-2359
▁inclu	-2360
▁situation	-2361
▁surveill	-2362
▁mentionn	-2363
▁habitu	-2364
dessous	-2365
▁crédits	-2366
isme	-2367
▁mieux	-2368
laborer	-2369
▁29	-2370
▁février	-2371
▁fournis	-2372
▁OF	-2373
▁corp	-2374
CE	-2375
▁novembre	-2376
rant	-2377
▁êtes	-2378
▁clients	-2379
▁devraient	-2380
avantage	-2381
▁poursu	-2382
▁respec	-2383
▁Dre	-2384
▁patients	-2385
▁résidence	-2386
rig	-2387
▁26	-2388
duit	-2389
▁pratiques	-2390
élécopie	-2391
▁depuis	-2392
4)	-2393
▁constru	-2394
▁calculer	-2395
▁culturel	-2396
▁octobre	-2397
core	-2398
▁oeuvre	-2399
ock	-2400
ensib	-2401
▁direction	-2402
▁Commande	-2403
▁sus	-2404
-06	-2405
▁ailleurs	-2406
uyer	-2407
▁peti	-2408
ow	-2409
▁chercheur	-2410
▁Soci	-2411
GE	-2412
▁subventionn	-2413
▁inv	-2414
▁conséquent	-2415
téress	-2416
▁pension	-2417
▁apport	-2418
▁autom	-2419
▁grande	-2420
▁lic	-2421
importateur	-2422
-6	-2423
▁législ	-2424
▁avantages	-2425
ary	-2426
itob	-2427
▁celles	-2428
▁élevé	-2429
UN	-2430
servation	-2431
uc	-2432
▁décisions	-2433
▁tit	-2434
▁acquis	-2435
▁approuv	-2436
▁supplémentaires	-2437
▁Vale	-2438
▁comb	-2439
ament	-2440
ensemble	-2441
▁Ph	-2442
▁suivante	-2443
▁Je	-2444
appliquent	-2445
âce	-2446
▁Ligne	-2447
prétation	-2448
41	-2449
▁prendre	-2450
cent	-2451
▁veuillez	-2452
crire	-2453
hab	-2454
▁60	-2455
ates	-2456
▁encore	-2457
▁2.	-2458
▁res	-2459
▁comprendre	-2460
AU	-2461
▁Déclar	-2462
▁déduire	-2463
▁définition	-2464
lex	-2465
aître	-2466
▁estim	-2467
▁neu	-2468
3)	-2469
ffis	-2470
▁sembl	-2471
iquement	-2472
crits	-2473
yc	-2474
▁partir	-2475
▁val	-2476
▁immun	-2477
▁actions	-2478
▁pouvoir	-2479
▁Res	-2480
▁maj	-2481
dic	-2482
,5	-2483
cellence	-2484
▁rapports	-2485
enz	-2486
exploit	-2487
▁27	-2488
▁vise	-2489
▁manière	-2490
▁favoris	-2491
▁particulière	-2492
▁ventes	-2493
-10	-2494
▁Recherche	-2495
▁nécessaires	-2496
ulation	-2497
▁adop	-2498
disciplin	-2499
assurer	-2500
▁médecine	-2501
ventions	-2502
askat	-2503
tient	-2504
▁pourraient	-2505
▁disponibles	-2506
ST	-2507
wan	-2508
erve	-2509
▁sem	-2510
▁établir	-2511
▁report	-2512
ras	-2513
▁cliniques	-2514
oux	-2515
▁Cons	-2516
▁charg	-2517
usion	-2518
étrang	-2519
▁génétique	-2520
oids	-2521
▁pu	-2522
itoba	-2523
▁Ste	-2524
MB	-2525
▁exportateurs	-2526
▁proch	-2527
élécopieur	-2528
aud	-2529
▁internationale	-2530
ner	-2531
▁Tarif	-2532
▁Chine	-2533
▁simp	-2534
▁donc	-2535
▁prépar	-2536
ume	-2537
ense	-2538
earch	-2539
▁retra	-2540
▁Renseignements	-2541
▁él	-2542
▁taxes	-2543
orme	-2544
▁conserv	-2545
orisation	-2546
CC	-2547
▁vi	-2548
mi	-2549
▁tel	-2550
▁encour	-2551
mettre	-2552
13)	-2553
▁règlement	-2554
▁application	-2555
étranger	-2556
▁provinces	-2557
fier	-2558
▁mémorandum	-2559
ussions	-2560
▁secteurs	-2561
▁Sub	-2562
ID	-2563
bi	-2564
▁Z	-2565
IP	-2566
POR	-2567
ges	-2568
erne	-2569
▁mécanis	-2570
▁établissements	-2571
▁rest	-2572
▁dépend	-2573
▁AN	-2574
▁inst	-2575
▁tab	-2576
▁Rég	-2577
osé	-2578
▁bas	-2579
▁Valeur	-2580
ape	-2581
▁fiscaux	-2582
cup	-2583
Au	-2584
▁essenti	-2585
4.	-2586
▁permettre	-2587
yn	-2588
▁charge	-2589
▁modifications	-2590
▁Jo	-2591
▁amor	-2592
▁cib	-2593
▁serait	-2594
▁Rapport	-2595
cons	-2596
▁établissement	-2597
missibilité	-2598
▁équipes	-2599
art	-2600
▁lien	-2601
6.	-2602
com	-2603
▁Selon	-2604
odi	-2605
titul	-2606
▁satis	-2607
-12	-2608
▁sociale	-2609
▁feuillet	-2610
-05	-2611
▁mess	-2612
aments	-2613
72	-2614
▁met	-2615
▁lang	-2616
▁président	-2617
▁poste	-2618
▁consultatif	-2619
fs	-2620
▁ref	-2621
▁intitul	-2622
▁reçus	-2623
cher	-2624
▁guide	-2625
▁étudiants	-2626
▁Saskat	-2627
--	-2628
▁code	-2629
▁front	-2630
▁imposable	-2631
▁poids	-2632
umé	-2633
▁résident	-2634
▁financiers	-2635
▁changements	-2636
-11	-2637
▁Demande	-2638
▁provinciaux	-2639
▁recommandations	-2640
riv	-2641
▁preuve	-2642
▁prés	-2643
▁publication	-2644
▁lois	-2645
oupe	-2646
▁Cependant	-2647
arque	-2648
activité	-2649
vous	-2650
▁Ministère	-2651
▁Ob	-2652
▁budget	-2653
▁jou	-2654
ditionn	-2655
texte	-2656
ciences	-2657
▁provisoire	-2658
ht	-2659
▁réput	-2660
▁Manitoba	-2661
▁Téléphone	-2662
▁aider	-2663
viron	-2664
▁Trans	-2665
▁util	-2666
▁Cl	-2667
▁Sh	-2668
▁Déc	-2669
▁centres	-2670
tation	-2671
employé	-2672
atique	-2673
erie	-2674
portateur	-2675
OL	-2676
DI	-2677
sy	-2678
▁Cont	-2679
▁normes	-2680
▁intervenants	-2681
▁formulaires	-2682
▁rev	-2683
▁meille	-2684
▁importées	-2685
5.	-2686
▁âg	-2687
▁scol	-2688
▁(613)	-2689
airement	-2690
▁aucun	-2691
AT	-2692
Autres	-2693
31	-2694
▁consomm	-2695
dre	-2696
osse	-2697
ulgation	-2698
MSI	-2699
▁2000	-2700
VE	-2701
▁succ	-2702
▁matériel	-2703
▁mun	-2704
▁territori	-2705
▁agents	-2706
▁ET	-2707
▁professionnels	-2708
-04	-2709
▁consulter	-2710
çu	-2711
▁TCR	-2712
▁début	-2713
▁modifi	-2714
▁PDF	-2715
▁acqu	-2716
▁position	-2717
▁Rem	-2718
▁aliment	-2719
emple	-2720
▁cri	-2721
▁frontal	-2722
▁logement	-2723
▁infec	-2724
▁regis	-2725
▁Déclaration	-2726
oun	-2727
▁humaines	-2728
▁tiss	-2729
.)	-2730
chewan	-2731
irs	-2732
▁Prem	-2733
▁sim	-2734
▁Acc	-2735
▁méthodes	-2736
▁appar	-2737
rique	-2738
usage	-2739
éducation	-2740
AM	-2741
▁outil	-2742
▁tenir	-2743
▁tels	-2744
▁ax	-2745
ologiques	-2746
▁recevoir	-2747
avis	-2748
observation	-2749
▁Fin	-2750
▁alors	-2751
▁ouv	-2752
▁voie	-2753
▁sensib	-2754
▁Research	-2755
aces	-2756
▁domm	-2757
▁confidenti	-2758
imm	-2759
▁cotisation	-2760
▁maintenant	-2761
atoire	-2762
▁disponible	-2763
▁Ret	-2764
▁opérations	-2765
▁location	-2766
▁dossier	-2767
▁bourse	-2768
▁membre	-2769
▁concerne	-2770
interprétation	-2771
▁plupart	-2772
▁TVH	-2773
▁Frais	-2774
▁donner	-2775
IR	-2776
-(	-2777
▁lettre	-2778
rain	-2779
▁Directeur	-2780
SMT	-2781
▁diab	-2782
▁produc	-2783
▁version	-2784
▁bénéfic	-2785
▁limite	-2786
obil	-2787
▁TPG	-2788
▁Haut	-2789
▁durée	-2790
▁relatif	-2791
▁provincial	-2792
auté	-2793
af	-2794
▁fai	-2795
59	-2796
▁indique	-2797
▁transpor	-2798
▁fédérale	-2799
▁Division	-2800
▁Nouvelle	-2801
▁Am	-2802
▁genre	-2803
▁Commentaires	-2804
▁surveillance	-2805
▁fiscale	-2806
▁risques	-2807
ésité	-2808
▁trouve	-2809
ING	-2810
▁dernier	-2811
arc	-2812
▁stratégies	-2813
▁rendu	-2814
▁fra	-2815
▁Imp	-2816
lection	-2817
▁mondiale	-2818
▁exerc	-2819
▁organisations	-2820
IRSC	-2821
trice	-2822
▁gains	-2823
▁tox	-2824
▁pratique	-2825
▁stratégie	-2826
▁exon	-2827
▁Lt	-2828
▁McG	-2829
seur	-2830
▁mach	-2831
▁promotion	-2832
▁fer	-2833
mise	-2834
1.	-2835
▁participer	-2836
ommaire	-2837
▁réglement	-2838
▁six	-2839
aille	-2840
▁Code	-2841
sych	-2842
ouan	-2843
19	-2844
▁répondre	-2845
appel	-2846
▁Conse	-2847
▁privée	-2848
icip	-2849
▁Su	-2850
▁indiqué	-2851
▁$.	-2852
▁vende	-2853
ancement	-2854
▁Tribunal	-2855
issant	-2856
▁physique	-2857
▁payée	-2858
AP	-2859
▁hand	-2860
▁AS	-2861
▁sommes	-2862
▁Cor	-2863
▁pertes	-2864
▁Saskatchewan	-2865
▁généralement	-2866
▁caus	-2867
▁efforts	-2868
ionn	-2869
2.	-2870
▁att	-2871
▁indép	-2872
▁compar	-2873
▁éth	-2874
▁comités	-2875
▁tard	-2876
excellence	-2877
ry	-2878
▁consent	-2879
ureaux	-2880
▁infectie	-2881
▁procédures	-2882
▁hommes	-2883
exécution	-2884
oct	-2885
▁circons	-2886
off	-2887
▁jur	-2888
icap	-2889
▁TMÉU	-2890
▁tex	-2891
▁transfér	-2892
▁seu	-2893
▁expéri	-2894
▁imprim	-2895
▁réduction	-2896
▁2,	-2897
initiative	-2898
engag	-2899
▁créer	-2900
▁dernière	-2901
fait	-2902
▁somme	-2903
▁entraî	-2904
▁handicap	-2905
▁Comme	-2906
▁représentant	-2907
▁bois	-2908
▁inscrivez	-2909
appliquer	-2910
▁spécialis	-2911
▁canadiennes	-2912
oule	-2913
▁conv	-2914
▁communauté	-2915
idi	-2916
roî	-2917
sida	-2918
▁infectieuses	-2919
trement	-2920
▁suit	-2921
ssociation	-2922
▁intéress	-2923
▁&	-2924
▁case	-2925
▁décès	-2926
▁effets	-2927
▁fourni	-2928
▁faits	-2929
▁Ac	-2930
▁rempli	-2931
▁DU	-2932
▁véhicule	-2933
▁monde	-2934
tificat	-2935
▁inclure	-2936
uvre	-2937
▁famille	-2938
▁numéros	-2939
anglais	-2940
▁retenues	-2941
▁actuellement	-2942
Éc	-2943
▁raj	-2944
▁pris	-2945
▁spor	-2946
▁CANAD	-2947
▁expédi	-2948
▁CTI	-2949
ension	-2950
rom	-2951
▁touch	-2952
QU	-2953
accord	-2954
▁CO	-2955
▁évent	-2956
▁outre	-2957
ke	-2958
▁exist	-2959
▁licence	-2960
▁3.	-2961
oût	-2962
ouvoir	-2963
▁examen	-2964
der	-2965
▁dél	-2966
Alberta	-2967
eaux	-2968
hydro	-2969
centage	-2970
ity	-2971
▁Nord	-2972
▁tot	-2973
▁distribu	-2974
▁assurer	-2975
▁raisonnable	-2976
▁Mich	-2977
9.	-2978
▁Institu	-2979
▁accept	-2980
once	-2981
▁paie	-2982
évalu	-2983
▁Veuillez	-2984
▁vas	-2985
▁Avis	-2986
▁responsable	-2987
▁enquête	-2988
▁communautaire	-2989
▁candidat	-2990
▁différents	-2991
obésité	-2992
▁demandé	-2993
▁univers	-2994
▁Commission	-2995
▁réseau	-2996
▁supplémentaire	-2997
7.	-2998
▁descrip	-2999
▁médicaments	-3000
▁constitue	-3001
▁diabète	-3002
illers	-3003
▁prévoit	-3004
▁circul	-3005
érap	-3006
EX	-3007
▁fix	-3008
▁lequel	-3009
▁visée	-3010
alisation	-3011
▁deuxième	-3012
tances	-3013
-07	-3014
▁démont	-3015
▁déclarer	-3016
▁gouvernements	-3017
▁points	-3018
▁visite	-3019
▁minim	-3020
appui	-3021
▁véhicules	-3022
▁cardi	-3023
cédant	-3024
▁municip	-3025
▁représente	-3026
▁identif	-3027
(2)	-3028
dire	-3029
orité	-3030
▁modification	-3031
3.	-3032
ug	-3033
▁pap	-3034
▁fil	-3035
▁ple	-3036
urant	-3037
▁aucune	-3038
enseignement	-3039
uns	-3040
éré	-3041
IE	-3042
▁juste	-3043
ôpital	-3044
▁liens	-3045
▁universit	-3046
▁associés	-3047
ALA	-3048
entrée	-3049
▁Plan	-3050
▁Nouve	-3051
partie	-3052
▁85	-3053
▁appliqu	-3054
till	-3055
▁accès	-3056
▁portant	-3057
IV	-3058
▁possibilité	-3059
▁faisant	-3060
▁stat	-3061
▁Télécopieur	-3062
qué	-3063
yst	-3064
▁fournisseur	-3065
val	-3066
▁2006,	-3067
▁dons	-3068
▁règle	-3069
résident	-3070
▁grâce	-3071
CS	-3072
▁considéré	-3073
ividu	-3074
▁instru	-3075
admissibilité	-3076
8.	-3077
tivement	-3078
▁consentement	-3079
▁toxic	-3080
15	-3081
▁sociaux	-3082
améliorer	-3083
▁source	-3084
▁circonstances	-3085
▁réf	-3086
▁contrô	-3087
▁respect	-3088
-09	-3089
▁simil	-3090
intég	-3091
AND	-3092
▁déten	-3093
aci	-3094
uté	-3095
▁relatifs	-3096
oman	-3097
▁collectivités	-3098
▁dommage	-3099
▁inclus	-3100
▁plac	-3101
▁sens	-3102
▁rendre	-3103
illets	-3104
ipement	-3105
▁divid	-3106
▁fret	-3107
imes	-3108
jours	-3109
▁frontaliers	-3110
▁LMSI	-3111
▁McGill	-3112
▁décrit	-3113
▁employé	-3114
▁importante	-3115
intes	-3116
▁Remarque	-3117
hr	-3118
uel	-3119
urée	-3120
▁suffis	-3121
ésidents	-3122
▁connexes	-3123
▁esp	-3124
▁Fondation	-3125
uré	-3126
22	-3127
aliser	-3128
▁représentants	-3129
▁haut	-3130
▁fiscal	-3131
rière	-3132
▁diverses	-3133
▁Créd	-3134
cont	-3135
▁énonc	-3136
▁nette	-3137
ospital	-3138
▁modèle	-3139
▁copie	-3140
▁principale	-3141
INSMT	-3142
▁spéciales	-3143
ties	-3144
▁John	-3145
tel	-3146
iller	-3147
▁tabac	-3148
▁tableau	-3149
▁Courriel	-3150
▁commerciale	-3151
-2-	-3152
▁Ne	-3153
tenti	-3154
▁inféri	-3155
ros	-3156
▁organisation	-3157
ides	-3158
habitation	-3159
▁613	-3160
▁bénév	-3161
▁prise	-3162
ÉR	-3163
▁glob	-3164
▁indiquer	-3165
roître	-3166
▁RÉ	-3167
▁relative	-3168
PE	-3169
▁contribution	-3170
▁poly	-3171
▁nombreux	-3172
5)	-3173
▁gu	-3174
▁sauf	-3175
▁étude	-3176
jour	-3177
Écosse	-3178
▁payés	-3179
avez	-3180
dumping	-3181
▁Nombre	-3182
ane	-3183
▁emb	-3184
aison	-3185
▁publics	-3186
▁journ	-3187
▁commerce	-3188
férences	-3189
▁Description	-3190
après	-3191
▁relev	-3192
▁essais	-3193
▁chacun	-3194
clusion	-3195
▁profit	-3196
14	-3197
enne	-3198
novation	-3199
▁Annexe	-3200
▁centre	-3201
▁imposables	-3202
igration	-3203
lég	-3204
▁dû	-3205
▁naturel	-3206
▁ate	-3207
▁médi	-3208
▁responsab	-3209
▁livrais	-3210
▁potenti	-3211
iff	-3212
acités	-3213
▁32	-3214
▁réus	-3215
▁séri	-3216
itoy	-3217
▁CON	-3218
venue	-3219
▁agré	-3220
▁agricole	-3221
▁réexamen	-3222
agent	-3223
▁communautaires	-3224
▁environnement	-3225
▁porte	-3226
▁dépl	-3227
▁pil	-3228
atiques	-3229
▁NMB	-3230
▁davantage	-3231
▁Lorsqu	-3232
ologique	-3233
▁anté	-3234
-1,	-3235
▁Aide	-3236
▁aide	-3237
exportateur	-3238
-08	-3239
importance	-3240
▁parce	-3241
ET	-3242
▁35	-3243
▁comprennent	-3244
▁COM	-3245
▁régul	-3246
institu	-3247
▁trou	-3248
▁toujours	-3249
▁originaires	-3250
érés	-3251
inves	-3252
▁amélior	-3253
pôt	-3254
▁moyens	-3255
▁réunions	-3256
▁livres	-3257
▁pages	-3258
▁etc	-3259
▁contrepartie	-3260
effic	-3261
emment	-3262
▁mét	-3263
▁visu	-3264
▁activité	-3265
établir	-3266
▁viv	-3267
endes	-3268
▁]	-3269
▁Comp	-3270
DR	-3271
▁propriété	-3272
extérieur	-3273
organisation	-3274
utôt	-3275
▁PAR	-3276
urent	-3277
ith	-3278
▁poss	-3279
LA	-3280
▁exploit	-3281
onis	-3282
▁oc	-3283
ède	-3284
▁téléphone	-3285
▁écrit	-3286
▁clés	-3287
▁effectuée	-3288
▁jo	-3289
enfant	-3290
employeur	-3291
▁versement	-3292
▁PR	-3293
▁justific	-3294
▁importateurs	-3295
▁payable	-3296
▁bureaux	-3297
TM	-3298
▁sujets	-3299
▁applicable	-3300
▁toxicoman	-3301
▁RS	-3302
études	-3303
ényl	-3304
▁Formulaires	-3305
▁0,	-3306
▁communautés	-3307
▁Bien	-3308
▁contexte	-3309
▁Car	-3310
▁générales	-3311
▁dépos	-3312
▁conclusions	-3313
▁fron	-3314
▁w	-3315
▁bâ	-3316
méthyl	-3317
ards	-3318
▁maison	-3319
▁hau	-3320
▁mob	-3321
▁Groupe	-3322
sie	-3323
▁unique	-3324
air	-3325
nés	-3326
▁Pri	-3327
▁impôt	-3328
▁consac	-3329
▁Étab	-3330
éris	-3331
▁plain	-3332
▁vendu	-3333
échelle	-3334
▁faites	-3335
suite	-3336
▁prévu	-3337
▁juridi	-3338
wick	-3339
▁compens	-3340
▁doct	-3341
▁familles	-3342
échange	-3343
▁install	-3344
identif	-3345
▁LE	-3346
liers	-3347
▁protég	-3348
▁certain	-3349
▁août	-3350
OUR	-3351
▁psych	-3352
▁70	-3353
▁3,	-3354
▁ath	-3355
▁famili	-3356
▁incluant	-3357
▁donne	-3358
16	-3359
coup	-3360
▁financier	-3361
▁ens	-3362
▁décide	-3363
antill	-3364
▁compter	-3365
▁direct	-3366
▁descriptif	-3367
▁repas	-3368
enregis	-3369
Initiative	-3370
acier	-3371
▁immédi	-3372
▁traitements	-3373
▁exercice	-3374
éti	-3375
▁tempor	-3376
▁efficace	-3377
▁continue	-3378
43	-3379
▁existe	-3380
▁condition	-3381
▁capacités	-3382
IALA	-3383
▁généraux	-3384
ycl	-3385
▁exam	-3386
▁individu	-3387
▁requ	-3388
▁2006.	-3389
▁gagn	-3390
▁propriétaire	-3391
PR	-3392
▁uniquement	-3393
OT	-3394
▁sp	-3395
▁principes	-3396
eaucoup	-3397
▁registres	-3398
▁Devis	-3399
▁réserve	-3400
▁annuelle	-3401
▁deme	-3402
▁outils	-3403
▁annuel	-3404
▁techniques	-3405
91	-3406
UM	-3407
▁rencont	-3408
XE	-3409
▁plutôt	-3410
▁souches	-3411
▁souvent	-3412
uler	-3413
▁livraison	-3414
agi	-3415
▁bl	-3416
▁verser	-3417
▁provinciale	-3418
//	-3419
▁EN	-3420
ones	-3421
▁ve	-3422
▁renforcer	-3423
77	-3424
meubles	-3425
▁responsabilité	-3426
ttp	-3427
runs	-3428
cidence	-3429
▁Section	-3430
▁habituellement	-3431
▁vari	-3432
runswick	-3433
▁régions	-3434
▁permanent	-3435
exploitation	-3436
▁Ltd	-3437
▁fut	-3438
▁Nouveau	-3439
▁lut	-3440
▁social	-3441
://	-3442
tir	-3443
▁anim	-3444
▁mécanismes	-3445
achet	-3446
gary	-3447
▁Société	-3448
▁inscrits	-3449
▁pourcentage	-3450
▁présentation	-3451
▁déterminé	-3452
êmes	-3453
▁Cert	-3454
▁acier	-3455
▁fonctionn	-3456
▁types	-3457
irsc	-3458
▁comptes	-3459
▁obtenu	-3460
analyse	-3461
ducti	-3462
...	-3463
▁versements	-3464
▁trouver	-3465
▁durable	-3466
tend	-3467
▁conseils	-3468
▁Lignes	-3469
tone	-3470
▁rur	-3471
ablement	-3472
urr	-3473
lètes	-3474
▁taxables	-3475
4-	-3476
inscription	-3477
▁enregistré	-3478
▁Taux	-3479
▁emploi	-3480
mer	-3481
▁communications	-3482
énom	-3483
cihr	-3484
▁papier	-3485
atr	-3486
▁zone	-3487
occup	-3488
accueil	-3489
agnos	-3490
▁45	-3491
▁aéri	-3492
▁normales	-3493
▁CCI	-3494
▁statut	-3495
cool	-3496
inst	-3497
▁faible	-3498
chiv	-3499
▁exempl	-3500
arth	-3501
médi	-3502
hui	-3503
yle	-3504
▁succès	-3505
▁to	-3506
▁stock	-3507
▁effet	-3508
ordin	-3509
▁voir	-3510
▁Partie	-3511
▁résidents	-3512
htm	-3513
casion	-3514
▁sug	-3515
rut	-3516
environnement	-3517
▁lisez	-3518
▁commenc	-3519
▁compétences	-3520
▁hy	-3521
▁chef	-3522
▁CANADA	-3523
-18	-3524
▁fran	-3525
▁diffusion	-3526
âge	-3527
▁étranger	-3528
uk	-3529
quement	-3530
▁commercial	-3531
gne	-3532
▁Cel	-3533
ouverture	-3534
AE	-3535
▁appareils	-3536
▁doctorat	-3537
▁garde	-3538
▁révis	-3539
état	-3540
▁électroniques	-3541
▁promouvoir	-3542
▁faciliter	-3543
▁relations	-3544
––	-3545
▁fib	-3546
▁responsables	-3547
outes	-3548
46	-3549
42	-3550
▁vacc	-3551
▁permettant	-3552
▁Calgary	-3553
aissance	-3554
option	-3555
▁prévue	-3556
▁progrès	-3557
▁Exportateur	-3558
olution	-3559
▁distinc	-3560
▁Syst	-3561
▁principalement	-3562
▁contribuables	-3563
▁SR	-3564
ancouver	-3565
▁Subventions	-3566
▁48	-3567
▁Tous	-3568
▁déducti	-3569
▁Poli	-3570
cessib	-3571
pects	-3572
▁délai	-3573
▁antidumping	-3574
▁4.	-3575
▁opération	-3576
▁RC	-3577
ènes	-3578
▁Dép	-3579
▁influ	-3580
levée	-3581
ochtone	-3582
▁consultation	-3583
atistiques	-3584
▁immob	-3585
▁universités	-3586
ussion	-3587
▁Retour	-3588
▁Exemple	-3589
▁Ils	-3590
▁auxqu	-3591
▁CH	-3592
▁telle	-3593
▁producteurs	-3594
onde	-3595
▁Commun	-3596
▁The	-3597
armonis	-3598
▁Or	-3599
▁sais	-3600
duits	-3601
▁similaires	-3602
engagement	-3603
▁évaluation	-3604
▁travaill	-3605
▁permettra	-3606
▁sélection	-3607
areil	-3608
▁coll	-3609
▁99	-3610
▁PRO	-3611
▁chau	-3612
▁certificat	-3613
▁déli	-3614
▁rue	-3615
▁beaucoup	-3616
autorisation	-3617
▁80	-3618
▁concl	-3619
Brunswick	-3620
▁Pos	-3621
▁convention	-3622
partement	-3623
▁approche	-3624
▁marchande	-3625
▁action	-3626
▁No	-3627
éric	-3628
▁vendeur	-3629
▁internationales	-3630
▁transmission	-3631
▁appuyer	-3632
33	-3633
▁effectuées	-3634
ôts	-3635
▁Rob	-3636
▁renouv	-3637
6)	-3638
▁42	-3639
▁confirm	-3640
RA	-3641
oine	-3642
amélioration	-3643
▁Char	-3644
obtenir	-3645
▁article	-3646
▁55	-3647
▁AU	-3648
▁centr	-3649
▁pénalité	-3650
appr	-3651
atrim	-3652
active	-3653
▁stagi	-3654
▁second	-3655
▁favoriser	-3656
▁telles	-3657
▁Sommaire	-3658
enregistrement	-3659
▁Pub	-3660
veaux	-3661
▁territoire	-3662
irat	-3663
▁présenté	-3664
quisition	-3665
▁Institute	-3666
▁fonctions	-3667
idém	-3668
ologies	-3669
▁diagnos	-3670
▁économique	-3671
▁importants	-3672
iz	-3673
▁DÉ	-3674
▁viol	-3675
▁autochtone	-3676
▁Impôt	-3677
▁suc	-3678
▁garan	-3679
▁plein	-3680
▁gain	-3681
▁chapitre	-3682
atric	-3683
▁antéri	-3684
▁Sur	-3685
▁privé	-3686
▁test	-3687
▁jug	-3688
▁mus	-3689
▁sources	-3690
▁colonne	-3691
▁collabor	-3692
con	-3693
êche	-3694
iration	-3695
GI	-3696
utri	-3697
▁immeuble	-3698
▁commentaires	-3699
icile	-3700
▁dépendance	-3701
▁minist	-3702
omis	-3703
ublique	-3704
▁Régime	-3705
▁contenant	-3706
▁collectivité	-3707
▁plans	-3708
▁différentes	-3709
▁nav	-3710
▁avaient	-3711
▁série	-3712
▁tôles	-3713
iennent	-3714
immeuble	-3715
assi	-3716
▁sorte	-3717
▁fondament	-3718
toc	-3719
tionnelle	-3720
▁122	-3721
▁complex	-3722
▁détails	-3723
▁utilisées	-3724
▁utilisée	-3725
▁lesquelles	-3726
▁ém	-3727
▁versé	-3728
▁dossiers	-3729
État	-3730
▁PE	-3731
IF	-3732
▁39	-3733
▁Me	-3734
▁bénéficiaires	-3735
▁maximum	-3736
▁recueil	-3737
▁intitulée	-3738
▁classement	-3739
▁aura	-3740
▁communiqu	-3741
▁bon	-3742
66	-3743
▁athlètes	-3744
utiliser	-3745
▁consiste	-3746
▁Mo	-3747
atri	-3748
étro	-3749
▁Internet	-3750
rées	-3751
▁lar	-3752
efficacité	-3753
érique	-3754
▁rémun	-3755
▁accomp	-3756
▁aspects	-3757
icro	-3758
ordre	-3759
jectif	-3760
▁participant	-3761
ITY	-3762
▁Crédit	-3763
▁lib	-3764
tent	-3765
▁titulaire	-3766
▁pie	-3767
tro	-3768
ience	-3769
▁innov	-3770
▁financer	-3771
▁additionn	-3772
▁Agent	-3773
▁fils	-3774
onses	-3775
▁proté	-3776
▁feuillets	-3777
▁internationaux	-3778
▁équipe	-3779
▁enfant	-3780
rastructure	-3781
▁totalité	-3782
▁dividendes	-3783
XXXX	-3784
OP	-3785
▁Vancouver	-3786
▁ensuite	-3787
▁ensemble	-3788
▁Dis	-3789
▁37	-3790
▁retraite	-3791
17	-3792
truct	-3793
crimin	-3794
▁Alberta	-3795
▁état	-3796
istance	-3797
acquisition	-3798
▁situations	-3799
▁travailler	-3800
▁immunitaires	-3801
)(	-3802
je	-3803
▁soulig	-3804
▁transporteur	-3805
▁complète	-3806
la	-3807
html	-3808
▁traiter	-3809
▁II	-3810
▁lab	-3811
▁offerts	-3812
voi	-3813
▁structure	-3814
▁suivi	-3815
oulant	-3816
ting	-3817
▁exéc	-3818
▁dépass	-3819
▁financières	-3820
▁reçoit	-3821
▁niveaux	-3822
▁Se	-3823
▁financés	-3824
▁http	-3825
▁orient	-3826
▁Parten	-3827
résidents	-3828
ocu	-3829
▁troubles	-3830
▁salari	-3831
uit	-3832
carb	-3833
jourd	-3834
▁République	-3835
▁responsabilités	-3836
ège	-3837
▁lesquels	-3838
tice	-3839
▁enregistrés	-3840
▁détermination	-3841
▁38	-3842
▁vir	-3843
▁volont	-3844
▁effectué	-3845
▁LES	-3846
inc	-3847
hip	-3848
andes	-3849
▁cela	-3850
agement	-3851
▁respirat	-3852
▁ministères	-3853
ris	-3854
roit	-3855
▁Cela	-3856
▁prises	-3857
▁description	-3858
ival	-3859
▁nationaux	-3860
▁résultat	-3861
aisse	-3862
▁sexe	-3863
▁efficaces	-3864
excédant	-3865
▁COR	-3866
▁donnée	-3867
▁thèmes	-3868
gré	-3869
▁Divulgation	-3870
▁laborat	-3871
ince	-3872
nous	-3873
orel	-3874
▁nations	-3875
ANT	-3876
▁pal	-3877
ile	-3878
he	-3879
▁chiff	-3880
▁excep	-3881
▁lamin	-3882
25	-3883
entrepr	-3884
▁36	-3885
▁amples	-3886
▁contrôl	-3887
▁clairement	-3888
▁mainlevée	-3889
investissement	-3890
IRE	-3891
▁discu	-3892
-4-	-3893
47	-3894
▁ma	-3895
▁pertinents	-3896
expression	-3897
ende	-3898
▁époux	-3899
▁Avant	-3900
▁réputée	-3901
▁connaître	-3902
▁rapide	-3903
iez	-3904
orités	-3905
tax	-3906
▁Bourses	-3907
▁frontière	-3908
antité	-3909
▁observ	-3910
▁carrière	-3911
AB	-3912
▁i	-3913
▁sépar	-3914
▁Sport	-3915
dure	-3916
▁permettent	-3917
ouvre	-3918
37	-3919
HE	-3920
▁quelle	-3921
bation	-3922
▁Aux	-3923
▁Premières	-3924
▁bénéfices	-3925
▁paragraphes	-3926
88	-3927
olesc	-3928
▁Gen	-3929
▁évaluer	-3930
▁aliments	-3931
ork	-3932
fiés	-3933
expiration	-3934
ivre	-3935
▁ul	-3936
▁clinic	-3937
▁4,	-3938
▁Réponse	-3939
gent	-3940
lements	-3941
▁inscrire	-3942
▁discrimin	-3943
fer	-3944
▁souh	-3945
▁administr	-3946
son	-3947
leur	-3948
▁médias	-3949
agne	-3950
érée	-3951
▁commerciaux	-3952
▁Toutes	-3953
▁Guide	-3954
osciences	-3955
▁Conseillers	-3956
▁Revenus	-3957
MP	-3958
▁bre	-3959
▁fact	-3960
▁chron	-3961
▁citoy	-3962
▁déclaré	-3963
ian	-3964
▁1-8	-3965
▁obligations	-3966
atement	-3967
issance	-3968
atrimoine	-3969
ste	-3970
▁concurr	-3971
▁actuelle	-3972
▁problème	-3973
▁ASFC	-3974
▁exportées	-3975
▁régional	-3976
▁neuf	-3977
▁parmi	-3978
enn	-3979
▁exclu	-3980
▁lutte	-3981
▁remise	-3982
▁âgées	-3983
45	-3984
▁justif	-3985
ascul	-3986
▁heures	-3987
▁tenue	-3988
▁étrangers	-3989
disciplinaire	-3990
▁nombreuses	-3991
▁réputé	-3992
ak	-3993
0,00	-3994
tissements	-3995
▁travailleurs	-3996
▁coordonn	-3997
-31	-3998
up	-3999
▁quant	-4000
▁environ	-4001
▁prévues	-4002
▁communique	-4003
rop	-4004
▁Réun	-4005
-1-	-4006
▁RPC	-4007
▁613-9	-4008
▁questionnaire	-4009
istes	-4010
▁libre	-4011
▁dernières	-4012
èse	-4013
▁modèles	-4014
▁lanc	-4015
expéri	-4016
ienne	-4017
Ottawa	-4018
▁élabor	-4019
▁propres	-4020
▁Mémorandum	-4021
NA	-4022
▁Matériel	-4023
▁adjo	-4024
uels	-4025
▁logici	-4026
EC	-4027
▁hô	-4028
▁tissus	-4029
activités	-4030
▁Que	-4031
né	-4032
▁importantes	-4033
▁découver	-4034
uest	-4035
▁Bri	-4036
▁ordin	-4037
▁handicapées	-4038
▁accordé	-4039
▁formule	-4040
▁interventions	-4041
UL	-4042
alcool	-4043
TD	-4044
▁bâti	-4045
▁prê	-4046
ibles	-4047
iés	-4048
NEXE	-4049
aul	-4050
adap	-4051
▁cyc	-4052
▁parents	-4053
▁luc	-4054
▁présentées	-4055
▁médicaux	-4056
▁appu	-4057
ael	-4058
time	-4059
▁lucra	-4060
lications	-4061
euve	-4062
install	-4063
ild	-4064
apes	-4065
▁discipl	-4066
rad	-4067
▁requis	-4068
▁souhait	-4069
▁visualiser	-4070
32	-4071
▁For	-4072
▁recours	-4073
▁spécif	-4074
▁discussion	-4075
èle	-4076
ium	-4077
ood	-4078
arthrite	-4079
▁signal	-4080
▁désigné	-4081
▁publiques	-4082
38	-4083
▁réperc	-4084
▁décideurs	-4085
itions	-4086
▁codes	-4087
ilisations	-4088
▁petit	-4089
xy	-4090
▁décéd	-4091
▁affaires	-4092
▁agent	-4093
▁exemples	-4094
▁considérée	-4095
▁harmonis	-4096
OW	-4097
▁reçues	-4098
48	-4099
▁Prof	-4100
ices	-4101
▁vend	-4102
▁EX	-4103
▁fédéraux	-4104
adi	-4105
▁réponses	-4106
▁Durée	-4107
▁économiques	-4108
-3-	-4109
▁Entre	-4110
▁remplac	-4111
itées	-4112
▁priorité	-4113
▁proactive	-4114
ministre	-4115
▁dipl	-4116
ATI	-4117
▁75	-4118
équité	-4119
▁complet	-4120
▁producteur	-4121
onomie	-4122
▁ANNEXE	-4123
▁mor	-4124
▁conférence	-4125
▁tour	-4126
iennes	-4127
ald	-4128
onor	-4129
ataire	-4130
▁opp	-4131
▁occ	-4132
▁Indi	-4133
uer	-4134
▁bar	-4135
▁intr	-4136
▁Dépenses	-4137
▁solde	-4138
▁pensions	-4139
▁pêche	-4140
▁thérap	-4141
▁commis	-4142
inscrit	-4143
oléc	-4144
▁Programmes	-4145
35	-4146
TER	-4147
vie	-4148
▁Chapitre	-4149
atrice	-4150
éroport	-4151
IMII	-4152
▁prêt	-4153
▁dépense	-4154
▁contributions	-4155
ational	-4156
▁diffic	-4157
▁supérieur	-4158
-15	-4159
▁corre	-4160
▁ajou	-4161
TH	-4162
▁2007.	-4163
▁Rec	-4164
▁égal	-4165
▁lead	-4166
▁vaste	-4167
▁utilisation	-4168
hou	-4169
▁pers	-4170
OS	-4171
tée	-4172
▁nutri	-4173
ISPS	-4174
▁Après	-4175
ack	-4176
session	-4177
▁carb	-4178
▁mêmes	-4179
▁installations	-4180
▁eux	-4181
▁prép	-4182
▁soutenir	-4183
▁souff	-4184
enfants	-4185
OC	-4186
▁habit	-4187
▁avantage	-4188
▁(2)	-4189
▁pharm	-4190
TML	-4191
▁Vo	-4192
duite	-4193
▁évén	-4194
▁quantité	-4195
▁analy	-4196
▁prioritaires	-4197
même	-4198
▁Terre	-4199
▁49	-4200
tise	-4201
▁pied	-4202
▁constat	-4203
▁$,	-4204
▁utilisez	-4205
▁rajust	-4206
▁2004,	-4207
Neuve	-4208
urg	-4209
▁Titre	-4210
ible	-4211
▁visés	-4212
▁pouvant	-4213
▁fabric	-4214
▁construction	-4215
▁stagiaires	-4216
▁toxicomanies	-4217
▁coup	-4218
innovation	-4219
▁engagement	-4220
ié	-4221
emn	-4222
▁Réseau	-4223
▁Per	-4224
▁Michael	-4225
▁discrimination	-4226
▁GR	-4227
dule	-4228
▁Mise	-4229
▁adolesc	-4230
▁meu	-4231
▁Personn	-4232
tionnaires	-4233
▁exemplaires	-4234
▁%.	-4235
▁dirig	-4236
▁quelques	-4237
▁catégories	-4238
▁établis	-4239
▁suivre	-4240
▁précédente	-4241
of	-4242
▁règlements	-4243
▁prim	-4244
tine	-4245
▁sociales	-4246
▁95	-4247
▁accessib	-4248
200	-4249
▁moléc	-4250
étudi	-4251
▁plai	-4252
▁2005,	-4253
▁AD	-4254
▁dit	-4255
▁prend	-4256
▁DPA	-4257
▁déd	-4258
atelier	-4259
▁caractéris	-4260
ome	-4261
▁Autre	-4262
▁fiscales	-4263
▁lucratif	-4264
▁négoci	-4265
SA	-4266
▁bro	-4267
▁étapes	-4268
oteur	-4269
▁gens	-4270
▁dépasse	-4271
▁cong	-4272
▁Nouvelles	-4273
ership	-4274
arde	-4275
arité	-4276
▁Tra	-4277
▁utilisateurs	-4278
67	-4279
rance	-4280
▁chaires	-4281
▁possession	-4282
-20	-4283
▁autorisé	-4284
dition	-4285
▁nationales	-4286
OUS	-4287
ulté	-4288
▁voyages	-4289
▁importés	-4290
▁Ko	-4291
▁placement	-4292
endu	-4293
▁Politique	-4294
▁préparation	-4295
▁accordée	-4296
49	-4297
▁ait	-4298
ettres	-4299
▁manif	-4300
▁totale	-4301
▁Non	-4302
▁explo	-4303
▁répercussions	-4304
▁biom	-4305
▁industri	-4306
▁dess	-4307
▁synth	-4308
cédent	-4309
▁interne	-4310
▁réd	-4311
▁HTML	-4312
▁Résult	-4313
▁fibres	-4314
occasion	-4315
▁associé	-4316
▁entente	-4317
▁agricoles	-4318
▁satisf	-4319
▁élément	-4320
ertise	-4321
▁qual	-4322
▁défis	-4323
▁renseignement	-4324
/0	-4325
emin	-4326
ina	-4327
çais	-4328
▁bou	-4329
rivée	-4330
▁seule	-4331
▁analyse	-4332
▁temporaire	-4333
18	-4334
benz	-4335
▁discussions	-4336
▁placements	-4337
amine	-4338
▁champ	-4339
▁West	-4340
▁CR	-4341
▁Mme	-4342
aît	-4343
▁prog	-4344
▁2005.	-4345
▁moyenne	-4346
**	-4347
saire	-4348
▁tiers	-4349
Association	-4350
voy	-4351
▁près	-4352
▁réduit	-4353
pos	-4354
▁dimin	-4355
▁multiples	-4356
▁neurosciences	-4357
▁appels	-4358
attente	-4359
▁préoccup	-4360
ordination	-4361
▁reli	-4362
▁facture	-4363
▁Cherche	-4364
identification	-4365
quoi	-4366
▁Remb	-4367
▁visées	-4368
▁choisir	-4369
▁coop	-4370
iser	-4371
▁éché	-4372
▁déliv	-4373
ED	-4374
▁Ges	-4375
éhension	-4376
▁institution	-4377
ERV	-4378
▁Di	-4379
▁fabri	-4380
expérience	-4381
èque	-4382
▁créé	-4383
▁red	-4384
▁régionaux	-4385
▁bénévoles	-4386
▁arri	-4387
▁recettes	-4388
▁offert	-4389
▁reconnu	-4390
▁éthique	-4391
gan	-4392
▁Sous	-4393
▁ouver	-4394
PORT	-4395
75	-4396
▁LTD	-4397
dra	-4398
▁Ter	-4399
▁Déduction	-4400
▁lou	-4401
gl	-4402
Ar	-4403
▁2003,	-4404
▁collecte	-4405
▁réception	-4406
▁Év	-4407
utions	-4408
étaires	-4409
▁ordonn	-4410
▁comportement	-4411
▁propre	-4412
▁pièce	-4413
▁milieux	-4414
▁Cet	-4415
▁remplissez	-4416
▁constituent	-4417
▁52	-4418
idité	-4419
▁moteur	-4420
▁destinés	-4421
ulf	-4422
▁indépend	-4423
▁soumettre	-4424
vi	-4425
▁2007,	-4426
▁effectuer	-4427
▁(200	-4428
▁réuss	-4429
▁cou	-4430
▁employeur	-4431
entente	-4432
▁garantie	-4433
omptes	-4434
▁alimentaire	-4435
▁Dav	-4436
▁violence	-4437
▁communiquez	-4438
▁adolescents	-4439
▁5.	-4440
▁vision	-4441
▁consommation	-4442
▁corporation	-4443
▁technologies	-4444
intervention	-4445
▁rémunération	-4446
▁Mon	-4447
▁compagn	-4448
titude	-4449
▁défic	-4450
pit	-4451
▁98	-4452
alog	-4453
▁Même	-4454
▁300	-4455
▁motifs	-4456
▁petites	-4457
36	-4458
▁spécial	-4459
▁toutefois	-4460
▁AL	-4461
▁réserv	-4462
▁2004.	-4463
▁pénalités	-4464
itive	-4465
médiaire	-4466
▁(1)	-4467
▁commiss	-4468
ukon	-4469
▁engagés	-4470
▁hors	-4471
▁Hospital	-4472
▁intérieur	-4473
▁diagnostic	-4474
umul	-4475
▁1998	-4476
▁reti	-4477
▁faite	-4478
▁combin	-4479
▁bu	-4480
▁locaux	-4481
▁meilleure	-4482
,00	-4483
intérêts	-4484
augment	-4485
▁Chaque	-4486
▁soli	-4487
▁congrès	-4488
▁civ	-4489
▁face	-4490
▁SUR	-4491
▁trop	-4492
▁adul	-4493
▁égard	-4494
inn	-4495
▁Docu	-4496
▁propositions	-4497
▁Cer	-4498
abord	-4499
▁expos	-4500
▁propor	-4501
▁titulaires	-4502
▁renforcement	-4503
▁COMM	-4504
▁liée	-4505
expédi	-4506
▁trouverez	-4507
▁Afin	-4508
acts	-4509
▁fich	-4510
étique	-4511
▁Voici	-4512
▁diplô	-4513
▁Service	-4514
▁immédiatement	-4515
ren	-4516
▁technique	-4517
idémi	-4518
érone	-4519
▁Prix	-4520
3-	-4521
aur	-4522
▁versés	-4523
▁terrain	-4524
▁remboursements	-4525
▁san	-4526
immun	-4527
▁nomm	-4528
▁Depuis	-4529
▁pertinentes	-4530
amb	-4531
eter	-4532
▁postes	-4533
▁Réunion	-4534
▁compréhension	-4535
entiss	-4536
▁respecter	-4537
▁relation	-4538
En	-4539
autom	-4540
▁Bern	-4541
▁importe	-4542
▁considérés	-4543
▁opérationn	-4544
veur	-4545
▁concep	-4546
entretien	-4547
▁utilisant	-4548
▁territoriaux	-4549
rage	-4550
▁universitaire	-4551
réqu	-4552
▁langues	-4553
▁Formulaire	-4554
▁cu	-4555
▁Yukon	-4556
ennet	-4557
▁semblables	-4558
▁Établissement	-4559
venu	-4560
▁ban	-4561
▁détaillés	-4562
cevoir	-4563
▁Stratég	-4564
▁concert	-4565
▁découlant	-4566
▁humains	-4567
▁lettres	-4568
▁déterminée	-4569
uner	-4570
▁visé	-4571
issement	-4572
immigration	-4573
▁--	-4574
▁ST	-4575
▁occa	-4576
▁eng	-4577
▁départ	-4578
▁954	-4579
▁GST	-4580
▁laboratoire	-4581
ast	-4582
AA	-4583
édure	-4584
tées	-4585
▁Dét	-4586
▁34	-4587
▁provisionn	-4588
▁principales	-4589
rog	-4590
▁démar	-4591
▁David	-4592
▁Convention	-4593
ALE	-4594
lan	-4595
uelle	-4596
▁1-800	-4597
ustr	-4598
▁tri	-4599
ariat	-4600
position	-4601
▁consultations	-4602
▁élaborer	-4603
▁périodes	-4604
▁marge	-4605
ordinateurs	-4606
SP	-4607
éberg	-4608
ISCR	-4609
▁472	-4610
▁plainte	-4611
▁représentent	-4612
▁aujourd	-4613
▁applicables	-4614
çant	-4615
▁semblable	-4616
▁Pres	-4617
▁décid	-4618
▁grandes	-4619
▁Jus	-4620
▁Rembours	-4621
disciplinaires	-4622
amm	-4623
▁énum	-4624
▁auquel	-4625
De	-4626
ève	-4627
▁abord	-4628
▁table	-4629
▁National	-4630
▁ateliers	-4631
ia	-4632
▁mm	-4633
▁Liste	-4634
▁micro	-4635
▁normale	-4636
ancien	-4637
argent	-4638
▁exter	-4639
▁Accueil	-4640
▁particulières	-4641
mont	-4642
acheteur	-4643
▁conserver	-4644
▁path	-4645
▁financé	-4646
▁fondée	-4647
▁volume	-4648
▁objectif	-4649
▁calculé	-4650
▁affich	-4651
▁proposition	-4652
▁confl	-4653
▁préférence	-4654
▁Tableau	-4655
ésidente	-4656
▁1999	-4657
▁bonne	-4658
▁chargé	-4659
ARD	-4660
rige	-4661
riques	-4662
▁Agence	-4663
(3)	-4664
▁det	-4665
heure	-4666
▁Département	-4667
êtements	-4668
èces	-4669
YS	-4670
▁Li	-4671
▁coordination	-4672
▁Résumé	-4673
▁finale	-4674
▁modifier	-4675
▁Plus	-4676
▁considéra	-4677
▁protoc	-4678
ivile	-4679
▁civile	-4680
perçu	-4681
▁recev	-4682
▁achats	-4683
▁présentés	-4684
▁disciplines	-4685
▁2004-200	-4686
▁améric	-4687
▁800	-4688
ME	-4689
men	-4690
riez	-4691
oblig	-4692
▁examiner	-4693
▁machines	-4694
▁emp	-4695
MS	-4696
fié	-4697
▁CA	-4698
chlor	-4699
▁Direc	-4700
-19	-4701
doct	-4702
▁197	-4703
▁explique	-4704
ister	-4705
▁aurait	-4706
▁dix	-4707
▁infirm	-4708
▁prêts	-4709
tant	-4710
ciens	-4711
▁noter	-4712
▁intrants	-4713
▁33	-4714
▁endro	-4715
fection	-4716
▁dédouan	-4717
▁sensibilisation	-4718
ÉS	-4719
▁fréqu	-4720
▁reste	-4721
▁proposé	-4722
▁cliniciens	-4723
▁FER	-4724
7)	-4725
inform	-4726
▁salaire	-4727
atistique	-4728
▁téléph	-4729
▁raisons	-4730
▁présentée	-4731
▁visent	-4732
itiatives	-4733
poth	-4734
térieure	-4735
▁seraient	-4736
▁indiquant	-4737
▁fournisseurs	-4738
entissage	-4739
▁réseaux	-4740
▁Article	-4741
▁possibles	-4742
▁us	-4743
▁chim	-4744
TS	-4745
▁Ques	-4746
▁adap	-4747
▁animaux	-4748
équipement	-4749
▁respiratoire	-4750
ticul	-4751
phényl	-4752
▁titres	-4753
▁rou	-4754
▁ajout	-4755
▁Ã	-4756
▁Em	-4757
▁400	-4758
▁Fourn	-4759
▁croissance	-4760
▁repro	-4761
▁McM	-4762
▁Cotis	-4763
▁reçoivent	-4764
▁matéri	-4765
TPS	-4766
▁entière	-4767
▁versées	-4768
▁Certains	-4769
INMD	-4770
ouanes	-4771
institut	-4772
objectif	-4773
▁intérêt	-4774
▁indiqués	-4775
iles	-4776
▁sond	-4777
▁offer	-4778
▁65	-4779
hés	-4780
▁premiers	-4781
ISF	-4782
QUE	-4783
▁Ni	-4784
▁gam	-4785
▁pertinence	-4786
▁rapportant	-4787
ébergement	-4788
▁proposée	-4789
▁perç	-4790
DU	-4791
agerie	-4792
▁publié	-4793
▁commissaire	-4794
infrastructure	-4795
▁struct	-4796
auv	-4797
▁conç	-4798
0,000	-4799
▁note	-4800
▁État	-4801
tout	-4802
▁effec	-4803
ONT	-4804
▁exige	-4805
▁institutions	-4806
▁Auc	-4807
▁facteur	-4808
▁modalités	-4809
▁sugg	-4810
65	-4811
amide	-4812
▁réaliser	-4813
adaptation	-4814
EP	-4815
▁format	-4816
▁IS	-4817
▁Fonds	-4818
▁appui	-4819
▁restric	-4820
entremise	-4821
▁04	-4822
▁extérieur	-4823
▁superv	-4824
doctor	-4825
▁remplacement	-4826
▁OU	-4827
▁Rich	-4828
ISA	-4829
▁usage	-4830
▁caractère	-4831
▁Publications	-4832
▁conséquences	-4833
39	-4834
érées	-4835
▁Pe	-4836
incl	-4837
▁touchant	-4838
approbation	-4839
istage	-4840
▁reporter	-4841
▁écl	-4842
▁Calcul	-4843
▁retard	-4844
▁Tout	-4845
avenir	-4846
An	-4847
▁Douanes	-4848
▁contient	-4849
▁conception	-4850
▁exportations	-4851
înés	-4852
▁transformation	-4853
alim	-4854
▁BC	-4855
▁tend	-4856
▁dirige	-4857
▁2002,	-4858
▁58	-4859
ISTR	-4860
▁tub	-4861
aster	-4862
▁prochaine	-4863
----	-4864
▁offrir	-4865
▁exclusi	-4866
ataires	-4867
▁procédure	-4868
▁participante	-4869
abrad	-4870
agers	-4871
▁phot	-4872
▁désignés	-4873
installation	-4874
BL	-4875
▁vin	-4876
▁Votre	-4877
▁détax	-4878
▁Système	-4879
▁autrement	-4880
.00.00	-4881
abrador	-4882
▁utilise	-4883
▁Mal	-4884
▁passe	-4885
▁téléphon	-4886
-30	-4887
emps	-4888
▁terminant	-4889
▁Résultats	-4890
▁maintenir	-4891
▁Initiative	-4892
▁41	-4893
éance	-4894
▁fraction	-4895
▁,	-4896
▁plas	-4897
▁POUR	-4898
▁sang	-4899
uez	-4900
obilier	-4901
▁appropriée	-4902
▁84	-4903
▁cibl	-4904
)-	-4905
▁cr	-4906
meublement	-4907
▁87	-4908
▁radi	-4909
▁réparti	-4910
▁mandataire	-4911
▁Gu	-4912
▁approches	-4913
sté	-4914
▁récemment	-4915
▁amortissement	-4916
oins	-4917
ovascul	-4918
▁chacune	-4919
▁établie	-4920
▁Sud	-4921
▁plaign	-4922
affaires	-4923
▁quand	-4924
▁discuter	-4925
rité	-4926
▁territoires	-4927
iteur	-4928
▁police	-4929
vec	-4930
ology	-4931
stein	-4932
▁spéciaux	-4933
tés	-4934
▁révision	-4935
▁investissements	-4936
62	-4937
▁Fran	-4938
▁voit	-4939
▁crimin	-4940
eth	-4941
mises	-4942
▁juridiques	-4943
▁incor	-4944
appareil	-4945
▁officielles	-4946
▁DG	-4947
less	-4948
▁lié	-4949
exclusion	-4950
▁rapp	-4951
expédition	-4952
lez	-4953
essai	-4954
▁NE	-4955
▁consi	-4956
▁séance	-4957
▁indépendant	-4958
▁provisionnels	-4959
ONS	-4960
idé	-4961
▁rapid	-4962
ok	-4963
▁terre	-4964
ections	-4965
▁Cotisations	-4966
▁protéger	-4967
▁leadership	-4968
▁écoles	-4969
-17	-4970
tiennent	-4971
▁continuer	-4972
▁définitive	-4973
aill	-4974
▁Steel	-4975
▁maximale	-4976
SEA	-4977
imer	-4978
resser	-4979
▁figure	-4980
▁perfection	-4981
▁rapidement	-4982
▁documentation	-4983
▁Laval	-4984
idation	-4985
▁minimum	-4986
▁Bulletin	-4987
▁CORPOR	-4988
▁message	-4989
▁mentionné	-4990
ètres	-4991
▁provinciales	-4992
ANS	-4993
▁Site	-4994
apprentissage	-4995
sauf	-4996
accep	-4997
ventaire	-4998
sp	-4999
▁garanti	-5000
▁gouvernementaux	-5001
▁Notre	-5002
vin	-5003
tination	-5004
▁courante	-5005
rol	-5006
▁contribuer	-5007
▁conver	-5008
▁accompagn	-5009
▁restre	-5010
▁2001,	-5011
hib	-5012
orient	-5013
▁transactions	-5014
▁Corp	-5015
▁bail	-5016
▁portée	-5017
▁Sec	-5018
▁directeurs	-5019
▁Import	-5020
▁langue	-5021
28	-5022
éder	-5023
▁Mac	-5024
▁limites	-5025
▁contenu	-5026
▁établies	-5027
▁gard	-5028
▁adresse	-5029
▁dispos	-5030
▁renfer	-5031
▁Mes	-5032
▁médecins	-5033
▁expéditions	-5034
▁dépistage	-5035
.1)	-5036
▁puisse	-5037
▁amortiss	-5038
intégration	-5039
anges	-5040
▁obligatoire	-5041
ed	-5042
rons	-5043
▁gaz	-5044
CES	-5045
▁sex	-5046
▁désire	-5047
▁diversité	-5048
rid	-5049
▁ouvert	-5050
▁camp	-5051
▁Profes	-5052
estation	-5053
▁régimes	-5054
▁biologie	-5055
▁(5	-5056
▁HOUS	-5057
Acc	-5058
▁Fac	-5059
▁nutrition	-5060
▁maî	-5061
cepti	-5062
évaluées	-5063
▁AB	-5064
illi	-5065
▁corporel	-5066
▁provisoires	-5067
▁précisés	-5068
▁immeubles	-5069
61	-5070
bia	-5071
▁refus	-5072
▁envoyer	-5073
▁is	-5074
▁HOUSING	-5075
▁voyageurs	-5076
▁aînés	-5077
▁auxquels	-5078
▁Piè	-5079
▁chaud	-5080
▁scolarité	-5081
▁solutions	-5082
▁conformité	-5083
▁déterminés	-5084
abs	-5085
▁gamme	-5086
èrent	-5087
▁Ainsi	-5088
▁effectués	-5089
oti	-5090
▁anticip	-5091
▁expliqu	-5092
▁derniers	-5093
▁réalisation	-5094
-14	-5095
▁6.	-5096
▁Table	-5097
▁modifié	-5098
▁Colum	-5099
▁tâ	-5100
tish	-5101
accent	-5102
▁figurant	-5103
noncé	-5104
acqu	-5105
ennent	-5106
▁devra	-5107
▁mises	-5108
▁2005-200	-5109
▁français	-5110
▁culturels	-5111
▁assujettis	-5112
uits	-5113
▁TOT	-5114
▁privil	-5115
▁compensateurs	-5116
▁ko	-5117
▁déductions	-5118
▁CORPORATION	-5119
Ch	-5120
UNIC	-5121
était	-5122
▁émis	-5123
évelopp	-5124
igr	-5125
raction	-5126
obiles	-5127
▁participé	-5128
omique	-5129
▁transit	-5130
▁mention	-5131
▁Columbia	-5132
▁énoncées	-5133
▁demandeur	-5134
▁législation	-5135
tiers	-5136
▁financée	-5137
ah	-5138
▁faud	-5139
NG	-5140
▁Reg	-5141
tionnels	-5142
oign	-5143
érir	-5144
▁bâtiment	-5145
▁premières	-5146
▁dépôt	-5147
▁comptabilité	-5148
▁connaissance	-5149
▁décri	-5150
▁Sciences	-5151
▁troisième	-5152
▁façons	-5153
▁Case	-5154
▁vêtements	-5155
stém	-5156
▁retenir	-5157
▁atteindre	-5158
▁53	-5159
stac	-5160
▁1997	-5161
▁soumis	-5162
long	-5163
▁cycle	-5164
▁1231	-5165
enneté	-5166
effectu	-5167
limin	-5168
▁final	-5169
▁approuvé	-5170
▁Donn	-5171
▁(8	-5172
▁CP	-5173
associ	-5174
atrices	-5175
lish	-5176
tisation	-5177
▁5,	-5178
▁SA	-5179
▁exprim	-5180
ASS	-5181
empr	-5182
▁TOTAL	-5183
cession	-5184
▁détaillée	-5185
▁SRAS	-5186
ifie	-5187
▁situé	-5188
▁apportées	-5189
▁Bernstein	-5190
▁excl	-5191
▁copies	-5192
▁vérifier	-5193
▁professionnel	-5194
ical	-5195
lète	-5196
tront	-5197
▁mener	-5198
▁taxable	-5199
obligation	-5200
▁suscepti	-5201
▁presque	-5202
▁Stratégie	-5203
▁douleur	-5204
▁surtout	-5205
▁Medic	-5206
▁entraîne	-5207
▁prévenir	-5208
▁développer	-5209
▁Bi	-5210
▁reg	-5211
▁nécessité	-5212
étape	-5213
▁inférieur	-5214
▁08	-5215
▁distribution	-5216
▁Organis	-5217
TON	-5218
▁Tél	-5219
eneur	-5220
ISPP	-5221
▁grands	-5222
▁puisque	-5223
▁Remboursement	-5224
▁44	-5225
acte	-5226
▁Quoi	-5227
▁Unité	-5228
ètre	-5229
▁EDI	-5230
▁Association	-5231
▁différences	-5232
▁SERV	-5233
▁anglais	-5234
▁Destination	-5235
sez	-5236
▁er	-5237
examin	-5238
▁affili	-5239
▁venir	-5240
▁médicale	-5241
▁normalement	-5242
but	-5243
reur	-5244
▁contrats	-5245
▁Rep	-5246
▁Coût	-5247
▁broch	-5248
▁compéti	-5249
intérieur	-5250
-28	-5251
ross	-5252
▁formes	-5253
▁biomédic	-5254
IH	-5255
▁Eng	-5256
▁liqu	-5257
▁postdoctor	-5258
▁cardiovascul	-5259
inéas	-5260
▁systém	-5261
▁directe	-5262
urb	-5263
▁Op	-5264
azole	-5265
URE	-5266
▁At	-5267
riculture	-5268
▁Étant	-5269
▁59	-5270
luor	-5271
tuelle	-5272
amino	-5273
mon	-5274
pitaux	-5275
▁approprié	-5276
▁précise	-5277
Ouest	-5278
▁étape	-5279
▁échantill	-5280
qués	-5281
époux	-5282
▁Mobilier	-5283
ester	-5284
▁Dénom	-5285
national	-5286
▁Application	-5287
▁2000,	-5288
▁aérien	-5289
▁perspec	-5290
▁semaines	-5291
eut	-5292
▁2003.	-5293
▁causé	-5294
MENTS	-5295
▁accroître	-5296
▁régulière	-5297
ys	-5298
OCI	-5299
lo	-5300
atte	-5301
-22	-5302
anne	-5303
▁réussite	-5304
▁Dénomination	-5305
▁candidature	-5306
▁erre	-5307
entrepôt	-5308
▁différence	-5309
▁ameublement	-5310
▁brev	-5311
▁instructions	-5312
▁intégr	-5313
▁échéant	-5314
▁comptables	-5315
▁patrimoine	-5316
▁Roy	-5317
▁SERVIC	-5318
▁British	-5319
▁Ed	-5320
▁écrite	-5321
▁professeur	-5322
CTION	-5323
▁drog	-5324
▁recrut	-5325
▁annoncé	-5326
land	-5327
▁accr	-5328
onnes	-5329
ATIONS	-5330
▁Robert	-5331
▁rendue	-5332
ade	-5333
ames	-5334
adoption	-5335
▁transaction	-5336
▁vul	-5337
▁THE	-5338
▁Dal	-5339
▁périodi	-5340
▁assujetties	-5341
▁gros	-5342
▁haute	-5343
▁pourra	-5344
rits	-5345
▁adéqu	-5346
▁bless	-5347
▁joindre	-5348
▁chiffres	-5349
▁divulgation	-5350
1)	-5351
▁enj	-5352
▁comporte	-5353
▁encourage	-5354
▁déficience	-5355
agré	-5356
▁meilleurs	-5357
Éd	-5358
▁suffisamment	-5359
68	-5360
ays	-5361
▁cér	-5362
▁étage	-5363
▁législatives	-5364
-13	-5365
▁Ass	-5366
▁km	-5367
▁mens	-5368
▁partout	-5369
▁engagées	-5370
44	-5371
▁devient	-5372
▁taille	-5373
63	-5374
▁47	-5375
▁scolaire	-5376
clam	-5377
▁prochaines	-5378
▁universitaires	-5379
py	-5380
▁NEX	-5381
▁déch	-5382
jectifs	-5383
▁support	-5384
▁majorité	-5385
▁pourquoi	-5386
▁Conférence	-5387
▁envis	-5388
▁attribué	-5389
▁organisationn	-5390
▁administratives	-5391
ms	-5392
▁espèces	-5393
5013	-5394
ultés	-5395
▁unités	-5396
▁événements	-5397
▁travaillent	-5398
▁sti	-5399
▁mobil	-5400
isation	-5401
▁prévus	-5402
▁alimentaires	-5403
actez	-5404
ound	-5405
icateurs	-5406
▁carte	-5407
▁prolong	-5408
▁génétiques	-5409
▁concurrence	-5410
▁omis	-5411
▁locom	-5412
appuyer	-5413
▁regr	-5414
▁lancé	-5415
▁Processus	-5416
ographiques	-5417
▁expériment	-5418
▁déclare	-5419
▁trouvent	-5420
▁entièrement	-5421
eld	-5422
▁num	-5423
▁objet	-5424
igrants	-5425
ué	-5426
▁CN	-5427
▁Jeux	-5428
étiques	-5429
▁obstac	-5430
-16	-5431
▁Cent	-5432
▁découv	-5433
▁quelque	-5434
▁correspondant	-5435
▁tenus	-5436
▁directrice	-5437
itable	-5438
21	-5439
taxe	-5440
▁chin	-5441
▁visitez	-5442
▁renouvellement	-5443
▁thème	-5444
▁carbone	-5445
2)	-5446
dit	-5447
▁envers	-5448
hydroxy	-5449
obile	-5450
éthoxy	-5451
▁McMaster	-5452
IB	-5453
▁Gén	-5454
▁limit	-5455
missaire	-5456
alie	-5457
▁moi	-5458
▁états	-5459
▁parent	-5460
Or	-5461
▁Pai	-5462
▁centrale	-5463
▁local	-5464
atoires	-5465
▁Bourse	-5466
▁potentiel	-5467
exig	-5468
Toronto	-5469
▁évid	-5470
housie	-5471
▁internes	-5472
▁engagements	-5473
isé	-5474
▁SH	-5475
▁Rempl	-5476
incidence	-5477
èses	-5478
IDSEA	-5479
▁vendre	-5480
▁sert	-5481
▁Consul	-5482
▁prélimin	-5483
Pr	-5484
émie	-5485
impact	-5486
▁justificative	-5487
▁figurent	-5488
▁fabricant	-5489
▁justificatives	-5490
▁%,	-5491
▁fort	-5492
▁dim	-5493
▁stim	-5494
▁petite	-5495
▁traite	-5496
▁demeure	-5497
▁obtenus	-5498
▁exportés	-5499
▁Autorisation	-5500
ict	-5501
adre	-5502
aider	-5503
▁Paul	-5504
oigne	-5505
▁actuel	-5506
▁coh	-5507
98	-5508
Qu	-5509
SC	-5510
▁auront	-5511
▁équival	-5512
▁Winn	-5513
ciation	-5514
▁recouvre	-5515
▁transmettre	-5516
rac	-5517
ipeg	-5518
tités	-5519
▁gestionnaires	-5520
oncer	-5521
▁gènes	-5522
OI	-5523
▁mode	-5524
entiel	-5525
▁Location	-5526
▁caractères	-5527
▁élè	-5528
▁chroniques	-5529
dé	-5530
▁Modi	-5531
▁NEXUS	-5532
▁accid	-5533
▁manque	-5534
▁pilote	-5535
▁résumé	-5536
▁signifie	-5537
▁vice	-5538
-[	-5539
▁51	-5540
▁56	-5541
ilib	-5542
Accord	-5543
▁adultes	-5544
▁devenir	-5545
▁TR	-5546
▁proposées	-5547
▁Dalhousie	-5548
▁participent	-5549
▁immobilisations	-5550
▁servant	-5551
▁circulatoire	-5552
▁tribunal	-5553
27	-5554
indi	-5555
crite	-5556
entraî	-5557
▁financées	-5558
sons	-5559
▁Année	-5560
▁cadres	-5561
▁Nations	-5562
▁mission	-5563
-25	-5564
erm	-5565
▁05	-5566
▁New	-5567
▁Qui	-5568
▁humaine	-5569
▁difficile	-5570
▁assure	-5571
▁indire	-5572
▁meubles	-5573
▁partage	-5574
▁97	-5575
idémiologie	-5576
TC	-5577
erce	-5578
▁Sou	-5579
▁favor	-5580
▁Développ	-5581
▁satisfait	-5582
▁appliquer	-5583
▁coeur	-5584
▁const	-5585
ocations	-5586
tification	-5587
▁intitulé	-5588
▁thérapeu	-5589
▁ethn	-5590
▁définir	-5591
▁quan	-5592
▁composante	-5593
ley	-5594
▁Jean	-5595
▁confér	-5596
▁puissent	-5597
FOR	-5598
effet	-5599
▁Deux	-5600
▁collèg	-5601
▁organisé	-5602
▁automobiles	-5603
échantill	-5604
▁parvenir	-5605
▁préal	-5606
▁courriel	-5607
acét	-5608
▁mél	-5609
▁tiré	-5610
-23	-5611
président	-5612
▁employeurs	-5613
▁43	-5614
offrir	-5615
▁Child	-5616
▁mariti	-5617
▁module	-5618
▁hôpitaux	-5619
(4)	-5620
▁trouv	-5621
orientation	-5622
▁approuvées	-5623
▁reçue	-5624
▁reconnaissance	-5625
CSB	-5626
auche	-5627
▁vrais	-5628
▁comprenant	-5629
▁Tax	-5630
▁présence	-5631
▁augmentation	-5632
▁utile	-5633
▁déductible	-5634
ELL	-5635
▁Winnipeg	-5636
▁poursuite	-5637
▁professionnelle	-5638
CA	-5639
▁He	-5640
▁heure	-5641
▁passé	-5642
▁English	-5643
▁Chercheurs	-5644
▁Lieu	-5645
▁court	-5646
▁complément	-5647
▁mu	-5648
▁acomptes	-5649
▁considérées	-5650
▁TD	-5651
▁compagnie	-5652
▁phase	-5653
évaluer	-5654
▁transition	-5655
29	-5656
▁information	-5657
MR	-5658
▁récup	-5659
▁téléc	-5660
▁barres	-5661
▁conclusion	-5662
▁Western	-5663
▁Rapports	-5664
CL	-5665
ory	-5666
▁sections	-5667
▁Contactez	-5668
▁transform	-5669
orth	-5670
▁DDR	-5671
▁REN	-5672
▁palli	-5673
▁CPS	-5674
▁Document	-5675
atta	-5676
▁Statistiques	-5677
dent	-5678
▁lac	-5679
▁rentier	-5680
▁vendues	-5681
CO	-5682
cien	-5683
▁Information	-5684
▁Acide	-5685
▁%)	-5686
▁abs	-5687
▁chaire	-5688
▁Ou	-5689
▁QU	-5690
quêtes	-5691
▁portent	-5692
▁ententes	-5693
fiée	-5694
––––	-5695
▁Équ	-5696
▁maîtr	-5697
▁cerveau	-5698
▁iss	-5699
-2,	-5700
oyer	-5701
▁FERR	-5702
auc	-5703
▁intel	-5704
néra	-5705
▁options	-5706
▁DD	-5707
▁tient	-5708
▁dessus	-5709
élaborer	-5710
▁métab	-5711
▁imprimée	-5712
▁principe	-5713
iritu	-5714
accroître	-5715
▁locomoteur	-5716
AY	-5717
rie	-5718
▁statistiques	-5719
69	-5720
-21	-5721
▁6,	-5722
▁chauff	-5723
▁convient	-5724
▁mécanisme	-5725
times	-5726
▁intéri	-5727
▁traditionn	-5728
ider	-5729
▁Aff	-5730
ATIVE	-5731
Québec	-5732
▁annexe	-5733
exception	-5734
▁spécifiques	-5735
▁améliorations	-5736
▁vic	-5737
▁axée	-5738
▁remar	-5739
emption	-5740
▁secondaire	-5741
isent	-5742
▁March	-5743
▁assujetti	-5744
▁DOU	-5745
▁III	-5746
▁marchés	-5747
▁naturelles	-5748
▁(3)	-5749
▁réfug	-5750
▁access	-5751
▁enjeux	-5752
▁vulnéra	-5753
▁déplacement	-5754
otid	-5755
▁2003-200	-5756
pd	-5757
organismes	-5758
trict	-5759
▁devons	-5760
▁étudier	-5761
eng	-5762
▁mère	-5763
ype	-5764
▁augmenté	-5765
▁surv	-5766
▁éthiques	-5767
▁actuelles	-5768
▁Financement	-5769
▁bases	-5770
▁Président	-5771
▁logiciels	-5772
▁Sal	-5773
▁Voir	-5774
ssures	-5775
▁artis	-5776
tionnel	-5777
▁dépositaire	-5778
▁2)	-5779
onald	-5780
▁atelier	-5781
▁relig	-5782
▁délais	-5783
▁conforme	-5784
expertise	-5785
▁Coordonn	-5786
nez	-5787
▁por	-5788
formément	-5789
▁Personne	-5790
▁préoccupations	-5791
▁Est	-5792
arrivée	-5793
▁appuie	-5794
▁officiel	-5795
▁pourront	-5796
▁Remplissez	-5797
▁1)	-5798
pection	-5799
▁vaccins	-5800
▁déterminées	-5801
VEN	-5802
▁600	-5803
-26	-5804
▁mén	-5805
anger	-5806
▁globale	-5807
▁maintien	-5808
▁présentent	-5809
bl	-5810
.11	-5811
▁CS	-5812
irme	-5813
▁extra	-5814
▁indiquent	-5815
▁observations	-5816
▁familiale	-5817
▁incidence	-5818
ibli	-5819
▁hist	-5820
▁consign	-5821
▁juridique	-5822
▁virus	-5823
▁actuels	-5824
▁atteint	-5825
vers	-5826
▁Alan	-5827
▁tête	-5828
▁88	-5829
SION	-5830
▁considérer	-5831
▁(3	-5832
▁futures	-5833
▁reconnaît	-5834
-29	-5835
▁inclut	-5836
▁retenue	-5837
▁x	-5838
▁7.	-5839
amil	-5840
▁rajus	-5841
▁justice	-5842
▁excédent	-5843
émin	-5844
erb	-5845
▁clé	-5846
aceuti	-5847
GR	-5848
KE	-5849
▁élèves	-5850
▁rajustement	-5851
▁Br	-5852
OPER	-5853
▁Vict	-5854
▁demandés	-5855
ouard	-5856
entend	-5857
▁tirer	-5858
▁étrangères	-5859
▁All	-5860
▁couv	-5861
ILL	-5862
tières	-5863
ony	-5864
▁Sa	-5865
▁semaine	-5866
▁tarifaires	-5867
ott	-5868
▁palliatifs	-5869
▁transporteurs	-5870
▁administration	-5871
▁Exig	-5872
▁large	-5873
▁International	-5874
thi	-5875
▁UN	-5876
▁prévoy	-5877
CAN	-5878
▁renvoi	-5879
▁affect	-5880
hum	-5881
-199	-5882
▁redress	-5883
encour	-5884
▁dates	-5885
-27	-5886
otes	-5887
▁APP	-5888
▁02	-5889
▁kil	-5890
▁réclam	-5891
▁retourn	-5892
ressource	-5893
▁expérience	-5894
util	-5895
influ	-5896
attach	-5897
▁Charte	-5898
▁commencé	-5899
▁défini	-5900
paravant	-5901
RQ	-5902
▁gérer	-5903
ographique	-5904
▁régionale	-5905
▁plaignante	-5906
▁Corporation	-5907
▁MO	-5908
orti	-5909
▁Peter	-5910
▁possède	-5911
évén	-5912
▁Possib	-5913
▁spiritu	-5914
▁citoyens	-5915
▁demandez	-5916
▁fl	-5917
▁Adresse	-5918
▁populaire	-5919
▁personnelle	-5920
▁répartition	-5921
▁tourisme	-5922
▁72	-5923
▁cher	-5924
▁patient	-5925
qui	-5926
▁mat	-5927
ditions	-5928
▁devront	-5929
▁terminé	-5930
79	-5931
▁appuy	-5932
▁quali	-5933
absence	-5934
▁quotid	-5935
▁cess	-5936
500	-5937
AIR	-5938
▁FE	-5939
agrément	-5940
▁Id	-5941
▁cond	-5942
examiner	-5943
▁Canadian	-5944
ctement	-5945
▁opport	-5946
▁poursuivre	-5947
prop	-5948
ticip	-5949
▁Méth	-5950
▁Détermin	-5951
▁rub	-5952
▁terres	-5953
▁Directrice	-5954
intermédiaire	-5955
ara	-5956
orde	-5957
uration	-5958
▁supérieure	-5959
▁laminées	-5960
▁transféré	-5961
▁buts	-5962
▁pourv	-5963
AGE	-5964
raz	-5965
élément	-5966
▁Act	-5967
▁élect	-5968
▁supérieurs	-5969
▁110	-5970
▁Util	-5971
▁rendus	-5972
▁donnent	-5973
▁ca	-5974
oursi	-5975
▁exécu	-5976
▁01	-5977
▁06	-5978
YSTE	-5979
▁tuy	-5980
▁assur	-5981
▁causes	-5982
OPERATIVE	-5983
▁chev	-5984
échéance	-5985
▁récentes	-5986
ÉES	-5987
▁Étu	-5988
▁atteintes	-5989
▁veut	-5990
▁texti	-5991
quéreur	-5992
▁destinées	-5993
ett	-5994
▁46	-5995
erait	-5996
Prince	-5997
▁génie	-5998
▁petits	-5999
▁produites	-6000
▁cô	-6001
oirs	-6002
▁DOUAN	-6003
▁courtier	-6004
▁essentiel	-6005
▁permettront	-6006
▁considération	-6007
52	-6008
apacité	-6009
▁pouvons	-6010
▁réalisés	-6011
ouvernement	-6012
▁déductibles	-6013
▁Forum	-6014
▁multip	-6015
▁rapporte	-6016
▁investissement	-6017
▁rétro	-6018
▁placeb	-6019
▁courant	-6020
acquéreur	-6021
ser	-6022
▁CER	-6023
économie	-6024
▁1996	-6025
▁démontrer	-6026
-5-	-6027
▁armes	-6028
▁alinéas	-6029
▁hospital	-6030
▁associées	-6031
iii	-6032
itres	-6033
sible	-6034
▁acheté	-6035
▁chinois	-6036
▁partenaire	-6037
▁instruments	-6038
▁revue	-6039
▁divulg	-6040
ost	-6041
▁confidentialité	-6042
▁passagers	-6043
▁Is	-6044
▁conçu	-6045
▁maîtrise	-6046
▁autorisation	-6047
▁Ab	-6048
▁symp	-6049
▁réel	-6050
oignez	-6051
▁dette	-6052
▁Objectifs	-6053
▁répondants	-6054
importe	-6055
seurs	-6056
▁longue	-6057
▁simple	-6058
▁sondage	-6059
▁travailleur	-6060
▁teneur	-6061
▁suivent	-6062
▁IV	-6063
effectuer	-6064
(1),	-6065
▁simpli	-6066
▁endroit	-6067
▁journaux	-6068
OWN	-6069
▁brut	-6070
▁CPSCSB	-6071
▁syndic	-6072
▁retrait	-6073
▁décrites	-6074
▁Parlement	-6075
▁Transport	-6076
▁Développement	-6077
gh	-6078
▁empl	-6079
▁délég	-6080
▁texte	-6081
▁logements	-6082
▁recommandation	-6083
▁mér	-6084
▁entrepris	-6085
▁habitations	-6086
▁moléculaire	-6087
▁SYSTE	-6088
▁subst	-6089
▁inutilis	-6090
▁directives	-6091
inerie	-6092
▁complexes	-6093
ION	-6094
▁1999,	-6095
▁Supp	-6096
Édouard	-6097
▁preuves	-6098
▁municipalité	-6099
▁Motion	-6100
▁préparer	-6101
ited	-6102
▁Exp	-6103
▁céréb	-6104
▁boissons	-6105
▁domicile	-6106
face	-6107
▁mém	-6108
quez	-6109
forme	-6110
34	-6111
▁utiles	-6112
▁fun	-6113
▁éti	-6114
▁global	-6115
onération	-6116
ppe	-6117
agir	-6118
▁bord	-6119
▁appropriés	-6120
unité	-6121
▁hypoth	-6122
▁produite	-6123
▁encourager	-6124
▁officielle	-6125
aqu	-6126
▁personnelles	-6127
Am	-6128
OD	-6129
ompl	-6130
▁Neur	-6131
cience	-6132
itement	-6133
▁conflits	-6134
PD	-6135
▁mot	-6136
▁fondé	-6137
ribution	-6138
▁Utilisez	-6139
CRS	-6140
▁Oui	-6141
attribu	-6142
▁Défin	-6143
▁SERVICES	-6144
▁ordonnance	-6145
▁mort	-6146
ordonnance	-6147
pdf	-6148
alph	-6149
▁feuille	-6150
▁confi	-6151
▁RPA	-6152
▁Associ	-6153
▁diffus	-6154
▁offrent	-6155
▁rencontre	-6156
▁biologiques	-6157
▁vidé	-6158
▁provenance	-6159
elop	-6160
ardeau	-6161
oria	-6162
▁obstacles	-6163
▁br	-6164
▁actionn	-6165
▁reconnus	-6166
▁Fait	-6167
▁traités	-6168
▁désignée	-6169
▁pourriez	-6170
sec	-6171
tilis	-6172
▁stip	-6173
chement	-6174
▁Ver	-6175
exique	-6176
▁regroup	-6177
MAN	-6178
▁But	-6179
TIONS	-6180
▁Conformément	-6181
impos	-6182
▁adopté	-6183
▁veiller	-6184
▁entrepôt	-6185
▁spéciale	-6186
▁QC	-6187
▁gl	-6188
▁souten	-6189
old	-6190
entation	-6191
▁1-800-9	-6192
92	-6193
▁invités	-6194
▁rattach	-6195
▁finances	-6196
▁immobilisation	-6197
ÉNA	-6198
▁rôles	-6199
▁Territ	-6200
ENCES	-6201
▁sémin	-6202
▁stockage	-6203
chercheurs	-6204
FÉR	-6205
chn	-6206
igh	-6207
▁250	-6208
uffis	-6209
▁Empl	-6210
auteur	-6211
▁élaboré	-6212
▁bru	-6213
▁Prés	-6214
▁médecin	-6215
andises	-6216
gin	-6217
ligne	-6218
▁accepté	-6219
▁comportant	-6220
augmentation	-6221
▁réglementaire	-6222
aus	-6223
▁retenu	-6224
▁procéder	-6225
▁remboursable	-6226
▁Cancer	-6227
Note	-6228
▁Sain	-6229
▁Grâce	-6230
▁dès	-6231
▁Gestionnaire	-6232
UNICIP	-6233
feuille	-6234
▁change	-6235
▁recommandé	-6236
▁conférences	-6237
oî	-6238
oly	-6239
▁communs	-6240
ases	-6241
▁nouvel	-6242
▁proportion	-6243
▁IM	-6244
▁CRS	-6245
▁autorisée	-6246
▁fardeau	-6247
appareils	-6248
rét	-6249
enfance	-6250
▁partiel	-6251
▁gé	-6252
▁voies	-6253
automne	-6254
anche	-6255
truction	-6256
ef	-6257
ÉE	-6258
▁reprise	-6259
▁ill	-6260
amais	-6261
environ	-6262
pour	-6263
▁sû	-6264
▁pand	-6265
gu	-6266
▁82	-6267
▁seuil	-6268
▁réalisé	-6269
▁appartenant	-6270
▁recrutement	-6271
▁fu	-6272
ISFH	-6273
▁alli	-6274
▁humain	-6275
▁sportif	-6276
▁séparément	-6277
▁68	-6278
▁égale	-6279
▁drogues	-6280
▁Du	-6281
itant	-6282
▁atteints	-6283
9)	-6284
ly	-6285
RCS	-6286
▁passer	-6287
▁pourvu	-6288
din	-6289
▁élarg	-6290
▁semble	-6291
▁élimin	-6292
▁requise	-6293
▁Canadiennes	-6294
olisme	-6295
▁primes	-6296
▁Hôpital	-6297
▁rurales	-6298
▁manifest	-6299
▁Évaluation	-6300
ribue	-6301
▁2002.	-6302
▁1-800-959	-6303
▁augmenter	-6304
▁blessures	-6305
fon	-6306
▁allocation	-6307
▁54	-6308
▁Laur	-6309
▁Hal	-6310
▁marqu	-6311
▁larg	-6312
othérap	-6313
▁décrits	-6314
▁Statistique	-6315
▁constructeur	-6316
dev	-6317
çons	-6318
▁Note	-6319
ériques	-6320
Labrador	-6321
▁Importateur	-6322
▁réadaptation	-6323
▁Port	-6324
▁bénéficier	-6325
▁découverte	-6326
éter	-6327
▁jamais	-6328
▁culturelles	-6329
▁chemin	-6330
▁former	-6331
positions	-6332
▁machinerie	-6333
▁CV	-6334
▁informer	-6335
tence	-6336
▁organ	-6337
▁dispose	-6338
▁physiques	-6339
▁difficultés	-6340
▁_	-6341
90.	-6342
rai	-6343
▁raci	-6344
▁agréé	-6345
▁confidentiels	-6346
ze	-6347
▁Parmi	-6348
ribunaux	-6349
▁étrangère	-6350
▁déterminants	-6351
arts	-6352
▁IMP	-6353
▁suis	-6354
▁gagné	-6355
exemple	-6356
▁initiale	-6357
▁université	-6358
▁8.	-6359
oulez	-6360
▁devrez	-6361
▁stable	-6362
ographie	-6363
▁SYSTEMS	-6364
▁fournie	-6365
▁reconnaître	-6366
olu	-6367
roy	-6368
urgence	-6369
▁disposi	-6370
▁annuels	-6371
▁Finances	-6372
▁Décisions	-6373
▁150	-6374
▁auxquelles	-6375
▁précédentes	-6376
▁récupération	-6377
ific	-6378
aques	-6379
hydra	-6380
▁transmis	-6381
ICT	-6382
▁dot	-6383
▁Possibilités	-6384
irurg	-6385
▁Intro	-6386
8)	-6387
INS	-6388
▁tém	-6389
▁tribunaux	-6390
▁recouvrement	-6391
▁servent	-6392
▁Demandes	-6393
▁milliards	-6394
INE	-6395
avait	-6396
attend	-6397
▁plaintes	-6398
TIF	-6399
▁vit	-6400
▁décédée	-6401
ché	-6402
▁signé	-6403
▁conduite	-6404
enant	-6405
▁sucre	-6406
▁forfait	-6407
▁PAD	-6408
▁voul	-6409
▁coton	-6410
▁gratu	-6411
▁formules	-6412
▁réalisations	-6413
▁Index	-6414
mentionn	-6415
▁Lim	-6416
▁versée	-6417
▁initial	-6418
▁peuples	-6419
▁interactions	-6420
▁dûment	-6421
Organis	-6422
▁Niveau	-6423
▁lacunes	-6424
▁remplies	-6425
▁intéressés	-6426
espace	-6427
▁Pièce	-6428
fluor	-6429
▁importé	-6430
▁protocole	-6431
▁antérieure	-6432
FA	-6433
épar	-6434
▁occu	-6435
▁Instru	-6436
énagement	-6437
▁09	-6438
▁jud	-6439
▁amende	-6440
▁décret	-6441
inscrire	-6442
▁distincte	-6443
▁équipement	-6444
▁envoyé	-6445
UNICIPAL	-6446
ètes	-6447
▁fondées	-6448
▁harmonisée	-6449
èques	-6450
▁salaires	-6451
▁fondation	-6452
▁territorial	-6453
▁57	-6454
▁meilleures	-6455
▁télé	-6456
alogue	-6457
emprun	-6458
▁2001.	-6459
▁percevoir	-6460
IRS	-6461
▁clientèle	-6462
élimin	-6463
▁donnant	-6464
tionnelles	-6465
▁quit	-6466
▁INTER	-6467
rétariat	-6468
▁prescrit	-6469
ater	-6470
▁Rel	-6471
pérer	-6472
▁nets	-6473
▁arrang	-6474
▁porter	-6475
actif	-6476
iliser	-6477
▁énoncé	-6478
▁Victoria	-6479
▁autorisés	-6480
▁nan	-6481
propri	-6482
▁Utilis	-6483
▁sports	-6484
bal	-6485
▁occasions	-6486
▁voulez	-6487
▁million	-6488
cial	-6489
▁rédig	-6490
istence	-6491
▁pilotes	-6492
▁indiquée	-6493
▁réglementation	-6494
▁mouv	-6495
encont	-6496
▁DR	-6497
▁dén	-6498
iblioth	-6499
▁négatif	-6500
▁naissance	-6501
▁dra	-6502
-1800	-6503
▁Présence	-6504
▁transférés	-6505
Organisation	-6506
▁gri	-6507
école	-6508
▁RO	-6509
▁Nos	-6510
▁Sch	-6511
▁réparation	-6512
▁métabolisme	-6513
▁conjointement	-6514
▁inférieure	-6515
▁bio	-6516
▁aient	-6517
▁rapportent	-6518
▁62	-6519
▁accrue	-6520
64	-6521
ergie	-6522
jeuner	-6523
▁Exigences	-6524
▁Lou	-6525
▁exigible	-6526
als	-6527
andis	-6528
▁train	-6529
▁franch	-6530
▁découvertes	-6531
▁Gl	-6532
▁susmentionn	-6533
▁attend	-6534
évolution	-6535
▁MUNICIPAL	-6536
PASS	-6537
utés	-6538
reuses	-6539
▁corps	-6540
▁archiv	-6541
▁payeur	-6542
▁séances	-6543
▁Subvention	-6544
lige	-6545
▁Repas	-6546
▁impôts	-6547
▁considérons	-6548
lit	-6549
roits	-6550
▁trim	-6551
▁science	-6552
▁Exécution	-6553
agriculture	-6554
▁renouvel	-6555
▁dér	-6556
lantique	-6557
▁examens	-6558
▁courantes	-6559
▁administratif	-6560
-24	-6561
cle	-6562
▁BO	-6563
▁end	-6564
achines	-6565
▁cibles	-6566
ifax	-6567
rome	-6568
▁Son	-6569
▁bac	-6570
▁prote	-6571
▁officiels	-6572
(5)	-6573
OUN	-6574
▁MÉ	-6575
▁option	-6576
▁différend	-6577
▁brochure	-6578
▁fiducies	-6579
▁Po	-6580
▁méthod	-6581
▁74	-6582
icycl	-6583
▁élevés	-6584
▁Indiquez	-6585
▁mobilier	-6586
▁administrateurs	-6587
tié	-6588
Archiv	-6589
▁DOUANES	-6590
▁rajusté	-6591
▁spécialistes	-6592
55	-6593
▁sugges	-6594
érale	-6595
-03-31	-6596
▁Membres	-6597
▁69	-6598
▁James	-6599
▁ordre	-6600
endroit	-6601
▁judici	-6602
ierre	-6603
▁considère	-6604
hésion	-6605
▁adjoint	-6606
▁administratifs	-6607
▁huit	-6608
▁confiance	-6609
▁dispar	-6610
▁presse	-6611
▁Introduction	-6612
▁volet	-6613
▁profil	-6614
▁victimes	-6615
▁recommande	-6616
ouc	-6617
▁moitié	-6618
▁propose	-6619
▁sportive	-6620
▁63	-6621
▁SU	-6622
inqu	-6623
vues	-6624
▁idées	-6625
▁sécur	-6626
▁Améli	-6627
▁zones	-6628
▁fédérales	-6629
endra	-6630
▁rédu	-6631
▁Chang	-6632
▁exonérée	-6633
▁restrictions	-6634
ated	-6635
avut	-6636
▁Ate	-6637
▁DISTR	-6638
ensions	-6639
▁annonce	-6640
▁exploite	-6641
▁préalable	-6642
▁1998,	-6643
▁classi	-6644
▁convain	-6645
▁obligation	-6646
▁bil	-6647
▁2008.	-6648
▁régén	-6649
▁textiles	-6650
IQUE	-6651
▁tent	-6652
Archivé	-6653
▁Chaire	-6654
exemption	-6655
aret	-6656
▁RÉFÉR	-6657
▁atten	-6658
▁redev	-6659
▁impact	-6660
▁division	-6661
oses	-6662
LO	-6663
▁honor	-6664
▁réussi	-6665
▁mesurer	-6666
▁énoncés	-6667
▁accessibles	-6668
].	-6669
▁Inf	-6670
▁Mexique	-6671
row	-6672
ousse	-6673
▁73	-6674
VP	-6675
▁Nun	-6676
▁messages	-6677
exploitant	-6678
tionnement	-6679
▁susceptibles	-6680
▁représentation	-6681
▁Mor	-6682
▁précisions	-6683
▁exclusivement	-6684
▁remboursables	-6685
▁inten	-6686
elopment	-6687
▁examiné	-6688
exonération	-6689
▁culturelle	-6690
78	-6691
ACT	-6692
▁61	-6693
agés	-6694
▁enc	-6695
▁ajouté	-6696
▁Déjeuner	-6697
▁Marchandises	-6698
MIN	-6699
▁adoptée	-6700
inventaire	-6701
osph	-6702
▁Mark	-6703
▁tâches	-6704
▁régionales	-6705
▁Trav	-6706
▁diver	-6707
▁neuves	-6708
▁7,	-6709
▁Produits	-6710
▁alph	-6711
▁navire	-6712
▁détermine	-6713
IMP	-6714
ranc	-6715
▁âgés	-6716
▁Territoires	-6717
▁noms	-6718
▁adress	-6719
▁engagé	-6720
▁vérific	-6721
▁transpar	-6722
▁cependant	-6723
oco	-6724
éral	-6725
oeuvre	-6726
▁condam	-6727
▁Certaines	-6728
▁destination	-6729
inion	-6730
▁Identif	-6731
▁maximal	-6732
▁Consultez	-6733
▁conseillers	-6734
hô	-6735
▁Ress	-6736
▁rénov	-6737
▁Dan	-6738
▁cul	-6739
▁plur	-6740
▁rent	-6741
agraphe	-6742
▁enseign	-6743
intégrité	-6744
▁sommaire	-6745
ety	-6746
▁protéines	-6747
▁immigrants	-6748
▁vérifications	-6749
▁retour	-6750
▁contingent	-6751
roi	-6752
▁pétro	-6753
▁rejet	-6754
oss	-6755
tig	-6756
▁lum	-6757
itent	-6758
▁avenue	-6759
▁boursi	-6760
▁trimest	-6761
▁habitation	-6762
73	-6763
IA	-6764
ps	-6765
Ann	-6766
▁ir	-6767
▁Sign	-6768
mement	-6769
édecine	-6770
▁mémorandums	-6771
IEN	-6772
MOR	-6773
lation	-6774
▁Choix	-6775
▁Projet	-6776
Amérique	-6777
▁compétence	-6778
▁FOR	-6779
▁éventail	-6780
▁78	-6781
umer	-6782
▁fichiers	-6783
▁autorités	-6784
zhe	-6785
ynam	-6786
▁externes	-6787
▁offertes	-6788
▁contribué	-6789
▁défi	-6790
culaire	-6791
endrier	-6792
▁Transf	-6793
▁chaussures	-6794
▁1994	-6795
▁activement	-6796
(2-	-6797
▁thé	-6798
▁englob	-6799
chercheur	-6800
iver	-6801
▁jeu	-6802
outch	-6803
▁désir	-6804
zheimer	-6805
intéress	-6806
neur	-6807
▁Tai	-6808
▁vulnérables	-6809
▁76	-6810
atrie	-6811
venants	-6812
égalité	-6813
▁vendus	-6814
▁fera	-6815
chloro	-6816
▁Richard	-6817
outil	-6818
obtention	-6819
▁milliers	-6820
anada	-6821
▁spiritueux	-6822
▁Vis	-6823
▁1997,	-6824
▁PARTI	-6825
▁Sujet	-6826
▁recueillir	-6827
seure	-6828
frique	-6829
▁Journ	-6830
▁jouer	-6831
▁chirurg	-6832
▁diplôme	-6833
▁entraîneurs	-6834
▁Cré	-6835
▁payables	-6836
▁Ressources	-6837
▁détaillées	-6838
▁mentionnés	-6839
▁ordinateur	-6840
otiques	-6841
▁faveur	-6842
▁mondial	-6843
▁feuilles	-6844
▁fondamentale	-6845
▁10,	-6846
▁payées	-6847
▁Présent	-6848
▁détaillé	-6849
▁Activités	-6850
▁informations	-6851
tur	-6852
▁ONS	-6853
▁livre	-6854
▁ouvre	-6855
▁adjointe	-6856
▁poursuiv	-6857
agé	-6858
▁96	-6859
index	-6860
▁NO	-6861
/200	-6862
INES	-6863
▁Trés	-6864
▁pens	-6865
▁Queen	-6866
immeubles	-6867
▁IC	-6868
sive	-6869
▁Quels	-6870
▁occup	-6871
présent	-6872
71	-6873
fc	-6874
▁MA	-6875
▁extr	-6876
▁Trésor	-6877
université	-6878
▁exportateur	-6879
▁PL	-6880
▁SE	-6881
▁explic	-6882
▁raisonnablement	-6883
▁exposés	-6884
attribution	-6885
▁conséquence	-6886
24	-6887
▁annul	-6888
▁gross	-6889
▁annonc	-6890
▁Données	-6891
VI	-6892
dy	-6893
sif	-6894
allage	-6895
ariats	-6896
▁remer	-6897
▁accidents	-6898
▁CD	-6899
▁Chlor	-6900
▁gagner	-6901
▁aériens	-6902
▁pharmaceuti	-6903
là	-6904
alisés	-6905
▁double	-6906
▁défense	-6907
▁appropriées	-6908
▁révisé	-6909
▁experts	-6910
▁Particip	-6911
▁parc	-6912
▁quoi	-6913
▁maritime	-6914
work	-6915
▁caoutch	-6916
▁Décision	-6917
hébergement	-6918
▁télécopieur	-6919
▁Ville	-6920
▁morale	-6921
▁élevée	-6922
▁commence	-6923
▁Incl	-6924
▁notes	-6925
▁incluent	-6926
.21	-6927
ray	-6928
ués	-6929
ûts	-6930
▁os	-6931
ocat	-6932
▁66	-6933
mith	-6934
▁éloign	-6935
▁banques	-6936
▁critère	-6937
▁journée	-6938
ondu	-6939
alisme	-6940
▁appliquée	-6941
▁cellulaire	-6942
Inde	-6943
▁duquel	-6944
▁limité	-6945
▁83	-6946
▁Ge	-6947
monton	-6948
▁corrig	-6949
▁complets	-6950
▁rac	-6951
▁contact	-6952
existence	-6953
▁étudiant	-6954
▁assujettie	-6955
iert	-6956
▁préciser	-6957
omen	-6958
▁roy	-6959
▁aller	-6960
▁faudrait	-6961
▁réfugiés	-6962
▁régissant	-6963
▁signature	-6964
▁8,	-6965
▁éduc	-6966
auvais	-6967
▁Nunavut	-6968
▁effectue	-6969
▁suggestions	-6970
ILLE	-6971
▁susp	-6972
istant	-6973
▁Elles	-6974
ATE	-6975
pei	-6976
oxyd	-6977
▁indemn	-6978
▁lo	-6979
▁Moy	-6980
▁déplac	-6981
▁enquêtes	-6982
▁lancement	-6983
▁fournissent	-6984
▁Ban	-6985
▁Har	-6986
▁Frank	-6987
▁meilleur	-6988
▁Imm	-6989
Hôpital	-6990
▁identifi	-6991
inspection	-6992
▁médicales	-6993
▁orientations	-6994
▁images	-6995
▁collaborations	-6996
abin	-6997
▁Puis	-6998
▁exerce	-6999
▁intellec	-7000
▁reconnaiss	-7001
.01	-7002
▁Lond	-7003
▁textes	-7004
▁voiture	-7005
▁accessoires	-7006
▁gouvernementale	-7007
afond	-7008
honor	-7009
▁Pays	-7010
approche	-7011
èvement	-7012
▁aperçu	-7013
▁613-954	-7014
▁Fournit	-7015
▁Affaires	-7016
▁accessible	-7017
▁gouvernance	-7018
▁comportements	-7019
▁CCC	-7020
▁biais	-7021
encontre	-7022
attention	-7023
▁accordés	-7024
▁essentiels	-7025
2-	-7026
▁sor	-7027
▁tandis	-7028
▁Partenaires	-7029
opé	-7030
▁soulev	-7031
▁CANPASS	-7032
▁contrac	-7033
▁correction	-7034
olic	-7035
▁Int	-7036
▁eur	-7037
▁vou	-7038
▁utilisent	-7039
ires	-7040
▁pond	-7041
entité	-7042
▁norme	-7043
▁formul	-7044
▁procurer	-7045
▁89	-7046
oque	-7047
umes	-7048
▁iden	-7049
▁Children	-7050
▁BR	-7051
▁Ke	-7052
▁pathog	-7053
ministrer	-7054
événement	-7055
esse	-7056
▁1995	-7057
▁révélé	-7058
autorité	-7059
INT	-7060
▁03	-7061
▁tél	-7062
▁atti	-7063
23	-7064
comp	-7065
▁DISTRICT	-7066
▁acceptable	-7067
▁caoutchouc	-7068
▁demandeurs	-7069
5,00	-7070
▁tume	-7071
épargne	-7072
▁bénévole	-7073
▁douanière	-7074
▁indicateurs	-7075
▁là	-7076
▁actifs	-7077
▁destiné	-7078
ionnement	-7079
ISE	-7080
▁ici	-7081
▁file	-7082
▁nour	-7083
............	-7084
▁TN	-7085
▁créance	-7086
▁opportun	-7087
57	-7088
ics	-7089
▁Mati	-7090
▁auto	-7091
origin	-7092
▁forces	-7093
▁commissions	-7094
51	-7095
tuel	-7096
▁sain	-7097
▁pointe	-7098
▁Medical	-7099
▁Première	-7100
▁génomique	-7101
▁0,00	-7102
▁PRODU	-7103
▁exposé	-7104
▁accumul	-7105
▁conservation	-7106
tension	-7107
▁vaccin	-7108
▁exercer	-7109
CP	-7110
▁ouverts	-7111
enci	-7112
lamm	-7113
thme	-7114
immob	-7115
▁tubes	-7116
▁estime	-7117
▁CONS	-7118
ym	-7119
aug	-7120
vois	-7121
opath	-7122
▁préval	-7123
▁reproduction	-7124
▁Trait	-7125
▁Partenariats	-7126
ount	-7127
▁VIL	-7128
▁succurs	-7129
écu	-7130
▁Pré	-7131
blement	-7132
▁Martin	-7133
ORS	-7134
étra	-7135
▁with	-7136
▁sites	-7137
ocotisation	-7138
ARCH	-7139
PRES	-7140
▁allant	-7141
▁transférer	-7142
58	-7143
ouse	-7144
▁Resp	-7145
▁Contexte	-7146
▁RÉFÉRENCES	-7147
▁simplement	-7148
▁efficacement	-7149
ki	-7150
gén	-7151
erves	-7152
▁biomédicale	-7153
▁71	-7154
▁120	-7155
iteurs	-7156
icateur	-7157
administra	-7158
azol	-7159
▁cru	-7160
▁copropri	-7161
▁raisonnables	-7162
iend	-7163
▁tôt	-7164
▁cartes	-7165
▁déduit	-7166
▁classées	-7167
▁excédant	-7168
▁ultérieure	-7169
▁testament	-7170
▁biologique	-7171
▁volontaire	-7172
CT	-7173
occu	-7174
▁marges	-7175
▁composé	-7176
▁déclarés	-7177
▁profession	-7178
isant	-7179
uelles	-7180
▁produisez	-7181
dim	-7182
second	-7183
▁légal	-7184
▁active	-7185
▁associée	-7186
▁infections	-7187
▁permanente	-7188
▁association	-7189
▁NON	-7190
▁empê	-7191
▁rand	-7192
▁institut	-7193
▁précises	-7194
▁dent	-7195
ilibre	-7196
▁Halifax	-7197
visionnement	-7198
▁succession	-7199
▁fonctionnaires	-7200
UE	-7201
étaient	-7202
▁Quelles	-7203
▁mauvais	-7204
▁quelles	-7205
▁administrative	-7206
ather	-7207
bilité	-7208
▁Compte	-7209
▁incluse	-7210
▁constitué	-7211
▁résistance	-7212
més	-7213
oprop	-7214
▁mine	-7215
▁fixe	-7216
▁argent	-7217
▁contrôlés	-7218
▁satisfaire	-7219
▁(10	-7220
oyage	-7221
mestre	-7222
▁1996,	-7223
infection	-7224
▁2002-200	-7225
▁circulaire	-7226
▁67	-7227
▁chlor	-7228
▁certif	-7229
▁supérieures	-7230
▁manus	-7231
▁sollic	-7232
▁répondu	-7233
▁renferme	-7234
▁CPE	-7235
▁1990	-7236
▁bate	-7237
SD	-7238
▁MB	-7239
osium	-7240
▁retr	-7241
▁Prestation	-7242
▁;	-7243
abri	-7244
▁Page	-7245
▁remis	-7246
▁entend	-7247
▁entrée	-7248
▁quelcon	-7249
▁dépasser	-7250
▁échanges	-7251
▁TAR	-7252
alisé	-7253
▁magn	-7254
▁requises	-7255
▁accordées	-7256
WA	-7257
▁cm	-7258
▁MAN	-7259
▁Val	-7260
résil	-7261
▁bran	-7262
▁logiciel	-7263
▁ministéri	-7264
▁résidente	-7265
▁existantes	-7266
▁77	-7267
dine	-7268
▁bout	-7269
▁émerg	-7270
▁recens	-7271
identité	-7272
▁registre	-7273
orial	-7274
oie	-7275
oxo	-7276
▁concent	-7277
▁scolaires	-7278
informatique	-7279
▁Met	-7280
▁fili	-7281
▁tissu	-7282
▁conformes	-7283
BR	-7284
▁vu	-7285
▁précédent	-7286
6-	-7287
ACC	-7288
utes	-7289
▁listes	-7290
▁préfér	-7291
▁collaborer	-7292
▁régulièrement	-7293
▁dédu	-7294
▁Unies	-7295
▁servi	-7296
▁désigne	-7297
▁communiqués	-7298
cie	-7299
▁due	-7300
▁situés	-7301
▁positions	-7302
▁commission	-7303
▁Biens	-7304
▁ouvra	-7305
▁choisi	-7306
▁solide	-7307
▁postale	-7308
▁TE	-7309
▁cig	-7310
▁sodi	-7311
▁Énoncé	-7312
▁portatif	-7313
rc	-7314
RES	-7315
▁220	-7316
▁courrier	-7317
▁calcu	-7318
▁postal	-7319
▁vivant	-7320
▁licences	-7321
▁intéressées	-7322
▁blanc	-7323
▁marque	-7324
▁incluses	-7325
▁(4	-7326
éthyle	-7327
antation	-7328
▁désirez	-7329
▁Et	-7330
▁CENT	-7331
▁cogn	-7332
▁attentes	-7333
▁modifiée	-7334
Ind	-7335
▁9.	-7336
▁pau	-7337
cular	-7338
drome	-7339
▁ID	-7340
ombe	-7341
▁Droits	-7342
▁pandémie	-7343
▁déclarées	-7344
entreprises	-7345
▁préliminaire	-7346
▁Steph	-7347
▁simples	-7348
orique	-7349
▁quels	-7350
▁fichier	-7351
▁conclure	-7352
▁indiquez	-7353
avons	-7354
▁octroy	-7355
▁stocks	-7356
▁communiqué	-7357
del	-7358
euv	-7359
▁cam	-7360
▁Corée	-7361
▁lumière	-7362
▁privilég	-7363
▁collègues	-7364
LES	-7365
reu	-7366
rég	-7367
▁XII	-7368
▁caisse	-7369
▁»)	-7370
honorable	-7371
▁distinctes	-7372
▁désignation	-7373
hist	-7374
▁RES	-7375
▁mené	-7376
avance	-7377
▁commencer	-7378
▁AR	-7379
initiatives	-7380
mb	-7381
▁64	-7382
▁Sol	-7383
ental	-7384
▁chefs	-7385
▁Gouvernement	-7386
ash	-7387
▁Coûts	-7388
▁fusion	-7389
lablement	-7390
allocation	-7391
▁identifier	-7392
▁quelconque	-7393
SF	-7394
▁Dev	-7395
▁urb	-7396
▁ling	-7397
▁compose	-7398
▁pouvoirs	-7399
▁remplace	-7400
▁automobile	-7401
emblablement	-7402
▁coopération	-7403
CD	-7404
quent	-7405
posage	-7406
érative	-7407
▁bactéri	-7408
▁communes	-7409
▁Dom	-7410
▁sau	-7411
ulent	-7412
▁Quel	-7413
otechn	-7414
▁vidéo	-7415
▁relever	-7416
EE	-7417
▁civil	-7418
écl	-7419
▁métal	-7420
▁Bay	-7421
▁allou	-7422
▁cumul	-7423
▁Aéroport	-7424
▁révocation	-7425
▁Véri	-7426
▁Found	-7427
▁expériences	-7428
▁$1	-7429
▁499	-7430
etteur	-7431
▁avanc	-7432
▁Communiqu	-7433
▁primaires	-7434
▁potentiels	-7435
▁échantillons	-7436
▁amortissables	-7437
▁Eff	-7438
▁Tro	-7439
▁futurs	-7440
inclusion	-7441
▁commande	-7442
(3	-7443
icide	-7444
lande	-7445
▁annexes	-7446
▁existants	-7447
▁séminaires	-7448
▁importateur	-7449
rey	-7450
▁boî	-7451
▁récep	-7452
▁défaut	-7453
▁conseiller	-7454
▁confidentielle	-7455
ANG	-7456
oient	-7457
▁TOWN	-7458
▁Aucune	-7459
▁express	-7460
▁proposés	-7461
ma	-7462
▁rig	-7463
▁Lisez	-7464
▁donateur	-7465
▁disponibilité	-7466
onie	-7467
▁plais	-7468
tations	-7469
▁puisqu	-7470
89	-7471
èdent	-7472
▁Mess	-7473
▁fournies	-7474
▁probablement	-7475
PN	-7476
▁vér	-7477
culaires	-7478
any	-7479
tics	-7480
▁Émis	-7481
▁procédé	-7482
▁fiduciaire	-7483
VER	-7484
▁Dou	-7485
-00	-7486
fondi	-7487
▁degré	-7488
▁inoxyd	-7489
▁échange	-7490
▁annuelles	-7491
▁thérapeutiques	-7492
▁mari	-7493
illiam	-7494
▁chèque	-7495
▁énumérés	-7496
▁spécifique	-7497
▁évaluations	-7498
▁9,	-7499
▁Brom	-7500
▁Colle	-7501
titudes	-7502
▁montre	-7503
▁constituer	-7504
▁praticiens	-7505
FCE	-7506
ame	-7507
▁Crit	-7508
▁XXXXX	-7509
équipes	-7510
▁décédé	-7511
▁Foundation	-7512
▁Conc	-7513
▁acide	-7514
▁constaté	-7515
▁chaî	-7516
▁TARIF	-7517
▁garantir	-7518
▁Initiatives	-7519
▁immunitaire	-7520
26	-7521
CHE	-7522
▁Notes	-7523
▁Téléc	-7524
▁desqu	-7525
▁embry	-7526
▁Sujets	-7527
issements	-7528
▁Sécurité	-7529
▁imprimés	-7530
ITS	-7531
col	-7532
▁arr	-7533
▁affér	-7534
équival	-7535
▁bande	-7536
▁2006-200	-7537
▁répondent	-7538
▁Off	-7539
▁déje	-7540
▁subi	-7541
▁allég	-7542
▁régie	-7543
▁2005-2006	-7544
▁07	-7545
▁1227	-7546
▁psychi	-7547
▁imposée	-7548
▁europé	-7549
▁central	-7550
▁King	-7551
indemn	-7552
▁diffère	-7553
▁multipli	-7554
▁hautement	-7555
▁permanents	-7556
▁arts	-7557
▁juge	-7558
▁exigibles	-7559
reux	-7560
▁rente	-7561
▁Brésil	-7562
▁plafond	-7563
orge	-7564
ambre	-7565
▁tuyaux	-7566
▁trimestre	-7567
acter	-7568
affect	-7569
▁Montants	-7570
▁apporter	-7571
▁localité	-7572
AIRES	-7573
▁peau	-7574
labore	-7575
▁Franc	-7576
▁Gains	-7577
▁acquit	-7578
▁matern	-7579
▁2007-03	-7580
▁allocations	-7581
TRE	-7582
tri	-7583
▁Air	-7584
▁route	-7585
▁décidé	-7586
▁versions	-7587
▁visiteurs	-7588
▁by	-7589
omét	-7590
tress	-7591
exposé	-7592
▁inscrite	-7593
▁additionnels	-7594
oke	-7595
▁Saint	-7596
▁ajouter	-7597
▁Bl	-7598
roris	-7599
▁croy	-7600
amilton	-7601
articles	-7602
▁changer	-7603
▁tumeurs	-7604
annulation	-7605
▁spécifiés	-7606
▁MUNICIPALITY	-7607
BER	-7608
FACT	-7609
embles	-7610
echanis	-7611
▁décrire	-7612
▁envoyez	-7613
▁démontré	-7614
FORM	-7615
IGNE	-7616
▁ASS	-7617
▁2004-2005	-7618
▁secondaires	-7619
anim	-7620
asfc	-7621
chent	-7622
▁Règles	-7623
adhésion	-7624
▁toxicomanie	-7625
ber	-7626
▁envoyée	-7627
▁conjointe	-7628
▁importance	-7629
alimentation	-7630
»,	-7631
▁var	-7632
oudre	-7633
▁Aucun	-7634
▁Paiements	-7635
institution	-7636
DA	-7637
APP	-7638
endue	-7639
▁relevant	-7640
aume	-7641
tration	-7642
usement	-7643
▁**	-7644
experts	-7645
▁examinées	-7646
▁Chris	-7647
▁dynam	-7648
▁France	-7649
▁accords	-7650
formes	-7651
▁Genre	-7652
▁faibles	-7653
avancement	-7654
èlement	-7655
▁conçus	-7656
▁profiter	-7657
▁solution	-7658
▁expressément	-7659
ALES	-7660
▁côté	-7661
▁Cerveau	-7662
▁Version	-7663
▁mémoire	-7664
azine	-7665
▁parfois	-7666
▁Bar	-7667
▁vrai	-7668
octroi	-7669
▁touche	-7670
▁randomis	-7671
▁fau	-7672
Devant	-7673
▁verse	-7674
▁grippe	-7675
▁autonom	-7676
io	-7677
▁incorp	-7678
by	-7679
avec	-7680
▁CGI	-7681
▁Gra	-7682
▁Aperçu	-7683
▁analys	-7684
étudiant	-7685
▁Consult	-7686
emballage	-7687
▁propriétaires	-7688
▁prohib	-7689
tificats	-7690
▁classés	-7691
▁remettre	-7692
▁enregistre	-7693
▁postsecond	-7694
▁perspectives	-7695
onces	-7696
▁coule	-7697
hydrate	-7698
▁genres	-7699
▁valide	-7700
IER	-7701
ITI	-7702
UBL	-7703
verbal	-7704
▁ministres	-7705
▁préco	-7706
▁traité	-7707
▁pétrole	-7708
administrateur	-7709
VM	-7710
EST	-7711
▁NR	-7712
ommun	-7713
▁Ltée	-7714
▁Taipei	-7715
▁examine	-7716
▁informe	-7717
▁attribuable	-7718
▁réglementaires	-7719
own	-7720
venus	-7721
▁Type	-7722
érance	-7723
▁2000.	-7724
▁forum	-7725
appliquera	-7726
▁publicité	-7727
▁Prom	-7728
▁2008-02	-7729
▁William	-7730
▁Établir	-7731
▁Conditions	-7732
entrepreneur	-7733
▁participantes	-7734
VA	-7735
apon	-7736
▁Sing	-7737
▁diam	-7738
▁essai	-7739
▁surface	-7740
▁Professeur	-7741
▁messagerie	-7742
▁rembourser	-7743
esté	-7744
onyl	-7745
onium	-7746
exploration	-7747
▁contribuent	-7748
▁gestionnaire	-7749
▁crimes	-7750
▁Patrimoine	-7751
Ad	-7752
ares	-7753
▁Ceci	-7754
▁affiché	-7755
▁supprim	-7756
▁distinct	-7757
▁découvert	-7758
moins	-7759
▁capit	-7760
opération	-7761
▁prochain	-7762
▁présentant	-7763
▁détru	-7764
▁multicul	-7765
▁banc	-7766
▁sour	-7767
▁régler	-7768
▁Références	-7769
▁indépendants	-7770
temps	-7771
▁Carol	-7772
▁insuffis	-7773
▁inoxydable	-7774
▁définitions	-7775
▁va	-7776
▁813	-7777
▁cern	-7778
▁artif	-7779
▁cases	-7780
▁récente	-7781
▁Certificat	-7782
UT	-7783
▁Rus	-7784
56	-7785
umés	-7786
XXXXX	-7787
▁commune	-7788
▁externe	-7789
épidémiologie	-7790
▁applications	-7791
quin	-7792
▁préj	-7793
▁rechange	-7794
▁XXXXXXXXXX	-7795
▁pertinente	-7796
éf	-7797
cra	-7798
▁Sus	-7799
ANDUM	-7800
agisme	-7801
▁pauvre	-7802
MORANDUM	-7803
▁établit	-7804
▁manuscrits	-7805
▁Wh	-7806
▁10.	-7807
▁assez	-7808
▁Examen	-7809
▁Michel	-7810
▁entier	-7811
▁contenants	-7812
ouss	-7813
▁dériv	-7814
▁autant	-7815
▁Gestion	-7816
▁détient	-7817
▁artifici	-7818
▁traitées	-7819
▁infirmières	-7820
▁'	-7821
org	-7822
▁94	-7823
prit	-7824
▁Net	-7825
liance	-7826
▁recevez	-7827
▁auparavant	-7828
▁dédouanées	-7829
-3,	-7830
AUX	-7831
▁menée	-7832
▁Méthode	-7833
▁Critères	-7834
▁calculée	-7835
▁consacré	-7836
▁consommateurs	-7837
este	-7838
▁Proc	-7839
▁département	-7840
erté	-7841
▁Vol	-7842
▁lés	-7843
▁Dons	-7844
évision	-7845
▁Princip	-7846
atiquement	-7847
▁expliquer	-7848
▁résultant	-7849
URAL	-7850
années	-7851
▁donnés	-7852
ral	-7853
▁79	-7854
ordi	-7855
▁533	-7856
▁NIH	-7857
▁Barb	-7858
▁Cadre	-7859
▁décrite	-7860
▁limitée	-7861
ivid	-7862
▁congé	-7863
▁heureux	-7864
ÉG	-7865
▁ap	-7866
cteurs	-7867
ressions	-7868
▁concept	-7869
▁mettant	-7870
▁Admissibilité	-7871
ieux	-7872
ophényl	-7873
▁certaine	-7874
▁expérimental	-7875
1-	-7876
▁ED	-7877
▁stu	-7878
charg	-7879
▁consens	-7880
▁imposés	-7881
▁composition	-7882
▁mentionnées	-7883
atin	-7884
▁liaison	-7885
▁souhaite	-7886
▁convenu	-7887
▁imposer	-7888
échantillon	-7889
uf	-7890
▁(4)	-7891
▁exacts	-7892
ractions	-7893
▁2007-05	-7894
▁2008-01	-7895
▁exercices	-7896
ham	-7897
▁Be	-7898
quette	-7899
▁Enfin	-7900
▁franc	-7901
intemps	-7902
▁aidera	-7903
▁menées	-7904
▁2005-02	-7905
▁Faculté	-7906
▁Secrétariat	-7907
PH	-7908
▁devait	-7909
▁Indiquer	-7910
anol	-7911
onné	-7912
▁pul	-7913
erson	-7914
ortium	-7915
▁ancien	-7916
▁Limited	-7917
▁termine	-7918
▁Hamilton	-7919
▁continuent	-7920
tité	-7921
▁Budg	-7922
▁laiss	-7923
inclure	-7924
rétaire	-7925
▁publiés	-7926
▁continuera	-7927
▁(7	-7928
▁Avec	-7929
▁GROU	-7930
▁affec	-7931
▁health	-7932
▁entraîner	-7933
▁entrevues	-7934
▁MÉMORANDUM	-7935
▁structures	-7936
400	-7937
▁antibi	-7938
▁menace	-7939
▁définis	-7940
▁facilement	-7941
▁associations	-7942
.2)	-7943
▁CE	-7944
▁Syn	-7945
Canada	-7946
▁London	-7947
▁91	-7948
roid	-7949
▁force	-7950
▁nommé	-7951
▁accepte	-7952
▁suicide	-7953
▁factures	-7954
▁2003-2004	-7955
▁concentre	-7956
ica	-7957
tuels	-7958
delà	-7959
▁appelé	-7960
▁réserves	-7961
▁perception	-7962
▁redressement	-7963
asi	-7964
▁PA	-7965
▁PO	-7966
▁Anne	-7967
▁modes	-7968
▁commen	-7969
▁Questions	-7970
▁travaillé	-7971
ocy	-7972
▁North	-7973
▁porté	-7974
▁ville	-7975
▁syndrome	-7976
LAGE	-7977
▁480	-7978
▁occasionn	-7979
▁tabagisme	-7980
-$	-7981
ope	-7982
▁81	-7983
kins	-7984
ries	-7985
▁COMP	-7986
▁stress	-7987
▁éventuels	-7988
▁médicament	-7989
95	-7990
▁ray	-7991
▁formé	-7992
ultures	-7993
▁disposé	-7994
▁citoyenneté	-7995
back	-7996
▁rét	-7997
▁polym	-7998
▁tirés	-7999
▁Industri	-8000
▁attention	-8001
IRC	-8002
▁OB	-8003
RSON	-8004
hôpital	-8005
▁mérite	-8006
▁procès	-8007
othérapie	-8008
▁résidant	-8009
▁sportives	-8010
étis	-8011
▁Andre	-8012
▁banque	-8013
original	-8014
▁essentiellement	-8015
94	-8016
▁transac	-8017
▁minorités	-8018
▁approfondi	-8019
▁références	-8020
▁Plu	-8021
idine	-8022
méthoxy	-8023
▁détection	-8024
▁bandes	-8025
▁causer	-8026
▁cuivre	-8027
▁entité	-8028
▁royale	-8029
▁antérieures	-8030
Col	-8031
▁classé	-8032
autonomie	-8033
▁participe	-8034
▁municipalités	-8035
▁emprun	-8036
▁Royaume	-8037
▁détenus	-8038
▁pauvreté	-8039
▁conformer	-8040
▁Nov	-8041
▁axé	-8042
ochim	-8043
▁uniques	-8044
importantes	-8045
istre	-8046
emblée	-8047
▁Appel	-8048
▁acheter	-8049
▁Cat	-8050
èvent	-8051
isease	-8052
▁CSRCS	-8053
Alzheimer	-8054
▁Ses	-8055
outer	-8056
▁Faire	-8057
▁déjeuner	-8058
▁Plusieurs	-8059
▁contribue	-8060
▁spécialement	-8061
▁Coll	-8062
liquez	-8063
▁soumises	-8064
▁siège	-8065
▁excell	-8066
▁Prov	-8067
▁prét	-8068
ividus	-8069
▁aérone	-8070
▁signer	-8071
▁automatis	-8072
▁monétaire	-8073
▁différends	-8074
uni	-8075
▁MAR	-8076
▁Expl	-8077
▁chaîne	-8078
▁relevé	-8079
▁rurale	-8080
▁raccord	-8081
FORMATION	-8082
▁chimiques	-8083
ontin	-8084
▁déte	-8085
▁garder	-8086
▁Society	-8087
▁déchets	-8088
▁filiale	-8089
▁intérim	-8090
▁composés	-8091
exposition	-8092
▁approuvés	-8093
bs	-8094
GION	-8095
Pour	-8096
ailleurs	-8097
▁exploitant	-8098
▁2008-03	-8099
▁Objectif	-8100
▁accepter	-8101
▁demandée	-8102
▁équitable	-8103
REV	-8104
Uni	-8105
▁92	-8106
▁tendance	-8107
At	-8108
▁désigner	-8109
SH	-8110
▁relève	-8111
▁réflex	-8112
▁accéder	-8113
▁souligner	-8114
▁individuels	-8115
▁consultatifs	-8116
ough	-8117
pôts	-8118
▁Jan	-8119
▁erreurs	-8120
▁104	-8121
▁520	-8122
▁can	-8123
érant	-8124
▁1993	-8125
SEIGNE	-8126
▁RURAL	-8127
▁partager	-8128
▁appliquées	-8129
▁dédouanement	-8130
ger	-8131
élec	-8132
▁2005)	-8133
▁Moins	-8134
▁cesse	-8135
▁dividende	-8136
▁plastique	-8137
▁Traitement	-8138
▁infraction	-8139
▁intellectuelle	-8140
SON	-8141
▁refl	-8142
issons	-8143
▁récomp	-8144
▁accorder	-8145
▁recueilli	-8146
FF	-8147
ANCE	-8148
pect	-8149
▁frau	-8150
▁ronde	-8151
▁FCI	-8152
▁Matière	-8153
▁calculs	-8154
élimination	-8155
▁transferts	-8156
▁zéro	-8157
ervice	-8158
▁éclai	-8159
▁brevet	-8160
▁approuvée	-8161
▁confirmer	-8162
▁inscription	-8163
dés	-8164
▁2-	-8165
▁MD	-8166
▁cible	-8167
▁bicycl	-8168
▁familial	-8169
▁salariale	-8170
▁tendances	-8171
▁génération	-8172
▁Gre	-8173
▁LOC	-8174
▁SDR	-8175
wback	-8176
▁Zone	-8177
▁signale	-8178
▁conventions	-8179
mal	-8180
ades	-8181
roph	-8182
▁1991	-8183
▁mots	-8184
présidente	-8185
▁Fre	-8186
ottes	-8187
▁Citoy	-8188
▁entrer	-8189
onciation	-8190
▁démarche	-8191
érin	-8192
▁NOR	-8193
▁Dossi	-8194
▁reliés	-8195
sse	-8196
▁AC	-8197
▁Maj	-8198
acquit	-8199
▁Smith	-8200
▁connexe	-8201
▁certificats	-8202
ool	-8203
élérer	-8204
▁signific	-8205
87	-8206
haus	-8207
▁11,	-8208
▁nord	-8209
▁arriv	-8210
▁Pendant	-8211
▁protéine	-8212
▁RENSEIGNE	-8213
▁expertise	-8214
▁originale	-8215
▁Identification	-8216
▁contrôles	-8217
▁périodiques	-8218
▁présentations	-8219
▁FR	-8220
iche	-8221
ifier	-8222
outils	-8223
▁Techn	-8224
▁synthèse	-8225
▁ontar	-8226
▁tests	-8227
▁Network	-8228
▁cultures	-8229
▁respectivement	-8230
OH	-8231
▁And	-8232
▁2008,	-8233
▁erreur	-8234
▁laminés	-8235
▁aéroport	-8236
br	-8237
▁3)	-8238
èges	-8239
▁CIC	-8240
abinet	-8241
▁Trois	-8242
▁actif	-8243
▁dange	-8244
▁peine	-8245
mpiques	-8246
▁passés	-8247
▁prions	-8248
▁annuler	-8249
▁quantités	-8250
entreposage	-8251
82	-8252
orn	-8253
ican	-8254
émat	-8255
▁127	-8256
▁Cir	-8257
ylate	-8258
économ	-8259
employés	-8260
▁2007-10	-8261
▁exonérés	-8262
▁prévoient	-8263
▁diminution	-8264
URS	-8265
cile	-8266
mond	-8267
▁susc	-8268
atrième	-8269
▁ASSOCI	-8270
▁parrain	-8271
▁mobilité	-8272
commissaire	-8273
▁organisés	-8274
▁remboursé	-8275
AV	-8276
▁exc	-8277
▁connu	-8278
▁classe	-8279
▁tenant	-8280
▁Indiens	-8281
▁Moyenne	-8282
▁VILLAGE	-8283
▁remplie	-8284
▁transférée	-8285
▁Att	-8286
▁accus	-8287
▁ajoutée	-8288
▁offerte	-8289
ématiques	-8290
▁acquérir	-8291
▁occasion	-8292
▁exonérées	-8293
▁matériaux	-8294
▁identiques	-8295
▁précisément	-8296
▁nécessairement	-8297
AG	-8298
▁céd	-8299
▁bons	-8300
▁révo	-8301
▁préserv	-8302
▁prévoir	-8303
▁trousse	-8304
▁amortissable	-8305
▁900	-8306
erbro	-8307
▁Quand	-8308
apitres	-8309
cal	-8310
▁guerre	-8311
▁privés	-8312
▁Justice	-8313
▁imposées	-8314
▁Citoyenneté	-8315
▁RENSEIGNEMENTS	-8316
ALL	-8317
ems	-8318
ico	-8319
orb	-8320
▁86	-8321
timis	-8322
▁(199	-8323
▁linguis	-8324
ÉD	-8325
unn	-8326
)-2-	-8327
ener	-8328
îner	-8329
voyez	-8330
▁lieux	-8331
ICATION	-8332
▁croire	-8333
▁Mesures	-8334
▁Transfert	-8335
▁télécommun	-8336
itez	-8337
▁Mod	-8338
▁achète	-8339
▁choisis	-8340
liz	-8341
enteur	-8342
▁nommés	-8343
▁éviter	-8344
rose	-8345
ettez	-8346
▁serv	-8347
▁fondés	-8348
▁fruits	-8349
▁District	-8350
▁appuient	-8351
(4	-8352
ota	-8353
▁700	-8354
atite	-8355
comme	-8356
▁socio	-8357
▁Étape	-8358
▁Export	-8359
▁rappro	-8360
▁jeunesse	-8361
dage	-8362
ourg	-8363
dihydro	-8364
actitude	-8365
▁disparités	-8366
▁nomination	-8367
▁prescription	-8368
▁SCH	-8369
hyper	-8370
ville	-8371
▁dépens	-8372
annoncer	-8373
erbrooke	-8374
▁directs	-8375
▁complexe	-8376
lle	-8377
way	-8378
▁Wind	-8379
▁York	-8380
carbox	-8381
▁Codes	-8382
émission	-8383
▁accorde	-8384
▁brevets	-8385
▁analyses	-8386
▁désignées	-8387
▁commençant	-8388
▁institutionnels	-8389
TEUR	-8390
ston	-8391
sique	-8392
▁Ouest	-8393
▁Budget	-8394
▁2005-03	-8395
▁Laurier	-8396
onférence	-8397
96	-8398
urn	-8399
ford	-8400
glas	-8401
ington	-8402
▁joignez	-8403
▁chronique	-8404
▁copropriété	-8405
97	-8406
essais	-8407
oriser	-8408
▁navig	-8409
▁intégrée	-8410
▁Protection	-8411
/00	-8412
▁lev	-8413
▁oui	-8414
excell	-8415
▁loisirs	-8416
▁exemplaire	-8417
▁Taxe	-8418
▁tourn	-8419
▁Message	-8420
▁combler	-8421
▁Question	-8422
onstration	-8423
▁marchandise	-8424
▁orientation	-8425
▁CAR	-8426
▁TRANS	-8427
▁libert	-8428
▁machine	-8429
▁offrant	-8430
▁auraient	-8431
▁harmonisé	-8432
ial	-8433
ondes	-8434
▁préd	-8435
▁vivent	-8436
▁Atelier	-8437
▁comparaison	-8438
▁effectivement	-8439
▁bloc	-8440
▁Women	-8441
▁franchise	-8442
▁Bro	-8443
▁HOM	-8444
alisée	-8445
▁mécan	-8446
▁moindre	-8447
▁procure	-8448
▁longueur	-8449
▁douaniers	-8450
▁mouvement	-8451
▁OR	-8452
▁sexes	-8453
▁conven	-8454
▁souris	-8455
uellement	-8456
▁progresser	-8457
▁combinaison	-8458
▁11.	-8459
onnés	-8460
▁résul	-8461
épatite	-8462
▁achetés	-8463
▁privées	-8464
▁produisent	-8465
▁circulation	-8466
▁doute	-8467
ducteur	-8468
▁énonce	-8469
aucune	-8470
▁REVEN	-8471
affaire	-8472
▁solides	-8473
▁satisfais	-8474
▁exceptions	-8475
anie	-8476
▁941	-8477
▁mag	-8478
existe	-8479
▁appré	-8480
▁Paragraphe	-8481
ram	-8482
tal	-8483
ailles	-8484
▁criminel	-8485
▁créances	-8486
▁drawback	-8487
▁libertés	-8488
▁américain	-8489
MREV	-8490
vité	-8491
▁DÉC	-8492
▁Édi	-8493
▁1143	-8494
--------	-8495
▁remplit	-8496
▁veulent	-8497
ala	-8498
▁race	-8499
▁changé	-8500
▁2001-200	-8501
▁dialogue	-8502
▁Hum	-8503
énoncé	-8504
▁Génér	-8505
▁EXPRES	-8506
▁saisie	-8507
▁remplacer	-8508
▁honoraires	-8509
SS	-8510
▁nu	-8511
▁PCS	-8512
▁isol	-8513
▁intégré	-8514
▁administrations	-8515
envoi	-8516
orise	-8517
▁promoteur	-8518
▁salle	-8519
▁exercé	-8520
▁Company	-8521
augmenter	-8522
▁rénovations	-8523
84	-8524
ury	-8525
itex	-8526
rich	-8527
urés	-8528
▁bét	-8529
fices	-8530
▁agrég	-8531
▁située	-8532
▁pouvait	-8533
▁justifier	-8534
administrer	-8535
▁Sherbrooke	-8536
▁classification	-8537
to	-8538
-(4-	-8539
▁416	-8540
▁Clin	-8541
atteindre	-8542
▁Organismes	-8543
▁Utilisation	-8544
▁correspondance	-8545
VF	-8546
ws	-8547
raux	-8548
ption	-8549
▁joue	-8550
▁vient	-8551
▁métaux	-8552
▁chiffre	-8553
▁décitex	-8554
▁Sc	-8555
▁149	-8556
▁Main	-8557
▁Mari	-8558
▁2004)	-8559
▁axées	-8560
énergie	-8561
▁2007-02	-8562
identifier	-8563
kg	-8564
100	-8565
arge	-8566
▁Éth	-8567
▁2007-06	-8568
assistance	-8569
▁anticipée	-8570
▁directions	-8571
▁fabricants	-8572
▁)	-8573
▁Pacte	-8574
▁polyester	-8575
85	-8576
▁Av	-8577
iches	-8578
▁stra	-8579
change	-8580
▁antibiotiques	-8581
▁meuble	-8582
▁raciale	-8583
▁Conseils	-8584
entraînement	-8585
ute	-8586
▁lit	-8587
ISION	-8588
alition	-8589
athlète	-8590
▁exporté	-8591
▁biblioth	-8592
▁protocoles	-8593
ICH	-8594
voyer	-8595
▁SOCI	-8596
▁BOARD	-8597
▁normal	-8598
▁réside	-8599
▁événement	-8600
▁AV	-8601
liques	-8602
▁perçu	-8603
▁COMMUN	-8604
▁indirec	-8605
▁stipule	-8606
▁attribués	-8607
▁Opérations	-8608
▁actionnaires	-8609
▁oeuv	-8610
▁ajust	-8611
▁dirigeants	-8612
▁CAD	-8613
▁Edmonton	-8614
▁composant	-8615
ORT	-8616
hex	-8617
lin	-8618
▁Vi	-8619
line	-8620
ibilité	-8621
omètres	-8622
▁réputés	-8623
▁confirmation	-8624
▁intermédiaire	-8625
81	-8626
▁repos	-8627
▁Indice	-8628
▁hausse	-8629
imagerie	-8630
▁Colonne	-8631
▁Rencontre	-8632
▁courtiers	-8633
76	-8634
▁Région	-8635
▁envoyés	-8636
▁appliqué	-8637
▁original	-8638
▁sexuelle	-8639
eron	-8640
▁3,5	-8641
▁MARCH	-8642
▁unité	-8643
▁Décret	-8644
mé	-8645
ung	-8646
▁Norm	-8647
▁20(1)	-8648
▁pertinent	-8649
▁intervention	-8650
▁Ox	-8651
▁raff	-8652
annonce	-8653
▁corriger	-8654
▁majeures	-8655
quées	-8656
associé	-8657
▁Crédits	-8658
sh	-8659
ana	-8660
entis	-8661
▁Inves	-8662
▁consensus	-8663
▁expédition	-8664
-6-	-8665
EDI	-8666
▁Archiv	-8667
▁tableaux	-8668
▁Instruments	-8669
▁MT	-8670
ural	-8671
▁Péri	-8672
▁supr	-8673
▁1994,	-8674
▁courte	-8675
▁étudie	-8676
▁acquiert	-8677
▁subventionnées	-8678
▁HE	-8679
ATER	-8680
sifs	-8681
raîch	-8682
acquérir	-8683
▁College	-8684
▁Formation	-8685
▁conservés	-8686
▁réflexion	-8687
▁perspective	-8688
2,00	-8689
atten	-8690
▁affirm	-8691
▁réforme	-8692
▁Ministre	-8693
01	-8694
▁pharmac	-8695
▁infirmiers	-8696
▁surveiller	-8697
▁récu	-8698
▁accru	-8699
▁originaire	-8700
▁examinateurs	-8701
isté	-8702
▁115	-8703
▁Sim	-8704
▁Marie	-8705
▁loyer	-8706
▁cotées	-8707
atteinte	-8708
▁limiter	-8709
▁mainten	-8710
▁visites	-8711
▁recevront	-8712
▁fournissez	-8713
▁Paci	-8714
▁calculés	-8715
▁innovateurs	-8716
▁fondamentales	-8717
Énoncé	-8718
▁human	-8719
▁récol	-8720
excédent	-8721
▁spécialisés	-8722
Loi	-8723
▁Lab	-8724
oyers	-8725
▁annule	-8726
▁naturels	-8727
▁détenteur	-8728
▁téléphoniques	-8729
▁Care	-8730
iforme	-8731
▁devenue	-8732
▁mettent	-8733
▁néglige	-8734
▁résoudre	-8735
▁souffrant	-8736
▁randomisés	-8737
otechnologie	-8738
▁Hébergement	-8739
▁acceptables	-8740
▁synthétiques	-8741
Rx	-8742
▁12,	-8743
▁inde	-8744
▁devenu	-8745
▁exhaus	-8746
▁branche	-8747
▁minimale	-8748
▁distincts	-8749
▁substances	-8750
93	-8751
▁hom	-8752
afraîch	-8753
▁Douglas	-8754
▁médical	-8755
onnements	-8756
▁dotation	-8757
▁prennent	-8758
▁couverture	-8759
ARY	-8760
igu	-8761
rév	-8762
oriz	-8763
▁jugées	-8764
▁interdit	-8765
▁primaire	-8766
▁Recommand	-8767
▁résolution	-8768
▁Kar	-8769
▁RMR	-8770
▁Disc	-8771
oulent	-8772
▁locale	-8773
cé	-8774
▁93	-8775
▁GL	-8776
▁TH	-8777
offre	-8778
▁Guides	-8779
▁pleine	-8780
▁Bromure	-8781
▁conclue	-8782
▁demandent	-8783
▁symposium	-8784
affectation	-8785
%)	-8786
yr	-8787
exerc	-8788
territ	-8789
▁lancer	-8790
▁Puisque	-8791
▁redevances	-8792
74	-8793
yez	-8794
mêmes	-8795
▁Quelle	-8796
DD	-8797
▁diss	-8798
▁intro	-8799
▁954-1800	-8800
▁Commissaire	-8801
▁CPMREV	-8802
▁Commer	-8803
▁consenti	-8804
▁exploité	-8805
▁exploitée	-8806
.4	-8807
Ex	-8808
▁Ens	-8809
▁vac	-8810
▁articul	-8811
Atlantique	-8812
▁contraire	-8813
▁travaillant	-8814
(6)	-8815
NEL	-8816
▁Stu	-8817
▁Sick	-8818
▁motif	-8819
▁maisons	-8820
▁travers	-8821
▁considérable	-8822
▁correspondent	-8823
MA	-8824
▁Sp	-8825
pyrid	-8826
▁conj	-8827
▁PCSRA	-8828
▁clair	-8829
▁plate	-8830
▁emball	-8831
▁Définition	-8832
▁incorporel	-8833
▁Prestations	-8834
cycl	-8835
enza	-8836
tisme	-8837
▁révél	-8838
▁décider	-8839
▁définie	-8840
▁respecte	-8841
▁infrastructure	-8842
▁CL	-8843
▁exclus	-8844
▁2007-01	-8845
'-	-8846
ustralie	-8847
▁placebos	-8848
▁conjoints	-8849
▁fabriqués	-8850
▁validation	-8851
05	-8852
ONE	-8853
olicy	-8854
▁récip	-8855
▁finales	-8856
▁largeur	-8857
▁lecteur	-8858
imposable	-8859
▁printemps	-8860
▁dispositifs	-8861
220	-8862
oise	-8863
égét	-8864
ajout	-8865
▁2006-03	-8866
▁perform	-8867
echanisms	-8868
▁mentorat	-8869
▁numérique	-8870
▁sanctions	-8871
▁independant	-8872
▁?	-8873
vue	-8874
estim	-8875
itudin	-8876
▁Mettre	-8877
▁Politiques	-8878
▁conversion	-8879
trait	-8880
▁facile	-8881
▁invité	-8882
▁ouverte	-8883
▁Archives	-8884
ENCE	-8885
anth	-8886
tivation	-8887
ACE	-8888
iel	-8889
mat	-8890
terie	-8891
aisseur	-8892
▁Stephen	-8893
turalisme	-8894
édération	-8895
▁reconnue	-8896
▁Ju	-8897
▁baisse	-8898
▁étroit	-8899
ks	-8900
idée	-8901
▁TNZ	-8902
▁lire	-8903
▁1999.	-8904
▁réelle	-8905
▁2007-04	-8906
▁favorise	-8907
DP	-8908
agr	-8909
▁Jour	-8910
▁PFCE	-8911
▁végét	-8912
▁Produc	-8913
▁évaluées	-8914
▁judiciaire	-8915
OMS	-8916
▁GROUP	-8917
▁Faites	-8918
▁cigaret	-8919
▁définit	-8920
▁bénéfice	-8921
▁recueillis	-8922
▁Den	-8923
▁prélè	-8924
attache	-8925
▁impliqu	-8926
▁éliminer	-8927
▁télécharg	-8928
▁Excellence	-8929
afraîchissements	-8930
▁Mem	-8931
▁sac	-8932
agées	-8933
▁COUN	-8934
▁Reine	-8935
histoire	-8936
▁EDIFACT	-8937
▁conclut	-8938
▁navires	-8939
▁boursiers	-8940
.90	-8941
JET	-8942
hors	-8943
asthme	-8944
▁masse	-8945
hépatite	-8946
▁suprême	-8947
▁demeurent	-8948
ENA	-8949
▁12.	-8950
▁dirigé	-8951
▁déposé	-8952
▁chances	-8953
▁relèvent	-8954
▁concevoir	-8955
▁longtemps	-8956
lles	-8957
▁NAS	-8958
▁civils	-8959
▁évidence	-8960
▁informatis	-8961
▁composantes	-8962
MC	-8963
▁Pra	-8964
ortez	-8965
▁club	-8966
▁parler	-8967
▁conflit	-8968
▁informé	-8969
▁mortalité	-8970
▁SS	-8971
▁kg	-8972
▁Sans	-8973
▁nomin	-8974
▁difficulté	-8975
ITE	-8976
appar	-8977
▁retirer	-8978
▁pression	-8979
▁concernent	-8980
TTA	-8981
bsa	-8982
sor	-8983
▁Coun	-8984
▁clim	-8985
▁Droit	-8986
arition	-8987
▁aident	-8988
▁engagée	-8989
8,00	-8990
▁audi	-8991
ouverneur	-8992
oyés	-8993
▁LIM	-8994
onction	-8995
▁frontières	-8996
▁Bo	-8997
ardi	-8998
ogen	-8999
▁118	-9000
ancier	-9001
▁future	-9002
▁entités	-9003
▁explication	-9004
inobservation	-9005
cer	-9006
cop	-9007
▁Fl	-9008
Annexe	-9009
▁ALÉNA	-9010
ization	-9011
alisations	-9012
▁CC	-9013
cture	-9014
▁Chef	-9015
▁rien	-9016
avaient	-9017
▁incorpor	-9018
▁modifiés	-9019
▁interprét	-9020
▁comparativement	-9021
▁débat	-9022
▁senti	-9023
▁arrive	-9024
▁Majesté	-9025
▁bienvenue	-9026
▁destruction	-9027
anch	-9028
▁RAP	-9029
▁sch	-9030
▁XIII	-9031
▁souligné	-9032
▁individus	-9033
ark	-9034
▁NS	-9035
isson	-9036
uréat	-9037
▁Mois	-9038
améric	-9039
▁nanom	-9040
▁rubrique	-9041
▁électriques	-9042
▁téléphonique	-9043
▁do	-9044
iner	-9045
▁assi	-9046
▁Elgin	-9047
▁payez	-9048
▁consoli	-9049
▁démonstration	-9050
chez	-9051
▁inj	-9052
▁dist	-9053
▁posséd	-9054
▁2007-11	-9055
▁contrôlée	-9056
no	-9057
ICE	-9058
▁Cap	-9059
▁bal	-9060
▁canc	-9061
▁jouent	-9062
tructures	-9063
▁aideront	-9064
▁critique	-9065
▁discontin	-9066
Est	-9067
ycine	-9068
▁prot	-9069
anmoins	-9070
▁probantes	-9071
▁reconnues	-9072
▁CII	-9073
▁Group	-9074
▁HOMES	-9075
▁Reten	-9076
▁recru	-9077
▁graves	-9078
▁nettes	-9079
▁liberté	-9080
▁racisme	-9081
▁TAU	-9082
diction	-9083
étudier	-9084
▁Pierre	-9085
▁choses	-9086
▁plaisir	-9087
ey	-9088
FRS	-9089
,000	-9090
cbsa	-9091
provin	-9092
▁Machines	-9093
▁définies	-9094
▁exécutif	-9095
▁intégrer	-9096
▁rédaction	-9097
▁compétition	-9098
▁rajustements	-9099
▁respiratoires	-9100
ITÉ	-9101
anches	-9102
ansion	-9103
▁cycles	-9104
▁proche	-9105
▁réalité	-9106
▁arrangements	-9107
immobilisations	-9108
▁mè	-9109
eral	-9110
outh	-9111
engage	-9112
▁CRSNG	-9113
▁sodium	-9114
rine	-9115
lisez	-9116
▁sangu	-9117
▁Mesure	-9118
▁pulmon	-9119
▁biochim	-9120
▁précoce	-9121
▁Sociétés	-9122
▁longitudin	-9123
▁supervision	-9124
arr	-9125
adie	-9126
chev	-9127
inions	-9128
istent	-9129
▁Porte	-9130
▁Susan	-9131
éditeur	-9132
▁estimé	-9133
▁issues	-9134
▁transpl	-9135
▁essentielle	-9136
▁constitution	-9137
▁réunir	-9138
▁ménages	-9139
▁campagne	-9140
86	-9141
ART	-9142
carbonyl	-9143
▁grossesse	-9144
▁bénéficient	-9145
▁MC	-9146
▁491	-9147
ayant	-9148
euses	-9149
raine	-9150
▁Stat	-9151
▁verre	-9152
▁acquises	-9153
▁additionnel	-9154
▁réparations	-9155
ÉN	-9156
▁123	-9157
▁Marc	-9158
▁messager	-9159
▁indiquées	-9160
nom	-9161
▁LOI	-9162
▁Appro	-9163
▁Suite	-9164
▁dégag	-9165
▁grave	-9166
incluez	-9167
▁function	-9168
▁visibles	-9169
▁Es	-9170
▁Jac	-9171
▁dus	-9172
ating	-9173
▁rass	-9174
▁régl	-9175
▁exigés	-9176
▁sortie	-9177
▁adopter	-9178
▁intégrés	-9179
emplacement	-9180
▁législative	-9181
▁représenter	-9182
▁satisfaction	-9183
ONTO	-9184
azép	-9185
view	-9186
▁touchent	-9187
▁impossible	-9188
▁infractions	-9189
OG	-9190
ISES	-9191
▁1992	-9192
▁soup	-9193
▁stand	-9194
▁signaler	-9195
encourager	-9196
▁remarquer	-9197
▁récupérer	-9198
▁Ev	-9199
▁vrac	-9200
▁circu	-9201
▁Agente	-9202
▁formuler	-9203
▁cardiaque	-9204
acceptation	-9205
▁INFORMATION	-9206
▁excédentaire	-9207
TEL	-9208
ayer	-9209
▁jugé	-9210
▁seuls	-9211
▁démarrage	-9212
cessibilité	-9213
iées	-9214
plus	-9215
▁Del	-9216
ivant	-9217
rains	-9218
▁TCCE	-9219
▁avion	-9220
entiels	-9221
▁courants	-9222
impression	-9223
▁concertée	-9224
▁contrôlées	-9225
ney	-9226
▁Ro	-9227
pass	-9228
▁Art	-9229
▁MES	-9230
▁rappel	-9231
▁Appareils	-9232
▁comprises	-9233
▁opérationnelles	-9234
nit	-9235
▁Cam	-9236
▁spect	-9237
▁guider	-9238
▁rentes	-9239
▁repose	-9240
▁lésions	-9241
▁coordonner	-9242
▁renonciation	-9243
cieux	-9244
▁rang	-9245
▁Liens	-9246
▁Associé	-9247
▁dispens	-9248
▁contenus	-9249
▁influence	-9250
▁répondant	-9251
ano	-9252
CLAR	-9253
▁PER	-9254
abeth	-9255
turer	-9256
esprit	-9257
▁étiez	-9258
alistes	-9259
▁boutique	-9260
▁vraiment	-9261
▁transitoire	-9262
▁Administration	-9263
",	-9264
try	-9265
▁$/	-9266
▁param	-9267
▁remet	-9268
ossaire	-9269
pip	-9270
▁ME	-9271
▁Sin	-9272
ander	-9273
▁rural	-9274
Colombie	-9275
▁imputés	-9276
Pro	-9277
▁cogni	-9278
▁répert	-9279
lections	-9280
▁arrivée	-9281
▁emplois	-9282
▁stimuler	-9283
ITED	-9284
comité	-9285
▁Jusqu	-9286
▁Petit	-9287
▁génome	-9288
▁exonéré	-9289
ditionnez	-9290
▁fabriqué	-9291
▁économie	-9292
▁manifestations	-9293
oma	-9294
phén	-9295
▁Vice	-9296
ORONTO	-9297
▁femme	-9298
cédents	-9299
▁forfaitaire	-9300
▁u	-9301
▁bag	-9302
archiv	-9303
▁1995,	-9304
▁fores	-9305
▁ajoute	-9306
▁séjour	-9307
▁envoyées	-9308
▁souligne	-9309
▁pleinement	-9310
▁sensibiliser	-9311
etés	-9312
▁980	-9313
▁BRO	-9314
▁incid	-9315
▁Accord	-9316
▁arriver	-9317
▁habituelle	-9318
▁revues	-9319
▁affaire	-9320
▁systématique	-9321
TRES	-9322
▁GRC	-9323
aillants	-9324
▁réputées	-9325
▁dimensions	-9326
04	-9327
we	-9328
ABLE	-9329
rions	-9330
▁chem	-9331
NATION	-9332
▁forte	-9333
▁PARTIE	-9334
▁faudra	-9335
▁locales	-9336
▁manuels	-9337
▁existent	-9338
▁réalisée	-9339
▁tiennent	-9340
▁compagnies	-9341
▁acquisitions	-9342
née	-9343
nelle	-9344
▁fixé	-9345
AGEMENT	-9346
▁amateur	-9347
▁microbi	-9348
▁déclarez	-9349
▁Changement	-9350
▁rencontrer	-9351
▁entreprendre	-9352
▁portefeuille	-9353
▁subventionnés	-9354
▁pharmaceutiques	-9355
uv	-9356
▁(%)	-9357
OND	-9358
réc	-9359
▁750	-9360
▁âge	-9361
faits	-9362
▁pédi	-9363
▁scène	-9364
▁retenus	-9365
▁apportés	-9366
▁comptant	-9367
▁délivrer	-9368
▁Immigration	-9369
▁essentielles	-9370
PRO	-9371
▁SK	-9372
)-3-	-9373
▁mix	-9374
tétra	-9375
▁pron	-9376
▁DÉCLAR	-9377
▁métriques	-9378
▁TA	-9379
uline	-9380
cientif	-9381
▁champs	-9382
▁perçue	-9383
▁parlement	-9384
▁constituée	-9385
▁conteneurs	-9386
NC	-9387
ERN	-9388
▁248	-9389
▁sid	-9390
▁froid	-9391
▁Annonce	-9392
▁récents	-9393
hypertension	-9394
▁complémentaires	-9395
UMÉ	-9396
▁Aj	-9397
ject	-9398
rime	-9399
VILLE	-9400
emagne	-9401
▁débou	-9402
▁Russie	-9403
▁signée	-9404
itations	-9405
▁positif	-9406
08	-9407
aie	-9408
▁mé	-9409
▁Lettre	-9410
attaquer	-9411
▁2006-02	-9412
▁Barbara	-9413
▁présumé	-9414
▁Hab	-9415
▁OTTA	-9416
▁Remp	-9417
▁rigou	-9418
▁Protoc	-9419
▁couleur	-9420
▁bulletins	-9421
▁comptable	-9422
▁exploiter	-9423
▁estimations	-9424
Ph	-9425
adrc	-9426
▁(5)	-9427
▁146	-9428
alpha	-9429
▁Miss	-9430
▁Seul	-9431
▁major	-9432
▁OTTAWA	-9433
▁dehors	-9434
▁condamné	-9435
▁divisions	-9436
▁nanomédecine	-9437
▁individuelles	-9438
▁Sé	-9439
▁RCE	-9440
utive	-9441
▁décis	-9442
▁enver	-9443
▁tenues	-9444
––––––––	-9445
▁2008-04	-9446
▁délivré	-9447
▁placebo	-9448
▁coupable	-9449
▁Chercheur	-9450
▁ressource	-9451
▁transmises	-9452
▁proviennent	-9453
gov	-9454
▁905	-9455
▁Mul	-9456
▁uni	-9457
▁Amer	-9458
▁gène	-9459
▁Pharm	-9460
▁incap	-9461
▁manqu	-9462
▁préjud	-9463
▁volets	-9464
▁acquise	-9465
▁contenir	-9466
▁diplômés	-9467
▁endroits	-9468
SR	-9469
elez	-9470
oral	-9471
▁Déf	-9472
▁RRQ	-9473
▁Sum	-9474
ommet	-9475
______	-9476
▁passée	-9477
▁émises	-9478
▁réservé	-9479
▁Documents	-9480
▁prestataires	-9481
▁technologique	-9482
LEY	-9483
▁1-	-9484
▁Exemp	-9485
▁INSMT	-9486
53	-9487
13,	-9488
timent	-9489
ophones	-9490
▁passage	-9491
▁influent	-9492
▁immédiate	-9493
ituellement	-9494
▁discontinues	-9495
TT	-9496
fl	-9497
aliste	-9498
traite	-9499
▁transparence	-9500
-777	-9501
rist	-9502
▁Rév	-9503
▁Phil	-9504
▁domes	-9505
▁perdu	-9506
▁dommages	-9507
▁Development	-9508
▁territoriales	-9509
ingt	-9510
▁180	-9511
.10.00	-9512
▁dettes	-9513
▁entendu	-9514
▁bâtiments	-9515
▁suffisant	-9516
▁Inscription	-9517
omas	-9518
▁Sam	-9519
▁recouv	-9520
▁favorisent	-9521
accessibilité	-9522
▁cautionnement	-9523
(7)	-9524
isée	-9525
▁(20	-9526
▁gre	-9527
▁aurez	-9528
▁impay	-9529
▁Ach	-9530
▁Lég	-9531
grain	-9532
inval	-9533
raser	-9534
▁cote	-9535
▁confirmé	-9536
▁prescrits	-9537
▁douanières	-9538
▁grandement	-9539
ails	-9540
nant	-9541
ébéc	-9542
▁préf	-9543
accomp	-9544
▁Japon	-9545
▁super	-9546
MINISTR	-9547
▁Analyse	-9548
▁cinémat	-9549
▁revient	-9550
▁segment	-9551
▁volonté	-9552
▁annonces	-9553
▁régulier	-9554
▁COMMUNITY	-9555
rastructures	-9556
▁indirectement	-9557
▁NB	-9558
▁ii	-9559
▁Stre	-9560
▁Environ	-9561
▁amélioration	-9562
▁déplacements	-9563
▁postsecondaire	-9564
».	-9565
▁Mus	-9566
▁séqu	-9567
▁chose	-9568
▁REVENU	-9569
▁Remplir	-9570
▁adoptées	-9571
▁inscrites	-9572
exc	-9573
oms	-9574
▁Tel	-9575
▁oly	-9576
▁mini	-9577
▁soin	-9578
▁tomb	-9579
▁promo	-9580
▁Production	-9581
▁Présentation	-9582
▁officiellement	-9583
▁SC	-9584
▁arm	-9585
▁admis	-9586
▁therm	-9587
Le	-9588
▁tu	-9589
cept	-9590
icon	-9591
page	-9592
▁Regina	-9593
▁concepts	-9594
▁examinés	-9595
▁convaincu	-9596
▁mentionne	-9597
▁Coordonnées	-9598
riture	-9599
vements	-9600
imetière	-9601
▁précisé	-9602
▁opposition	-9603
▁succursale	-9604
▁équivalent	-9605
▁annuellement	-9606
.12	-9607
▁pâ	-9608
▁(41	-9609
▁accél	-9610
▁exact	-9611
▁LIMITED	-9612
▁consacrer	-9613
▁fortement	-9614
▁intérieurs	-9615
organisations	-9616
rets	-9617
▁SOL	-9618
▁tal	-9619
astro	-9620
ortes	-9621
▁préparé	-9622
▁uniforme	-9623
hor	-9624
▁Né	-9625
▁13.	-9626
▁foi	-9627
bande	-9628
▁160,	-9629
▁clarif	-9630
attendre	-9631
▁majeure	-9632
▁importer	-9633
▁cigarettes	-9634
▁plastiques	-9635
▁respectent	-9636
▁réellement	-9637
oon	-9638
▁pann	-9639
▁Compr	-9640
▁ressor	-9641
▁Windsor	-9642
▁infanti	-9643
▁tre	-9644
traire	-9645
▁Policy	-9646
▁vendez	-9647
▁plaques	-9648
▁demeurer	-9649
▁influenc	-9650
▁expédiées	-9651
▁choisissez	-9652
▁14,	-9653
▁Bru	-9654
ustre	-9655
▁Wood	-9656
sivement	-9657
▁Catégor	-9658
▁Journal	-9659
▁achetez	-9660
▁incompl	-9661
▁Chlorure	-9662
▁ethnique	-9663
▁Portefeuille	-9664
jac	-9665
▁Bu	-9666
sionnaire	-9667
▁Labrador	-9668
▁vérificateur	-9669
OB	-9670
WS	-9671
App	-9672
teel	-9673
▁Vers	-9674
ISSION	-9675
▁faute	-9676
▁détention	-9677
▁industries	-9678
encouragement	-9679
▁complications	-9680
Ass	-9681
eni	-9682
chés	-9683
▁Ang	-9684
▁Mais	-9685
▁sels	-9686
▁joint	-9687
▁Tables	-9688
▁écrire	-9689
émetteur	-9690
▁légumes	-9691
▁Medicine	-9692
▁unitaire	-9693
▁favorisant	-9694
PT	-9695
IND	-9696
log	-9697
▁Fi	-9698
itée	-9699
opro	-9700
▁Ess	-9701
▁mut	-9702
▁bucc	-9703
téresse	-9704
▁Appels	-9705
▁2006-12	-9706
lissements	-9707
▁étroitement	-9708
▁959	-9709
▁loin	-9710
propyl	-9711
▁Grand	-9712
▁autorisées	-9713
▁novatrices	-9714
▁souffrance	-9715
intervenants	-9716
▁négociation	-9717
AF	-9718
/10	-9719
▁4-	-9720
▁CB	-9721
medi	-9722
ward	-9723
▁four	-9724
iences	-9725
service	-9726
lizabeth	-9727
▁investi	-9728
▁seconde	-9729
invalidité	-9730
▁apprendre	-9731
▁réalisées	-9732
▁saillants	-9733
▁collective	-9734
▁coopérative	-9735
▁restriction	-9736
allé	-9737
▁125	-9738
ôture	-9739
▁Mary	-9740
▁exigé	-9741
étudiants	-9742
▁Memorial	-9743
▁Province	-9744
▁semblent	-9745
rin	-9746
erap	-9747
usin	-9748
intro	-9749
▁dérivés	-9750
▁raccords	-9751
▁quatrième	-9752
▁Modifications	-9753
verg	-9754
appels	-9755
olecular	-9756
▁Bureaux	-9757
▁incombe	-9758
▁différente	-9759
hér	-9760
érez	-9761
▁101	-9762
fiées	-9763
vente	-9764
▁role	-9765
▁feront	-9766
▁2007-09	-9767
▁TORONTO	-9768
▁échelle	-9769
▁Intérêts	-9770
▁rencontres	-9771
▁intérimaire	-9772
▁explications	-9773
hol	-9774
let	-9775
▁190	-9776
▁créée	-9777
0,000-$	-9778
▁Durant	-9779
▁appelée	-9780
▁légales	-9781
▁hospitalier	-9782
▁automatiquement	-9783
PO	-9784
ker	-9785
ére	-9786
▁cy	-9787
▁130	-9788
▁Drs	-9789
aucun	-9790
idémie	-9791
▁ferme	-9792
▁verso	-9793
▁2007-08	-9794
▁contrôler	-9795
▁Communiqué	-9796
▁secrétaire	-9797
▁bicyclettes	-9798
▁correctement	-9799
DG	-9800
OOD	-9801
▁IX	-9802
▁siè	-9803
▁somm	-9804
▁bière	-9805
ateliers	-9806
intégrer	-9807
▁entrent	-9808
▁augmente	-9809
▁Réduction	-9810
▁supervise	-9811
▁trimestri	-9812
▁complexité	-9813
▁provisions	-9814
▁joué	-9815
▁suff	-9816
▁Human	-9817
▁innovatrice	-9818
▁innovatrices	-9819
side	-9820
▁SEC	-9821
▁Jeff	-9822
▁district	-9823
▁Signature	-9824
▁Ben	-9825
Total	-9826
opropyl	-9827
▁passées	-9828
▁Pourquoi	-9829
▁télévision	-9830
4,00	-9831
uter	-9832
▁dil	-9833
▁Inuits	-9834
▁PERSON	-9835
▁Paiement	-9836
▁exigence	-9837
▁intégrante	-9838
IST	-9839
▁350	-9840
▁Conn	-9841
▁Envoyez	-9842
▁chargés	-9843
▁langage	-9844
▁polymères	-9845
▁stagiaire	-9846
▁productivité	-9847
7-	-9848
83	-9849
▁DA	-9850
▁cart	-9851
▁Malgré	-9852
▁Renforc	-9853
▁minutes	-9854
▁Représent	-9855
▁archivées	-9856
▁prévalence	-9857
▁psychologie	-9858
TING	-9859
fique	-9860
▁Bruce	-9861
Éducation	-9862
▁Fournitures	-9863
ka	-9864
ACH	-9865
euse	-9866
▁chevr	-9867
▁coûte	-9868
êtement	-9869
▁cerner	-9870
atherine	-9871
retraite	-9872
▁vérifiés	-9873
▁énumérées	-9874
▁MANAGEMENT	-9875
▁calendrier	-9876
▁respectées	-9877
▁précédemment	-9878
Administration	-9879
(5	-9880
▁Éc	-9881
ISFRS	-9882
onate	-9883
▁Cell	-9884
▁lour	-9885
benzyl	-9886
▁englobe	-9887
▁Industries	-9888
▁Dispositions	-9889
▁laboratoires	-9890
autocotisation	-9891
▁Participation	-9892
***	-9893
fie	-9894
▁Hy	-9895
▁PAA	-9896
▁Dîner	-9897
▁prime	-9898
▁tiendra	-9899
▁devaient	-9900
▁investis	-9901
▁constante	-9902
▁correctionn	-9903
veg	-9904
▁LAKE	-9905
Afrique	-9906
▁lutter	-9907
▁stimul	-9908
▁déposer	-9909
▁exigent	-9910
▁comportent	-9911
esis	-9912
-1,2,	-9913
tuelles	-9914
▁George	-9915
▁effort	-9916
▁tirées	-9917
▁fournira	-9918
▁répartis	-9919
aménagement	-9920
▁axés	-9921
▁1998.	-9922
▁GRAND	-9923
▁impose	-9924
▁auteurs	-9925
▁Molecular	-9926
association	-9927
▁commanditaire	-9928
-4,	-9929
.1.	-9930
ular	-9931
▁mélang	-9932
influenza	-9933
▁Protocole	-9934
▁préparations	-9935
.02	-9936
ull	-9937
17-1	-9938
▁JVM	-9939
kinson	-9940
▁versez	-9941
▁2007-12	-9942
▁lignées	-9943
▁visuelle	-9944
▁souhaitent	-9945
▁contiennent	-9946
iée	-9947
QUES	-9948
ALÉNA	-9949
acide	-9950
▁lait	-9951
▁Classe	-9952
▁malgré	-9953
▁2007-07	-9954
▁liquidation	-9955
▁méthodologie	-9956
▁$;	-9957
(2),	-9958
hôte	-9959
▁212	-9960
issait	-9961
▁fémin	-9962
▁nerve	-9963
▁obtenues	-9964
▁qualifiés	-9965
▁restreinte	-9966
▁fournissant	-9967
TIT	-9968
pir	-9969
pti	-9970
▁160	-9971
▁Bis	-9972
▁2006-01	-9973
▁mandats	-9974
▁informés	-9975
▁compléter	-9976
ACIA	-9977
énie	-9978
▁107	-9979
▁musées	-9980
indiquer	-9981
ératrice	-9982
▁billets	-9983
▁couvrir	-9984
▁inflamm	-9985
▁reliées	-9986
▁sanction	-9987
▁contrebande	-9988
▁préliminaires	-9989
cil	-9990
olf	-9991
▁om	-9992
LAND	-9993
▁RÉP	-9994
▁RÉS	-9995
accus	-9996
selon	-9997
▁BURE	-9998
▁Gene	-9999
▁tâche	-10000
itables	-10001
interaction	-10002
▁européenne	-10003
GH	-10004
neu	-10005
fond	-10006
▁Jud	-10007
Inter	-10008
▁REEE	-10009
▁Singh	-10010
▁théor	-10011
▁décenn	-10012
▁chauffage	-10013
▁dépassent	-10014
▁Réalisations	-10015
▁informatique	-10016
xim	-10017
érie	-10018
▁méd	-10019
joint	-10020
▁fruc	-10021
keting	-10022
▁Dates	-10023
▁siècle	-10024
exactitude	-10025
importants	-10026
atrici	-10027
enciers	-10028
▁cohorte	-10029
▁estimatif	-10030
▁dépression	-10031
▁individuelle	-10032
HC	-10033
OX	-10034
dies	-10035
▁Log	-10036
▁DGFA	-10037
encier	-10038
▁613-941	-10039
▁destinée	-10040
▁provision	-10041
▁industriel	-10042
▁justification	-10043
sc	-10044
▁sh	-10045
6,00	-10046
▁Lang	-10047
▁réels	-10048
▁caution	-10049
▁déposée	-10050
▁résumés	-10051
▁infantile	-10052
▁fonctionne	-10053
▁distinction	-10054
▁Sy	-10055
arez	-10056
▁agir	-10057
ètement	-10058
▁exigée	-10059
▁clôture	-10060
▁rendues	-10061
▁Pourcentage	-10062
rel	-10063
exam	-10064
▁(60	-10065
▁Accès	-10066
▁Créer	-10067
avantages	-10068
▁véritable	-10069
▁professeure	-10070
▁gouvernemental	-10071
dom	-10072
URES	-10073
auga	-10074
.1(1)	-10075
▁corpor	-10076
oculture	-10077
▁accompl	-10078
▁précédant	-10079
utilisateur	-10080
▁budgétaires	-10081
▁spécialiste	-10082
120	-10083
Net	-10084
PCC	-10085
...)	-10086
Cont	-10087
▁13,	-10088
▁BAY	-10089
▁amb	-10090
▁devoir	-10091
▁facult	-10092
▁Vérification	-10093
▁continueront	-10094
▁interprétation	-10095
Im	-10096
pi	-10097
10.	-10098
hen	-10099
oyl	-10100
5,000	-10101
▁nett	-10102
▁Mount	-10103
▁ouvrir	-10104
▁recons	-10105
▁opinions	-10106
▁présentes	-10107
▁administrés	-10108
cd	-10109
▁1/	-10110
isol	-10111
undi	-10112
▁STE	-10113
field	-10114
imprim	-10115
écoute	-10116
vergure	-10117
▁effici	-10118
▁composez	-10119
▁décisionn	-10120
▁conséc	-10121
▁atteinte	-10122
▁précieux	-10123
5-	-10124
lie	-10125
▁ONG	-10126
▁écos	-10127
opinion	-10128
▁vastes	-10129
▁attirer	-10130
▁pourrez	-10131
▁expliqué	-10132
MINISTRATION	-10133
avi	-10134
▁from	-10135
▁panc	-10136
▁cohér	-10137
exigence	-10138
▁devriez	-10139
▁faisons	-10140
▁autonome	-10141
intéressent	-10142
ls	-10143
.19	-10144
▁arb	-10145
êtres	-10146
▁passant	-10147
▁visiter	-10148
▁2007-200	-10149
tuellement	-10150
▁découlent	-10151
LÉ	-10152
▁4)	-10153
agée	-10154
▁ang	-10155
cléro	-10156
▁harc	-10157
▁mène	-10158
▁CENTR	-10159
issauga	-10160
▁photoc	-10161
▁Science	-10162
▁finance	-10163
▁Déductions	-10164
▁administre	-10165
▁DÉCLARATION	-10166
▁chlorhydrate	-10167
NOL	-10168
▁105	-10169
effor	-10170
▁calci	-10171
▁entour	-10172
▁exiger	-10173
▁exécut	-10174
▁2004-11	-10175
▁appuier	-10176
▁soutient	-10177
▁Élaborer	-10178
▁restreint	-10179
VEL	-10180
êta	-10181
▁We	-10182
otte	-10183
tous	-10184
▁111	-10185
▁stade	-10186
▁sympt	-10187
▁suggère	-10188
▁autorise	-10189
▁diamètre	-10190
▁terroris	-10191
▁déclarant	-10192
▁réguliers	-10193
▁mentionnée	-10194
sser	-10195
ypes	-10196
▁2,5	-10197
osoci	-10198
▁étro	-10199
▁fructu	-10200
▁General	-10201
▁anciens	-10202
envergure	-10203
▁Bulletins	-10204
entreprendre	-10205
1/	-10206
FE	-10207
▁Mi	-10208
▁Pre	-10209
instru	-10210
▁visait	-10211
▁budgets	-10212
▁CANADIEN	-10213
▁dynamique	-10214
▁possèdent	-10215
FIT	-10216
▁210	-10217
inium	-10218
▁IMPORT	-10219
▁marquage	-10220
▁estimative	-10221
▁indemnités	-10222
PQ	-10223
bro	-10224
▁BE	-10225
)-1-	-10226
▁annex	-10227
engager	-10228
influence	-10229
▁traitent	-10230
▁2006-2007	-10231
eterie	-10232
▁Contr	-10233
▁défav	-10234
▁Étude	-10235
issante	-10236
maladie	-10237
▁parcour	-10238
▁agrément	-10239
▁démontre	-10240
▁Elizabeth	-10241
NU	-10242
las	-10243
led	-10244
▁Law	-10245
▁évalué	-10246
▁Systems	-10247
▁Personnes	-10248
▁intention	-10249
SCH	-10250
ault	-10251
osés	-10252
▁BUS	-10253
▁aci	-10254
▁4809	-10255
venant	-10256
▁modern	-10257
▁2006-08	-10258
indemnité	-10259
▁cimetière	-10260
▁matérielle	-10261
▁Partenariat	-10262
▁temporairement	-10263
'«	-10264
))	-10265
cad	-10266
rob	-10267
rane	-10268
ajust	-10269
éviter	-10270
▁2008-05	-10271
▁illustr	-10272
▁comprise	-10273
▁interrog	-10274
▁transmet	-10275
▁expressions	-10276
▁gratuitement	-10277
Sc	-10278
vén	-10279
nera	-10280
çois	-10281
▁15,	-10282
▁COL	-10283
embler	-10284
onnage	-10285
ubrité	-10286
aéroport	-10287
▁2004-06	-10288
▁Centres	-10289
▁Dossier	-10290
▁durables	-10291
▁clarifier	-10292
▁complètes	-10293
▁rétroaction	-10294
sulf	-10295
▁Médi	-10296
aisons	-10297
▁appuyé	-10298
▁paragr	-10299
▁perçus	-10300
▁2005-04	-10301
▁démence	-10302
▁probable	-10303
▁2002-2003	-10304
▁exemption	-10305
▁déménagement	-10306
▁transplantation	-10307
▁crise	-10308
▁Statut	-10309
▁discré	-10310
▁Respons	-10311
▁Commerce	-10312
▁Products	-10313
▁Édifices	-10314
▁négligeable	-10315
▁spécialisées	-10316
-337	-10317
▁Tur	-10318
▁moul	-10319
formité	-10320
▁légère	-10321
▁2006-10	-10322
▁immobil	-10323
▁menaces	-10324
▁refuser	-10325
▁Couronne	-10326
▁confirme	-10327
▁poursuit	-10328
NES	-10329
ORD	-10330
ene	-10331
▁3-	-10332
▁Oct	-10333
▁Rest	-10334
assure	-10335
hypoth	-10336
▁(...)	-10337
iconque	-10338
▁seules	-10339
▁2005-09	-10340
▁DÉCISION	-10341
apparition	-10342
▁Priorités	-10343
▁Mississauga	-10344
▁fonctionnelle	-10345
illage	-10346
▁NORTH	-10347
▁optim	-10348
▁Louise	-10349
▁valoir	-10350
▁acheteur	-10351
▁Avantages	-10352
▁échantillon	-10353
▁attribuables	-10354
▁indépendante	-10355
▁870	-10356
opter	-10357
évent	-10358
▁AUTRES	-10359
▁portion	-10360
▁religie	-10361
▁affiliés	-10362
▁Relations	-10363
dép	-10364
amid	-10365
▁créés	-10366
▁pouss	-10367
agences	-10368
usiness	-10369
étendue	-10370
▁ciblés	-10371
▁retiré	-10372
▁Cabinet	-10373
▁Fournir	-10374
▁apporté	-10375
▁plantes	-10376
▁résulte	-10377
inscrivez	-10378
▁désirent	-10379
sur	-10380
ling	-10381
▁Ger	-10382
urope	-10383
▁aigu	-10384
▁gene	-10385
▁caiss	-10386
▁accueil	-10387
▁éventuel	-10388
▁manifeste	-10389
▁actionnaire	-10390
▁épidémiologie	-10391
NET	-10392
UES	-10393
▁17,	-10394
▁514	-10395
▁FIN	-10396
▁alphab	-10397
▁reflète	-10398
▁fréquence	-10399
▁pouvaient	-10400
▁déterminant	-10401
▁Déclarations	-10402
La	-10403
be	-10404
oz	-10405
▁(«	-10406
lent	-10407
▁256	-10408
▁Camp	-10409
▁1993,	-10410
tricité	-10411
▁tables	-10412
▁conçues	-10413
▁épidémi	-10414
▁appareil	-10415
▁convainc	-10416
▁limitées	-10417
▁épaisseur	-10418
▁ordinaires	-10419
▁antécédents	-10420
▁transférées	-10421
▁microbiologie	-10422
oni	-10423
écart	-10424
UTIONS	-10425
unités	-10426
▁actes	-10427
▁greff	-10428
▁présid	-10429
équilibre	-10430
▁différent	-10431
▁remplacée	-10432
▁Professeure	-10433
▁volontaires	-10434
.03	-10435
ETY	-10436
▁web	-10437
▁Agri	-10438
▁alco	-10439
gramme	-10440
▁1997.	-10441
ampleur	-10442
▁Travail	-10443
▁détaxées	-10444
▁découvrir	-10445
▁compétente	-10446
▁permettrait	-10447
ISS	-10448
orog	-10449
▁2.1	-10450
Tarif	-10451
asion	-10452
avril	-10453
biens	-10454
▁CRSH	-10455
aérone	-10456
eneurs	-10457
pipéri	-10458
▁Postes	-10459
▁spécifi	-10460
▁empêcher	-10461
▁résidentiel	-10462
.20	-10463
rate	-10464
▁Can	-10465
▁Pén	-10466
▁Wal	-10467
octobre	-10468
▁attest	-10469
▁légiti	-10470
▁Incluez	-10471
▁conserve	-10472
▁terminée	-10473
▁acceptées	-10474
▁confidentiel	-10475
▁négociations	-10476
appu	-10477
levé	-10478
▁AND	-10479
▁Fun	-10480
▁LTR	-10481
▁vivre	-10482
▁présum	-10483
▁quelqu	-10484
éléments	-10485
▁avancer	-10486
▁éloignées	-10487
▁desquelles	-10488
▁ajustements	-10489
non	-10490
ores	-10491
▁dat	-10492
ocats	-10493
▁2009	-10494
erreur	-10495
▁aviser	-10496
▁penser	-10497
▁québéc	-10498
▁rondes	-10499
▁chargée	-10500
▁détente	-10501
▁bénéficié	-10502
▁Calendrier	-10503
▁substituts	-10504
▁statistique	-10505
▁Tri	-10506
▁autour	-10507
▁2004-10	-10508
▁imprimé	-10509
▁pondérée	-10510
Uniquement	-10511
▁concernés	-10512
▁exportation	-10513
▁excédentaires	-10514
▁170	-10515
▁Bou	-10516
▁Rém	-10517
▁art	-10518
▁Jose	-10519
▁Part	-10520
▁jeux	-10521
▁dénat	-10522
exercer	-10523
▁sauveg	-10524
▁recruter	-10525
▁vieilles	-10526
▁Coalition	-10527
ACK	-10528
▁béb	-10529
ridge	-10530
rières	-10531
assement	-10532
▁calcule	-10533
▁lecture	-10534
▁mariage	-10535
▁recevra	-10536
▁illustre	-10537
▁renseign	-10538
▁fondamentaux	-10539
▁préférentiel	-10540
isées	-10541
iciens	-10542
▁coupl	-10543
▁récré	-10544
clérose	-10545
▁Fraser	-10546
▁couvre	-10547
▁formés	-10548
▁moelle	-10549
▁Élément	-10550
▁Améliorer	-10551
▁exceptionnels	-10552
tert	-10553
▁Sir	-10554
▁vont	-10555
▁émet	-10556
atricia	-10557
▁Pièces	-10558
▁connus	-10559
▁détaxés	-10560
▁pharmaci	-10561
automobile	-10562
▁demandant	-10563
▁Transports	-10564
▁fondations	-10565
FP	-10566
FR	-10567
ENS	-10568
▁(90	-10569
▁TVP	-10570
▁pros	-10571
▁canada	-10572
▁combus	-10573
▁2004-09	-10574
▁Afrique	-10575
▁souples	-10576
▁soutenu	-10577
▁prescrite	-10578
▁deviennent	-10579
▁gouverneur	-10580
▁suffisante	-10581
▁enseignants	-10582
IO	-10583
▁As	-10584
▁PC	-10585
▁14.	-10586
▁POL	-10587
▁cur	-10588
▁père	-10589
eloppe	-10590
▁Métis	-10591
▁anony	-10592
▁Banque	-10593
▁REGION	-10594
▁2005-06	-10595
▁Domaines	-10596
appliqueront	-10597
▁harcèlement	-10598
▁régénératrice	-10599
▁Communications	-10600
212	-10601
oser	-10602
atine	-10603
onnées	-10604
▁achev	-10605
▁BUREAU	-10606
▁fraude	-10607
▁prétend	-10608
▁signalé	-10609
▁montrent	-10610
▁fondement	-10611
▁indirects	-10612
▁éducation	-10613
▁Fédération	-10614
▁estimation	-10615
IDE	-10616
▁Te	-10617
isés	-10618
▁AUX	-10619
▁PAS	-10620
▁RIV	-10621
ustoms	-10622
▁Poste	-10623
▁Répar	-10624
▁Véhic	-10625
istique	-10626
▁leçons	-10627
▁palier	-10628
▁2005-05	-10629
▁appelez	-10630
▁assembl	-10631
▁Éthique	-10632
▁exercées	-10633
▁présidente	-10634
▁conviennent	-10635
)?	-10636
the	-10637
▁WATER	-10638
▁exces	-10639
▁jeune	-10640
▁Procéd	-10641
▁claire	-10642
▁Collège	-10643
▁dirigée	-10644
▁débiteur	-10645
▁locatifs	-10646
▁FA	-10647
▁1,5	-10648
▁Jul	-10649
▁Tex	-10650
▁jet	-10651
leurs	-10652
▁faux	-10653
écanis	-10654
▁Outre	-10655
▁école	-10656
aillite	-10657
êmement	-10658
accorder	-10659
▁affectés	-10660
▁infrastructures	-10661
▁vo	-10662
onner	-10663
▁Prai	-10664
▁LOCAL	-10665
▁fixer	-10666
▁Marina	-10667
▁congel	-10668
▁regard	-10669
▁chercher	-10670
▁disposer	-10671
▁appliqués	-10672
▁largement	-10673
▁expression	-10674
▁technologiques	-10675
ause	-10676
INESS	-10677
▁Marg	-10678
▁Stel	-10679
▁osse	-10680
▁Ventes	-10681
▁imposé	-10682
▁symptô	-10683
▁2005-11	-10684
▁Council	-10685
▁Laborat	-10686
▁Projets	-10687
▁opérationnels	-10688
▁additionnelles	-10689
tern	-10690
▁pot	-10691
▁ltée	-10692
▁aviez	-10693
▁habil	-10694
▁chance	-10695
▁2008-06	-10696
▁charges	-10697
▁fréquent	-10698
▁habitants	-10699
▁précédents	-10700
▁exceptionnelle	-10701
▁CONSUL	-10702
▁qualit	-10703
▁2006-11	-10704
▁station	-10705
▁totales	-10706
▁MARCHAND	-10707
▁électrique	-10708
▁intérieures	-10709
URN	-10710
mil	-10711
osté	-10712
énat	-10713
amate	-10714
ities	-10715
▁PUBL	-10716
▁inhib	-10717
▁saine	-10718
▁bateau	-10719
▁musique	-10720
▁servira	-10721
▁suggéré	-10722
▁examinera	-10723
▁professeurs	-10724
▁installation	-10725
MI	-10726
ish	-10727
▁15.	-10728
▁850	-10729
▁bri	-10730
▁mou	-10731
▁activ	-10732
▁Public	-10733
▁charité	-10734
▁BUSINESS	-10735
▁Patricia	-10736
▁protégés	-10737
▁testamentaire	-10738
GA	-10739
▁201	-10740
homme	-10741
▁pose	-10742
▁issus	-10743
étermin	-10744
▁2006-06	-10745
▁diffuser	-10746
▁standard	-10747
▁attribuer	-10748
▁présentement	-10749
ADMINISTRATION	-10750
▁Én	-10751
arri	-10752
cles	-10753
▁Thomas	-10754
▁parall	-10755
▁quantit	-10756
NR	-10757
ight	-10758
élic	-10759
▁Pertes	-10760
▁Report	-10761
immunité	-10762
▁hôpital	-10763
admission	-10764
▁performance	-10765
▁moléculaires	-10766
▁thérapeutique	-10767
où	-10768
ÉT	-10769
▁SP	-10770
▁bref	-10771
▁inex	-10772
▁prosp	-10773
autisme	-10774
▁soumise	-10775
▁trouble	-10776
▁positive	-10777
▁préparés	-10778
▁remarque	-10779
▁paramètres	-10780
▁extérieures	-10781
▁spécifiquement	-10782
CHER	-10783
liez	-10784
▁450	-10785
▁1990,	-10786
▁Module	-10787
▁écarts	-10788
▁Joignez	-10789
▁aéroports	-10790
▁Importation	-10791
▁extrêmement	-10792
▁collaborateurs	-10793
▁volontairement	-10794
ANC	-10795
arn	-10796
▁Fe	-10797
▁fo	-10798
ANTS	-10799
NACC	-10800
arti	-10801
inclu	-10802
ambres	-10803
ajouter	-10804
▁Street	-10805
▁guides	-10806
diméthyl	-10807
▁apportée	-10808
▁réclamer	-10809
▁quotidien	-10810
▁destinataire	-10811
HA	-10812
itÃ	-10813
▁CSP	-10814
▁DANS	-10815
▁agit	-10816
▁Brian	-10817
▁Andrew	-10818
▁Appuyer	-10819
▁terrains	-10820
opposition	-10821
▁géographique	-10822
Ét	-10823
▁Où	-10824
bien	-10825
fric	-10826
▁Avez	-10827
▁Diff	-10828
ondage	-10829
▁ferro	-10830
▁filles	-10831
▁révisée	-10832
criptions	-10833
▁similaire	-10834
▁automatique	-10835
▁établissant	-10836
.31	-10837
dez	-10838
▁my	-10839
nées	-10840
▁16,	-10841
▁VII	-10842
avocat	-10843
▁billet	-10844
▁2005-01	-10845
▁réponde	-10846
▁Institutes	-10847
▁familiales	-10848
BC	-10849
7,00	-10850
▁22,	-10851
▁dign	-10852
▁sait	-10853
▁échel	-10854
▁200500	-10855
▁bateaux	-10856
▁étroite	-10857
▁entraîné	-10858
▁existant	-10859
▁salubrité	-10860
▁Conseiller	-10861
▁Détermination	-10862
1,00	-10863
dans	-10864
élarg	-10865
▁1988	-10866
▁sûre	-10867
▁funér	-10868
▁puits	-10869
▁religion	-10870
tétrahydro	-10871
▁chirurgie	-10872
▁chercheuse	-10873
▁détenteurs	-10874
menu	-10875
USION	-10876
▁subir	-10877
archives	-10878
▁éclairé	-10879
▁positifs	-10880
▁transmise	-10881
▁constitués	-10882
▁cellulaires	-10883
▁development	-10884
▁sécuritaire	-10885
▁transporter	-10886
02	-10887
gs	-10888
▁460	-10889
▁Vos	-10890
reuve	-10891
▁loué	-10892
▁adulte	-10893
▁objets	-10894
▁Premier	-10895
▁relevés	-10896
▁présents	-10897
▁collaboré	-10898
▁entrepôts	-10899
▁concentrer	-10900
▁artificielles	-10901
▁Habituellement	-10902
NON	-10903
perte	-10904
▁TECH	-10905
▁évol	-10906
▁954-7	-10907
▁dollar	-10908
▁COMMISSION	-10909
▁respectifs	-10910
▁arrangement	-10911
.).	-10912
enez	-10913
équip	-10914
▁Eric	-10915
▁REEP	-10916
▁Role	-10917
atrick	-10918
▁2006)	-10919
▁poser	-10920
▁équip	-10921
▁pommes	-10922
▁conférenciers	-10923
113	-10924
▁Dés	-10925
▁épr	-10926
érons	-10927
▁phén	-10928
▁CERTA	-10929
▁faculté	-10930
▁effectif	-10931
▁intégral	-10932
▁salariés	-10933
▁soulevées	-10934
introduction	-10935
▁vaccination	-10936
▁fonctionnaire	-10937
quée	-10938
vrez	-10939
▁LIB	-10940
igure	-10941
donald	-10942
▁plomb	-10943
▁2005-10	-10944
▁Feuille	-10945
acquitter	-10946
▁2000-200	-10947
▁symptômes	-10948
03	-10949
ave	-10950
▁6,5	-10951
▁Cad	-10952
▁Pas	-10953
itage	-10954
trant	-10955
▁1991,	-10956
▁contex	-10957
▁saisir	-10958
▁2004-05	-10959
▁cession	-10960
▁énoncée	-10961
▁numériques	-10962
PDB	-10963
.1),	-10964
▁(19	-10965
▁113	-10966
butyl	-10967
▁Sulf	-10968
▁Autom	-10969
▁menac	-10970
▁adaptés	-10971
▁concord	-10972
▁délégués	-10973
ordinateur	-10974
▁Saskatoon	-10975
▁donataire	-10976
▁antérieurs	-10977
▁inventaire	-10978
CIP	-10979
bec	-10980
mar	-10981
▁te	-10982
inda	-10983
▁020	-10984
▁guid	-10985
empris	-10986
▁mères	-10987
ologues	-10988
▁boisson	-10989
▁exception	-10990
▁psychosoci	-10991
▁reconnaissent	-10992
FI	-10993
cy	-10994
▁540	-10995
▁Cre	-10996
▁Mot	-10997
▁Club	-10998
▁Conf	-10999
images	-11000
▁OBJET	-11001
▁futur	-11002
ouverts	-11003
▁codage	-11004
▁recour	-11005
apporter	-11006
▁2004-12	-11007
▁saisies	-11008
▁traitée	-11009
▁Nouveaux	-11010
▁panneaux	-11011
▁américains	-11012
▁cardiaques	-11013
vironnements	-11014
coti	-11015
▁Alg	-11016
emmes	-11017
▁délib	-11018
▁press	-11019
▁occupé	-11020
▁trouvé	-11021
informer	-11022
oxylique	-11023
▁Période	-11024
▁diversi	-11025
▁découle	-11026
▁consacre	-11027
▁réaction	-11028
▁appartient	-11029
▁emplacement	-11030
▁importation	-11031
ERT	-11032
afé	-11033
(1).	-11034
méth	-11035
▁pont	-11036
▁Procès	-11037
▁prendra	-11038
▁ontarien	-11039
▁voitures	-11040
▁périodique	-11041
07	-11042
ju	-11043
▁roul	-11044
prises	-11045
quinol	-11046
razine	-11047
▁laine	-11048
▁neufs	-11049
▁Prince	-11050
▁affirmé	-11051
▁Scientif	-11052
,3	-11053
ld	-11054
iène	-11055
▁Bel	-11056
▁PVE	-11057
analy	-11058
▁1226	-11059
médium	-11060
▁Devant	-11061
▁diminué	-11062
▁montrer	-11063
▁méthyle	-11064
ashington	-11065
▁assister	-11066
▁téléconférence	-11067
▁SM	-11068
▁radio	-11069
examens	-11070
▁Source	-11071
Contenant	-11072
▁CENTRALE	-11073
▁appuyant	-11074
▁collabore	-11075
▁cérébraux	-11076
▁inutilisées	-11077
add	-11078
ruct	-11079
▁Bur	-11080
▁1987	-11081
▁Médias	-11082
▁dépôts	-11083
▁Produit	-11084
▁répartir	-11085
▁attribuée	-11086
▁recueillies	-11087
▁administrateur	-11088
KS	-11089
CIL	-11090
IES	-11091
VES	-11092
ibre	-11093
ymph	-11094
▁Rue	-11095
▁cuir	-11096
▁quar	-11097
alogues	-11098
▁préven	-11099
Machines	-11100
▁détenues	-11101
▁entendre	-11102
roissement	-11103
▁Pratiques	-11104
▁quotidienne	-11105
-99	-11106
ULA	-11107
▁assist	-11108
▁étudié	-11109
▁inférieurs	-11110
▁complémentaire	-11111
Par	-11112
▁(9	-11113
▁PDE	-11114
▁Spéci	-11115
▁basée	-11116
▁Mécanis	-11117
▁agences	-11118
▁fondant	-11119
▁artistes	-11120
▁contamin	-11121
▁recevrez	-11122
expéditeur	-11123
▁consultant	-11124
▁mechanisms	-11125
▁progression	-11126
▁additionnelle	-11127
▁partiellement	-11128
AEC	-11129
MES	-11130
▁PEP	-11131
▁Scoti	-11132
▁embau	-11133
▁Joseph	-11134
▁boîtes	-11135
▁acceptés	-11136
▁directes	-11137
▁libérale	-11138
▁cessation	-11139
▁pressions	-11140
▁2004-2005,	-11141
▁acquisition	-11142
▁ordonnances	-11143
▁consommateur	-11144
▁redressements	-11145
rion	-11146
▁bet	-11147
▁bruts	-11148
▁cessé	-11149
▁Direct	-11150
▁2006-09	-11151
▁acceptée	-11152
▁collectif	-11153
carboxylate	-11154
▁instrument	-11155
▁kilomètres	-11156
▁corporations	-11157
ize	-11158
▁Guy	-11159
▁pat	-11160
▁sûr	-11161
ports	-11162
▁paqu	-11163
actifs	-11164
inière	-11165
▁Diane	-11166
▁200600	-11167
▁alcool	-11168
▁alinéa	-11169
▁Charles	-11170
▁ciblage	-11171
▁compati	-11172
▁mentors	-11173
▁remarqu	-11174
▁handicapés	-11175
▁organisateurs	-11176
IRSM	-11177
quelet	-11178
endance	-11179
▁combat	-11180
▁engage	-11181
▁organes	-11182
▁faillite	-11183
▁structur	-11184
▁originaux	-11185
▁discipline	-11186
▁prélèvements	-11187
▁postdoctorale	-11188
oupes	-11189
▁fier	-11190
▁neuro	-11191
envoyer	-11192
▁Christ	-11193
▁bonnes	-11194
▁prorog	-11195
▁collège	-11196
▁prouver	-11197
▁privilèges	-11198
▁exploitants	-11199
.1,	-11200
▁630	-11201
▁Ian	-11202
▁hor	-11203
▁Anti	-11204
▁ence	-11205
▁minor	-11206
▁réduite	-11207
▁ouvrages	-11208
▁améliorés	-11209
INCC	-11210
▁$).	-11211
▁Bon	-11212
▁Bén	-11213
ALENA	-11214
▁basé	-11215
alisées	-11216
▁Summer	-11217
▁aspect	-11218
▁déduits	-11219
▁rapides	-11220
▁surtaxe	-11221
▁Pacifique	-11222
▁autoriser	-11223
▁individuel	-11224
▁accompagnée	-11225
▁Amélioration	-11226
06	-11227
▁Her	-11228
▁Stra	-11229
▁hôte	-11230
▁varie	-11231
acheter	-11232
occuper	-11233
▁revend	-11234
▁conduire	-11235
▁vacances	-11236
▁envisager	-11237
▁développés	-11238
▁salariales	-11239
▁dangereuses	-11240
OSSI	-11241
amor	-11242
auto	-11243
http	-11244
ubes	-11245
trans	-11246
▁Jack	-11247
-03000	-11248
fluoro	-11249
▁Brant	-11250
▁CADEX	-11251
▁croit	-11252
▁conjug	-11253
▁Formule	-11254
▁ferrovi	-11255
▁progres	-11256
▁Entrepôt	-11257
▁syndicat	-11258
▁thérapie	-11259
▁assurance	-11260
▁approbation	-11261
.04	-11262
▁Az	-11263
▁inég	-11264
accala	-11265
candid	-11266
rontal	-11267
▁(416)	-11268
▁traum	-11269
▁aborder	-11270
▁mélange	-11271
▁facturer	-11272
▁ultérieur	-11273
▁Instructions	-11274
▁informatiques	-11275
TEN	-11276
▁US	-11277
▁DIS	-11278
▁INS	-11279
ennes	-11280
▁Augment	-11281
▁évident	-11282
▁calculez	-11283
▁moyennes	-11284
▁sportifs	-11285
incapacité	-11286
▁affections	-11287
▁historique	-11288
pub	-11289
▁CITY	-11290
▁crois	-11291
▁repère	-11292
▁apparent	-11293
▁vendeurs	-11294
▁prévoyant	-11295
ESP	-11296
▁Réc	-11297
▁Tim	-11298
▁fall	-11299
▁Place	-11300
▁Scotia	-11301
▁plurip	-11302
▁Jacques	-11303
▁Surveill	-11304
▁chambres	-11305
▁brochures	-11306
▁ethniques	-11307
▁existante	-11308
▁dispositif	-11309
▁biographiques	-11310
Mont	-11311
▁CAL	-11312
▁Alex	-11313
▁Décri	-11314
▁perce	-11315
▁remor	-11316
▁ultime	-11317
▁adresses	-11318
▁2001-2002	-11319
▁Macdonald	-11320
▁conteneur	-11321
▁entourant	-11322
▁chauffeurs	-11323
▁identifiés	-11324
▁universelle	-11325
▁distributeur	-11326
emprisonnement	-11327
ik	-11328
▁sin	-11329
▁aimer	-11330
▁fasse	-11331
acétate	-11332
essence	-11333
▁congés	-11334
▁tonnes	-11335
atriques	-11336
▁diriger	-11337
▁faisait	-11338
▁accompli	-11339
▁innovation	-11340
▁éventuelle	-11341
▁candidatures	-11342
▁XV	-11343
TIFS	-11344
bile	-11345
ccra	-11346
▁nul	-11347
meture	-11348
▁Avenue	-11349
▁Stelco	-11350
▁occupe	-11351
▁rendra	-11352
▁récent	-11353
territori	-11354
▁filaments	-11355
▁terrestre	-11356
▁prioritaire	-11357
)/	-11358
sub	-11359
▁147	-11360
ouvra	-11361
▁1996.	-11362
▁School	-11363
▁revoir	-11364
iliation	-11365
▁obtenue	-11366
efficience	-11367
▁équilibre	-11368
accalauréat	-11369
équivalence	-11370
▁concernées	-11371
▁consortium	-11372
▁MARCHANDISES	-11373
)-2	-11374
ADN	-11375
▁dÃ	-11376
ASPC	-11377
opor	-11378
tête	-11379
MANDE	-11380
▁Mars	-11381
▁math	-11382
mettez	-11383
▁lymph	-11384
éthylène	-11385
▁chambre	-11386
équivalent	-11387
▁planifier	-11388
▁protéomique	-11389
▁biotechnologie	-11390
▁enregistrement	-11391
IFF	-11392
IPE	-11393
TIS	-11394
brook	-11395
élande	-11396
▁décern	-11397
accepter	-11398
▁DEMANDE	-11399
▁modules	-11400
▁dentaire	-11401
▁pluripot	-11402
▁corporels	-11403
▁ministérielle	-11404
eil	-11405
▁CRM	-11406
▁rob	-11407
taxes	-11408
usine	-11409
▁monn	-11410
Tarifs	-11411
▁villes	-11412
▁garanties	-11413
▁identifié	-11414
▁pathogènes	-11415
▁incorporels	-11416
ck	-11417
amt	-11418
ancy	-11419
▁447	-11420
▁Bre	-11421
▁MIN	-11422
▁aud	-11423
Union	-11424
exige	-11425
▁100,	-11426
▁cinqu	-11427
▁bagages	-11428
▁exprimé	-11429
▁moteurs	-11430
▁terminer	-11431
▁dirigeant	-11432
▁2005-2006,	-11433
▁613-954-1800	-11434
▁éventuellement	-11435
▁DRO	-11436
▁GÉN	-11437
oline	-11438
▁crée	-11439
▁RIVER	-11440
▁renvoy	-11441
armature	-11442
▁rendent	-11443
▁déduites	-11444
▁prohibées	-11445
▁économies	-11446
▁Supplément	-11447
▁ASSOCIATION	-11448
▁exonération	-11449
▁neurologiques	-11450
▁questionnaires	-11451
acteur	-11452
▁haine	-11453
ceptions	-11454
▁publier	-11455
▁remises	-11456
atisation	-11457
étisation	-11458
▁comptent	-11459
▁dénaturé	-11460
▁divulguer	-11461
09	-11462
▁1989	-11463
adress	-11464
autage	-11465
▁Metal	-11466
▁Simon	-11467
▁horiz	-11468
▁Sondage	-11469
▁liquide	-11470
▁Exemples	-11471
▁disposent	-11472
▁compétitions	-11473
▁susmentionnés	-11474
ACR	-11475
▁141	-11476
▁SPCC	-11477
dation	-11478
▁mixte	-11479
verture	-11480
▁chevau	-11481
▁achemin	-11482
intéresse	-11483
▁provient	-11484
▁chapitres	-11485
▁contenues	-11486
▁Disposition	-11487
HV	-11488
abil	-11489
ency	-11490
▁070	-11491
cident	-11492
kraine	-11493
▁inval	-11494
▁microb	-11495
▁Chambre	-11496
▁attente	-11497
▁diminuer	-11498
▁construit	-11499
▁préjudice	-11500
▁Classement	-11501
▁pulmonaire	-11502
▁coentreprise	-11503
ta	-11504
mit	-11505
osis	-11506
▁vét	-11507
compte	-11508
▁Davis	-11509
▁Solde	-11510
▁magas	-11511
▁recycl	-11512
▁atteign	-11513
▁reporté	-11514
▁mensuels	-11515
▁proposer	-11516
abilisation	-11517
▁effectuent	-11518
UX	-11519
lever	-11520
LEMENT	-11521
PROFIT	-11522
▁Oblig	-11523
ouvelle	-11524
▁mobile	-11525
▁propag	-11526
▁ration	-11527
▁stades	-11528
▁publiée	-11529
▁SOLUTIONS	-11530
▁accélérer	-11531
▁biochimie	-11532
▁thématiques	-11533
établissements	-11534
ophy	-11535
▁Mand	-11536
▁1992,	-11537
▁Analy	-11538
▁Karen	-11539
▁recue	-11540
▁énerg	-11541
optique	-11542
▁2005-12	-11543
▁achetées	-11544
ressources	-11545
▁Washington	-11546
▁incidences	-11547
▁INTERNATION	-11548
▁vérificateurs	-11549
ERS	-11550
anes	-11551
▁3.1	-11552
▁MTK	-11553
érine	-11554
▁FIRE	-11555
▁Fort	-11556
▁hydro	-11557
▁Divers	-11558
▁seuils	-11559
▁élargi	-11560
▁TECHNOL	-11561
▁discuté	-11562
▁détaxée	-11563
▁détenir	-11564
▁accident	-11565
▁initiales	-11566
▁nécessite	-11567
▁satisfont	-11568
▁connaissent	-11569
▁compensation	-11570
▁câ	-11571
CARS	-11572
▁84.	-11573
▁LÉG	-11574
▁rab	-11575
engra	-11576
▁Étudi	-11577
▁polici	-11578
▁Parties	-11579
▁revente	-11580
exploiter	-11581
▁continué	-11582
▁Coordonnatrice	-11583
SK	-11584
TIL	-11585
▁19.	-11586
ocytes	-11587
▁Contra	-11588
▁absolu	-11589
rogation	-11590
▁2004-04	-11591
▁chèques	-11592
▁mensuel	-11593
▁opinion	-11594
▁variété	-11595
▁salarial	-11596
ercul	-11597
▁féri	-11598
▁nuit	-11599
▁sida	-11600
▁GÉNÉR	-11601
▁abrég	-11602
▁soulè	-11603
▁endomm	-11604
▁aéronef	-11605
▁élevées	-11606
▁Articles	-11607
▁déclarée	-11608
▁sensible	-11609
▁vendredi	-11610
▁bioéthique	-11611
▁complètement	-11612
▁opérationnel	-11613
▁préoccupation	-11614
All	-11615
▁em	-11616
▁240	-11617
▁420	-11618
▁1985	-11619
▁Faits	-11620
▁montré	-11621
▁réfrig	-11622
▁appelés	-11623
▁concerné	-11624
▁garderie	-11625
▁donateurs	-11626
▁administré	-11627
▁récepteurs	-11628
AIRE	-11629
appré	-11630
▁détec	-11631
▁saisonn	-11632
▁évalués	-11633
▁bancaire	-11634
ouvellement	-11635
▁remboursés	-11636
▁contrevenants	-11637
▁traditionnels	-11638
▁pharmaceutique	-11639
ARR	-11640
ami	-11641
▁it	-11642
orph	-11643
▁Rou	-11644
▁tol	-11645
▁arme	-11646
▁arrê	-11647
ombées	-11648
▁(604)	-11649
▁allié	-11650
▁soumet	-11651
▁calcium	-11652
▁Richards	-11653
▁validité	-11654
▁novateurs	-11655
IGH	-11656
itz	-11657
oub	-11658
anum	-11659
ower	-11660
▁030	-11661
▁Faux	-11662
▁aidé	-11663
igence	-11664
▁200800	-11665
▁mettra	-11666
▁COUNCIL	-11667
▁profess	-11668
▁renferm	-11669
▁élabore	-11670
approuver	-11671
▁amélioré	-11672
▁distance	-11673
▁promette	-11674
▁étanches	-11675
▁marketing	-11676
▁Fourniture	-11677
▁olympiques	-11678
▁industriels	-11679
hau	-11680
ism	-11681
▁PPR	-11682
ervez	-11683
▁Préc	-11684
▁tire	-11685
▁réuni	-11686
▁brutes	-11687
▁minimal	-11688
▁contacts	-11689
▁posséder	-11690
▁soumission	-11691
▁soustraire	-11692
▁remplissant	-11693
▁obligatoires	-11694
tx	-11695
actes	-11696
droit	-11697
▁Glob	-11698
▁illég	-11699
▁Fiduci	-11700
▁Quatre	-11701
insuline	-11702
expansion	-11703
▁remplacé	-11704
▁serviront	-11705
▁correspondre	-11706
clin	-11707
sias	-11708
▁(13	-11709
▁pan	-11710
▁Carb	-11711
▁Point	-11712
▁aband	-11713
quettes	-11714
▁rester	-11715
▁vétérin	-11716
▁attendus	-11717
▁Ouverture	-11718
▁Producteur	-11719
▁législatif	-11720
▁susceptible	-11721
403	-11722
obi	-11723
tens	-11724
▁Water	-11725
▁déclen	-11726
partment	-11727
▁croient	-11728
▁journal	-11729
▁Véhicules	-11730
▁demandées	-11731
▁transfère	-11732
▁regulation	-11733
▁innovations	-11734
▁baccalauréat	-11735
(7	-11736
GC	-11737
▁5-	-11738
FORD	-11739
ogén	-11740
oint	-11741
▁TPN	-11742
▁Tha	-11743
etage	-11744
▁CONC	-11745
▁Dist	-11746
▁Regis	-11747
Zélande	-11748
housias	-11749
▁détenu	-11750
▁repérer	-11751
▁retourner	-11752
▁chargement	-11753
▁émergentes	-11754
19)	-11755
cel	-11756
▁MONT	-11757
▁Read	-11758
arrang	-11759
ertion	-11760
▁Génom	-11761
▁néglig	-11762
matiques	-11763
▁amortie	-11764
▁améliore	-11765
▁intégrées	-11766
électricité	-11767
▁psychiatrie	-11768
ows	-11769
ual	-11770
berg	-11771
▁bov	-11772
▁ÉTA	-11773
acine	-11774
eautage	-11775
▁Daniel	-11776
▁Office	-11777
▁muscul	-11778
▁figurer	-11779
▁réelles	-11780
▁alphanum	-11781
▁dimension	-11782
▁faisabilité	-11783
-[(	-11784
pid	-11785
▁Ori	-11786
▁Doll	-11787
▁soir	-11788
érable	-11789
▁Janet	-11790
▁Quant	-11791
▁brève	-11792
▁dévou	-11793
▁pieds	-11794
▁roule	-11795
▁menant	-11796
▁passif	-11797
épidémie	-11798
▁malades	-11799
▁Biblioth	-11800
▁Prairies	-11801
▁accumulé	-11802
▁combusti	-11803
▁profonde	-11804
▁réputation	-11805
▁Nic	-11806
▁Syl	-11807
giène	-11808
▁Work	-11809
agisse	-11810
▁Sémin	-11811
▁estamp	-11812
▁donnera	-11813
▁Équipes	-11814
▁voyageur	-11815
▁indiennes	-11816
▁organisateur	-11817
▁territoriale	-11818
arie	-11819
imid	-11820
▁18,	-11821
▁phil	-11822
-3376.	-11823
▁Psych	-11824
▁agréés	-11825
▁révèle	-11826
harmonis	-11827
▁appeler	-11828
▁touchés	-11829
▁efficacité	-11830
▁municipaux	-11831
installations	-11832
▁exceptionnelles	-11833
GES	-11834
arme	-11835
▁604	-11836
ompte	-11837
iendra	-11838
illine	-11839
▁tuyau	-11840
▁infect	-11841
▁totaux	-11842
aliments	-11843
▁disease	-11844
▁affiliée	-11845
▁analyser	-11846
▁imprimer	-11847
▁refléter	-11848
▁occasionnelles	-11849
▁opérationnelle	-11850
.06	-11851
èce	-11852
-(2,	-11853
onés	-11854
▁TRA	-11855
ageux	-11856
ustry	-11857
▁scén	-11858
atures	-11859
occupe	-11860
▁bébés	-11861
▁Center	-11862
▁obtient	-11863
▁restent	-11864
▁chimique	-11865
▁retombées	-11866
.2.1	-11867
▁EST	-11868
▁sil	-11869
compt	-11870
orect	-11871
▁PRIN	-11872
▁argu	-11873
Donald	-11874
▁monnaie	-11875
▁assurable	-11876
▁transvers	-11877
▁Discussion	-11878
▁Importations	-11879
MJ	-11880
DPA	-11881
bury	-11882
▁17.	-11883
▁670	-11884
▁TNE	-11885
artis	-11886
exécu	-11887
iment	-11888
▁Perte	-11889
▁Phase	-11890
▁démén	-11891
▁avocat	-11892
▁inspec	-11893
▁profils	-11894
▁situées	-11895
Australie	-11896
médiaires	-11897
ticuliers	-11898
▁optiques	-11899
▁souffrent	-11900
▁thérapies	-11901
▁Regulation	-11902
▁consistant	-11903
▁Généralement	-11904
abus	-11905
▁20,	-11906
▁SRT	-11907
▁Gend	-11908
▁RCEV	-11909
alphab	-11910
reuves	-11911
▁Soins	-11912
▁Reconn	-11913
▁varier	-11914
iversaire	-11915
▁décrivant	-11916
▁municipal	-11917
▁puissance	-11918
▁subséquentes	-11919
▁1.1	-11920
▁Fav	-11921
Unité	-11922
armes	-11923
oxyde	-11924
▁décel	-11925
▁motiv	-11926
▁Employ	-11927
▁suffit	-11928
ervation	-11929
▁affirme	-11930
▁routier	-11931
▁réduits	-11932
▁cautionn	-11933
▁collèges	-11934
▁Conclusion	-11935
▁simplifiée	-11936
▁enregistrée	-11937
▁translation	-11938
▁bibliothèques	-11939
▁postdoctoraux	-11940
END	-11941
IAN	-11942
▁EC	-11943
,***	-11944
sans	-11945
▁16.	-11946
activ	-11947
ficie	-11948
▁Denis	-11949
▁Objet	-11950
inflamm	-11951
▁cultiv	-11952
▁loyers	-11953
▁paraly	-11954
▁recept	-11955
▁choisit	-11956
incitation	-11957
▁spécifications	-11958
Ed	-11959
nam	-11960
LMSI	-11961
▁Liv	-11962
ospit	-11963
▁Sept	-11964
▁spectac	-11965
▁Amérique	-11966
▁Déclarez	-11967
▁anticipées	-11968
▁nourriture	-11969
▁succursales	-11970
▁rÃ	-11971
Avis	-11972
▁Feu	-11973
▁»).	-11974
affirm	-11975
▁Louis	-11976
▁frapp	-11977
oliques	-11978
Alliance	-11979
▁Disease	-11980
▁Détails	-11981
▁Journée	-11982
▁ajoutés	-11983
▁identité	-11984
▁bancaires	-11985
▁contacter	-11986
▁disquette	-11987
▁révisions	-11988
▁Déterminer	-11989
interventions	-11990
▁linguistique	-11991
.05	-11992
▁CT	-11993
omal	-11994
▁McC	-11995
▁OFF	-11996
hiver	-11997
tente	-11998
▁bonn	-11999
▁boîte	-12000
ensibles	-12001
▁calibre	-12002
▁Collaboration	-12003
▁considérables	-12004
AUL	-12005
▁Sk	-12006
fice	-12007
▁%).	-12008
▁1,2	-12009
▁fur	-12010
▁sit	-12011
▁âgé	-12012
ctori	-12013
itera	-12014
▁hauts	-12015
▁entrées	-12016
▁équilib	-12017
▁American	-12018
▁desquels	-12019
▁viennent	-12020
▁Community	-12021
▁locataire	-12022
▁précision	-12023
▁remercier	-12024
CV	-12025
▁6%	-12026
ellé	-12027
sses	-12028
-2000	-12029
▁1986	-12030
▁bâtir	-12031
▁cruci	-12032
▁livrer	-12033
▁Modifié	-12034
▁crédité	-12035
▁colonnes	-12036
▁avantageux	-12037
▁collection	-12038
CÉ	-12039
CCI	-12040
idu	-12041
▁126	-12042
▁129	-12043
▁230	-12044
▁TED	-12045
▁fre	-12046
▁semi	-12047
émique	-12048
▁André	-12049
matique	-12050
▁invite	-12051
▁Quirion	-12052
▁titrant	-12053
▁Capacité	-12054
▁embryons	-12055
▁Summerside	-12056
▁Équipement	-12057
▁immobiliers	-12058
▁coordonnateur	-12059
da	-12060
déc	-12061
ally	-12062
▁957	-12063
▁Pol	-12064
OUVER	-12065
chers	-12066
cules	-12067
ètent	-12068
▁bras	-12069
▁poll	-12070
fiants	-12071
igrant	-12072
issage	-12073
▁Albert	-12074
▁Steven	-12075
▁cachet	-12076
▁couche	-12077
adrement	-12078
ological	-12079
▁avocats	-12080
▁délinqu	-12081
▁surplus	-12082
ributions	-12083
▁publiées	-12084
▁restruct	-12085
▁formulées	-12086
▁maritimes	-12087
▁budgétaire	-12088
immunisation	-12089
yp	-12090
-45	-12091
ussi	-12092
▁21,	-12093
▁CAP	-12094
▁Éch	-12095
000.00	-12096
▁gauche	-12097
▁résidu	-12098
▁municipales	-12099
RI	-12100
mo	-12101
jus	-12102
olol	-12103
▁DON	-12104
▁Don	-12105
estes	-12106
habil	-12107
▁Jenn	-12108
▁South	-12109
▁provo	-12110
▁assuré	-12111
▁blanch	-12112
▁voulons	-12113
▁adéquate	-12114
▁jugement	-12115
▁tubercul	-12116
infraction	-12117
▁Christoph	-12118
▁Ensembles	-12119
▁clinicien	-12120
▁OP	-12121
▁Rx	-12122
RARY	-12123
ator	-12124
▁102	-12125
▁BSF	-12126
▁STR	-12127
▁UNE	-12128
▁ral	-12129
▁horm	-12130
▁tardi	-12131
orectal	-12132
ographies	-12133
▁estiment	-12134
▁épinière	-12135
▁croissant	-12136
▁variables	-12137
▁Procédures	-12138
▁mouvements	-12139
▁Bibliothèque	-12140
ÉC	-12141
INN	-12142
MCC	-12143
▁LI	-12144
▁NF	-12145
OURC	-12146
lant	-12147
▁108	-12148
▁quart	-12149
▁cérébr	-12150
▁notion	-12151
agissait	-12152
▁sommeil	-12153
▁Activité	-12154
▁COMMUNIC	-12155
▁exécuter	-12156
▁Christine	-12157
▁navigateur	-12158
▁Transmission	-12159
▁Lo	-12160
▁140	-12161
▁20.	-12162
▁VAL	-12163
▁cra	-12164
▁idé	-12165
▁célé	-12166
▁manu	-12167
▁enrich	-12168
▁margin	-12169
▁LIBRARY	-12170
Industrie	-12171
résidente	-12172
▁comparer	-12173
▁déduisez	-12174
▁hypothéc	-12175
▁entrepreneur	-12176
▁rapprochement	-12177
lm	-12178
env	-12179
▁Ma	-12180
EPTC	-12181
tirer	-12182
accept	-12183
▁DOSSI	-12184
▁cents	-12185
▁EXPORT	-12186
▁mentales	-12187
▁passible	-12188
▁Catégorie	-12189
▁habitudes	-12190
▁rénovation	-12191
▁allégations	-12192
▁attributions	-12193
▁longitudinale	-12194
▁parlementaires	-12195
ek	-12196
101	-12197
hai	-12198
aura	-12199
chet	-12200
▁douze	-12201
▁résol	-12202
emplois	-12203
▁session	-12204
▁bactéries	-12205
▁télécharger	-12206
▁indépendantes	-12207
TY	-12208
ali	-12209
clé	-12210
ball	-12211
gnent	-12212
▁cens	-12213
-7775.	-12214
onique	-12215
▁homme	-12216
opathie	-12217
▁laisser	-12218
▁valable	-12219
▁Canadien	-12220
▁Autrement	-12221
▁évolution	-12222
▁Consortium	-12223
▁construire	-12224
▁magnétique	-12225
▁récompenses	-12226
▁intermédiaires	-12227
ICK	-12228
ulé	-12229
oile	-12230
osta	-12231
▁225	-12232
▁GRE	-12233
▁Lev	-12234
▁Ten	-12235
▁péd	-12236
reuse	-12237
illère	-12238
▁Sinai	-12239
▁offri	-12240
ruption	-12241
▁2006-05	-12242
▁Comités	-12243
▁assumer	-12244
▁ouvrant	-12245
▁remplis	-12246
▁exprimée	-12247
opérations	-12248
▁accompagné	-12249
▁régulation	-12250
▁certification	-12251
(3),	-12252
iann	-12253
▁Ros	-12254
SMAEC	-12255
icros	-12256
izoph	-12257
oncés	-12258
étant	-12259
▁éthy	-12260
omètre	-12261
▁Règle	-12262
oriques	-12263
tenance	-12264
▁marche	-12265
▁éclair	-12266
▁cliquez	-12267
▁enfance	-12268
▁intellig	-12269
▁ensembles	-12270
▁organiser	-12271
▁bonneterie	-12272
▁recommander	-12273
MER	-12274
main	-12275
▁LTA	-12276
20.00	-12277
hôtel	-12278
iraux	-12279
organ	-12280
▁demi	-12281
▁bilat	-12282
▁Commis	-12283
▁conçue	-12284
▁Systèmes	-12285
▁Accroître	-12286
▁intérieure	-12287
▁réseautage	-12288
▁Additionnez	-12289
▁susmentionnées	-12290
VR	-12291
CTI	-12292
CTR	-12293
orld	-12294
▁Lun	-12295
▁NOM	-12296
▁sév	-12297
chant	-12298
embry	-12299
▁ANNU	-12300
▁High	-12301
▁RPDB	-12302
ouveau	-12303
▁reflè	-12304
▁Contin	-12305
▁consci	-12306
▁pouces	-12307
▁minière	-12308
▁récolte	-12309
▁varient	-12310
▁aéronefs	-12311
▁retrouve	-12312
▁946	-12313
▁LANG	-12314
▁Législ	-12315
▁phosph	-12316
▁Pension	-12317
▁control	-12318
▁imparti	-12319
▁précède	-12320
▁quitter	-12321
▁contrôlé	-12322
▁modifiées	-12323
▁pourrions	-12324
▁fabriquées	-12325
▁systématiques	-12326
Di	-12327
fe	-12328
RSP	-12329
asc	-12330
▁XI	-12331
iges	-12332
loor	-12333
▁116	-12334
▁Bra	-12335
obenz	-12336
▁émér	-12337
▁study	-12338
▁octroyé	-12339
▁réunies	-12340
▁Concours	-12341
▁construc	-12342
▁dentaires	-12343
▁artistique	-12344
▁brièvement	-12345
RCA	-12346
▁he	-12347
gies	-12348
▁SAF	-12349
airer	-12350
allég	-12351
▁ADAP	-12352
▁entré	-12353
▁imput	-12354
▁inconn	-12355
▁Congrès	-12356
▁Customs	-12357
▁Régimes	-12358
▁fiables	-12359
▁envisage	-12360
▁exécution	-12361
▁préserver	-12362
▁ressortir	-12363
oxycarbonyl	-12364
▁explicatives	-12365
▁francophones	-12366
▁articulations	-12367
00,	-12368
ino	-12369
▁Bh	-12370
ocra	-12371
▁trés	-12372
▁vote	-12373
▁1994.	-12374
▁cibler	-12375
▁appuiera	-12376
▁déployés	-12377
▁colorectal	-12378
▁simplifier	-12379
▁probabilité	-12380
▁Renouvellement	-12381
CEP	-12382
UGE	-12383
inv	-12384
▁be	-12385
▁ry	-12386
ACDI	-12387
phal	-12388
▁(30	-12389
▁4,5	-12390
▁Ray	-12391
▁hér	-12392
encer	-12393
ouler	-12394
▁Inde	-12395
▁Chili	-12396
▁irréc	-12397
▁nordi	-12398
▁Évalu	-12399
aujourd	-12400
culture	-12401
embauche	-12402
traction	-12403
▁Retenues	-12404
▁retraits	-12405
▁financent	-12406
▁frontalier	-12407
▁influences	-12408
▁sanitaires	-12409
▁Surveillance	-12410
mage	-12411
▁(15	-12412
▁Dor	-12413
▁How	-12414
▁Pal	-12415
▁Greg	-12416
▁dois	-12417
▁Intég	-12418
▁biling	-12419
▁décharg	-12420
▁Clinical	-12421
▁receveur	-12422
▁Favoriser	-12423
▁ordinaire	-12424
▁comparative	-12425
▁informatisé	-12426
▁nouvellement	-12427
▁RH	-12428
rimer	-12429
sives	-12430
ultan	-12431
▁acte	-12432
érales	-12433
▁lundi	-12434
▁steel	-12435
▁Travaux	-12436
▁Alliance	-12437
▁constater	-12438
▁diligence	-12439
▁irrécouvra	-12440
▁collections	-12441
▁automatiques	-12442
▁cessionnaire	-12443
▁traditionnelles	-12444
ONG	-12445
hept	-12446
▁...	-12447
▁CRE	-12448
▁cyt	-12449
▁has	-12450
30.00	-12451
etnam	-12452
ormais	-12453
▁stage	-12454
▁RECHER	-12455
▁posent	-12456
▁assurant	-12457
▁orienter	-12458
▁approuver	-12459
▁délivrance	-12460
▁temporaires	-12461
▁pluripotentes	-12462
▁stationnement	-12463
Com	-12464
irer	-12465
itch	-12466
▁Kim	-12467
▁Hong	-12468
▁débit	-12469
▁Encour	-12470
▁Révisé	-12471
▁Volume	-12472
▁légale	-12473
▁phénom	-12474
▁réagir	-12475
▁rédigé	-12476
▁DOSSIER	-12477
▁marques	-12478
▁embryonn	-12479
▁pluriann	-12480
▁prochains	-12481
▁commencent	-12482
▁autocotisation	-12483
airs	-12484
▁Lor	-12485
-1,3-	-12486
issus	-12487
oques	-12488
▁ratif	-12489
timicro	-12490
▁Algoma	-12491
▁Inclus	-12492
▁Samuel	-12493
▁2006-04	-12494
▁Business	-12495
▁Réunions	-12496
▁indemnité	-12497
▁maximiser	-12498
▁donataires	-12499
▁Attestation	-12500
DC	-12501
ride	-12502
▁24,	-12503
▁4.1	-12504
▁Série	-12505
▁TPSPN	-12506
▁incit	-12507
▁jugés	-12508
ailleur	-12509
▁PUBLIC	-12510
▁rabais	-12511
▁sérieux	-12512
Assemblée	-12513
▁Relation	-12514
▁réservée	-12515
▁américaine	-12516
▁maternelle	-12517
▁répertoire	-12518
▁vieillesse	-12519
RET	-12520
▁Ép	-12521
IDGE	-12522
▁EXE	-12523
▁1228	-12524
ustine	-12525
▁Désign	-12526
▁exacte	-12527
▁subies	-12528
▁alloués	-12529
▁osseuse	-12530
itablement	-12531
▁industrie	-12532
immunologie	-12533
▁trimestres	-12534
▁approfondie	-12535
▁Importateurs	-12536
kes	-12537
dite	-12538
▁voc	-12539
grédi	-12540
▁1179	-12541
▁Chac	-12542
▁Leur	-12543
▁Nett	-12544
▁RENV	-12545
▁Stan	-12546
▁avenir	-12547
▁devise	-12548
▁répondez	-12549
▁glossaire	-12550
▁détaillant	-12551
ky	-12552
over	-12553
▁Mel	-12554
▁Vin	-12555
▁Well	-12556
▁sacs	-12557
▁trib	-12558
▁Compt	-12559
▁Stock	-12560
▁soign	-12561
accéder	-12562
aéronef	-12563
acements	-12564
agements	-12565
▁Branton	-12566
▁préposé	-12567
▁tempéra	-12568
▁Maritime	-12569
▁critiques	-12570
▁démarches	-12571
▁indication	-12572
▁légalement	-12573
▁monétaires	-12574
▁initialement	-12575
LI	-12576
ML	-12577
(10	-12578
▁*(	-12579
▁»;	-12580
ITES	-12581
aise	-12582
ifer	-12583
▁730	-12584
▁Ont	-12585
▁Beso	-12586
▁Ross	-12587
▁tort	-12588
▁ÉNON	-12589
▁Charl	-12590
▁rubans	-12591
ducteurs	-12592
▁emballé	-12593
▁raffiné	-12594
▁consigné	-12595
▁détecter	-12596
▁Renforcer	-12597
▁reflètent	-12598
économiques	-12599
▁rentabilité	-12600
▁Scientifique	-12601
▁linguistiques	-12602
cor	-12603
▁XX	-12604
▁103	-12605
▁STA	-12606
▁adh	-12607
▁DIFF	-12608
▁Sens	-12609
▁rare	-12610
ULAIRE	-12611
▁FNACC	-12612
▁tente	-12613
▁usine	-12614
▁United	-12615
▁espère	-12616
▁logique	-12617
▁paquets	-12618
américain	-12619
▁Director	-12620
▁attendre	-12621
▁Promouvoir	-12622
▁continuité	-12623
▁anniversaire	-12624
*)	-12625
▁NT	-12626
▁(31	-12627
▁CIH	-12628
▁PBR	-12629
▁lis	-12630
talie	-12631
▁pneu	-12632
▁Scott	-12633
▁émise	-12634
▁200700	-12635
▁Sommet	-12636
▁ruraux	-12637
cripteur	-12638
éliminer	-12639
▁Réduire	-12640
ontologie	-12641
▁mauvaise	-12642
▁substitu	-12643
▁acheteurs	-12644
▁religieux	-12645
▁suffisants	-12646
▁manutention	-12647
▁postdoctorales	-12648
RP	-12649
wood	-12650
▁18.	-12651
▁191	-12652
▁446	-12653
▁Pet	-12654
▁Atte	-12655
▁Hill	-12656
▁Rock	-12657
▁fini	-12658
▁rist	-12659
endice	-12660
▁Profil	-12661
▁stages	-12662
▁échang	-12663
▁muscles	-12664
▁prospec	-12665
Allemagne	-12666
▁automatisé	-12667
▁poursuites	-12668
▁INTERNATIONAL	-12669
ASE	-12670
red	-12671
9,00	-12672
ABIT	-12673
▁POP	-12674
▁Situ	-12675
▁spec	-12676
assent	-12677
▁Engag	-12678
▁rehau	-12679
adapter	-12680
▁affichés	-12681
▁mémoires	-12682
▁créancier	-12683
▁fermeture	-12684
▁quiconque	-12685
appréciation	-12686
▁cardiologie	-12687
▁transfrontal	-12688
TIC	-12689
pyr	-12690
▁(0	-12691
▁Nor	-12692
▁Red	-12693
▁Kath	-12694
udence	-12695
▁condu	-12696
▁firme	-12697
▁illic	-12698
▁Heures	-12699
▁suivie	-12700
équipage	-12701
▁Pouvoir	-12702
▁crucial	-12703
▁gratuit	-12704
▁adéquats	-12705
▁combinés	-12706
▁aptitudes	-12707
▁naturelle	-12708
▁survivant	-12709
▁TL	-12710
▁Day	-12711
uelph	-12712
▁sauv	-12713
▁neuve	-12714
tissent	-12715
▁Forces	-12716
▁Mental	-12717
▁Rajust	-12718
▁Patrick	-12719
▁fusionn	-12720
▁boursier	-12721
▁rouleaux	-12722
▁sclérose	-12723
▁bienfaits	-12724
▁combattre	-12725
▁consacrés	-12726
▁enceintes	-12727
▁éthylique	-12728
▁Christopher	-12729
▁dommageable	-12730
▁ultérieurement	-12731
AW	-12732
123	-12733
quê	-12734
vey	-12735
agog	-12736
▁25,	-12737
▁Lyn	-12738
ordon	-12739
ésira	-12740
▁Appr	-12741
▁inad	-12742
▁mono	-12743
ègement	-12744
▁Common	-12745
▁devises	-12746
accession	-12747
▁indésira	-12748
achèvement	-12749
▁souplesse	-12750
▁professions	-12751
(6	-12752
ANN	-12753
omes	-12754
osyl	-12755
▁Sul	-12756
santé	-12757
teste	-12758
▁doté	-12759
grammes	-12760
oporose	-12761
▁créant	-12762
▁jointe	-12763
▁prémat	-12764
ancienne	-12765
▁renvois	-12766
▁restaur	-12767
▁témoins	-12768
missibles	-12769
▁concernée	-12770
▁nettoyage	-12771
▁Department	-12772
▁difficiles	-12773
▁incapacité	-12774
▁obtiennent	-12775
▁superviseur	-12776
▁Élaboration	-12777
▁augmentations	-12778
PDF	-12779
ÉCI	-12780
▁Ti	-12781
TNET	-12782
rown	-12783
▁FED	-12784
rembl	-12785
▁Télé	-12786
ologue	-12787
▁MESSA	-12788
▁nourr	-12789
▁cédant	-12790
▁choisie	-12791
▁permise	-12792
représent	-12793
uffisance	-12794
▁Ateliers	-12795
▁Industry	-12796
▁aérienne	-12797
▁consignés	-12798
▁néanmoins	-12799
▁Management	-12800
▁superficie	-12801
▁fondamental	-12802
▁intéressant	-12803
UB	-12804
.29	-12805
ARB	-12806
bor	-12807
sal	-12808
etes	-12809
unny	-12810
▁ACI	-12811
▁Sauf	-12812
▁eaux	-12813
▁EXEMP	-12814
▁Musée	-12815
▁Vente	-12816
▁talent	-12817
arthrose	-12818
▁Médecine	-12819
▁examinée	-12820
▁Structure	-12821
▁résistant	-12822
▁consistent	-12823
▁démontrent	-12824
▁inutilisée	-12825
▁fréquemment	-12826
alphabétisation	-12827
Co	-12828
hu	-12829
asp	-12830
uts	-12831
▁PH	-12832
5008	-12833
IGIN	-12834
IORS	-12835
▁550	-12836
▁Lib	-12837
gique	-12838
▁perc	-12839
rosion	-12840
uréats	-12841
▁fonci	-12842
▁envoie	-12843
▁rétros	-12844
auparavant	-12845
▁DIFFUSION	-12846
▁bailleurs	-12847
▁Législation	-12848
▁administrées	-12849
▁entrepreneurs	-12850
OHN	-12851
ted	-12852
▁GU	-12853
quie	-12854
urez	-12855
▁106	-12856
▁330	-12857
▁flex	-12858
▁morb	-12859
▁omet	-12860
▁12(1)	-12861
immunes	-12862
▁drogue	-12863
▁multis	-12864
▁ÉNONCÉ	-12865
acomptes	-12866
provinci	-12867
▁2005-08	-12868
▁aidants	-12869
▁disting	-12870
▁nerveux	-12871
▁différée	-12872
▁minéraux	-12873
▁favorable	-12874
▁rembourse	-12875
xi	-12876
KER	-12877
now	-12878
)-4-	-12879
enda	-12880
obut	-12881
▁135	-12882
▁Cin	-12883
UMÉRO	-12884
atthe	-12885
▁Pers	-12886
▁kilo	-12887
tition	-12888
▁Bisby	-12889
▁concr	-12890
▁foyer	-12891
▁félic	-12892
aborder	-12893
térieurs	-12894
▁apporte	-12895
▁salarié	-12896
▁extraordin	-12897
▁hypothèses	-12898
RPC	-12899
acy	-12900
ife	-12901
oca	-12902
▁SO	-12903
11-4	-12904
léch	-12905
▁(6)	-12906
ceaux	-12907
iront	-12908
itons	-12909
▁1971	-12910
numéro	-12911
▁achat	-12912
▁béton	-12913
▁vingt	-12914
▁appréci	-12915
▁qualifié	-12916
▁synthèses	-12917
▁judiciaires	-12918
Aut	-12919
GAN	-12920
UNE	-12921
gen	-12922
imb	-12923
ots	-12924
▁Cy	-12925
▁RR	-12926
élev	-12927
▁290	-12928
▁999	-12929
▁FRC	-12930
▁pel	-12931
agnes	-12932
arrêt	-12933
SEMENT	-12934
orisés	-12935
▁Board	-12936
▁Linda	-12937
adopter	-12938
endront	-12939
ference	-12940
▁000,00	-12941
▁Guelph	-12942
▁démocra	-12943
▁escompt	-12944
▁ingrédi	-12945
▁réviser	-12946
▁________	-12947
▁renoncer	-12948
▁sondages	-12949
estimation	-12950
▁désormais	-12951
▁vraisembl	-12952
▁environnements	-12953
,4	-12954
nm	-12955
ty	-12956
800	-12957
▁5)	-12958
mine	-12959
▁Pop	-12960
ourne	-12961
ufact	-12962
èlent	-12963
▁symb	-12964
ardins	-12965
▁coupe	-12966
▁rares	-12967
ophonie	-12968
▁NUMÉRO	-12969
▁Visite	-12970
▁annulé	-12971
▁livrés	-12972
▁réunit	-12973
▁mandant	-12974
▁volumes	-12975
▁compenser	-12976
▁pédiatrie	-12977
▁détiennent	-12978
▁physiologie	-12979
▁transformer	-12980
▁sélectionner	-12981
▁antérieurement	-12982
gm	-12983
/11	-12984
ARE	-12985
aker	-12986
wart	-12987
▁640	-12988
▁INT	-12989
▁Tre	-12990
▁fum	-12991
chons	-12992
oscop	-12993
ômage	-12994
▁abri	-12995
▁film	-12996
razole	-12997
▁strat	-12998
timiser	-12999
▁concré	-13000
▁connue	-13001
▁valides	-13002
plication	-13003
▁Promotion	-13004
▁descriptions	-13005
▁GH	-13006
brom	-13007
▁Jon	-13008
▁Donc	-13009
▁assisté	-13010
▁cadeaux	-13011
▁enduits	-13012
▁constate	-13013
▁simultan	-13014
▁accomplir	-13015
▁accumulés	-13016
▁mensuelle	-13017
▁inégalités	-13018
▁spécialisée	-13019
.6	-13020
can	-13021
fil	-13022
apse	-13023
clar	-13024
▁Kir	-13025
▁San	-13026
arson	-13027
▁gradu	-13028
▁intra	-13029
▁poils	-13030
▁laisse	-13031
▁neuron	-13032
▁rédiger	-13033
▁apparaiss	-13034
▁manifestation	-13035
▁Recommandations	-13036
div	-13037
lov	-13038
lmsi	-13039
huile	-13040
ponib	-13041
abilis	-13042
agence	-13043
wealth	-13044
DUCTION	-13045
▁Turquie	-13046
▁pensionn	-13047
▁supports	-13048
▁exclusive	-13049
▁exprimées	-13050
▁Observation	-13051
▁exploitation	-13052
▁sécuritaires	-13053
DES	-13054
well	-13055
▁952	-13056
▁EDM	-13057
▁tom	-13058
-1,4-	-13059
▁China	-13060
uscules	-13061
▁Alinéa	-13062
▁expose	-13063
▁résume	-13064
▁Études	-13065
térielle	-13066
▁2005-07	-13067
▁Jennifer	-13068
▁capables	-13069
▁RECHERCHE	-13070
▁historiques	-13071
▁sensibilité	-13072
.),	-13073
die	-13074
▁pi	-13075
anil	-13076
èles	-13077
élis	-13078
▁226	-13079
▁golf	-13080
▁jugée	-13081
▁parlé	-13082
ertitude	-13083
▁semelles	-13084
▁vasculaires	-13085
FT	-13086
ings	-13087
▁CECI	-13088
▁pare	-13089
utives	-13090
▁manip	-13091
▁CENTRE	-13092
▁pareil	-13093
utrition	-13094
▁LÉGALES	-13095
▁totalis	-13096
▁tranche	-13097
unnybrook	-13098
▁autorité	-13099
▁Catherine	-13100
▁antimicro	-13101
▁sommaires	-13102
▁exhaustive	-13103
▁spécialisé	-13104
▁estimatives	-13105
OK	-13106
YN	-13107
/03	-13108
▁TI	-13109
3,00	-13110
▁QUE	-13111
▁VHC	-13112
ORITY	-13113
▁Coch	-13114
▁benz	-13115
▁massi	-13116
▁signe	-13117
entaire	-13118
▁lancée	-13119
▁Endroit	-13120
▁impacts	-13121
▁Résultat	-13122
▁pathogen	-13123
vé	-13124
DCI	-13125
her	-13126
ive	-13127
pine	-13128
agara	-13129
▁situe	-13130
anciers	-13131
▁maître	-13132
▁suppos	-13133
▁protein	-13134
▁PERSONNEL	-13135
▁cumulatif	-13136
▁enverrons	-13137
▁exposition	-13138
▁Définitions	-13139
▁transitoires	-13140
▁considérations	-13141
EVF	-13142
▁CI	-13143
ingo	-13144
▁***	-13145
▁410	-13146
▁péc	-13147
▁8(1)	-13148
▁ROAD	-13149
onneur	-13150
animaux	-13151
ervices	-13152
utilise	-13153
▁ANNULE	-13154
▁évaluée	-13155
▁procédés	-13156
▁Stratégies	-13157
CN	-13158
aç	-13159
AMP	-13160
▁LL	-13161
pril	-13162
real	-13163
▁out	-13164
▁FESP	-13165
▁idée	-13166
▁soul	-13167
▁audit	-13168
▁erron	-13169
▁plats	-13170
▁êtres	-13171
iseases	-13172
▁bétail	-13173
▁confère	-13174
▁interpr	-13175
▁assurent	-13176
▁révèlent	-13177
attestation	-13178
▁commandite	-13179
▁bénéficiant	-13180
▁enregistrements	-13181
alls	-13182
cose	-13183
▁CCRS	-13184
▁ponc	-13185
UCTION	-13186
▁inhér	-13187
▁Dollar	-13188
▁Génome	-13189
▁Morris	-13190
▁pécuni	-13191
▁renfor	-13192
individu	-13193
▁2006-07	-13194
▁Automne	-13195
▁facturé	-13196
▁prépare	-13197
▁cohortes	-13198
▁investir	-13199
▁sanguins	-13200
▁touchées	-13201
▁Séminaire	-13202
▁dépassant	-13203
arrangement	-13204
▁Communiqués	-13205
▁constamment	-13206
▁encouragent	-13207
▁professoral	-13208
▁constatations	-13209
SL	-13210
.08	-13211
▁217	-13212
▁CCR	-13213
▁Céf	-13214
▁Wil	-13215
▁air	-13216
icien	-13217
▁TABLE	-13218
▁quinqu	-13219
▁survie	-13220
▁coopéra	-13221
▁recourir	-13222
▁research	-13223
▁schizoph	-13224
▁TRANSPORT	-13225
▁prolongée	-13226
▁utilisera	-13227
▁distribuer	-13228
▁séparation	-13229
▁hospitalière	-13230
▁Planification	-13231
▁1-800-959-3376.	-13232
▁alphanumériques	-13233
(8)	-13234
▁éb	-13235
▁sel	-13236
▁Lake	-13237
▁Road	-13238
▁boul	-13239
▁River	-13240
▁SAINT	-13241
▁fruit	-13242
▁Philip	-13243
▁connaît	-13244
▁marquée	-13245
▁protégé	-13246
▁élaborés	-13247
▁musculaire	-13248
ESB	-13249
loo	-13250
▁1.2	-13251
▁McL	-13252
▁Men	-13253
▁tor	-13254
arine	-13255
culez	-13256
▁Gold	-13257
ergure	-13258
projet	-13259
▁Autor	-13260
▁SSMAEC	-13261
▁correc	-13262
▁entrez	-13263
▁dépassé	-13264
▁REGIONAL	-13265
▁Nettoyage	-13266
▁envergure	-13267
▁attribuées	-13268
échantillons	-13269
▁coordonnées	-13270
▁prolongation	-13271
▁Communication	-13272
cs	-13273
Les	-13274
aby	-13275
pol	-13276
fiez	-13277
▁2.2	-13278
.....	-13279
▁perd	-13280
agents	-13281
illards	-13282
▁adapté	-13283
▁agrégé	-13284
▁excède	-13285
entielle	-13286
▁poisson	-13287
▁soustra	-13288
▁surmont	-13289
▁capitaux	-13290
▁milliard	-13291
▁métrique	-13292
▁afférents	-13293
▁supprimer	-13294
▁concordance	-13295
▁tuberculose	-13296
▁Commonwealth	-13297
▁forfaitaires	-13298
▁correctionnels	-13299
PÉ	-13300
LET	-13301
▁Ve	-13302
3010	-13303
olat	-13304
▁den	-13305
amido	-13306
azone	-13307
êcher	-13308
▁JOHN	-13309
▁géri	-13310
▁plén	-13311
▁voud	-13312
▁ISFRS	-13313
▁finis	-13314
▁inqui	-13315
▁plani	-13316
ionnats	-13317
▁Emploi	-13318
▁prenant	-13319
▁réfugié	-13320
paragraphe	-13321
▁annoncées	-13322
▁présentera	-13323
▁ferroviaire	-13324
.07	-13325
11.	-13326
TIN	-13327
ella	-13328
erci	-13329
▁519	-13330
▁Dél	-13331
▁seni	-13332
▁Chois	-13333
▁Kevin	-13334
▁ciblé	-13335
▁house	-13336
▁subie	-13337
▁CDCARS	-13338
▁métier	-13339
▁oblige	-13340
▁paient	-13341
▁Vietnam	-13342
▁circuit	-13343
▁garçons	-13344
▁générer	-13345
▁laissez	-13346
▁semences	-13347
.]	-13348
ao	-13349
Man	-13350
aign	-13351
▁Cas	-13352
▁Hel	-13353
▁Lam	-13354
▁Van	-13355
▁esc	-13356
▁gui	-13357
▁AUTH	-13358
inture	-13359
onnets	-13360
▁Facil	-13361
atrique	-13362
▁motion	-13363
ièmement	-13364
▁Chaires	-13365
▁trouvant	-13366
▁molécules	-13367
▁prévision	-13368
▁quinquenn	-13369
...........	-13370
▁Sunnybrook	-13371
▁MÉMORANDUMS	-13372
▁ACC	-13373
reurs	-13374
élève	-13375
▁2010	-13376
▁cuis	-13377
▁Foire	-13378
▁trame	-13379
▁ORIGIN	-13380
▁mineur	-13381
iendront	-13382
incluant	-13383
▁attendu	-13384
▁formats	-13385
▁approuve	-13386
▁comporter	-13387
▁prévisions	-13388
▁mentionnons	-13389
▁utilisateur	-13390
immobilisation	-13391
▁Remboursements	-13392
(9	-13393
▁RA	-13394
bêta	-13395
itri	-13396
téra	-13397
▁040	-13398
▁ABC	-13399
alons	-13400
▁1100	-13401
.21.00	-13402
azette	-13403
ulsion	-13404
▁color	-13405
▁forment	-13406
▁limités	-13407
▁remercie	-13408
appliquant	-13409
▁demandera	-13410
▁chevronnés	-13411
▁majoration	-13412
▁prescrites	-13413
▁fonctionner	-13414
fr	-13415
ISPC	-13416
plan	-13417
▁(50	-13418
▁NEW	-13419
agira	-13420
▁pure	-13421
▁Mandat	-13422
▁majeur	-13423
▁Niagara	-13424
▁remerci	-13425
▁composer	-13426
▁observer	-13427
▁accomplis	-13428
▁partielle	-13429
▁Agriculture	-13430
engraissement	-13431
▁divulgations	-13432
▁démographiques	-13433
itec	-13434
reau	-13435
▁Fil	-13436
▁mur	-13437
▁obs	-13438
-1-1,	-13439
erapy	-13440
nitro	-13441
ophie	-13442
▁Base	-13443
▁sulf	-13444
▁Royal	-13445
▁Trade	-13446
▁doubl	-13447
▁films	-13448
▁revêt	-13449
▁discute	-13450
▁Calculez	-13451
▁Deuxième	-13452
▁Indicateur	-13453
▁décisionnel	-13454
indemnisation	-13455
▁embryonnaires	-13456
▁commanditaires	-13457
428	-13458
Imm	-13459
3,4-	-13460
oper	-13461
▁847	-13462
▁vap	-13463
amily	-13464
▁pren	-13465
▁Immun	-13466
▁boute	-13467
▁viser	-13468
ativité	-13469
tissant	-13470
▁Soutien	-13471
▁Industrie	-13472
▁minimales	-13473
▁américaines	-13474
▁expositions	-13475
▁postdoctoral	-13476
▁psychologiques	-13477
▁restructuration	-13478
NL	-13479
ERR	-13480
uée	-13481
ancé	-13482
▁19,	-13483
▁tap	-13484
▁urg	-13485
ricul	-13486
▁410,	-13487
vascul	-13488
▁livré	-13489
▁stric	-13490
ométhyl	-13491
▁danger	-13492
▁conféré	-13493
▁fassent	-13494
▁facilite	-13495
▁horizont	-13496
▁variable	-13497
▁acquittés	-13498
▁récipiend	-13499
▁utilisons	-13500
▁exemptions	-13501
▁renseigner	-13502
insuffisance	-13503
▁notification	-13504
Cl	-13505
gy	-13506
zy	-13507
(1,	-13508
édez	-13509
▁Gar	-13510
▁Sar	-13511
adies	-13512
▁Sand	-13513
▁rein	-13514
.10.10	-13515
aximum	-13516
▁cofin	-13517
▁veill	-13518
utilité	-13519
▁exercée	-13520
▁Échange	-13521
▁applique	-13522
▁confront	-13523
▁neurones	-13524
événements	-13525
▁AUTHORITY	-13526
▁cognitifs	-13527
▁traumatis	-13528
▁délégation	-13529
▁locataires	-13530
carboxylique	-13531
importations	-13532
phy	-13533
OCDE	-13534
gène	-13535
iforn	-13536
écran	-13537
▁BELL	-13538
▁Rica	-13539
▁Champ	-13540
▁Nancy	-13541
▁graph	-13542
montant	-13543
▁Graham	-13544
▁Assurez	-13545
▁affecté	-13546
▁organisée	-13547
▁CONSULTING	-13548
▁permission	-13549
▁Généralités	-13550
▁mandataires	-13551
LL	-13552
Des	-13553
▁éd	-13554
OURN	-13555
ecti	-13556
▁114	-13557
▁Mad	-13558
olique	-13559
▁menés	-13560
▁pense	-13561
traient	-13562
ulations	-13563
utilisez	-13564
▁consister	-13565
▁diagnosti	-13566
▁sélectionnés	-13567
TO	-13568
ft	-13569
440	-13570
blé	-13571
IRES	-13572
▁(12	-13573
▁(51	-13574
▁3.2	-13575
▁RED	-13576
▁écr	-13577
00000	-13578
▁MATI	-13579
▁PORT	-13580
LÉMENT	-13581
▁Brown	-13582
▁hydra	-13583
▁Prépar	-13584
▁rythme	-13585
▁Sudbury	-13586
aissances	-13587
▁consulté	-13588
▁continus	-13589
▁emprunté	-13590
▁Pénalités	-13591
▁attitudes	-13592
▁intervenir	-13593
▁comparables	-13594
▁indésirables	-13595
.13	-13596
ama	-13597
vol	-13598
▁Mob	-13599
▁sav	-13600
mette	-13601
oulée	-13602
▁Ceux	-13603
▁Dern	-13604
▁1995.	-13605
assujet	-13606
omalies	-13607
▁Figure	-13608
▁RENVOI	-13609
▁hasard	-13610
▁amendes	-13611
▁jointes	-13612
▁pencher	-13613
entielles	-13614
▁entrepos	-13615
▁espérons	-13616
▁reportés	-13617
▁autonomes	-13618
▁colloques	-13619
▁2004-2005.	-13620
▁Modification	-13621
▁204	-13622
▁CEP	-13623
▁QRE	-13624
▁dys	-13625
ients	-13626
ument	-13627
▁191,	-13628
▁sort	-13629
▁cells	-13630
▁tradu	-13631
hygiène	-13632
▁Jeunes	-13633
▁agence	-13634
▁poudre	-13635
Montréal	-13636
▁ADAPTEUR	-13637
▁couplage	-13638
▁habituel	-13639
▁respecté	-13640
▁étudiera	-13641
▁substanti	-13642
inflammation	-13643
▁Suppression	-13644
OMC	-13645
gal	-13646
▁PI	-13647
1.90	-13648
glom	-13649
ohex	-13650
▁Pap	-13651
▁Rét	-13652
▁SOU	-13653
order	-13654
▁1223	-13655
▁paix	-13656
▁voix	-13657
▁bilan	-13658
▁sains	-13659
personn	-13660
▁Edward	-13661
▁gagnés	-13662
▁urbain	-13663
entraîne	-13664
titution	-13665
▁Heather	-13666
▁estimer	-13667
ologistes	-13668
▁annoncés	-13669
▁fiabilité	-13670
▁positives	-13671
▁évaluateurs	-13672
▁Contribution	-13673
UK	-13674
107	-13675
tude	-13676
▁dop	-13677
▁oxy	-13678
hésif	-13679
▁Arts	-13680
humain	-13681
office	-13682
onésie	-13683
▁fixée	-13684
▁assume	-13685
Internet	-13686
▁PRODUITS	-13687
▁explorer	-13688
économique	-13689
▁excellent	-13690
▁2005-03-31	-13691
▁comprenait	-13692
▁renfermant	-13693
▁exceptionnel	-13694
▁inclusivement	-13695
▁significative	-13696
UD	-13697
20.	-13698
OIS	-13699
TOR	-13700
ple	-13701
txt	-13702
uil	-13703
erge	-13704
parc	-13705
▁280	-13706
▁MON	-13707
▁Kell	-13708
▁RELA	-13709
otypes	-13710
▁corré	-13711
Enquête	-13712
▁Sainte	-13713
▁auxili	-13714
▁écrits	-13715
lèvement	-13716
▁comprom	-13717
▁préavis	-13718
▁ressort	-13719
évitement	-13720
▁archives	-13721
▁bailleur	-13722
▁facturée	-13723
▁possédant	-13724
▁séminaire	-13725
▁ordinateurs	-13726
▁Organisation	-13727
▁alphabétique	-13728
▁neurologique	-13729
▁périodiquement	-13730
PEC	-13731
otype	-13732
▁$18,	-13733
▁RSAP	-13734
▁réal	-13735
acétyl	-13736
phosph	-13737
▁20050	-13738
▁Alain	-13739
▁peines	-13740
accélérer	-13741
▁exposées	-13742
▁modifiant	-13743
ostéoporose	-13744
▁métalliques	-13745
▁soutiennent	-13746
AMS	-13747
IVE	-13748
siez	-13749
tels	-13750
▁010	-13751
▁196	-13752
▁Phy	-13753
ights	-13754
riers	-13755
tical	-13756
▁POST	-13757
▁pâte	-13758
envois	-13759
▁Cadres	-13760
▁placés	-13761
▁usages	-13762
Nouvelle	-13763
terroris	-13764
▁agrégée	-13765
▁combiné	-13766
▁discours	-13767
▁risquent	-13768
▁affiliées	-13769
▁carrières	-13770
▁contextes	-13771
▁matériels	-13772
▁précisant	-13773
▁prévaloir	-13774
▁suspension	-13775
▁Conservation	-13776
▁organisationnel	-13777
NS	-13778
Re	-13779
ISH	-13780
RRQ	-13781
emi	-13782
Amer	-13783
atale	-13784
atory	-13785
inage	-13786
ocarb	-13787
▁barb	-13788
▁crime	-13789
▁fixés	-13790
crivant	-13791
urrence	-13792
▁Europe	-13793
▁places	-13794
▁athlète	-13795
▁portait	-13796
▁pédagog	-13797
▁édition	-13798
▁campagnes	-13799
▁sanitaire	-13800
▁$18,000.00	-13801
▁encouragés	-13802
▁enregistrer	-13803
tionnellement	-13804
▁consécutives	-13805
▁écosensibles	-13806
.3)	-13807
IOR	-13808
luc	-13809
chau	-13810
▁1,0	-13811
▁580	-13812
▁Dès	-13813
▁HAM	-13814
▁PhD	-13815
▁Vie	-13816
▁fen	-13817
▁Neil	-13818
anghai	-13819
▁entam	-13820
▁laiti	-13821
uminium	-13822
version	-13823
▁débuté	-13824
▁2004-07	-13825
▁leaders	-13826
▁mondiaux	-13827
▁vêtement	-13828
▁2007-2008	-13829
gouvernement	-13830
▁contraintes	-13831
▁méthodologies	-13832
▁bioinformatique	-13833
IPEC	-13834
▁27,	-13835
▁doy	-13836
▁rup	-13837
▁arth	-13838
aurait	-13839
▁2003)	-13840
▁Avoir	-13841
▁World	-13842
indique	-13843
▁Essais	-13844
▁Valeurs	-13845
▁révisés	-13846
▁qualités	-13847
▁carburant	-13848
▁rétrospec	-13849
▁croissante	-13850
▁solliciter	-13851
▁Entreprises	-13852
▁facturation	-13853
▁vétérinaire	-13854
▁établissent	-13855
▁Recommandation	-13856
bes	-13857
-(3-	-13858
ELLE	-13859
iant	-13860
sous	-13861
▁24.	-13862
▁310	-13863
▁Dém	-13864
érité	-13865
▁Falls	-13866
▁Micro	-13867
▁epass	-13868
-1,2,4-	-13869
attirer	-13870
▁pénale	-13871
▁SERVICE	-13872
▁mentaux	-13873
▁moderne	-13874
▁paliers	-13875
▁François	-13876
▁compétent	-13877
▁roulement	-13878
encadrement	-13879
▁domestique	-13880
▁originales	-13881
▁réductions	-13882
▁départements	-13883
▁souscripteur	-13884
hi	-13885
[1,	-13886
▁Ta	-13887
Voir	-13888
sell	-13889
▁112	-13890
▁138	-13891
▁30.	-13892
▁815	-13893
▁Ken	-13894
▁Lac	-13895
▁ved	-13896
aussi	-13897
▁coun	-13898
▁exer	-13899
▁mamm	-13900
▁Salle	-13901
▁volum	-13902
UBLIQUE	-13903
▁Surrey	-13904
▁fiable	-13905
▁soudés	-13906
tigation	-13907
▁capable	-13908
▁Personnel	-13909
▁réduisant	-13910
Immigration	-13911
▁observation	-13912
▁recensement	-13913
▁adéquatement	-13914
▁sensiblement	-13915
▁COMMUNICATIONS	-13916
8-	-13917
▁Lu	-13918
OURS	-13919
ycle	-13920
▁28,	-13921
▁859	-13922
▁Mit	-13923
empor	-13924
idées	-13925
itude	-13926
▁Nova	-13927
▁PROV	-13928
▁âgée	-13929
▁Proch	-13930
▁White	-13931
▁accue	-13932
Edmonton	-13933
pérazine	-13934
accompagn	-13935
organiser	-13936
▁invitation	-13937
▁considèrent	-13938
▁formulation	-13939
▁secrétariat	-13940
▁sélectionnez	-13941
],	-13942
ji	-13943
duce	-13944
▁Mur	-13945
▁IMII	-13946
EXPORT	-13947
arques	-13948
ilding	-13949
lidine	-13950
sibles	-13951
élargir	-13952
▁chiens	-13953
▁salles	-13954
▁veille	-13955
American	-13956
térature	-13957
▁déduite	-13958
▁libellé	-13959
▁voulant	-13960
▁Méthodes	-13961
▁chargées	-13962
▁traitant	-13963
▁antérieur	-13964
▁sentiment	-13965
▁collaborent	-13966
▁intégration	-13967
▁conditionnel	-13968
▁mathématiques	-13969
[(	-13970
SIG	-13971
UST	-13972
oft	-13973
▁ur	-13974
ATES	-13975
GRAM	-13976
bell	-13977
▁183	-13978
▁Mil	-13979
▁noy	-13980
aurer	-13981
▁vide	-13982
ièrent	-13983
▁Phili	-13984
arities	-13985
▁inters	-13986
▁muscle	-13987
▁signaux	-13988
▁facultés	-13989
▁attendant	-13990
▁viabilité	-13991
▁durabilité	-13992
▁poursuivra	-13993
▁propriétés	-13994
DS	-13995
AAA	-13996
car	-13997
ids	-13998
conf	-13999
zhou	-14000
▁128	-14001
▁Chau	-14002
▁Iron	-14003
▁Seuls	-14004
▁attén	-14005
utation	-14006
▁tension	-14007
.........	-14008
▁Principes	-14009
▁tuyauterie	-14010
▁Désignation	-14011
▁contribuant	-14012
▁Consultation	-14013
▁financièrement	-14014
]-	-14015
cn	-14016
mons	-14017
▁merc	-14018
▁quin	-14019
igines	-14020
acteurs	-14021
espèces	-14022
▁Island	-14023
▁perdre	-14024
▁savons	-14025
▁rupture	-14026
▁révoqué	-14027
▁toucher	-14028
▁attestant	-14029
▁précisées	-14030
▁violation	-14031
▁favorables	-14032
▁profondeur	-14033
▁présidents	-14034
▁artistiques	-14035
oo	-14036
(9)	-14037
den	-14038
ELCV	-14039
▁21.	-14040
▁FCR	-14041
appuie	-14042
▁Cochez	-14043
clusions	-14044
▁arrivent	-14045
▁psychologique	-14046
ATH	-14047
VSI	-14048
rou	-14049
▁AM	-14050
EROX	-14051
IPEG	-14052
posi	-14053
▁Sem	-14054
▁Pipe	-14055
itesse	-14056
▁Etats	-14057
▁XEROX	-14058
INNIPEG	-14059
Ukraine	-14060
▁marqué	-14061
▁Assurer	-14062
▁procède	-14063
▁profits	-14064
▁avancées	-14065
▁reprises	-14066
▁Immeubles	-14067
▁respectés	-14068
▁émissions	-14069
▁rattachées	-14070
▁déterminent	-14071
▁suffisantes	-14072
▁préservation	-14073
CF	-14074
KI	-14075
mén	-14076
uge	-14077
▁WH	-14078
obus	-14079
▁eau	-14080
▁gal	-14081
andon	-14082
▁Benz	-14083
▁foet	-14084
charge	-14085
entrer	-14086
levées	-14087
▁coron	-14088
▁grains	-14089
▁refusé	-14090
adresser	-14091
▁protège	-14092
▁Fonction	-14093
▁interjet	-14094
▁oeuvrant	-14095
excellents	-14096
▁surmonter	-14097
▁Circulaire	-14098
▁artérielle	-14099
▁promoteurs	-14100
▁constitutifs	-14101
▁utilisations	-14102
:1	-14103
PI	-14104
VAN	-14105
oin	-14106
(4),	-14107
chée	-14108
onge	-14109
trer	-14110
éros	-14111
▁560	-14112
▁Déb	-14113
▁Nad	-14114
▁VALE	-14115
▁antiv	-14116
▁chrom	-14117
▁solid	-14118
éréales	-14119
▁altern	-14120
▁carrés	-14121
▁obligé	-14122
anthates	-14123
viennent	-14124
▁papiers	-14125
▁Margaret	-14126
▁féminine	-14127
▁pancanad	-14128
▁Néanmoins	-14129
▁interview	-14130
▁partagent	-14131
▁Allocations	-14132
Pre	-14133
uds	-14134
-1-1	-14135
IACR	-14136
asco	-14137
▁(16	-14138
▁CIS	-14139
▁Jim	-14140
issue	-14141
tinér	-14142
▁FORM	-14143
▁Tian	-14144
▁desc	-14145
bridge	-14146
termin	-14147
▁Demand	-14148
▁ajouts	-14149
▁méthyl	-14150
▁importée	-14151
▁soutenus	-14152
▁Remarques	-14153
▁Sélection	-14154
▁RÉPUBLIQUE	-14155
chlorophényl	-14156
informations	-14157
SB	-14158
ylon	-14159
▁232	-14160
▁HUM	-14161
▁sud	-14162
aging	-14163
▁1243	-14164
▁Rémi	-14165
▁louez	-14166
▁venti	-14167
▁écart	-14168
▁donnez	-14169
▁impayé	-14170
▁manuel	-14171
▁Équipe	-14172
▁éprouv	-14173
▁consécu	-14174
▁croyons	-14175
▁escomptés	-14176
▁traduction	-14177
▁température	-14178
oS	-14179
RIF	-14180
▁Wy	-14181
techn	-14182
▁Mill	-14183
ournes	-14184
érison	-14185
▁épuis	-14186
azépine	-14187
échelon	-14188
▁Action	-14189
▁philos	-14190
▁morales	-14191
instituts	-14192
▁Demander	-14193
▁WINNIPEG	-14194
▁mélanges	-14195
▁cinquième	-14196
▁2003-2004,	-14197
▁vasculaire	-14198
▁délinquants	-14199
,5-	-14200
sima	-14201
▁JCT	-14202
▁ast	-14203
osifs	-14204
▁Termin	-14205
▁bouton	-14206
▁chanti	-14207
▁mentor	-14208
▁séparé	-14209
▁sodique	-14210
▁Californ	-14211
formulaire	-14212
▁signaling	-14213
formulaires	-14214
▁accessoire	-14215
accroissement	-14216
WL	-14217
élè	-14218
▁001	-14219
▁cyl	-14220
entôt	-14221
manie	-14222
parent	-14223
▁CONTR	-14224
▁Family	-14225
▁assign	-14226
▁diplom	-14227
▁Control	-14228
▁bientôt	-14229
▁douanier	-14230
▁étudient	-14231
▁dangereux	-14232
▁expliquant	-14233
::	-14234
OCK	-14235
___	-14236
cin	-14237
eck	-14238
▁GE	-14239
▁0,0	-14240
▁22.	-14241
eries	-14242
etown	-14243
▁care	-14244
▁élim	-14245
esters	-14246
▁avisé	-14247
▁dress	-14248
▁pepti	-14249
▁photo	-14250
▁Region	-14251
▁Restric	-14252
▁élargir	-14253
▁révoquer	-14254
▁survenus	-14255
▁bénéficie	-14256
▁planchers	-14257
▁rentables	-14258
▁ORIGINAIRES	-14259
▁attestation	-14260
▁habituelles	-14261
▁résidentiels	-14262
OE	-14263
.22	-14264
DER	-14265
ECR	-14266
MAR	-14267
▁AG	-14268
▁AT	-14269
▁DS	-14270
.10.	-14271
TICE	-14272
▁005	-14273
▁216	-14274
/001/	-14275
aposi	-14276
union	-14277
▁0499	-14278
▁CRÉD	-14279
▁Lois	-14280
istait	-14281
merais	-14282
▁Enter	-14283
▁Multi	-14284
▁louer	-14285
▁149(1)	-14286
▁neurom	-14287
▁portes	-14288
▁répand	-14289
▁samedi	-14290
▁transp	-14291
▁SOCIETY	-14292
directeur	-14293
▁Réexamen	-14294
▁circuits	-14295
▁musculos	-14296
▁arguments	-14297
▁divulgués	-14298
instruction	-14299
▁distributeurs	-14300
OSE	-14301
Ret	-14302
ani	-14303
▁PQ	-14304
SIDA	-14305
▁Dof	-14306
▁SEN	-14307
▁Fitz	-14308
▁liti	-14309
▁rhum	-14310
érolog	-14311
▁brute	-14312
▁École	-14313
crivent	-14314
▁Donald	-14315
▁MOTIFS	-14316
▁Séance	-14317
▁lourde	-14318
▁ménage	-14319
▁rendez	-14320
▁venant	-14321
érateurs	-14322
▁Reading	-14323
▁cellule	-14324
▁révéler	-14325
▁vitesse	-14326
housiasme	-14327
▁Maladies	-14328
▁précisée	-14329
immigrants	-14330
▁1999-2000	-14331
▁Education	-14332
▁améliorée	-14333
▁distribué	-14334
▁exécutive	-14335
▁légèrement	-14336
▁visibilité	-14337
▁interaction	-14338
▁communiquant	-14339
▁privilégiées	-14340
▁subventionné	-14341
len	-14342
occ	-14343
opt	-14344
BERT	-14345
▁XVI	-14346
▁pér	-14347
osion	-14348
▁blocs	-14349
▁union	-14350
actives	-14351
annuler	-14352
visionn	-14353
▁Relevé	-14354
▁bovins	-14355
▁tuteur	-14356
▁agricul	-14357
▁caisses	-14358
▁fibrose	-14359
▁écrites	-14360
▁Cochrane	-14361
▁guérison	-14362
▁2005-2006.	-14363
acterization	-14364
▁Rétribution	-14365
▁contribuera	-14366
▁nécessitent	-14367
▁Actuellement	-14368
▁compensatoires	-14369
▁représentaient	-14370
FH	-14371
REG	-14372
VAL	-14373
aph	-14374
▁Spe	-14375
enter	-14376
onnée	-14377
▁FORT	-14378
......	-14379
indole	-14380
oignent	-14381
▁Indemn	-14382
▁discut	-14383
▁espace	-14384
échanger	-14385
▁Renvois	-14386
▁appuyée	-14387
▁causera	-14388
▁incluez	-14389
▁électro	-14390
▁adressée	-14391
▁instance	-14392
▁programm	-14393
présidents	-14394
▁passeport	-14395
▁recyclage	-14396
▁régissent	-14397
▁Laboratoire	-14398
▁géographiques	-14399
MO	-14400
203	-14401
TES	-14402
gar	-14403
iso	-14404
law	-14405
▁BL	-14406
aude	-14407
good	-14408
sept	-14409
tein	-14410
▁1,3	-14411
▁251	-14412
▁260	-14413
▁EVF	-14414
enzie	-14415
lison	-14416
rolog	-14417
▁Inst	-14418
▁Nota	-14419
▁memb	-14420
▁éval	-14421
gation	-14422
gments	-14423
ommage	-14424
▁FOURN	-14425
▁barre	-14426
▁morte	-14427
▁équiv	-14428
jardins	-14429
ufactur	-14430
▁DROITS	-14431
▁fériés	-14432
▁parole	-14433
▁rachat	-14434
▁system	-14435
▁camping	-14436
▁exporter	-14437
▁garantit	-14438
timisation	-14439
actionnaire	-14440
▁reconstitu	-14441
▁littérature	-14442
▁RechercheNet	-14443
▁regroupement	-14444
..............	-14445
▁Environnement	-14446
▁signification	-14447
)-1	-14448
AVC	-14449
COM	-14450
ola	-14451
othi	-14452
othy	-14453
▁109	-14454
▁Fer	-14455
▁Tom	-14456
copie	-14457
human	-14458
levés	-14459
tifié	-14460
▁1980	-14461
▁Arth	-14462
▁DIRE	-14463
▁Hist	-14464
▁Mots	-14465
▁SANT	-14466
▁bass	-14467
OURCES	-14468
consul	-14469
▁Press	-14470
▁incon	-14471
▁serez	-14472
▁compil	-14473
▁prédis	-14474
▁renomm	-14475
▁succes	-14476
aimerais	-14477
▁cancers	-14478
provincial	-14479
▁Exemption	-14480
▁Parkinson	-14481
▁inutilisé	-14482
▁biomédical	-14483
▁permanence	-14484
▁satisfaits	-14485
▁multisports	-14486
▁restreintes	-14487
come	-14488
idic	-14489
▁mac	-14490
▁prÃ	-14491
ELLES	-14492
ockey	-14493
Étude	-14494
▁Berg	-14495
▁Bill	-14496
▁Youth	-14497
▁Aérone	-14498
▁Gazette	-14499
▁Kingston	-14500
▁Waterloo	-14501
▁contract	-14502
▁Australie	-14503
▁élaborées	-14504
▁Conference	-14505
▁majuscules	-14506
▁superviser	-14507
▁élaboration	-14508
▁alimentation	-14509
▁ethnoculture	-14510
,2	-14511
AST	-14512
▁KI	-14513
irus	-14514
zine	-14515
▁080	-14516
▁1,1	-14517
▁169	-14518
▁26,	-14519
▁270	-14520
▁Rod	-14521
▁bât	-14522
▁fic	-14523
▁émo	-14524
▁Path	-14525
▁Texte	-14526
[...]
