<pad>	0
<s>	0
</s>	0
<unk>	0
▁d	-0
es	-1
▁l	-2
on	-3
en	-4
ti	-5
▁p	-6
▁de	-7
an	-8
▁c	-9
re	-10
▁s	-11
er	-12
▁a	-13
ent	-14
ur	-15
tion	-16
in	-17
qu	-18
is	-19
et	-20
it	-21
▁la	-22
ar	-23
le	-24
▁et	-25
or	-26
▁des	-27
▁m	-28
ation	-29
ou	-30
ment	-31
ne	-32
▁pr	-33
▁les	-34
te	-35
ra	-36
▁le	-37
om	-38
▁à	-39
▁qu	-40
▁f	-41
▁t	-42
▁r	-43
▁C	-44
our	-45
il	-46
ant	-47
▁au	-48
és	-49
al	-50
▁en	-51
ic	-52
▁du	-53
▁L	-54
▁n	-55
▁u	-56
▁con	-57
el	-58
au	-59
▁é	-60
si	-61
ai	-62
ans	-63
▁par	-64
ce	-65
▁pro	-66
res	-67
▁v	-68
ri	-69
ch	-70
ta	-71
▁in	-72
ont	-73
se	-74
té	-75
▁dé	-76
us	-77
▁re	-78
li	-79
ci	-80
▁pour	-81
▁com	-82
que	-83
▁(	-84
▁e	-85
me	-86
▁1	-87
di	-88
00	-89
ve	-90
▁g	-91
▁P	-92
pp	-93
▁2	-94
as	-95
▁dans	-96
▁sur	-97
ro	-98
tre	-99
▁b	-100
▁que	-101
les	-102
est	-103
▁D	-104
ité	-105
tu	-106
▁S	-107
oi	-108
de	-109
▁ré	-110
mp	-111
▁A	-112
un	-113
▁un	-114
ag	-115
ff	-116
ol	-117
eu	-118
ac	-119
▁pl	-120
ab	-121
ée	-122
▁une	-123
ad	-124
ers	-125
▁qui	-126
▁o	-127
ter	-128
ts	-129
▁M	-130
▁ou	-131
ul	-132
ces	-133
ations	-134
urs	-135
ec	-136
os	-137
ées	-138
ons	-139
ati	-140
ques	-141
▁aux	-142
du	-143
aire	-144
ig	-145
▁R	-146
▁est	-147
ale	-148
▁E	-149
ouv	-150
ir	-151
▁ex	-152
▁I	-153
ction	-154
ous	-155
▁T	-156
ie	-157
pr	-158
▁ch	-159
orm	-160
aux	-161
tr	-162
iv	-163
ér	-164
▁su	-165
▁200	-166
▁j	-167
ments	-168
ère	-169
ort	-170
elle	-171
▁Can	-172
op	-173
mb	-174
onn	-175
at	-176
▁mo	-177
ten	-178
mes	-179
ait	-180
▁Le	-181
erv	-182
and	-183
▁ac	-184
ada	-185
sion	-186
ins	-187
ais	-188
cu	-189
▁:	-190
▁pas	-191
▁B	-192
▁h	-193
▁di	-194
ance	-195
aires	-196
▁plus	-197
▁Canada	-198
▁tra	-199
▁N	-200
min	-201
▁se	-202
▁sont	-203
▁Les	-204
▁comp	-205
entre	-206
end	-207
ence	-208
ens	-209
tes	-210
▁cons	-211
age	-212
tions	-213
gi	-214
▁parti	-215
én	-216
▁ra	-217
▁comm	-218
__	-219
tif	-220
▁pré	-221
ite	-222
ge	-223
ants	-224
ités	-225
▁ce	-226
ain	-227
nement	-228
▁F	-229
omm	-230
ex	-231
imp	-232
▁av	-233
éri	-234
▁La	-235
ès	-236
id	-237
ré	-238
lis	-239
▁ont	-240
▁tr	-241
ys	-242
une	-243
ist	-244
▁3	-245
▁po	-246
gra	-247
ue	-248
lé	-249
▁•	-250
▁19	-251
ven	-252
che	-253
éra	-254
ub	-255
▁an	-256
am	-257
lement	-258
▁G	-259
▁app	-260
form	-261
ure	-262
ni	-263
ise	-264
adi	-265
▁ne	-266
tiv	-267
ésent	-268
▁so	-269
▁ave	-270
..	-271
ord	-272
▁te	-273
aut	-274
▁été	-275
im	-276
▁-	-277
▁O	-278
jet	-279
ication	-280
ervic	-281
▁avec	-282
ate	-283
être	-284
lo	-285
av	-286
ond	-287
its	-288
ette	-289
▁peu	-290
tra	-291
▁conc	-292
cip	-293
▁tou	-294
oir	-295
▁res	-296
▁entre	-297
éd	-298
um	-299
app	-300
▁per	-301
ux	-302
ouver	-303
gram	-304
▁dis	-305
▁inter	-306
▁can	-307
elles	-308
nel	-309
ail	-310
▁il	-311
▁pers	-312
ture	-313
▁rés	-314
▁déc	-315
ique	-316
oc	-317
▁mar	-318
isi	-319
▁produ	-320
▁aut	-321
▁En	-322
▁ren	-323
ures	-324
ales	-325
▁être	-326
▁servic	-327
▁trav	-328
▁gr	-329
ap	-330
able	-331
ét	-332
ut	-333
▁li	-334
▁pub	-335
ss	-336
▁4	-337
▁fin	-338
▁min	-339
ph	-340
ours	-341
éc	-342
anis	-343
▁co	-344
titu	-345
ffic	-346
tab	-347
▁do	-348
▁no	-349
▁V	-350
▁ob	-351
▁«	-352
ari	-353
ères	-354
estion	-355
▁imp	-356
vent	-357
pe	-358
teur	-359
po	-360
▁ces	-361
▁ad	-362
tri	-363
▁U	-364
ande	-365
▁5	-366
org	-367
tin	-368
ier	-369
▁présent	-370
▁program	-371
▁dép	-372
bre	-373
▁Con	-374
tilis	-375
tique	-376
anté	-377
▁ter	-378
▁leur	-379
fin	-380
tic	-381
▁sou	-382
▁dem	-383
tats	-384
▁In	-385
▁travail	-386
▁Il	-387
cher	-388
▁canadi	-389
▁me	-390
).	-391
▁nom	-392
▁J	-393
▁rec	-394
iss	-395
enne	-396
▁commun	-397
ine	-398
▁199	-399
▁É	-400
▁H	-401
▁trans	-402
ves	-403
▁donn	-404
ang	-405
lic	-406
▁pos	-407
rer	-408
▁gén	-409
rec	-410
▁pa	-411
val	-412
emp	-413
aient	-414
ors	-415
ég	-416
▁cette	-417
____	-418
ui	-419
),	-420
▁rapp	-421
▁dro	-422
ème	-423
cess	-424
▁services	-425
ill	-426
ents	-427
organis	-428
▁sec	-429
▁mes	-430
mis	-431
▁fait	-432
▁gouver	-433
des	-434
sib	-435
▁son	-436
ois	-437
▁bi	-438
lec	-439
ace	-440
ob	-441
ement	-442
▁»	-443
rit	-444
lu	-445
par	-446
▁rel	-447
▁Comm	-448
urop	-449
▁eff	-450
▁comme	-451
▁Par	-452
▁ins	-453
tiques	-454
olo	-455
opp	-456
▁6	-457
teurs	-458
nes	-459
vel	-460
ON	-461
▁ann	-462
èg	-463
alis	-464
▁si	-465
▁exp	-466
ES	-467
eux	-468
▁nation	-469
▁santé	-470
valu	-471
▁régi	-472
▁ser	-473
▁éc	-474
▁projet	-475
▁dev	-476
▁es	-477
tég	-478
ises	-479
▁soci	-480
ard	-481
erta	-482
▁form	-483
mi	-484
vir	-485
posi	-486
velopp	-487
▁acc	-488
tru	-489
seil	-490
tis	-491
▁prop	-492
ille	-493
ot	-494
ouve	-495
viron	-496
bu	-497
iques	-498
ient	-499
▁ar	-500
ass	-501
sement	-502
▁peut	-503
ourn	-504
ision	-505
▁col	-506
nation	-507
▁généra	-508
200	-509
lar	-510
ission	-511
▁ses	-512
▁memb	-513
▁mil	-514
▁resp	-515
▁poli	-516
igne	-517
▁recher	-518
▁fon	-519
▁deux	-520
tivités	-521
▁at	-522
met	-523
alement	-524
▁concer	-525
▁0	-526
▁person	-527
téri	-528
ences	-529
▁W	-530
▁Pro	-531
▁pays	-532
formation	-533
ilité	-534
tive	-535
els	-536
▁%	-537
▁sp	-538
ues	-539
▁7	-540
▁9	-541
▁ti	-542
yst	-543
insi	-544
▁8	-545
▁direc	-546
▁suiv	-547
ante	-548
▁gouvernement	-549
▁développ	-550
▁Com	-551
près	-552
fic	-553
▁non	-554
onom	-555
ticle	-556
▁gestion	-557
oy	-558
ême	-559
incip	-560
▁pre	-561
▁organis	-562
▁nombre	-563
oci	-564
▁fonction	-565
▁vis	-566
▁utilis	-567
▁ég	-568
▁for	-569
▁rép	-570
▁ass	-571
ente	-572
int	-573
sions	-574
▁y	-575
▁cl	-576
ances	-577
ire	-578
tat	-579
▁ainsi	-580
alité	-581
he	-582
▁–	-583
TI	-584
▁cas	-585
....	-586
▁princip	-587
ing	-588
eur	-589
lab	-590
ivers	-591
▁ma	-592
ative	-593
▁car	-594
acc	-595
enti	-596
▁leurs	-597
cep	-598
▁compr	-599
▁al	-600
▁ni	-601
lique	-602
▁internation	-603
▁march	-604
été	-605
mé	-606
▁particip	-607
autres	-608
tifs	-609
exp	-610
uis	-611
▁recherche	-612
ération	-613
▁sa	-614
▁sous	-615
uropé	-616
ources	-617
onnes	-618
▁certa	-619
adre	-620
▁Q	-621
▁mati	-622
▁rapport	-623
▁syst	-624
orts	-625
ange	-626
ud	-627
équ	-628
▁membres	-629
▁mais	-630
▁import	-631
antes	-632
fication	-633
mbre	-634
eau	-635
▁emp	-636
▁développement	-637
-1	-638
▁programme	-639
▁diff	-640
▁europé	-641
vironnement	-642
ign	-643
istre	-644
▁cré	-645
ani	-646
▁tech	-647
▁nous	-648
rait	-649
▁conf	-650
oup	-651
ct	-652
ib	-653
▁demande	-654
▁indi	-655
ils	-656
▁Conseil	-657
▁$	-658
loy	-659
▁public	-660
▁règ	-661
itu	-662
ice	-663
information	-664
▁données	-665
▁tous	-666
ables	-667
▁cours	-668
▁K	-669
AN	-670
▁produits	-671
▁prév	-672
aine	-673
ense	-674
▁faire	-675
ode	-676
ici	-677
▁permet	-678
▁repr	-679
▁mon	-680
▁Commission	-681
ssi	-682
vre	-683
▁Ch	-684
oration	-685
▁autres	-686
▁prov	-687
ww	-688
tait	-689
lè	-690
endre	-691
▁De	-692
▁doit	-693
▁finan	-694
▁né	-695
eurs	-696
jec	-697
▁même	-698
▁fourn	-699
▁fond	-700
valuation	-701
élé	-702
tribu	-703
▁cap	-704
EN	-705
▁également	-706
ignements	-707
▁ver	-708
▁résul	-709
▁cadre	-710
cé	-711
▁fa	-712
▁canadien	-713
▁personnes	-714
▁ét	-715
▁Dans	-716
▁pri	-717
elon	-718
▁rense	-719
ind	-720
▁prof	-721
éci	-722
.1	-723
ines	-724
ca	-725
▁dont	-726
ets	-727
▁on	-728
▁activités	-729
▁tout	-730
▁lors	-731
ages	-732
▁Pour	-733
oris	-734
▁docu	-735
▁aussi	-736
▁sub	-737
oire	-738
▁concern	-739
▁ress	-740
▁vous	-741
▁matière	-742
atives	-743
▁rég	-744
▁afin	-745
▁entrepr	-746
▁étab	-747
▁[	-748
▁ju	-749
olu	-750
ton	-751
▁ind	-752
▁Loi	-753
▁nive	-754
ôle	-755
endant	-756
lev	-757
écur	-758
-0	-759
article	-760
ric	-761
▁che	-762
▁10	-763
iti	-764
▁commer	-765
oupe	-766
cri	-767
▁préc	-768
▁spéci	-769
ateurs	-770
▁représent	-771
ase	-772
▁mise	-773
▁nouv	-774
vention	-775
▁cha	-776
gie	-777
ustri	-778
▁moy	-779
ép	-780
entes	-781
▁particu	-782
▁nécess	-783
sid	-784
ong	-785
▁dom	-786
▁ag	-787
▁.	-788
iste	-789
▁peuvent	-790
▁renseignements	-791
▁programmes	-792
▁temp	-793
▁soit	-794
tér	-795
▁région	-796
écurité	-797
▁bien	-798
▁On	-799
xe	-800
lle	-801
▁jus	-802
orte	-803
▁minist	-804
▁partie	-805
▁ten	-806
▁particuli	-807
raph	-808
lig	-809
dement	-810
▁ph	-811
aines	-812
▁avant	-813
▁op	-814
▁Un	-815
▁tro	-816
lication	-817
termin	-818
000	-819
tection	-820
▁étu	-821
▁financi	-822
anti	-823
▁économ	-824
▁of	-825
▁stra	-826
mment	-827
▁possib	-828
▁mesures	-829
fs	-830
ulture	-831
▁men	-832
ologi	-833
▁nouve	-834
ats	-835
▁demand	-836
▁États	-837
aiss	-838
▁Ce	-839
▁féd	-840
one	-841
ER	-842
▁inc	-843
________	-844
▁modi	-845
istr	-846
▁droits	-847
▁respons	-848
▁personnel	-849
▁cor	-850
▁où	-851
▁inf	-852
ches	-853
▁différ	-854
▁fédéra	-855
oivent	-856
▁droit	-857
▁seu	-858
iter	-859
agraph	-860
ites	-861
▁dur	-862
▁Qu	-863
▁compte	-864
cer	-865
loi	-866
fi	-867
▁moins	-868
▁ris	-869
▁sécurité	-870
▁milli	-871
▁mé	-872
tivité	-873
cessus	-874
eso	-875
all	-876
▁péri	-877
ature	-878
▁>	-879
ali	-880
▁provin	-881
▁ent	-882
tien	-883
▁prob	-884
▁DE	-885
co	-886
▁ressources	-887
▁plu	-888
em	-889
▁aff	-890
▁détermin	-891
▁disposi	-892
tenir	-893
ulation	-894
ran	-895
ls	-896
▁contre	-897
▁conn	-898
▁beso	-899
th	-900
tement	-901
dition	-902
▁contra	-903
▁sé	-904
▁2006	-905
▁système	-906
▁processus	-907
▁consid	-908
ellement	-909
▁mont	-910
▁fac	-911
éth	-912
▁Au	-913
▁situ	-914
▁résultats	-915
▁doivent	-916
▁(1	-917
CE	-918
ver	-919
▁2005	-920
▁toute	-921
▁consul	-922
▁Re	-923
estions	-924
▁politique	-925
▁sans	-926
ion	-927
quer	-928
tari	-929
▁protection	-930
▁12	-931
duction	-932
▁contribu	-933
▁niveau	-934
▁vo	-935
▁der	-936
ôt	-937
▁mod	-938
▁concernant	-939
▁faç	-940
rés	-941
agraphe	-942
▁À	-943
▁ans	-944
▁cel	-945
utilis	-946
TION	-947
acité	-948
▁était	-949
ler	-950
ru	-951
erc	-952
▁selon	-953
for	-954
▁questions	-955
mble	-956
amen	-957
▁appro	-958
ies	-959
▁politiques	-960
▁2004	-961
▁Des	-962
▁exemp	-963
ress	-964
-200	-965
▁vale	-966
▁je	-967
▁disp	-968
▁prés	-969
onne	-970
▁derni	-971
▁elle	-972
évaluation	-973
▁off	-974
onc	-975
fér	-976
êt	-977
▁rais	-978
gment	-979
▁mesure	-980
▁constitu	-981
tation	-982
pec	-983
▁"	-984
œu	-985
▁pouv	-986
▁000	-987
orer	-988
ble	-989
▁cro	-990
▁effec	-991
▁secteur	-992
év	-993
▁formation	-994
▁exig	-995
▁20	-996
▁autre	-997
▁employ	-998
▁main	-999
▁collec	-1000
▁canadienne	-1001
▁transp	-1002
IN	-1003
▁contr	-1004
▁lég	-1005
▁question	-1006
OM	-1007
tives	-1008
▁pop	-1009
cid	-1010
▁service	-1011
éro	-1012
-2	-1013
▁prati	-1014
▁dés	-1015
ession	-1016
action	-1017
▁met	-1018
ner	-1019
▁2007	-1020
ov	-1021
▁conform	-1022
entif	-1023
st	-1024
▁publique	-1025
▁Canadi	-1026
▁coû	-1027
▁plan	-1028
nent	-1029
▁point	-1030
▁Ar	-1031
▁11	-1032
ffici	-1033
▁façon	-1034
▁contin	-1035
céd	-1036
og	-1037
UR	-1038
▁15	-1039
IS	-1040
men	-1041
▁hum	-1042
AR	-1043
▁techn	-1044
▁temps	-1045
▁communaut	-1046
▁défin	-1047
99	-1048
▁paragraphe	-1049
ément	-1050
tant	-1051
▁ca	-1052
▁actu	-1053
▁déclar	-1054
inter	-1055
AC	-1056
era	-1057
▁vue	-1058
ém	-1059
▁loc	-1060
bles	-1061
▁objec	-1062
ctions	-1063
▁long	-1064
▁période	-1065
ateur	-1066
raient	-1067
▁toutes	-1068
▁cour	-1069
.2	-1070
laboration	-1071
▁personne	-1072
▁and	-1073
▁prom	-1074
▁supp	-1075
ili	-1076
ert	-1077
▁change	-1078
och	-1079
▁marché	-1080
▁dém	-1081
▁Cette	-1082
▁2003	-1083
▁Min	-1084
vi	-1085
urer	-1086
nis	-1087
ministr	-1088
▁premi	-1089
▁nature	-1090
crip	-1091
▁général	-1092
▁projets	-1093
rim	-1094
▁commerci	-1095
tamment	-1096
▁reven	-1097
enses	-1098
▁chaque	-1099
▁élec	-1100
ancement	-1101
▁Une	-1102
▁taux	-1103
▁char	-1104
▁base	-1105
▁fi	-1106
▁vie	-1107
tée	-1108
▁trois	-1109
▁entreprises	-1110
▁fem	-1111
▁cent	-1112
ommand	-1113
▁fra	-1114
▁décision	-1115
éb	-1116
▁cli	-1117
lles	-1118
oute	-1119
amin	-1120
lan	-1121
▁traite	-1122
duc	-1123
▁parten	-1124
ditions	-1125
▁après	-1126
orités	-1127
out	-1128
▁Ces	-1129
▁grand	-1130
▁respec	-1131
ureau	-1132
▁norm	-1133
▁accord	-1134
▁groupe	-1135
eure	-1136
avoir	-1137
lément	-1138
ide	-1139
ête	-1140
▁vertu	-1141
tric	-1142
▁réalis	-1143
........	-1144
▁lim	-1145
œuvre	-1146
▁lieu	-1147
ann	-1148
▁européenne	-1149
sieurs	-1150
▁avoir	-1151
serv	-1152
lir	-1153
▁sera	-1154
abilité	-1155
ole	-1156
▁the	-1157
▁mani	-1158
▁An	-1159
cue	-1160
vis	-1161
▁divers	-1162
ologie	-1163
éch	-1164
▁2002	-1165
0,	-1166
▁qualité	-1167
▁vers	-1168
▁Program	-1169
IC	-1170
▁Gr	-1171
nique	-1172
su	-1173
tégi	-1174
▁Comité	-1175
▁Ac	-1176
▁18	-1177
▁déb	-1178
▁Si	-1179
▁mal	-1180
ustrie	-1181
▁notamment	-1182
▁jour	-1183
▁pass	-1184
▁part	-1185
yant	-1186
▁sta	-1187
omp	-1188
▁ess	-1189
osé	-1190
èmes	-1191
unes	-1192
nels	-1193
la	-1194
▁to	-1195
▁stratégi	-1196
gence	-1197
sition	-1198
▁sci	-1199
AL	-1200
▁pe	-1201
▁ab	-1202
▁années	-1203
▁inform	-1204
méli	-1205
▁véri	-1206
▁éch	-1207
édic	-1208
▁document	-1209
▁initi	-1210
ochton	-1211
tario	-1212
omb	-1213
UE	-1214
ollar	-1215
sse	-1216
▁Servic	-1217
▁ministre	-1218
oupes	-1219
▁méth	-1220
.,	-1221
www	-1222
rent	-1223
▁compé	-1224
▁im	-1225
▁sup	-1226
▁cau	-1227
position	-1228
gé	-1229
écu	-1230
▁14	-1231
▁dollar	-1232
aly	-1233
ori	-1234
▁jur	-1235
reg	-1236
utilisation	-1237
rib	-1238
▁culture	-1239
EC	-1240
oires	-1241
isions	-1242
▁règlement	-1243
▁13	-1244
OR	-1245
ich	-1246
▁très	-1247
▁Ã	-1248
tés	-1249
▁institu	-1250
▁certains	-1251
▁national	-1252
▁loi	-1253
trang	-1254
puis	-1255
▁place	-1256
▁bén	-1257
▁198	-1258
▁déf	-1259
udg	-1260
uses	-1261
qué	-1262
▁th	-1263
▁avait	-1264
▁effectu	-1265
▁vi	-1266
▁lang	-1267
ident	-1268
▁ty	-1269
▁organismes	-1270
▁́	-1271
▁2001	-1272
▁eng	-1273
▁titre	-1274
▁vol	-1275
▁enf	-1276
cueil	-1277
itation	-1278
▁profession	-1279
tim	-1280
▁recommand	-1281
▁pres	-1282
▁conditions	-1283
tention	-1284
emploi	-1285
asse	-1286
▁équ	-1287
▁priv	-1288
▁cet	-1289
▁év	-1290
man	-1291
fois	-1292
▁plusieurs	-1293
lissement	-1294
▁sujet	-1295
▁télé	-1296
▁femmes	-1297
otal	-1298
gation	-1299
▁nationale	-1300
▁dollars	-1301
▁publi	-1302
ration	-1303
▁remp	-1304
▁por	-1305
▁œuvre	-1306
▁pol	-1307
▁société	-1308
▁Nous	-1309
▁médic	-1310
isl	-1311
▁environnement	-1312
▁pai	-1313
▁répond	-1314
aide	-1315
▁chez	-1316
ications	-1317
truc	-1318
▁gra	-1319
▁effic	-1320
cul	-1321
▁reç	-1322
▁lui	-1323
ilis	-1324
▁ali	-1325
orité	-1326
▁présente	-1327
éli	-1328
▁améli	-1329
▁production	-1330
▁exemple	-1331
▁relative	-1332
olution	-1333
férence	-1334
▁moyen	-1335
▁procéd	-1336
▁économique	-1337
tent	-1338
od	-1339
▁international	-1340
▁quel	-1341
▁site	-1342
sements	-1343
▁fois	-1344
▁fam	-1345
▁millions	-1346
az	-1347
mier	-1348
IT	-1349
Uni	-1350
▁16	-1351
▁sign	-1352
▁Ex	-1353
01	-1354
cup	-1355
▁européen	-1356
alyse	-1357
ministration	-1358
▁pendant	-1359
▁contrôle	-1360
urope	-1361
--	-1362
graph	-1363
nexe	-1364
▁groupes	-1365
▁devrait	-1366
▁votre	-1367
RE	-1368
▁ministère	-1369
▁réglement	-1370
étu	-1371
▁soi	-1372
▁nouvelles	-1373
▁réun	-1374
uer	-1375
yn	-1376
▁domaine	-1377
▁reconn	-1378
ien	-1379
▁augment	-1380
▁rep	-1381
▁générale	-1382
▁Programme	-1383
▁compris	-1384
▁consomm	-1385
▁date	-1386
▁élev	-1387
▁ils	-1388
ess	-1389
ffice	-1390
vestis	-1391
érations	-1392
▁valeur	-1393
ipe	-1394
agn	-1395
▁mis	-1396
▁Dé	-1397
ay	-1398
èrement	-1399
▁grande	-1400
▁territ	-1401
rée	-1402
▁gar	-1403
environnement	-1404
ception	-1405
▁objectifs	-1406
▁ayant	-1407
▁connaiss	-1408
▁étaient	-1409
▁financement	-1410
▁Minist	-1411
▁30	-1412
nelle	-1413
ochtones	-1414
▁z	-1415
▁esp	-1416
▁ceux	-1417
▁—	-1418
ront	-1419
ell	-1420
mbl	-1421
▁documents	-1422
lection	-1423
▁25	-1424
ribun	-1425
pte	-1426
ître	-1427
▁besoins	-1428
étab	-1429
▁propri	-1430
eb	-1431
uméro	-1432
application	-1433
êts	-1434
▁offici	-1435
▁dépenses	-1436
cription	-1437
▁mois	-1438
eures	-1439
▁rédu	-1440
▁nég	-1441
▁dispositions	-1442
▁or	-1443
act	-1444
.3	-1445
▁produit	-1446
▁rôle	-1447
▁seront	-1448
▁Sec	-1449
tées	-1450
gr	-1451
▁Cour	-1452
venir	-1453
onib	-1454
ENT	-1455
▁coop	-1456
istra	-1457
▁traitement	-1458
▁population	-1459
tt	-1460
▁fer	-1461
▁notre	-1462
▁législ	-1463
▁17	-1464
In	-1465
tenant	-1466
tenu	-1467
▁jeunes	-1468
xte	-1469
▁jusqu	-1470
atis	-1471
aff	-1472
Unis	-1473
veill	-1474
itaire	-1475
did	-1476
iné	-1477
tructure	-1478
térieur	-1479
▁Col	-1480
▁Ré	-1481
▁aur	-1482
oles	-1483
▁nouveaux	-1484
AD	-1485
xes	-1486
▁nouveau	-1487
▁Pre	-1488
▁adop	-1489
▁conseil	-1490
▁requ	-1491
ébec	-1492
▁savoir	-1493
▁situation	-1494
▁évalu	-1495
avant	-1496
▁année	-1497
▁100	-1498
▁béné	-1499
ATION	-1500
ograph	-1501
▁mondi	-1502
▁visant	-1503
oul	-1504
tro	-1505
▁mettre	-1506
▁associ	-1507
▁Canadiens	-1508
▁déta	-1509
examen	-1510
ilités	-1511
▁prix	-1512
▁candid	-1513
▁prest	-1514
nements	-1515
▁croiss	-1516
are	-1517
▁conséqu	-1518
▁relatives	-1519
▁soins	-1520
atifs	-1521
▁budg	-1522
▁comb	-1523
▁sus	-1524
▁annu	-1525
▁disponib	-1526
ints	-1527
▁compéten	-1528
inf	-1529
core	-1530
▁enfants	-1531
▁pouvoir	-1532
▁Mar	-1533
▁soutien	-1534
voir	-1535
import	-1536
industrie	-1537
▁am	-1538
▁première	-1539
▁risque	-1540
▁employés	-1541
▁Commun	-1542
itaires	-1543
▁bénéfic	-1544
▁terme	-1545
cl	-1546
arm	-1547
▁cal	-1548
ip	-1549
▁Al	-1550
2)	-1551
accès	-1552
▁peti	-1553
ministra	-1554
tres	-1555
▁dire	-1556
gc	-1557
tron	-1558
EM	-1559
▁Inter	-1560
▁propos	-1561
entrepr	-1562
tie	-1563
illes	-1564
▁mi	-1565
rier	-1566
▁frais	-1567
quelle	-1568
▁premier	-1569
▁sol	-1570
▁manière	-1571
wa	-1572
▁port	-1573
oli	-1574
léments	-1575
▁laquelle	-1576
anc	-1577
èces	-1578
▁puis	-1579
▁21	-1580
net	-1581
▁encore	-1582
▁examin	-1583
▁vari	-1584
▁parties	-1585
▁renfor	-1586
▁systèmes	-1587
▁Ministère	-1588
▁coûts	-1589
▁seulement	-1590
▁dou	-1591
▁atte	-1592
▁conclu	-1593
▁donc	-1594
▁nos	-1595
▁Aut	-1596
▁dist	-1597
ribunal	-1598
▁mars	-1599
▁2000	-1600
▁revenu	-1601
▁internationale	-1602
▁participation	-1603
//	-1604
tégie	-1605
▁pourrait	-1606
ribu	-1607
▁surveill	-1608
2,	-1609
cc	-1610
▁concerne	-1611
▁Elle	-1612
13	-1613
AS	-1614
inte	-1615
eff	-1616
▁modè	-1617
▁cin	-1618
▁sal	-1619
▁nécessaire	-1620
agement	-1621
▁suite	-1622
▁certaines	-1623
jo	-1624
▁fran	-1625
▁raison	-1626
5,	-1627
ouvent	-1628
atif	-1629
▁man	-1630
▁nouvelle	-1631
▁fonds	-1632
atre	-1633
▁capacité	-1634
érer	-1635
▁pu	-1636
truction	-1637
dit	-1638
ttp	-1639
art	-1640
fications	-1641
▁depuis	-1642
▁|	-1643
ommes	-1644
ges	-1645
://	-1646
▁tant	-1647
liqu	-1648
▁conformément	-1649
▁dos	-1650
appel	-1651
vision	-1652
odes	-1653
▁2008	-1654
On	-1655
ll	-1656
▁id	-1657
▁serv	-1658
▁possible	-1659
▁31	-1660
▁Centre	-1661
fier	-1662
▁soient	-1663
ordin	-1664
▁fins	-1665
atique	-1666
toc	-1667
▁prendre	-1668
ordonn	-1669
▁Di	-1670
▁permis	-1671
▁essenti	-1672
▁matéri	-1673
ercice	-1674
▁1,	-1675
▁mili	-1676
▁div	-1677
▁oblig	-1678
▁rapports	-1679
▁hab	-1680
▁dél	-1681
▁Santé	-1682
▁fav	-1683
▁1999	-1684
lace	-1685
▁observ	-1686
pri	-1687
-3	-1688
Union	-1689
ensemble	-1690
▁destin	-1691
omme	-1692
tage	-1693
▁montant	-1694
▁éléments	-1695
▁cir	-1696
▁important	-1697
ène	-1698
ains	-1699
▁appr	-1700
▁établi	-1701
▁défini	-1702
▁canadiennes	-1703
gu	-1704
tall	-1705
▁cher	-1706
▁risques	-1707
▁exigences	-1708
erve	-1709
lèmes	-1710
▁Rapp	-1711
lus	-1712
▁faut	-1713
mer	-1714
▁aid	-1715
▁effet	-1716
▁transport	-1717
ième	-1718
▁pratiques	-1719
▁ci	-1720
tend	-1721
▁hau	-1722
▁sein	-1723
▁celle	-1724
▁Y	-1725
▁juin	-1726
▁donné	-1727
4,	-1728
▁sau	-1729
▁lib	-1730
▁Bureau	-1731
lob	-1732
gn	-1733
PS	-1734
▁Règ	-1735
ueur	-1736
ociation	-1737
▁maladi	-1738
erts	-1739
ions	-1740
▁demandes	-1741
cembre	-1742
7,	-1743
tta	-1744
AT	-1745
▁sc	-1746
▁provinci	-1747
isse	-1748
ducation	-1749
▁»,	-1750
ril	-1751
niques	-1752
ager	-1753
▁autoris	-1754
▁fédéral	-1755
▁Nord	-1756
▁meille	-1757
▁déterminer	-1758
▁problèmes	-1759
▁voi	-1760
▁lic	-1761
Ontario	-1762
air	-1763
▁transf	-1764
éh	-1765
▁particulier	-1766
dic	-1767
année	-1768
RO	-1769
nelles	-1770
▁0,	-1771
▁1.	-1772
▁étudi	-1773
▁normes	-1774
________________	-1775
ras	-1776
appro	-1777
dro	-1778
▁effets	-1779
térêt	-1780
▁;	-1781
▁pê	-1782
alités	-1783
▁rendement	-1784
▁lorsque	-1785
▁mul	-1786
auté	-1787
quel	-1788
▁étrang	-1789
▁technologi	-1790
▁pay	-1791
tionn	-1792
▁administra	-1793
ose	-1794
cune	-1795
ron	-1796
améli	-1797
▁Rés	-1798
usion	-1799
▁celui	-1800
▁http	-1801
odi	-1802
stitu	-1803
▁travaux	-1804
▁oc	-1805
ivi	-1806
gl	-1807
ennent	-1808
▁Québec	-1809
AP	-1810
▁déj	-1811
▁industri	-1812
▁électron	-1813
▁besoin	-1814
▁intég	-1815
tégor	-1816
▁Tr	-1817
▁croissance	-1818
vier	-1819
étés	-1820
6,	-1821
itre	-1822
50	-1823
quête	-1824
▁supéri	-1825
ptembre	-1826
idi	-1827
naires	-1828
urr	-1829
▁elles	-1830
▁moment	-1831
▁Services	-1832
▁avons	-1833
▁décembre	-1834
▁promo	-1835
▁celles	-1836
▁réc	-1837
1)	-1838
▁◦	-1839
▁w	-1840
▁24	-1841
▁travaille	-1842
3,	-1843
▁coopération	-1844
▁auprès	-1845
administration	-1846
esp	-1847
▁fab	-1848
après	-1849
urance	-1850
pes	-1851
▁No	-1852
▁comment	-1853
▁For	-1854
▁jours	-1855
▁ref	-1856
▁Parlement	-1857
▁Je	-1858
explo	-1859
▁poste	-1860
▁total	-1861
▁supplément	-1862
pendant	-1863
▁Co	-1864
8,	-1865
objet	-1866
médi	-1867
▁oct	-1868
clu	-1869
▁Pr	-1870
▁commerce	-1871
▁Web	-1872
resse	-1873
▁fournir	-1874
EL	-1875
Office	-1876
cont	-1877
▁radi	-1878
RC	-1879
tac	-1880
▁déjà	-1881
▁Premi	-1882
ensib	-1883
▁appel	-1884
▁Or	-1885
▁plani	-1886
ventions	-1887
atisf	-1888
autre	-1889
.)	-1890
10	-1891
▁autochtones	-1892
▁considér	-1893
▁vig	-1894
20	-1895
▁septembre	-1896
▁eu	-1897
▁fai	-1898
▁devraient	-1899
ach	-1900
alisation	-1901
▁sig	-1902
▁dossi	-1903
▁rev	-1904
▁règle	-1905
▁as	-1906
gement	-1907
▁études	-1908
dure	-1909
▁établis	-1910
▁régions	-1911
▁cri	-1912
▁quatre	-1913
▁poursu	-1914
▁II	-1915
ii	-1916
anvier	-1917
▁scientif	-1918
issent	-1919
nov	-1920
▁k	-1921
▁fig	-1922
1,	-1923
ource	-1924
▁/	-1925
illet	-1926
▁monde	-1927
cour	-1928
pond	-1929
mun	-1930
▁ense	-1931
▁compar	-1932
▁cer	-1933
ritan	-1934
élaboration	-1935
▁précis	-1936
tel	-1937
▁agric	-1938
▁participants	-1939
ones	-1940
▁canadiens	-1941
rir	-1942
euvre	-1943
ulaire	-1944
part	-1945
▁secteurs	-1946
SC	-1947
▁forme	-1948
registre	-1949
obre	-1950
xim	-1951
/0	-1952
▁Lors	-1953
▁décisions	-1954
mendement	-1955
▁conserv	-1956
▁ligne	-1957
missib	-1958
ennes	-1959
ffis	-1960
▁communication	-1961
▁LA	-1962
Europe	-1963
▁outre	-1964
▁Tribunal	-1965
▁Ad	-1966
▁fais	-1967
▁bre	-1968
▁jou	-1969
▁ta	-1970
▁type	-1971
cun	-1972
indre	-1973
oit	-1974
▁référence	-1975
▁étant	-1976
▁22	-1977
hy	-1978
▁prépar	-1979
▁efficace	-1980
▁avis	-1981
▁termes	-1982
▁surveillance	-1983
▁subst	-1984
▁but	-1985
érique	-1986
▁mai	-1987
▁membre	-1988
▁juridi	-1989
▁23	-1990
ression	-1991
▁méc	-1992
LE	-1993
▁voy	-1994
▁preu	-1995
ke	-1996
ger	-1997
▁conv	-1998
▁cause	-1999
▁nécessaires	-2000
▁changements	-2001
agne	-2002
▁alors	-2003
▁maj	-2004
▁satisf	-2005
▁disc	-2006
▁janvier	-2007
▁liste	-2008
ity	-2009
trices	-2010
▁comité	-2011
▁én	-2012
erre	-2013
ore	-2014
SI	-2015
▁médi	-2016
▁cinq	-2017
▁catégor	-2018
▁milieu	-2019
▁».	-2020
▁compos	-2021
▁bas	-2022
▁rest	-2023
onse	-2024
▁Règlement	-2025
▁pris	-2026
vembre	-2027
cop	-2028
▁rap	-2029
ttawa	-2030
▁▪	-2031
aison	-2032
ticles	-2033
égard	-2034
èce	-2035
▁Mme	-2036
▁élab	-2037
▁avril	-2038
État	-2039
ital	-2040
cédure	-2041
▁propriété	-2042
assurer	-2043
▁partir	-2044
respond	-2045
tient	-2046
ettes	-2047
▁vigueur	-2048
▁Toute	-2049
▁aj	-2050
/200	-2051
▁mieux	-2052
▁marchés	-2053
onomie	-2054
▁Télé	-2055
ritannique	-2056
▁ET	-2057
▁marchand	-2058
▁crit	-2059
missions	-2060
▁garanti	-2061
▁obtenir	-2062
▁Amendement	-2063
DE	-2064
ox	-2065
▁organisations	-2066
isc	-2067
▁Dire	-2068
atoire	-2069
▁Tra	-2070
▁suivants	-2071
▁ministères	-2072
occup	-2073
▁DES	-2074
▁délé	-2075
▁centra	-2076
activité	-2077
▁circ	-2078
PI	-2079
ow	-2080
▁Div	-2081
cs	-2082
▁sélection	-2083
▁vérification	-2084
▁concurr	-2085
jour	-2086
▁sensib	-2087
▁correspond	-2088
▁modifi	-2089
▁création	-2090
▁stratégie	-2091
âce	-2092
▁Inc	-2093
▁régime	-2094
▁communautaire	-2095
pose	-2096
▁lesqu	-2097
▁Direction	-2098
▁produc	-2099
▁serait	-2100
▁mand	-2101
DI	-2102
▁section	-2103
inéa	-2104
▁page	-2105
▁partenari	-2106
ableau	-2107
▁pertin	-2108
▁distribu	-2109
▁déclaration	-2110
▁points	-2111
coup	-2112
exercice	-2113
aille	-2114
▁techniques	-2115
▁novembre	-2116
ension	-2117
tification	-2118
);	-2119
▁font	-2120
uy	-2121
▁continu	-2122
ignes	-2123
yc	-2124
▁̈	-2125
orme	-2126
▁inté	-2127
▁appropri	-2128
▁2,	-2129
▁tenu	-2130
él	-2131
▁procédure	-2132
iles	-2133
▁résid	-2134
aces	-2135
▁signi	-2136
eaucoup	-2137
▁lar	-2138
▁partenaires	-2139
▁humaines	-2140
▁Su	-2141
off	-2142
mination	-2143
.4	-2144
tor	-2145
table	-2146
osition	-2147
employ	-2148
Agence	-2149
▁octobre	-2150
▁applic	-2151
▁nationaux	-2152
▁lorsqu	-2153
▁directeur	-2154
▁compétences	-2155
tuelle	-2156
équipe	-2157
ht	-2158
▁relations	-2159
▁Man	-2160
▁numéro	-2161
▁fau	-2162
▁réduction	-2163
ût	-2164
▁protég	-2165
cent	-2166
aci	-2167
ilisation	-2168
▁facteurs	-2169
▁connaissances	-2170
assurance	-2171
issement	-2172
▁unique	-2173
euille	-2174
▁domaines	-2175
▁lo	-2176
liquer	-2177
▁collaboration	-2178
mission	-2179
effic	-2180
dess	-2181
▁nav	-2182
▁Cons	-2183
▁marchandises	-2184
ament	-2185
OC	-2186
▁calcul	-2187
atiques	-2188
▁technologie	-2189
▁50	-2190
.0	-2191
▁oeuvre	-2192
▁multi	-2193
assi	-2194
▁collectivités	-2195
▁efforts	-2196
tations	-2197
▁communi	-2198
isme	-2199
nies	-2200
▁opérations	-2201
▁val	-2202
▁sociale	-2203
ombie	-2204
▁IN	-2205
▁proven	-2206
ds	-2207
▁pi	-2208
agit	-2209
▁souvent	-2210
▁terres	-2211
avis	-2212
itoy	-2213
ignement	-2214
éric	-2215
accord	-2216
▁env	-2217
▁concent	-2218
▁accep	-2219
▁planification	-2220
actér	-2221
ards	-2222
▁plupart	-2223
érience	-2224
▁inv	-2225
▁Date	-2226
▁lut	-2227
établissement	-2228
yl	-2229
▁26	-2230
texte	-2231
▁appar	-2232
▁ret	-2233
▁traité	-2234
▁règles	-2235
eng	-2236
▁sem	-2237
▁direction	-2238
avantage	-2239
orig	-2240
orter	-2241
AI	-2242
rie	-2243
▁univers	-2244
▁permettre	-2245
▁réseau	-2246
▁brev	-2247
▁cherche	-2248
▁contrat	-2249
▁simp	-2250
▁28	-2251
▁hy	-2252
▁juillet	-2253
jours	-2254
/1	-2255
ote	-2256
▁informations	-2257
▁indiqu	-2258
▁financière	-2259
intérêt	-2260
der	-2261
▁aliment	-2262
▁réduire	-2263
raî	-2264
▁plans	-2265
▁beaucoup	-2266
▁Fond	-2267
▁publics	-2268
▁initiatives	-2269
ivre	-2270
▁rem	-2271
grès	-2272
exploitation	-2273
▁chac	-2274
ssembl	-2275
▁promotion	-2276
▁priorités	-2277
▁différents	-2278
▁VI	-2279
intég	-2280
▁institutions	-2281
▁procédures	-2282
gré	-2283
rique	-2284
▁suivantes	-2285
▁désign	-2286
▁explo	-2287
▁enti	-2288
truct	-2289
lac	-2290
sp	-2291
urant	-2292
ask	-2293
pro	-2294
CC	-2295
▁instru	-2296
▁valeurs	-2297
actéris	-2298
▁directive	-2299
tice	-2300
▁changement	-2301
................	-2302
▁précéd	-2303
▁biens	-2304
▁tels	-2305
alys	-2306
analyse	-2307
ane	-2308
▁27	-2309
hui	-2310
...	-2311
▁spécif	-2312
▁fournit	-2313
entreprise	-2314
▁Ass	-2315
▁assurer	-2316
▁Nom	-2317
▁mandat	-2318
▁*	-2319
time	-2320
éducation	-2321
▁mécanis	-2322
▁Mont	-2323
▁ven	-2324
▁soulig	-2325
▁glob	-2326
▁moyens	-2327
▁durée	-2328
▁aéri	-2329
dec	-2330
▁four	-2331
RI	-2332
▁économiques	-2333
▁principal	-2334
tivement	-2335
urent	-2336
uc	-2337
ologiques	-2338
▁responsab	-2339
▁perman	-2340
ements	-2341
évrier	-2342
térêts	-2343
▁toujours	-2344
▁réglementation	-2345
CT	-2346
▁Déc	-2347
▁langues	-2348
Britannique	-2349
iversité	-2350
▁Rép	-2351
▁améliorer	-2352
▁opération	-2353
▁Rapport	-2354
9,	-2355
écution	-2356
▁budget	-2357
▁Groupe	-2358
aître	-2359
▁tradition	-2360
gés	-2361
▁autorités	-2362
▁recommandations	-2363
apitre	-2364
▁preuve	-2365
ussions	-2366
▁favoris	-2367
▁install	-2368
▁Direc	-2369
▁rou	-2370
étude	-2371
▁sociétés	-2372
▁Ottawa	-2373
▁modèle	-2374
gent	-2375
▁dépos	-2376
▁durable	-2377
▁pêche	-2378
-4	-2379
▁X	-2380
▁pratique	-2381
▁us	-2382
▁structure	-2383
▁langue	-2384
▁phy	-2385
▁pourraient	-2386
annexe	-2387
ath	-2388
▁distin	-2389
▁espèces	-2390
▁DU	-2391
ordre	-2392
▁répar	-2393
▁avaient	-2394
▁exist	-2395
issant	-2396
positions	-2397
▁nombreux	-2398
3)	-2399
tenti	-2400
istance	-2401
▁investis	-2402
çais	-2403
titul	-2404
ME	-2405
ganis	-2406
êtes	-2407
importance	-2408
▁relativement	-2409
▁méthodes	-2410
ule	-2411
▁caractéris	-2412
▁critères	-2413
▁province	-2414
▁liés	-2415
▁relev	-2416
atrim	-2417
efficacité	-2418
▁nationales	-2419
▁ple	-2420
▁électronique	-2421
▁suivi	-2422
pl	-2423
▁gouvernements	-2424
▁disposition	-2425
▁1998	-2426
▁citoy	-2427
registrement	-2428
▁spécialis	-2429
▁dernier	-2430
▁fix	-2431
▁suivant	-2432
▁reg	-2433
OS	-2434
oun	-2435
US	-2436
▁réserv	-2437
▁principaux	-2438
▁clients	-2439
▁durant	-2440
uli	-2441
antill	-2442
▁niveaux	-2443
▁principes	-2444
▁Ils	-2445
use	-2446
▁Comp	-2447
▁responsabilité	-2448
▁aucune	-2449
▁février	-2450
▁comprend	-2451
▁interven	-2452
▁réponse	-2453
▁articles	-2454
▁bureau	-2455
ologique	-2456
▁début	-2457
▁financiers	-2458
per	-2459
▁App	-2460
iller	-2461
▁technologies	-2462
▁Car	-2463
▁séri	-2464
sie	-2465
▁Toutefois	-2466
▁viol	-2467
.-	-2468
oh	-2469
▁Selon	-2470
riv	-2471
▁Comme	-2472
▁donner	-2473
▁aliments	-2474
▁Trans	-2475
▁matériel	-2476
▁trait	-2477
▁tel	-2478
▁cela	-2479
▁CR	-2480
4)	-2481
▁attribu	-2482
▁gaz	-2483
port	-2484
berta	-2485
▁angl	-2486
▁Fin	-2487
ides	-2488
ocu	-2489
▁importante	-2490
▁Cha	-2491
▁affaires	-2492
▁recours	-2493
▁comporte	-2494
hab	-2495
oine	-2496
▁répondre	-2497
▁tend	-2498
▁proposition	-2499
▁intel	-2500
lacement	-2501
▁davantage	-2502
éré	-2503
▁reli	-2504
▁dimin	-2505
rant	-2506
éhic	-2507
▁reçu	-2508
▁Soci	-2509
▁(6	-2510
30	-2511
▁fil	-2512
▁anti	-2513
▁stratégique	-2514
PC	-2515
▁mondiale	-2516
▁potenti	-2517
▁maxim	-2518
▁sens	-2519
▁fédérale	-2520
▁environ	-2521
trice	-2522
▁deuxième	-2523
orp	-2524
urb	-2525
▁rév	-2526
TM	-2527
▁affec	-2528
▁termin	-2529
▁fut	-2530
▁29	-2531
▁provinces	-2532
uest	-2533
AM	-2534
vement	-2535
▁facil	-2536
▁prise	-2537
origine	-2538
▁Colombie	-2539
aj	-2540
arb	-2541
▁ant	-2542
▁négoci	-2543
jourd	-2544
▁recherches	-2545
▁liées	-2546
onde	-2547
rom	-2548
alinéa	-2549
▁coût	-2550
▁médec	-2551
mig	-2552
▁aider	-2553
▁éta	-2554
▁40	-2555
▁heures	-2556
▁Sta	-2557
▁devant	-2558
▁plain	-2559
appr	-2560
olog	-2561
▁modifications	-2562
forme	-2563
Al	-2564
organisation	-2565
ick	-2566
▁internationales	-2567
▁quanti	-2568
▁conta	-2569
▁197	-2570
▁avantages	-2571
▁mun	-2572
▁contexte	-2573
EMENT	-2574
run	-2575
éner	-2576
▁travailleurs	-2577
▁technique	-2578
▁conséquent	-2579
oix	-2580
▁Rec	-2581
▁cô	-2582
▁suffis	-2583
▁Convention	-2584
▁fournisse	-2585
▁Article	-2586
naire	-2587
▁outi	-2588
▁syn	-2589
40	-2590
▁aucun	-2591
illeurs	-2592
▁intéress	-2593
▁proch	-2594
▁grâce	-2595
IL	-2596
ira	-2597
ouvoir	-2598
impôt	-2599
▁réunion	-2600
ulations	-2601
En	-2602
▁étude	-2603
▁accès	-2604
▁prestation	-2605
▁près	-2606
▁contribution	-2607
▁hist	-2608
▁impos	-2609
▁encour	-2610
▁accomp	-2611
98	-2612
téra	-2613
phone	-2614
▁deme	-2615
▁lois	-2616
▁estim	-2617
▁certain	-2618
▁portant	-2619
uit	-2620
oût	-2621
▁moyenne	-2622
NE	-2623
uide	-2624
novation	-2625
▁faible	-2626
▁acqu	-2627
sique	-2628
▁représentants	-2629
alog	-2630
▁anim	-2631
▁voie	-2632
▁caus	-2633
PE	-2634
▁lignes	-2635
vidu	-2636
oth	-2637
▁diri	-2638
▁nations	-2639
▁évaluation	-2640
▁Secré	-2641
étaire	-2642
▁élevé	-2643
▁conjo	-2644
▁différentes	-2645
échelle	-2646
(1)	-2647
▁sources	-2648
▁CON	-2649
▁ailleurs	-2650
▁zone	-2651
▁mentionn	-2652
▁véhic	-2653
▁aspec	-2654
▁Ne	-2655
▁Me	-2656
▁tari	-2657
2.	-2658
rées	-2659
ak	-2660
▁poss	-2661
ouveau	-2662
▁Nouv	-2663
▁famille	-2664
▁sim	-2665
ules	-2666
▁français	-2667
oncé	-2668
anes	-2669
▁tour	-2670
▁responsable	-2671
ettre	-2672
tenus	-2673
▁licence	-2674
▁statu	-2675
▁ve	-2676
aments	-2677
▁parce	-2678
âge	-2679
▁présenter	-2680
tale	-2681
▁construction	-2682
▁porte	-2683
énergie	-2684
ates	-2685
▁Li	-2686
uel	-2687
▁prises	-2688
▁admissib	-2689
ablement	-2690
▁réf	-2691
▁minim	-2692
casion	-2693
▁lutte	-2694
▁prestations	-2695
▁délai	-2696
▁fonctions	-2697
CI	-2698
▁probl	-2699
▁remb	-2700
▁souh	-2701
▁charge	-2702
investis	-2703
▁confér	-2704
▁Z	-2705
▁directement	-2706
▁réserve	-2707
▁pati	-2708
ssemblée	-2709
▁social	-2710
▁évent	-2711
▁Service	-2712
ection	-2713
▁rémun	-2714
▁trouver	-2715
5)	-2716
▁retra	-2717
rance	-2718
▁constitue	-2719
mps	-2720
▁publiques	-2721
lor	-2722
▁disponibles	-2723
▁déli	-2724
▁www	-2725
▁LE	-2726
êmes	-2727
▁tenir	-2728
rain	-2729
▁législation	-2730
▁six	-2731
économie	-2732
▁importants	-2733
▁Premières	-2734
▁touch	-2735
anque	-2736
lin	-2737
▁président	-2738
état	-2739
▁maintenant	-2740
ult	-2741
▁indép	-2742
ière	-2743
▁Ph	-2744
onto	-2745
▁=	-2746
▁anglais	-2747
▁diverses	-2748
▁Etats	-2749
▁prévues	-2750
▁entreprise	-2751
▁intellec	-2752
istéri	-2753
▁posi	-2754
▁problème	-2755
titude	-2756
exécution	-2757
arch	-2758
oronto	-2759
istes	-2760
▁sociaux	-2761
▁Cependant	-2762
5.	-2763
▁fisc	-2764
▁Bien	-2765
FC	-2766
▁The	-2767
▁progrès	-2768
▁condition	-2769
icro	-2770
dem	-2771
ks	-2772
▁lequel	-2773
ples	-2774
TE	-2775
intention	-2776
▁clim	-2777
TR	-2778
esse	-2779
▁Nations	-2780
tariat	-2781
11	-2782
▁actuellement	-2783
▁Jus	-2784
▁fré	-2785
ris	-2786
▁préoccup	-2787
entiss	-2788
----	-2789
▁utilisé	-2790
▁soumis	-2791
tructures	-2792
▁EN	-2793
▁quelques	-2794
ez	-2795
jectif	-2796
▁contrô	-2797
▁méthode	-2798
né	-2799
▁émissions	-2800
▁supplémentaires	-2801
▁rece	-2802
▁indiqué	-2803
▁consultation	-2804
wan	-2805
▁all	-2806
▁circons	-2807
▁possibilité	-2808
▁gé	-2809
icip	-2810
mettre	-2811
▁pén	-2812
▁(200	-2813
▁Cont	-2814
▁ax	-2815
utôt	-2816
▁chercheurs	-2817
▁consommation	-2818
▁2.	-2819
option	-2820
▁renforcer	-2821
▁uti	-2822
▁mission	-2823
▁intervenants	-2824
▁Accueil	-2825
▁candidats	-2826
acqu	-2827
cessib	-2828
▁3,	-2829
▁approuv	-2830
▁réguli	-2831
▁sites	-2832
entissage	-2833
Or	-2834
▁possibilités	-2835
▁vente	-2836
AU	-2837
▁donne	-2838
▁personnels	-2839
▁Ontario	-2840
AG	-2841
▁Th	-2842
▁médias	-2843
▁directrices	-2844
▁prévoit	-2845
▁bénéfici	-2846
▁financier	-2847
▁organisation	-2848
▁second	-2849
▁COM	-2850
nexes	-2851
▁existe	-2852
lit	-2853
▁approche	-2854
▁prévention	-2855
▁telle	-2856
atrimoine	-2857
hés	-2858
60	-2859
ary	-2860
▁quant	-2861
▁suit	-2862
▁Sur	-2863
▁choix	-2864
▁tém	-2865
ède	-2866
Ouest	-2867
airement	-2868
▁principe	-2869
▁individu	-2870
acités	-2871
▁position	-2872
rication	-2873
▁eaux	-2874
ination	-2875
▁privé	-2876
▁condu	-2877
▁cib	-2878
▁60	-2879
▁clés	-2880
▁territoire	-2881
▁CAN	-2882
▁participer	-2883
▁utilisés	-2884
▁transfert	-2885
▁bon	-2886
▁modification	-2887
OL	-2888
▁financières	-2889
▁commen	-2890
▁telles	-2891
▁is	-2892
▁déposé	-2893
▁Internet	-2894
▁souhait	-2895
land	-2896
limin	-2897
▁maladies	-2898
▁communications	-2899
appui	-2900
ocra	-2901
▁article	-2902
▁St	-2903
oré	-2904
ît	-2905
gion	-2906
venu	-2907
▁permettant	-2908
▁poiss	-2909
com	-2910
▁consommateurs	-2911
▁intellectuelle	-2912
▁vise	-2913
▁Cel	-2914
▁1997	-2915
▁examen	-2916
▁Ob	-2917
▁liv	-2918
roître	-2919
ublique	-2920
▁Toronto	-2921
▁cr	-2922
▁définition	-2923
▁succ	-2924
▁plutôt	-2925
▁communauté	-2926
▁CN	-2927
▁demander	-2928
▁dernières	-2929
eaux	-2930
▁promouvoir	-2931
bilité	-2932
ulgation	-2933
▁communautés	-2934
identi	-2935
abs	-2936
▁bil	-2937
▁voyage	-2938
▁etc	-2939
▁diffic	-2940
askat	-2941
▁statis	-2942
▁créer	-2943
6.	-2944
crit	-2945
▁marque	-2946
actions	-2947
vez	-2948
▁améric	-2949
▁dernière	-2950
▁Autres	-2951
▁provenant	-2952
con	-2953
▁hommes	-2954
▁(2	-2955
cell	-2956
aissance	-2957
ret	-2958
▁communautaires	-2959
-8	-2960
90	-2961
▁caract	-2962
▁rejet	-2963
▁exécu	-2964
▁règlements	-2965
▁confir	-2966
▁parc	-2967
htm	-2968
▁démont	-2969
UN	-2970
gée	-2971
▁entraî	-2972
▁rendre	-2973
▁renouv	-2974
▁intérêts	-2975
oins	-2976
▁chim	-2977
▁bonne	-2978
isation	-2979
▁fondament	-2980
▁ajou	-2981
registr	-2982
lex	-2983
▁titul	-2984
▁Vous	-2985
▁Prés	-2986
▁analys	-2987
▁dit	-2988
▁AU	-2989
▁faisant	-2990
▁substances	-2991
▁chef	-2992
▁concurrence	-2993
orta	-2994
enf	-2995
▁fonctionnement	-2996
OMPI	-2997
cidence	-2998
▁eux	-2999
▁conseils	-3000
▁capacités	-3001
▁Fonds	-3002
▁août	-3003
lantique	-3004
▁permettra	-3005
agements	-3006
riel	-3007
▁décid	-3008
▁institution	-3009
▁demandé	-3010
Ar	-3011
▁professionnels	-3012
▁viv	-3013
▁camp	-3014
▁journ	-3015
tific	-3016
▁identif	-3017
tition	-3018
▁types	-3019
étation	-3020
▁comprendre	-3021
▁enregistr	-3022
▁responsabilités	-3023
▁relatifs	-3024
▁Aff	-3025
SE	-3026
▁chapitre	-3027
rage	-3028
èrent	-3029
était	-3030
▁centre	-3031
▁Stra	-3032
▁crédit	-3033
riculture	-3034
▁rencont	-3035
▁offre	-3036
▁postes	-3037
▁revenus	-3038
▁matières	-3039
olutions	-3040
4.	-3041
▁consta	-3042
IR	-3043
▁&	-3044
ganisation	-3045
▁ouver	-3046
osph	-3047
ordination	-3048
▁contenu	-3049
ires	-3050
▁annuel	-3051
▁nord	-3052
▁raisonn	-3053
▁présence	-3054
▁visite	-3055
Assemblée	-3056
dire	-3057
▁utiliser	-3058
tout	-3059
▁ép	-3060
▁réus	-3061
investissement	-3062
▁déch	-3063
itob	-3064
enregistrement	-3065
▁tab	-3066
rais	-3067
▁juridique	-3068
▁i	-3069
▁Dép	-3070
PP	-3071
dre	-3072
▁voir	-3073
▁aspects	-3074
amélioration	-3075
ties	-3076
▁municip	-3077
▁emploi	-3078
▁défense	-3079
enseignement	-3080
stitut	-3081
▁tiers	-3082
▁tableau	-3083
▁Ag	-3084
cepti	-3085
uk	-3086
▁médicaments	-3087
aisse	-3088
▁He	-3089
lections	-3090
▁paiement	-3091
OUR	-3092
▁maladie	-3093
▁trouve	-3094
▁Numéro	-3095
udici	-3096
▁scientifiques	-3097
▁PRO	-3098
▁propre	-3099
▁stratégies	-3100
▁sorte	-3101
▁respect	-3102
▁gens	-3103
▁Trés	-3104
▁populations	-3105
▁gen	-3106
due	-3107
comm	-3108
▁sais	-3109
▁tâ	-3110
▁déclaré	-3111
tifi	-3112
apprentissage	-3113
▁Char	-3114
▁vos	-3115
ET	-3116
▁nombreuses	-3117
▁toutefois	-3118
▁considéra	-3119
▁cou	-3120
▁aide	-3121
▁catégorie	-3122
▁délégation	-3123
oph	-3124
▁note	-3125
initi	-3126
andes	-3127
▁représentant	-3128
-01	-3129
ith	-3130
▁liens	-3131
▁org	-3132
▁agents	-3133
▁formul	-3134
-5	-3135
▁ministéri	-3136
-6	-3137
▁établir	-3138
dits	-3139
▁capital	-3140
ports	-3141
itoba	-3142
25	-3143
▁inféri	-3144
uration	-3145
▁complè	-3146
▁suscepti	-3147
ouvernement	-3148
att	-3149
lier	-3150
▁Pré	-3151
▁Trésor	-3152
▁obligations	-3153
▁parlement	-3154
ting	-3155
▁internationaux	-3156
anger	-3157
▁large	-3158
▁activité	-3159
▁fédéraux	-3160
▁présentation	-3161
suite	-3162
▁démocra	-3163
veur	-3164
▁Poli	-3165
mérique	-3166
▁propres	-3167
Un	-3168
lent	-3169
▁état	-3170
▁carb	-3171
▁quali	-3172
▁Europe	-3173
▁distribution	-3174
▁diminu	-3175
bor	-3176
▁actions	-3177
▁analyse	-3178
▁État	-3179
▁obs	-3180
1.	-3181
▁dossier	-3182
euillez	-3183
▁Te	-3184
▁ach	-3185
▁généralement	-3186
19	-3187
gg	-3188
ry	-3189
▁Roy	-3190
▁prog	-3191
▁coordonn	-3192
orisation	-3193
enquête	-3194
ymp	-3195
anci	-3196
tir	-3197
▁mer	-3198
▁source	-3199
▁autom	-3200
OT	-3201
augment	-3202
emb	-3203
▁consac	-3204
▁suivante	-3205
▁stratégiques	-3206
▁â	-3207
▁Saskat	-3208
▁rÃ	-3209
▁Mc	-3210
▁application	-3211
▁responsables	-3212
pt	-3213
rastructure	-3214
cr	-3215
çu	-3216
▁antéri	-3217
▁publication	-3218
▁ensemble	-3219
▁pil	-3220
▁chi	-3221
▁Cela	-3222
▁35	-3223
▁Joh	-3224
▁3.	-3225
▁fréqu	-3226
bation	-3227
rations	-3228
ortu	-3229
▁citoyens	-3230
▁nécessité	-3231
étrang	-3232
▁feu	-3233
▁signal	-3234
umé	-3235
gées	-3236
▁cop	-3237
▁habit	-3238
▁Total	-3239
▁aurait	-3240
▁établissements	-3241
innovation	-3242
▁st	-3243
▁conformité	-3244
erie	-3245
▁officielles	-3246
▁égard	-3247
▁installations	-3248
aliment	-3249
▁prévu	-3250
▁coordination	-3251
▁propositions	-3252
chn	-3253
iver	-3254
orable	-3255
▁histor	-3256
▁régional	-3257
▁parmi	-3258
▁continue	-3259
▁engag	-3260
auteur	-3261
chewan	-3262
▁Avis	-3263
▁série	-3264
▁conservation	-3265
▁aujourd	-3266
ade	-3267
expérience	-3268
▁orient	-3269
applique	-3270
70	-3271
3.	-3272
▁dépôt	-3273
CH	-3274
améliorer	-3275
▁Secrétariat	-3276
▁cyc	-3277
ives	-3278
▁clin	-3279
▁transports	-3280
mise	-3281
▁territori	-3282
▁présenté	-3283
▁surtout	-3284
▁tot	-3285
▁priorité	-3286
▁adap	-3287
▁indic	-3288
uré	-3289
▁civ	-3290
▁lac	-3291
22	-3292
ouverture	-3293
▁commission	-3294
entrée	-3295
▁République	-3296
alogue	-3297
▁rend	-3298
tabilité	-3299
▁pie	-3300
▁locaux	-3301
▁faciliter	-3302
▁protéger	-3303
▁discri	-3304
▁seul	-3305
dessus	-3306
ax	-3307
▁(199	-3308
études	-3309
▁zones	-3310
▁mu	-3311
▁grandes	-3312
étro	-3313
uerre	-3314
étranger	-3315
▁Certa	-3316
ève	-3317
vant	-3318
▁sciences	-3319
▁repro	-3320
▁arr	-3321
▁gu	-3322
▁vas	-3323
▁détaill	-3324
lois	-3325
▁dossiers	-3326
▁Mal	-3327
▁Pub	-3328
vie	-3329
let	-3330
▁<	-3331
▁servir	-3332
idé	-3333
▁dépend	-3334
▁Description	-3335
èque	-3336
gh	-3337
objectif	-3338
▁convention	-3339
▁représente	-3340
lure	-3341
▁chacun	-3342
lications	-3343
-9	-3344
▁haut	-3345
réal	-3346
▁Res	-3347
tances	-3348
PO	-3349
▁appuy	-3350
▁partenariat	-3351
étique	-3352
▁Lorsque	-3353
inc	-3354
▁Nouvelle	-3355
▁tox	-3356
intes	-3357
▁évaluer	-3358
6)	-3359
-00	-3360
uf	-3361
▁propor	-3362
iers	-3363
ia	-3364
▁drog	-3365
▁travailler	-3366
▁test	-3367
▁sommes	-3368
▁TPS	-3369
homme	-3370
aît	-3371
▁proposé	-3372
▁mig	-3373
▁succès	-3374
adresse	-3375
▁Ind	-3376
▁comptes	-3377
▁John	-3378
centage	-3379
▁rémunération	-3380
▁actuelle	-3381
ènes	-3382
▁limité	-3383
▁log	-3384
▁PR	-3385
▁Plan	-3386
▁mor	-3387
▁CE	-3388
▁stoc	-3389
▁outils	-3390
▁IR	-3391
rière	-3392
▁Air	-3393
urgence	-3394
▁collectivité	-3395
intégration	-3396
▁communiquer	-3397
arer	-3398
▁rur	-3399
▁moder	-3400
▁habitu	-3401
▁compter	-3402
▁tran	-3403
OP	-3404
▁Sh	-3405
active	-3406
▁client	-3407
ah	-3408
▁convient	-3409
▁Code	-3410
▁face	-3411
hésion	-3412
▁soli	-3413
-7	-3414
cos	-3415
qués	-3416
80	-3417
esti	-3418
IE	-3419
prétation	-3420
▁Se	-3421
▁tarif	-3422
▁opp	-3423
▁recueil	-3424
ze	-3425
TC	-3426
obtenir	-3427
▁exer	-3428
ché	-3429
▁influ	-3430
onses	-3431
▁chois	-3432
▁Mon	-3433
▁4,	-3434
▁confi	-3435
▁semble	-3436
▁civi	-3437
▁statut	-3438
▁importantes	-3439
▁éner	-3440
▁connexes	-3441
IM	-3442
▁prend	-3443
amp	-3444
▁modèles	-3445
sc	-3446
▁ait	-3447
▁favoriser	-3448
▁volont	-3449
▁particuliers	-3450
▁famili	-3451
▁scol	-3452
▁étudiants	-3453
▁petites	-3454
TA	-3455
▁chiff	-3456
▁milliards	-3457
éta	-3458
▁Montréal	-3459
▁libre	-3460
tocole	-3461
édi	-3462
▁siè	-3463
▁lesquels	-3464
▁civile	-3465
▁difficul	-3466
▁amélior	-3467
▁Affaires	-3468
▁militaire	-3469
▁décrit	-3470
▁scientifique	-3471
▁33	-3472
▁quo	-3473
▁organisme	-3474
▁commentaires	-3475
fie	-3476
▁justice	-3477
hip	-3478
▁préparation	-3479
alth	-3480
▁remplac	-3481
DF	-3482
mon	-3483
ival	-3484
ètres	-3485
urée	-3486
7.	-3487
vous	-3488
▁indépend	-3489
cident	-3490
▁Docu	-3491
▁provinciaux	-3492
12	-3493
isième	-3494
iser	-3495
sionn	-3496
▁auxqu	-3497
euse	-3498
▁caractère	-3499
▁Sain	-3500
anges	-3501
▁orig	-3502
▁écrit	-3503
▁intéri	-3504
▁compétence	-3505
▁naturelles	-3506
▁seule	-3507
▁micro	-3508
▁classi	-3509
aul	-3510
▁taille	-3511
▁tard	-3512
▁exclu	-3513
▁sû	-3514
▁estime	-3515
ANT	-3516
▁Manitoba	-3517
▁bâ	-3518
▁prim	-3519
▁sugg	-3520
▁Comment	-3521
amment	-3522
▁Communauté	-3523
▁augmentation	-3524
▁fabrication	-3525
adap	-3526
cherche	-3527
▁objectif	-3528
▁police	-3529
organisme	-3530
ulle	-3531
▁réseaux	-3532
▁mécanismes	-3533
▁conse	-3534
▁Gestion	-3535
▁principalement	-3536
▁br	-3537
▁raisons	-3538
▁meilleure	-3539
▁producteurs	-3540
▁taxe	-3541
laborer	-3542
▁trop	-3543
oser	-3544
af	-3545
▁paiements	-3546
▁clairement	-3547
▁gro	-3548
atoires	-3549
armon	-3550
étaires	-3551
FP	-3552
idité	-3553
▁disponible	-3554
inform	-3555
▁Projet	-3556
▁appliqu	-3557
veloppement	-3558
loc	-3559
ystème	-3560
▁sud	-3561
▁texte	-3562
▁VIH	-3563
▁mus	-3564
ortation	-3565
tte	-3566
établir	-3567
td	-3568
15	-3569
▁reste	-3570
èle	-3571
face	-3572
sw	-3573
auv	-3574
évalu	-3575
élec	-3576
cement	-3577
agnie	-3578
▁fourni	-3579
▁indique	-3580
▁centrale	-3581
èse	-3582
▁manif	-3583
▁45	-3584
▁coup	-3585
▁connaissance	-3586
adoption	-3587
CR	-3588
▁(1)	-3589
▁limite	-3590
▁lesquelles	-3591
issaire	-3592
▁formulaire	-3593
▁inclu	-3594
▁abs	-3595
lie	-3596
▁Partie	-3597
▁tri	-3598
▁CO	-3599
▁commune	-3600
olume	-3601
▁véhicules	-3602
▁Saskatchewan	-3603
▁réunions	-3604
▁contribuer	-3605
gne	-3606
▁pollu	-3607
▁RE	-3608
agent	-3609
▁administr	-3610
▁Banque	-3611
occasion	-3612
enz	-3613
▁commerciales	-3614
▁détail	-3615
hér	-3616
▁fonctionnaires	-3617
mation	-3618
▁interne	-3619
▁quelque	-3620
▁Ver	-3621
▁bar	-3622
▁adopté	-3623
▁investissements	-3624
ÉS	-3625
▁immédi	-3626
▁centres	-3627
▁pen	-3628
▁consulta	-3629
▁envis	-3630
▁class	-3631
▁500	-3632
▁rembour	-3633
essources	-3634
▁Société	-3635
▁dix	-3636
▁judici	-3637
UM	-3638
▁vic	-3639
▁PAR	-3640
▁conclusions	-3641
rez	-3642
▁+	-3643
▁réalisation	-3644
▁grands	-3645
▁Division	-3646
dex	-3647
▁nomm	-3648
▁affir	-3649
▁IRSC	-3650
tal	-3651
▁juge	-3652
▁compét	-3653
▁brevets	-3654
▁signific	-3655
18	-3656
▁patients	-3657
mob	-3658
▁2004,	-3659
▁faveur	-3660
ork	-3661
arr	-3662
ccord	-3663
▁Dépenses	-3664
lant	-3665
▁avez	-3666
▁réponses	-3667
tables	-3668
▁version	-3669
▁ment	-3670
▁gestionnaires	-3671
copie	-3672
avenir	-3673
national	-3674
▁prévue	-3675
▁ministres	-3676
▁commerciaux	-3677
▁vra	-3678
▁Sud	-3679
▁refus	-3680
▁élément	-3681
24	-3682
orteur	-3683
▁spécifiques	-3684
▁num	-3685
▁phase	-3686
activités	-3687
▁plai	-3688
▁parta	-3689
arde	-3690
oxy	-3691
▁dess	-3692
14	-3693
▁principales	-3694
▁90	-3695
▁comple	-3696
▁Ter	-3697
affaires	-3698
son	-3699
▁fournisseurs	-3700
▁accords	-3701
▁diffici	-3702
▁militaires	-3703
▁supérieur	-3704
ister	-3705
▁relatif	-3706
▁conception	-3707
aume	-3708
▁coll	-3709
▁concep	-3710
▁consultations	-3711
▁mob	-3712
▁Ressources	-3713
▁Acc	-3714
▁Form	-3715
IB	-3716
▁déliv	-3717
▁majorité	-3718
ercussions	-3719
▁classe	-3720
▁consiste	-3721
leur	-3722
▁CANAD	-3723
▁mess	-3724
▁phot	-3725
▁agricoles	-3726
▁certific	-3727
▁Cl	-3728
utri	-3729
▁Après	-3730
▁perf	-3731
ms	-3732
▁expéri	-3733
CS	-3734
▁simil	-3735
UL	-3736
▁direct	-3737
▁ensuite	-3738
inguis	-3739
idement	-3740
gique	-3741
erb	-3742
▁juridiques	-3743
▁2003,	-3744
itement	-3745
▁dipl	-3746
intérieur	-3747
▁produire	-3748
▁permettent	-3749
▁équipe	-3750
ince	-3751
uelle	-3752
▁prép	-3753
▁diversité	-3754
▁04	-3755
▁Arch	-3756
▁limites	-3757
▁mêmes	-3758
▁Mo	-3759
▁envoy	-3760
16	-3761
-199	-3762
▁diffusion	-3763
érant	-3764
▁CH	-3765
13)	-3766
égalité	-3767
ps	-3768
▁rapidement	-3769
aï	-3770
An	-3771
▁transpar	-3772
▁utilisées	-3773
▁sembl	-3774
▁défis	-3775
quoi	-3776
quêtes	-3777
▁Recherche	-3778
▁lettre	-3779
▁moi	-3780
▁éché	-3781
▁énonc	-3782
▁lien	-3783
tenue	-3784
▁privée	-3785
abord	-3786
times	-3787
▁maintien	-3788
23	-3789
tiqu	-3790
orient	-3791
▁animaux	-3792
ulletin	-3793
▁faci	-3794
Organisation	-3795
tenues	-3796
niti	-3797
uels	-3798
▁dû	-3799
▁préal	-3800
▁tenue	-3801
▁2005,	-3802
▁bois	-3803
absence	-3804
échange	-3805
▁physique	-3806
▁présentée	-3807
dis	-3808
▁solutions	-3809
▁Déf	-3810
▁(3	-3811
▁discu	-3812
▁cad	-3813
▁partenariats	-3814
▁DÉ	-3815
▁Annexe	-3816
DC	-3817
▁mariti	-3818
habit	-3819
identif	-3820
exportation	-3821
▁Vo	-3822
▁portée	-3823
II	-3824
▁?	-3825
observ	-3826
ète	-3827
ronti	-3828
ographique	-3829
▁Ainsi	-3830
▁contributions	-3831
ancouver	-3832
ST	-3833
andis	-3834
itable	-3835
▁pouvoirs	-3836
▁évé	-3837
▁uniquement	-3838
▁LES	-3839
▁catégories	-3840
oulant	-3841
idence	-3842
andic	-3843
▁occup	-3844
▁continuer	-3845
▁exter	-3846
▁consulter	-3847
▁commerciale	-3848
▁95	-3849
QUE	-3850
▁faits	-3851
▁anci	-3852
▁Sous	-3853
▁Forces	-3854
▁ouv	-3855
clusion	-3856
▁mises	-3857
swick	-3858
roris	-3859
runswick	-3860
▁New	-3861
▁veu	-3862
▁échantill	-3863
▁capit	-3864
exposition	-3865
▁cependant	-3866
▁san	-3867
▁négociations	-3868
▁fu	-3869
▁couv	-3870
▁instruments	-3871
cosse	-3872
fique	-3873
▁Dr	-3874
▁Unies	-3875
▁étro	-3876
▁constituent	-3877
▁subventions	-3878
ouvez	-3879
pection	-3880
nés	-3881
▁difficile	-3882
▁exige	-3883
▁proportion	-3884
install	-3885
tence	-3886
▁Politique	-3887
▁Tous	-3888
▁trouv	-3889
andicap	-3890
▁--	-3891
▁démar	-3892
appliqu	-3893
97	-3894
OU	-3895
▁Pa	-3896
▁adéqu	-3897
▁chau	-3898
▁Eng	-3899
▁aura	-3900
Accord	-3901
▁1996	-3902
▁Statis	-3903
titution	-3904
effet	-3905
cie	-3906
▁pied	-3907
▁familles	-3908
▁atteindre	-3909
ureaux	-3910
▁information	-3911
eter	-3912
▁retraite	-3913
▁manque	-3914
▁déchets	-3915
▁Autochtones	-3916
▁admissibles	-3917
DU	-3918
▁Depuis	-3919
▁2002,	-3920
▁imprim	-3921
lande	-3922
▁AN	-3923
9.	-3924
tier	-3925
ffich	-3926
cide	-3927
▁Association	-3928
Ass	-3929
▁Terre	-3930
▁ON	-3931
▁`	-3932
Université	-3933
oids	-3934
ographie	-3935
lioth	-3936
▁répercussions	-3937
▁handicap	-3938
çant	-3939
▁00	-3940
▁mét	-3941
▁dès	-3942
érés	-3943
odiff	-3944
▁forces	-3945
▁assu	-3946
▁champ	-3947
▁expos	-3948
ôm	-3949
▁régionaux	-3950
▁labor	-3951
▁brevet	-3952
erm	-3953
▁directives	-3954
▁accr	-3955
▁Nouveau	-3956
dor	-3957
▁lead	-3958
▁Saint	-3959
taire	-3960
▁perspec	-3961
hon	-3962
évolution	-3963
dite	-3964
67	-3965
tez	-3966
▁x	-3967
▁Ren	-3968
▁Indi	-3969
▁Vancouver	-3970
▁(613)	-3971
▁emb	-3972
▁subvention	-3973
▁Cap	-3974
▁quantité	-3975
formes	-3976
frique	-3977
SS	-3978
autorisation	-3979
ile	-3980
▁solution	-3981
▁efficaces	-3982
orth	-3983
gations	-3984
▁Ins	-3985
28	-3986
▁renv	-3987
▁locales	-3988
html	-3989
▁pourcentage	-3990
▁restric	-3991
commun	-3992
QU	-3993
▁4.	-3994
▁statistiques	-3995
ood	-3996
initiative	-3997
▁Divulgation	-3998
▁ville	-3999
▁70	-4000
▁description	-4001
Alberta	-4002
oss	-4003
▁PE	-4004
▁(2)	-4005
▁gouvernementaux	-4006
rité	-4007
▁Che	-4008
▁agricole	-4009
▁connaître	-4010
amais	-4011
gén	-4012
▁Président	-4013
▁prêts	-4014
▁engagements	-4015
▁Nombre	-4016
▁Mac	-4017
▁Pers	-4018
▁associés	-4019
▁80	-4020
itant	-4021
▁extra	-4022
▁proc	-4023
▁crimin	-4024
▁résultat	-4025
intervention	-4026
chement	-4027
▁maintenir	-4028
▁sauv	-4029
▁contenant	-4030
ern	-4031
extérieur	-4032
▁5,	-4033
▁révis	-4034
isition	-4035
▁troisième	-4036
▁étrangères	-4037
▁professionnelle	-4038
AF	-4039
▁genre	-4040
▁résolution	-4041
▁circonstances	-4042
▁dÃ	-4043
ly	-4044
DN	-4045
▁accessib	-4046
▁principale	-4047
(2)	-4048
▁générales	-4049
GR	-4050
▁élector	-4051
ome	-4052
-03	-4053
▁là	-4054
▁export	-4055
enci	-4056
▁code	-4057
▁comprennent	-4058
▁jury	-4059
accueil	-4060
once	-4061
▁sauf	-4062
érone	-4063
heure	-4064
▁totale	-4065
▁passé	-4066
▁haute	-4067
▁action	-4068
▁2006,	-4069
▁France	-4070
▁34	-4071
▁pouvez	-4072
▁modifier	-4073
▁cotis	-4074
▁quand	-4075
Amérique	-4076
▁guerre	-4077
▁jamais	-4078
▁addition	-4079
▁urb	-4080
▁concours	-4081
▁passe	-4082
▁candidat	-4083
▁essentiel	-4084
▁territoires	-4085
avait	-4086
▁2001,	-4087
▁radiodiff	-4088
duit	-4089
▁obstac	-4090
fié	-4091
▁titulaire	-4092
asp	-4093
euve	-4094
qui	-4095
▁%)	-4096
▁quelle	-4097
migration	-4098
▁observations	-4099
atte	-4100
▁combin	-4101
▁rue	-4102
ussion	-4103
▁relation	-4104
▁proactive	-4105
▁rendu	-4106
▁command	-4107
▁recru	-4108
▁suivre	-4109
▁allé	-4110
enant	-4111
▁obtenu	-4112
tlantique	-4113
▁blan	-4114
▁nutri	-4115
indi	-4116
▁étrangers	-4117
▁fich	-4118
▁Pl	-4119
▁Cal	-4120
▁vu	-4121
▁Royaume	-4122
vec	-4123
augmentation	-4124
visionnement	-4125
▁applicables	-4126
cure	-4127
▁appor	-4128
▁Directeur	-4129
▁seraient	-4130
▁publié	-4131
▁rivi	-4132
▁ici	-4133
▁artis	-4134
▁Nation	-4135
▁fondée	-4136
-10	-4137
▁soutenir	-4138
▁permanent	-4139
▁susceptibles	-4140
▁amp	-4141
▁fournis	-4142
▁pharm	-4143
▁sociales	-4144
▁utilisée	-4145
▁III	-4146
▁origin	-4147
▁crédits	-4148
▁Ma	-4149
▁sex	-4150
▁remboursement	-4151
▁Sal	-4152
▁plainte	-4153
▁conférence	-4154
▁remar	-4155
▁sujets	-4156
▁pap	-4157
arité	-4158
▁utilisateurs	-4159
effec	-4160
▁pleine	-4161
▁mort	-4162
PA	-4163
▁cellu	-4164
17	-4165
▁chemin	-4166
sive	-4167
▁tempor	-4168
▁bis	-4169
▁32	-4170
cle	-4171
▁initiative	-4172
▁Cet	-4173
ID	-4174
▁enquête	-4175
▁net	-4176
uclé	-4177
▁forte	-4178
@@	-4179
▁ul	-4180
▁tandis	-4181
▁Téléphone	-4182
nité	-4183
▁bou	-4184
aie	-4185
▁adul	-4186
ed	-4187
ma	-4188
▁rapide	-4189
▁garantir	-4190
▁thé	-4191
▁discrimination	-4192
GC	-4193
▁bureaux	-4194
▁(4	-4195
duire	-4196
▁terrain	-4197
▁professionnel	-4198
▁Rus	-4199
▁chimiques	-4200
▁représentent	-4201
▁généraux	-4202
▁renforcement	-4203
▁,	-4204
tori	-4205
▁volume	-4206
▁endro	-4207
erté	-4208
▁distinc	-4209
▁semaine	-4210
égi	-4211
ériques	-4212
▁plaign	-4213
▁poids	-4214
▁faud	-4215
AB	-4216
▁appare	-4217
▁pension	-4218
▁Plus	-4219
employé	-4220
▁spécifique	-4221
▁Défense	-4222
▁violence	-4223
▁respecter	-4224
▁Dis	-4225
dé	-4226
▁36	-4227
ership	-4228
oblig	-4229
▁Ou	-4230
▁Exp	-4231
▁intérieur	-4232
▁Mes	-4233
fon	-4234
istence	-4235
▁défic	-4236
▁radio	-4237
▁puisse	-4238
▁mondial	-4239
tidi	-4240
Écosse	-4241
▁utilisation	-4242
▁développer	-4243
amb	-4244
Brunswick	-4245
▁supplémentaire	-4246
▁bâti	-4247
▁perte	-4248
▁augmenté	-4249
8.	-4250
erce	-4251
utiliser	-4252
▁audi	-4253
▁surface	-4254
arc	-4255
▁terre	-4256
nance	-4257
engagement	-4258
ok	-4259
▁Imp	-4260
Neuve	-4261
▁domm	-4262
▁subs	-4263
▁dirige	-4264
▁semaines	-4265
▁alimentaire	-4266
▁Document	-4267
▁pouvant	-4268
▁réaliser	-4269
itent	-4270
▁linguis	-4271
▁lieux	-4272
▁complète	-4273
▁concentrations	-4274
▁tempéra	-4275
llem	-4276
▁drogues	-4277
dessous	-4278
▁effectué	-4279
▁Dem	-4280
▁objet	-4281
▁recettes	-4282
cemment	-4283
▁premiers	-4284
▁nomination	-4285
▁contient	-4286
ukon	-4287
▁mention	-4288
ses	-4289
▁plein	-4290
▁marques	-4291
sif	-4292
▁FC	-4293
▁Section	-4294
▁spécial	-4295
▁contrats	-4296
▁communes	-4297
Association	-4298
environ	-4299
▁tiss	-4300
Institut	-4301
hist	-4302
▁Ste	-4303
▁traiter	-4304
ministre	-4305
▁tabac	-4306
▁chargé	-4307
▁Mais	-4308
til	-4309
▁confiance	-4310
PR	-4311
▁réforme	-4312
▁37	-4313
approbation	-4314
▁complément	-4315
▁sensibilisation	-4316
asser	-4317
ativement	-4318
▁2000,	-4319
▁différences	-4320
▁révision	-4321
▁faite	-4322
▁fronti	-4323
▁spec	-4324
jus	-4325
▁somm	-4326
▁Environnement	-4327
Can	-4328
▁att	-4329
▁75	-4330
▁perfection	-4331
copieur	-4332
ata	-4333
▁hausse	-4334
▁évaluations	-4335
▁répondants	-4336
larg	-4337
poth	-4338
sec	-4339
ynam	-4340
▁ban	-4341
▁humaine	-4342
rite	-4343
less	-4344
▁vir	-4345
▁retr	-4346
7)	-4347
umer	-4348
▁terroris	-4349
ley	-4350
▁renouvel	-4351
▁traités	-4352
35	-4353
26	-4354
▁conforme	-4355
▁fabric	-4356
▁cycle	-4357
ATI	-4358
Qu	-4359
anie	-4360
mont	-4361
erg	-4362
▁tex	-4363
▁somme	-4364
change	-4365
▁fort	-4366
▁naturel	-4367
▁préoccupations	-4368
enn	-4369
▁potentiel	-4370
▁offerts	-4371
▁norme	-4372
appliquer	-4373
▁pétro	-4374
▁discussions	-4375
▁publications	-4376
▁concentration	-4377
agers	-4378
▁Chine	-4379
▁fé	-4380
dation	-4381
▁Développement	-4382
▁final	-4383
▁Ltd	-4384
liers	-4385
▁ordin	-4386
▁modalités	-4387
orientation	-4388
▁partage	-4389
enser	-4390
▁départ	-4391
céans	-4392
▁visés	-4393
▁patrimoine	-4394
bi	-4395
examin	-4396
▁Archives	-4397
▁38	-4398
atement	-4399
▁électroniques	-4400
▁prévus	-4401
▁International	-4402
ôts	-4403
▁recommandation	-4404
▁Reg	-4405
usage	-4406
même	-4407
▁travers	-4408
étiques	-4409
▁Tout	-4410
▁recevoir	-4411
▁Univers	-4412
▁post	-4413
▁régionale	-4414
lèves	-4415
▁Tableau	-4416
▁destinés	-4417
▁globale	-4418
▁tâches	-4419
▁contract	-4420
▁veiller	-4421
▁Corp	-4422
▁tent	-4423
espèce	-4424
▁longue	-4425
▁derniers	-4426
▁européennes	-4427
▁Yukon	-4428
▁conséquences	-4429
▁Deux	-4430
▁examiner	-4431
▁pièces	-4432
▁Afin	-4433
▁sond	-4434
▁abord	-4435
66	-4436
▁Cor	-4437
▁TR	-4438
95	-4439
▁consultatif	-4440
▁Table	-4441
SP	-4442
ina	-4443
▁vaste	-4444
▁offrir	-4445
▁route	-4446
▁actuel	-4447
CN	-4448
▁dimen	-4449
▁formes	-4450
infrastructure	-4451
▁Somm	-4452
impact	-4453
▁liberté	-4454
rement	-4455
▁régimes	-4456
▁mécanisme	-4457
▁Résul	-4458
ographiques	-4459
▁témoi	-4460
▁conclusion	-4461
atri	-4462
▁élevés	-4463
équipement	-4464
▁Stratégie	-4465
▁répartition	-4466
▁44	-4467
▁lan	-4468
▁Journ	-4469
IG	-4470
▁1995	-4471
▁intro	-4472
ych	-4473
ices	-4474
habitat	-4475
▁raisonnable	-4476
▁infec	-4477
▁jeu	-4478
▁paix	-4479
▁chacune	-4480
▁Conférence	-4481
rants	-4482
▁facteur	-4483
endu	-4484
fer	-4485
osp	-4486
▁susp	-4487
itÃ	-4488
va	-4489
▁local	-4490
ÉR	-4491
▁(8	-4492
▁Avant	-4493
▁Cré	-4494
▁reconnaissance	-4495
▁Même	-4496
▁visée	-4497
▁atteint	-4498
9)	-4499
llemagne	-4500
▁quotidi	-4501
▁congé	-4502
tiennent	-4503
▁presse	-4504
pos	-4505
▁Budg	-4506
▁propose	-4507
▁importations	-4508
▁session	-4509
▁Pri	-4510
▁ir	-4511
érap	-4512
▁arb	-4513
▁parents	-4514
▁Guide	-4515
isent	-4516
▁Fran	-4517
nisation	-4518
▁élaborer	-4519
uler	-4520
▁Rob	-4521
▁pourquoi	-4522
fe	-4523
imposition	-4524
▁Courriel	-4525
autorité	-4526
▁utilisant	-4527
27	-4528
▁1990	-4529
agriculture	-4530
▁applicable	-4531
▁Sch	-4532
▁donnée	-4533
▁Canadiennes	-4534
▁montants	-4535
IV	-4536
rs	-4537
▁Institu	-4538
appelant	-4539
▁Br	-4540
▁motifs	-4541
▁dialogue	-4542
ana	-4543
resser	-4544
▁interpr	-4545
▁Lim	-4546
▁récemment	-4547
entente	-4548
▁Alberta	-4549
tablissement	-4550
▁réserves	-4551
▁commercial	-4552
▁regr	-4553
▁exportations	-4554
amme	-4555
▁Per	-4556
▁annuelle	-4557
fait	-4558
▁dén	-4559
▁comportement	-4560
aw	-4561
accent	-4562
▁utile	-4563
réci	-4564
essai	-4565
iseaux	-4566
▁lit	-4567
timé	-4568
appliquent	-4569
▁enj	-4570
▁provis	-4571
▁identifi	-4572
43	-4573
duits	-4574
▁compréh	-4575
▁employé	-4576
▁RÉ	-4577
AA	-4578
▁humains	-4579
existence	-4580
▁Health	-4581
▁degré	-4582
lation	-4583
▁]	-4584
▁certaine	-4585
▁discussion	-4586
▁cellules	-4587
ki	-4588
jud	-4589
▁nuclé	-4590
mosph	-4591
▁bass	-4592
▁1994	-4593
▁Po	-4594
crits	-4595
▁régionales	-4596
etage	-4597
▁porter	-4598
▁appui	-4599
▁court	-4600
évaluer	-4601
▁ventes	-4602
▁Certains	-4603
▁sys	-4604
▁tendance	-4605
▁hydro	-4606
▁mouve	-4607
▁transformation	-4608
▁vég	-4609
RES	-4610
▁prol	-4611
▁vacc	-4612
mblab	-4613
▁déterminé	-4614
▁1)	-4615
▁alimentaires	-4616
▁Sou	-4617
▁amen	-4618
vres	-4619
▁équip	-4620
▁Liens	-4621
▁essais	-4622
quée	-4623
▁superv	-4624
-02	-4625
▁suis	-4626
▁force	-4627
▁figure	-4628
▁plaintes	-4629
▁compéti	-4630
apon	-4631
▁Non	-4632
Inter	-4633
▁Lorsqu	-4634
▁Ministre	-4635
▁accroître	-4636
▁créé	-4637
▁puisque	-4638
aise	-4639
▁dispos	-4640
échantill	-4641
ôles	-4642
▁structures	-4643
▁Entre	-4644
acquisition	-4645
▁conséquence	-4646
▁gérer	-4647
▁prélimin	-4648
istan	-4649
▁enquêtes	-4650
45	-4651
▁puissent	-4652
▁participé	-4653
▁étapes	-4654
▁radiodiffusion	-4655
/00	-4656
▁Lab	-4657
▁immob	-4658
▁fru	-4659
▁bord	-4660
▁précise	-4661
▁cancer	-4662
▁SUR	-4663
▁médicaux	-4664
angere	-4665
▁fidu	-4666
▁sépar	-4667
▁exerc	-4668
▁jo	-4669
▁faibles	-4670
▁poisson	-4671
▁Mise	-4672
matique	-4673
▁décidé	-4674
▁demeure	-4675
joint	-4676
▁Enfin	-4677
nitiative	-4678
▁correc	-4679
▁Am	-4680
96	-4681
▁Canadian	-4682
▁veuillez	-4683
▁lum	-4684
▁difficultés	-4685
enseignements	-4686
▁ordonn	-4687
▁prestat	-4688
▁échéant	-4689
inion	-4690
▁juste	-4691
Atlantique	-4692
".	-4693
▁payer	-4694
▁collecte	-4695
▁remplir	-4696
▁administratives	-4697
▁débat	-4698
▁culturelles	-4699
▁campagne	-4700
▁indicateurs	-4701
▁cadres	-4702
▁65	-4703
▁élections	-4704
arie	-4705
▁courant	-4706
▁Elles	-4707
expression	-4708
outes	-4709
▁requis	-4710
▁préserv	-4711
▁assujet	-4712
CEE	-4713
▁préalable	-4714
▁officielle	-4715
rastructures	-4716
die	-4717
▁bo	-4718
-11	-4719
75	-4720
▁expérience	-4721
▁Information	-4722
▁conver	-4723
be	-4724
vers	-4725
▁possibles	-4726
-05	-4727
eront	-4728
▁5.	-4729
▁prêt	-4730
▁Parti	-4731
▁comités	-4732
21	-4733
▁suc	-4734
▁petits	-4735
ôp	-4736
cool	-4737
orti	-4738
▁mode	-4739
▁modifié	-4740
inqu	-4741
▁fédérales	-4742
",	-4743
▁constitution	-4744
achat	-4745
▁va	-4746
▁syndic	-4747
▁énergé	-4748
▁sept	-4749
cidents	-4750
▁vit	-4751
▁tient	-4752
▁situations	-4753
▁Mus	-4754
rador	-4755
éder	-4756
tendre	-4757
▁particulière	-4758
▁University	-4759
tén	-4760
33	-4761
▁Pe	-4762
▁6,	-4763
abin	-4764
ycl	-4765
▁Ge	-4766
▁Voir	-4767
▁extr	-4768
▁mag	-4769
▁figurant	-4770
▁Régi	-4771
ilibre	-4772
▁prior	-4773
lits	-4774
▁Gen	-4775
▁dangere	-4776
énagement	-4777
▁contraire	-4778
▁certificat	-4779
TS	-4780
▁élèves	-4781
▁premières	-4782
rig	-4783
▁mér	-4784
moins	-4785
▁table	-4786
cellence	-4787
exemp	-4788
▁Budget	-4789
▁définir	-4790
▁événements	-4791
▁Première	-4792
**	-4793
médiaire	-4794
▁senti	-4795
▁pau	-4796
▁entente	-4797
▁presque	-4798
▁secré	-4799
▁télécommun	-4800
▁Dro	-4801
▁bande	-4802
▁tendances	-4803
▁réuss	-4804
▁Mich	-4805
▁Chaque	-4806
entretien	-4807
▁gouvernance	-4808
rimé	-4809
▁Aux	-4810
▁Parmi	-4811
▁liqu	-4812
fiés	-4813
rid	-4814
▁vote	-4815
▁Trav	-4816
▁)	-4817
▁55	-4818
ited	-4819
▁salari	-4820
▁contamin	-4821
▁combus	-4822
▁Transports	-4823
tÃ	-4824
▁2005.	-4825
▁devra	-4826
▁navig	-4827
▁européens	-4828
incidence	-4829
▁autant	-4830
▁guide	-4831
▁atta	-4832
▁bless	-4833
obligation	-4834
▁ii	-4835
88	-4836
▁visi	-4837
▁inten	-4838
▁red	-4839
▁2004.	-4840
▁poursuivre	-4841
Environnement	-4842
▁ententes	-4843
▁garde	-4844
rup	-4845
chés	-4846
▁transmission	-4847
tente	-4848
lut	-4849
▁spor	-4850
▁suffisamment	-4851
▁accrue	-4852
▁lumière	-4853
▁logici	-4854
▁victimes	-4855
▁historique	-4856
▁Ab	-4857
▁Version	-4858
▁Renseignements	-4859
ERS	-4860
urés	-4861
▁paragraph	-4862
▁considéré	-4863
tine	-4864
▁compréhension	-4865
irmi	-4866
▁locale	-4867
▁dér	-4868
▁petite	-4869
▁85	-4870
enc	-4871
▁classification	-4872
uffis	-4873
idente	-4874
criptions	-4875
auche	-4876
aur	-4877
▁CC	-4878
titulé	-4879
▁Évaluation	-4880
▁poissons	-4881
▁dispose	-4882
▁dynam	-4883
▁exempl	-4884
itations	-4885
-06	-4886
▁examiné	-4887
▁mener	-4888
94	-4889
▁enseign	-4890
▁adultes	-4891
▁plac	-4892
▁détails	-4893
▁hors	-4894
affaire	-4895
▁exception	-4896
-04	-4897
▁CANADA	-4898
▁bénév	-4899
▁chaî	-4900
▁intérêt	-4901
ulaires	-4902
▁conflits	-4903
▁fl	-4904
▁stim	-4905
--------	-4906
importation	-4907
▁diffus	-4908
▁Russie	-4909
approche	-4910
MC	-4911
experts	-4912
▁logement	-4913
liqué	-4914
▁Grand	-4915
»,	-4916
ouest	-4917
▁copie	-4918
▁Charte	-4919
▁élevée	-4920
▁reti	-4921
▁perform	-4922
exig	-4923
▁circulation	-4924
▁(5	-4925
▁AD	-4926
erait	-4927
▁Parcs	-4928
▁internes	-4929
mar	-4930
▁7,	-4931
▁baisse	-4932
▁importance	-4933
len	-4934
ultures	-4935
ald	-4936
▁Ann	-4937
▁uni	-4938
offre	-4939
▁Du	-4940
▁faites	-4941
prés	-4942
▁nette	-4943
▁gamme	-4944
▁pêches	-4945
inspection	-4946
atéra	-4947
▁Gouvernement	-4948
▁lec	-4949
▁transition	-4950
▁visées	-4951
Québec	-4952
▁conjoint	-4953
char	-4954
aleur	-4955
ctu	-4956
adaptation	-4957
assistance	-4958
▁2006.	-4959
▁engagement	-4960
▁hom	-4961
ae	-4962
oule	-4963
▁PME	-4964
▁appuyer	-4965
▁pourra	-4966
▁traditionnels	-4967
▁effectuées	-4968
employeur	-4969
▁probablement	-4970
audi	-4971
del	-4972
▁Paci	-4973
▁arri	-4974
venue	-4975
▁GRC	-4976
▁maritime	-4977
entreprises	-4978
▁réception	-4979
interprétation	-4980
▁2003.	-4981
▁financ	-4982
▁couver	-4983
▁navires	-4984
▁devait	-4985
▁réalisés	-4986
▁eur	-4987
AV	-4988
-12	-4989
aill	-4990
▁rivière	-4991
honorable	-4992
ED	-4993
▁1999,	-4994
agnos	-4995
▁cess	-4996
ochtone	-4997
▁procéder	-4998
lish	-4999
▁carte	-5000
▁Chambre	-5001
▁43	-5002
ries	-5003
▁Force	-5004
MI	-5005
aliser	-5006
uire	-5007
▁déclarations	-5008
vid	-5009
énom	-5010
▁contact	-5011
endra	-5012
/3	-5013
nous	-5014
oni	-5015
accep	-5016
meub	-5017
ype	-5018
▁effectuer	-5019
▁leadership	-5020
▁simple	-5021
▁universités	-5022
ple	-5023
▁minimum	-5024
ical	-5025
▁196	-5026
entement	-5027
▁rappel	-5028
▁délais	-5029
▁paragraphes	-5030
argent	-5031
▁maximum	-5032
▁isol	-5033
▁parlementaire	-5034
▁approuvé	-5035
histoire	-5036
▁préparer	-5037
asi	-5038
can	-5039
▁SC	-5040
▁affich	-5041
oriz	-5042
▁active	-5043
▁complet	-5044
▁comport	-5045
ION	-5046
▁empê	-5047
▁unités	-5048
▁Système	-5049
tiers	-5050
df	-5051
autom	-5052
▁vérifier	-5053
▁mg	-5054
.00	-5055
▁Consul	-5056
oyer	-5057
▁conduite	-5058
▁corre	-5059
▁présentées	-5060
cum	-5061
▁associations	-5062
▁extéri	-5063
▁Pê	-5064
▁Que	-5065
▁équival	-5066
▁présentés	-5067
▁respectivement	-5068
▁établies	-5069
▁Pays	-5070
▁biais	-5071
▁établie	-5072
▁Page	-5073
▁Is	-5074
▁douanes	-5075
▁48	-5076
blement	-5077
unav	-5078
▁décès	-5079
▁Recommand	-5080
▁présentes	-5081
trib	-5082
▁Ni	-5083
▁AM	-5084
cides	-5085
▁devenir	-5086
▁vul	-5087
ômage	-5088
▁enjeux	-5089
▁cohér	-5090
▁moiti	-5091
▁sexe	-5092
aliers	-5093
▁titres	-5094
▁élabor	-5095
▁Pra	-5096
▁collab	-5097
▁industries	-5098
vin	-5099
▁diver	-5100
▁PDF	-5101
▁Bi	-5102
▁infra	-5103
▁confidenti	-5104
férences	-5105
éral	-5106
érées	-5107
▁touchant	-5108
ennet	-5109
▁recrutement	-5110
▁stock	-5111
old	-5112
▁asse	-5113
sych	-5114
érée	-5115
▁documentation	-5116
▁retour	-5117
▁liti	-5118
▁officiel	-5119
▁Patrimoine	-5120
▁vision	-5121
sivement	-5122
▁obtenus	-5123
▁provincial	-5124
PL	-5125
mping	-5126
édération	-5127
▁détermination	-5128
▁envers	-5129
▁AR	-5130
▁présentent	-5131
cédent	-5132
▁pauvre	-5133
dou	-5134
▁commis	-5135
▁parfois	-5136
▁substance	-5137
▁Pol	-5138
▁écoles	-5139
▁demandeur	-5140
fr	-5141
▁transform	-5142
▁exercice	-5143
▁indiquer	-5144
ral	-5145
prit	-5146
▁bib	-5147
▁compagnie	-5148
▁2)	-5149
▁pertinents	-5150
ourg	-5151
quent	-5152
atta	-5153
▁échanges	-5154
▁considération	-5155
hau	-5156
ju	-5157
AIN	-5158
▁importe	-5159
licite	-5160
▁montre	-5161
▁emplois	-5162
▁North	-5163
oudre	-5164
affec	-5165
earch	-5166
▁moitié	-5167
▁francop	-5168
VH	-5169
▁2007,	-5170
▁étape	-5171
dent	-5172
rimer	-5173
▁mentionné	-5174
▁transparence	-5175
▁habituellement	-5176
doc	-5177
▁annoncé	-5178
informations	-5179
▁rent	-5180
▁mén	-5181
IF	-5182
orde	-5183
48	-5184
▁conç	-5185
▁commissaire	-5186
▁eth	-5187
▁différence	-5188
».	-5189
ERV	-5190
ATIONS	-5191
▁pouvait	-5192
▁aérienne	-5193
▁pollution	-5194
▁systé	-5195
onction	-5196
onnage	-5197
▁autochtone	-5198
▁ate	-5199
tricité	-5200
▁effectuée	-5201
▁téléphone	-5202
▁particulières	-5203
illi	-5204
.5	-5205
▁passer	-5206
▁meilleur	-5207
▁actuelles	-5208
▁Et	-5209
▁licences	-5210
gène	-5211
▁élimin	-5212
▁télévision	-5213
intro	-5214
▁toxic	-5215
▁neuf	-5216
installation	-5217
▁laboratoire	-5218
▁pér	-5219
▁cultures	-5220
▁tribunal	-5221
▁culturel	-5222
▁supérieure	-5223
acts	-5224
éronefs	-5225
▁décla	-5226
▁mach	-5227
▁intégrée	-5228
▁passage	-5229
▁proté	-5230
▁indiquent	-5231
onnées	-5232
▁Tél	-5233
vidus	-5234
▁souff	-5235
▁sport	-5236
ètre	-5237
▁sang	-5238
▁aient	-5239
▁reconnu	-5240
▁Ret	-5241
▁stabilité	-5242
▁jouer	-5243
▁médecins	-5244
▁précédente	-5245
anmoins	-5246
▁participant	-5247
-07	-5248
adhésion	-5249
▁vér	-5250
▁POUR	-5251
▁erre	-5252
▁physi	-5253
opération	-5254
▁missions	-5255
▁pression	-5256
SION	-5257
▁venir	-5258
▁options	-5259
▁inves	-5260
▁Déclar	-5261
iment	-5262
▁2002.	-5263
examiner	-5264
▁COMM	-5265
▁nouvel	-5266
▁Sci	-5267
ortateurs	-5268
▁compens	-5269
▁obstacles	-5270
immigration	-5271
▁tirer	-5272
▁favor	-5273
itée	-5274
▁pous	-5275
roph	-5276
utes	-5277
ORT	-5278
▁amb	-5279
▁inscrit	-5280
46	-5281
perçu	-5282
uté	-5283
▁nour	-5284
▁auxquels	-5285
▁obligatoire	-5286
▁300	-5287
▁remplacement	-5288
urg	-5289
▁Université	-5290
▁publicité	-5291
erti	-5292
▁Cent	-5293
équité	-5294
▁47	-5295
▁diagnos	-5296
▁global	-5297
▁auteurs	-5298
▁Ed	-5299
lisation	-5300
▁sy	-5301
▁établissement	-5302
91	-5303
▁revend	-5304
▁gouverne	-5305
▁soulev	-5306
▁commencé	-5307
▁découlant	-5308
économ	-5309
▁Nunav	-5310
▁banques	-5311
oure	-5312
▁usage	-5313
école	-5314
▁poly	-5315
venus	-5316
aider	-5317
influ	-5318
▁actifs	-5319
tissement	-5320
▁température	-5321
fiée	-5322
OMC	-5323
▁mém	-5324
▁connu	-5325
▁iss	-5326
▁finances	-5327
▁diminution	-5328
▁fourniture	-5329
▁Statistique	-5330
tribue	-5331
▁innov	-5332
▁signifie	-5333
▁accompagn	-5334
▁Commerce	-5335
▁judiciaire	-5336
▁complé	-5337
▁commande	-5338
▁visé	-5339
▁supérieurs	-5340
seurs	-5341
▁mauv	-5342
▁devront	-5343
nant	-5344
▁périodes	-5345
▁convain	-5346
▁rédi	-5347
▁satisfait	-5348
▁protocole	-5349
▁ray	-5350
unité	-5351
▁CS	-5352
▁Haut	-5353
identification	-5354
▁EX	-5355
▁assez	-5356
▁soutenu	-5357
▁réglementaires	-5358
▁Cro	-5359
▁maison	-5360
▁résidence	-5361
CO	-5362
▁01	-5363
crire	-5364
▁profit	-5365
▁experts	-5366
▁voul	-5367
uelles	-5368
▁aérien	-5369
La	-5370
abinet	-5371
▁Site	-5372
hydro	-5373
iration	-5374
▁admissible	-5375
contre	-5376
▁déploy	-5377
▁industrielle	-5378
oses	-5379
▁souligne	-5380
▁rig	-5381
44	-5382
▁appu	-5383
65	-5384
▁Paragraphe	-5385
▁trouvent	-5386
▁fixe	-5387
▁doute	-5388
ège	-5389
▁considère	-5390
yle	-5391
▁pauvreté	-5392
▁pourront	-5393
IP	-5394
▁bases	-5395
liothèque	-5396
çons	-5397
▁aéro	-5398
anne	-5399
▁Région	-5400
▁Son	-5401
▁partout	-5402
▁Justification	-5403
ystèmes	-5404
▁culturelle	-5405
▁bénéficiaires	-5406
lies	-5407
▁DG	-5408
▁papier	-5409
▁approfon	-5410
▁exemples	-5411
IA	-5412
▁carrière	-5413
▁francoph	-5414
93	-5415
utés	-5416
▁élaboré	-5417
▁manifest	-5418
étaient	-5419
▁2005-200	-5420
BL	-5421
tures	-5422
▁pilo	-5423
▁2004-200	-5424
▁Compte	-5425
▁conflit	-5426
admissib	-5427
▁incidence	-5428
édition	-5429
▁décide	-5430
observation	-5431
▁roy	-5432
▁téléph	-5433
92	-5434
ium	-5435
ka	-5436
aceu	-5437
▁prolong	-5438
▁relève	-5439
▁Rapports	-5440
Est	-5441
alcool	-5442
▁Agence	-5443
▁laiss	-5444
FR	-5445
▁organ	-5446
EUR	-5447
▁assure	-5448
mée	-5449
▁foresti	-5450
▁PCT	-5451
illers	-5452
▁collèg	-5453
identité	-5454
▁Be	-5455
▁communs	-5456
▁aqu	-5457
▁restre	-5458
▁41	-5459
▁Résultats	-5460
▁analyses	-5461
anim	-5462
▁OU	-5463
▁indem	-5464
hib	-5465
▁Toutes	-5466
▁interventions	-5467
▁veut	-5468
▁milieux	-5469
ITÉ	-5470
▁immédiatement	-5471
néra	-5472
effectu	-5473
▁auquel	-5474
viennent	-5475
CTION	-5476
▁réaction	-5477
▁poursuiv	-5478
▁antérieure	-5479
titudes	-5480
▁let	-5481
▁taxes	-5482
▁menées	-5483
oirs	-5484
▁noter	-5485
▁liée	-5486
▁souligné	-5487
▁Publications	-5488
▁Autre	-5489
▁proposée	-5490
▁flu	-5491
Ad	-5492
isant	-5493
▁don	-5494
▁Finances	-5495
▁lâ	-5496
▁Inf	-5497
▁côté	-5498
outi	-5499
icile	-5500
uisse	-5501
arts	-5502
▁Aide	-5503
▁petit	-5504
.10	-5505
▁peuples	-5506
ish	-5507
las	-5508
▁actuels	-5509
temps	-5510
▁pertes	-5511
▁minorités	-5512
▁SOC	-5513
exception	-5514
tec	-5515
▁Win	-5516
entiel	-5517
▁satisfaction	-5518
▁Esp	-5519
▁cho	-5520
▁Pêches	-5521
▁inclure	-5522
▁cat	-5523
▁infirmi	-5524
ANS	-5525
▁clé	-5526
▁recouv	-5527
▁chiffres	-5528
delà	-5529
▁illus	-5530
▁immig	-5531
▁discip	-5532
▁effectués	-5533
mestre	-5534
▁prÃ	-5535
▁pron	-5536
▁Pacifique	-5537
▁Lac	-5538
▁super	-5539
▁harmon	-5540
sible	-5541
▁format	-5542
dom	-5543
47	-5544
AIRE	-5545
▁EUR	-5546
▁rac	-5547
élection	-5548
▁tests	-5549
▁pages	-5550
▁numérique	-5551
▁budgétaire	-5552
tifier	-5553
otechn	-5554
éthique	-5555
▁bru	-5556
▁88	-5557
▁réduit	-5558
▁Bo	-5559
▁pleinement	-5560
▁éviter	-5561
enfant	-5562
▁similaires	-5563
lem	-5564
▁regard	-5565
accroître	-5566
▁bénéficier	-5567
allè	-5568
▁reproduction	-5569
▁contac	-5570
▁spéciaux	-5571
▁eau	-5572
chent	-5573
▁Territ	-5574
entremise	-5575
▁provisoire	-5576
▁IV	-5577
▁dotation	-5578
iliser	-5579
▁traitements	-5580
espace	-5581
▁...	-5582
▁Op	-5583
▁Plu	-5584
▁vulnéra	-5585
▁correction	-5586
IST	-5587
▁prévenir	-5588
▁organisé	-5589
▁spécialistes	-5590
▁02	-5591
sifs	-5592
▁huit	-5593
▁accordé	-5594
▁opportu	-5595
▁psych	-5596
union	-5597
▁cliniques	-5598
▁Bro	-5599
▁pertinentes	-5600
▁Techn	-5601
▁Environ	-5602
▁découver	-5603
▁prochaine	-5604
tendue	-5605
MA	-5606
ugi	-5607
atrice	-5608
▁réussi	-5609
▁%.	-5610
inté	-5611
▁Communi	-5612
▁relever	-5613
▁essentiellement	-5614
▁utiles	-5615
▁médecine	-5616
▁matériaux	-5617
cial	-5618
▁chron	-5619
▁contribué	-5620
▁mentale	-5621
sida	-5622
illage	-5623
▁spéciales	-5624
▁Océans	-5625
▁appropriée	-5626
▁Bel	-5627
tance	-5628
▁régulièrement	-5629
of	-5630
amens	-5631
▁mari	-5632
dements	-5633
▁Pos	-5634
▁appropriées	-5635
▁Jean	-5636
▁Sub	-5637
tration	-5638
▁siècle	-5639
▁domicile	-5640
diction	-5641
acte	-5642
érance	-5643
-08	-5644
▁multiples	-5645
énie	-5646
▁conclure	-5647
▁considérée	-5648
▁Cadre	-5649
▁indirec	-5650
37	-5651
▁tourisme	-5652
▁AT	-5653
oie	-5654
▁sûre	-5655
▁2001.	-5656
▁Réseau	-5657
▁apporter	-5658
iche	-5659
als	-5660
▁auront	-5661
inn	-5662
▁National	-5663
▁bénéficiaire	-5664
▁05	-5665
sent	-5666
▁Mex	-5667
▁amples	-5668
▁garantie	-5669
▁fabri	-5670
inscription	-5671
▁vou	-5672
▁Tur	-5673
onnement	-5674
▁bulletin	-5675
▁appareils	-5676
▁West	-5677
▁Notre	-5678
aisance	-5679
▁infrastructures	-5680
▁PL	-5681
▁Liste	-5682
▁arriv	-5683
ault	-5684
▁voit	-5685
ortateur	-5686
▁Dav	-5687
▁heure	-5688
▁essentiels	-5689
▁Emp	-5690
tendu	-5691
▁combat	-5692
▁modes	-5693
▁mol	-5694
▁écl	-5695
▁station	-5696
▁consci	-5697
▁augmenter	-5698
▁Tro	-5699
▁1998,	-5700
▁employeurs	-5701
▁Gu	-5702
▁administrations	-5703
▁vites	-5704
▁distance	-5705
▁encourage	-5706
▁visiteurs	-5707
▁encourager	-5708
▁2006-200	-5709
▁remise	-5710
▁vois	-5711
▁procédé	-5712
ansion	-5713
index	-5714
ustra	-5715
fgh	-5716
vue	-5717
▁clair	-5718
▁plantes	-5719
▁secondaire	-5720
▁proposées	-5721
▁Justice	-5722
▁fr	-5723
we	-5724
gal	-5725
orté	-5726
▁accordée	-5727
▁formule	-5728
oz	-5729
▁·	-5730
AND	-5731
▁offert	-5732
▁coopéra	-5733
▁autorisé	-5734
ilisations	-5735
▁discuter	-5736
CES	-5737
▁bilatéra	-5738
▁8,	-5739
quie	-5740
8)	-5741
▁intitulé	-5742
alimentation	-5743
enneté	-5744
▁39	-5745
peg	-5746
ertise	-5747
ild	-5748
▁choisi	-5749
ington	-5750
▁2007.	-5751
▁devez	-5752
▁prévoir	-5753
▁signé	-5754
▁Japon	-5755
électricité	-5756
▁fondé	-5757
VE	-5758
▁Traité	-5759
▁cartes	-5760
hi	-5761
▁%,	-5762
▁modifiée	-5763
▁fournisseur	-5764
▁param	-5765
▁législatives	-5766
▁agré	-5767
▁bonnes	-5768
▁voyages	-5769
tront	-5770
▁naturels	-5771
41	-5772
▁Bul	-5773
▁villes	-5774
▁rien	-5775
▁Décision	-5776
nipeg	-5777
▁Nunavut	-5778
▁restrictions	-5779
clam	-5780
▁avanc	-5781
▁dette	-5782
▁const	-5783
ACDI	-5784
▁clinique	-5785
▁approprié	-5786
uri	-5787
▁occa	-5788
▁estimations	-5789
▁thérap	-5790
▁apport	-5791
▁échantillons	-5792
ast	-5793
mbres	-5794
▁efficacement	-5795
▁actes	-5796
▁réfugi	-5797
▁représentation	-5798
▁composé	-5799
▁consoli	-5800
▁adress	-5801
élaborer	-5802
▁carbone	-5803
MD	-5804
iennent	-5805
▁Déclaration	-5806
▁km	-5807
▁Communications	-5808
ALE	-5809
▁tub	-5810
-201	-5811
▁trou	-5812
▁vidé	-5813
▁corps	-5814
ute	-5815
▁prochaines	-5816
▁œu	-5817
ôme	-5818
▁cra	-5819
▁cotisations	-5820
▁livrais	-5821
▁utilise	-5822
ruption	-5823
▁fiducie	-5824
▁institutionnels	-5825
▁Es	-5826
roaliment	-5827
▁armes	-5828
▁Research	-5829
▁Industrie	-5830
tern	-5831
▁désigné	-5832
aménagement	-5833
▁émis	-5834
SN	-5835
dia	-5836
▁négociation	-5837
29	-5838
comp	-5839
▁Bar	-5840
▁#	-5841
▁génétique	-5842
admissibilité	-5843
▁Télécopieur	-5844
▁soumettre	-5845
▁disponibilité	-5846
▁handicapées	-5847
▁temporaire	-5848
▁reçus	-5849
élimination	-5850
TER	-5851
rin	-5852
▁synth	-5853
▁Sa	-5854
▁comparaison	-5855
agir	-5856
▁entend	-5857
▁Plusieurs	-5858
▁états	-5859
▁pensions	-5860
▁FR	-5861
▁visent	-5862
▁contrôles	-5863
▁signature	-5864
▁réglementaire	-5865
▁constat	-5866
▁directe	-5867
▁06	-5868
ocation	-5869
eth	-5870
issance	-5871
▁consentement	-5872
▁renouvellement	-5873
EP	-5874
ocat	-5875
▁reflè	-5876
▁qualités	-5877
▁complexe	-5878
▁pal	-5879
▁recomm	-5880
ings	-5881
▁Lake	-5882
endrier	-5883
▁10,	-5884
▁Proposition	-5885
▁sondage	-5886
▁MDN	-5887
▁théor	-5888
vité	-5889
▁1997,	-5890
▁dég	-5891
ariat	-5892
ourses	-5893
▁TPSGC	-5894
▁acquis	-5895
▁offrent	-5896
▁Har	-5897
▁adopter	-5898
▁46	-5899
▁préliminaire	-5900
isé	-5901
▁provenance	-5902
▁trafic	-5903
▁programmation	-5904
▁08	-5905
▁conformes	-5906
▁simplement	-5907
ètes	-5908
▁déterminée	-5909
▁valoir	-5910
▁agent	-5911
▁chefs	-5912
▁clientèle	-5913
▁cul	-5914
▁bran	-5915
entraî	-5916
mblables	-5917
▁2000.	-5918
▁oiseaux	-5919
▁rechange	-5920
▁entièrement	-5921
ars	-5922
itec	-5923
lées	-5924
▁tissus	-5925
▁entrepren	-5926
▁banc	-5927
▁Winnipeg	-5928
vues	-5929
▁figurent	-5930
▁quit	-5931
▁inscrits	-5932
▁différend	-5933
▁axée	-5934
▁offic	-5935
):	-5936
▁At	-5937
ÉN	-5938
▁(3)	-5939
▁prestataire	-5940
ares	-5941
▁Mesures	-5942
▁satisfaire	-5943
▁productivité	-5944
▁atti	-5945
▁initiale	-5946
▁meilleures	-5947
▁médicament	-5948
▁géographique	-5949
érir	-5950
▁téléphon	-5951
▁Activités	-5952
▁insuffis	-5953
▁économies	-5954
▁enregistré	-5955
cier	-5956
istage	-5957
36	-5958
ville	-5959
▁maximale	-5960
▁Contac	-5961
▁AC	-5962
▁concept	-5963
▁tarifaire	-5964
▁reconnaît	-5965
-09	-5966
▁sert	-5967
▁Grâce	-5968
▁composition	-5969
▁défi	-5970
▁contribue	-5971
▁inférieur	-5972
fric	-5973
ierre	-5974
accessib	-5975
▁arch	-5976
▁délégu	-5977
▁appliquer	-5978
▁provinciales	-5979
2/	-5980
▁adoptée	-5981
▁individus	-5982
▁Rel	-5983
▁mél	-5984
▁masse	-5985
intégrité	-5986
▁Veuillez	-5987
istres	-5988
▁parvenir	-5989
ames	-5990
attention	-5991
▁semblables	-5992
col	-5993
▁Pres	-5994
▁achet	-5995
▁dispositifs	-5996
▁travaillent	-5997
▁attend	-5998
rop	-5999
▁bu	-6000
uits	-6001
▁MPO	-6002
instru	-6003
▁véhicule	-6004
38	-6005
gary	-6006
▁Im	-6007
▁noms	-6008
▁Prof	-6009
▁vendre	-6010
▁occasion	-6011
▁existants	-6012
▁2003-200	-6013
▁Pai	-6014
▁gard	-6015
77	-6016
no	-6017
▁pilote	-6018
estim	-6019
▁régler	-6020
(200	-6021
talie	-6022
▁rembours	-6023
▁dépass	-6024
EE	-6025
▁tenant	-6026
assement	-6027
▁195	-6028
▁inclus	-6029
▁voies	-6030
▁Princip	-6031
▁vérific	-6032
▁résumé	-6033
▁dimension	-6034
▁quoi	-6035
arition	-6036
émission	-6037
organismes	-6038
Pr	-6039
lève	-6040
▁simpli	-6041
▁destinées	-6042
▁56	-6043
inal	-6044
▁stocks	-6045
▁Demande	-6046
▁constaté	-6047
tière	-6048
▁CD	-6049
▁rang	-6050
▁instrument	-6051
▁retard	-6052
▁parlementaires	-6053
cadre	-6054
TEN	-6055
velop	-6056
▁liaison	-6057
▁Protection	-6058
erson	-6059
ash	-6060
institution	-6061
▁administratif	-6062
▁attention	-6063
gue	-6064
▁expériment	-6065
▁plaignant	-6066
▁42	-6067
offrir	-6068
▁Étu	-6069
▁English	-6070
▁expériences	-6071
▁arm	-6072
èques	-6073
▁Corporation	-6074
▁adjoint	-6075
▁contribuent	-6076
ater	-6077
Île	-6078
gouvernement	-6079
lés	-6080
audience	-6081
▁française	-6082
OI	-6083
▁passagers	-6084
▁industriels	-6085
ondu	-6086
▁volet	-6087
▁fondamentaux	-6088
▁destiné	-6089
▁mesurer	-6090
▁biologiques	-6091
▁recommandé	-6092
je	-6093
▁situé	-6094
▁flo	-6095
istique	-6096
▁électri	-6097
rc	-6098
Etat	-6099
▁énergétique	-6100
▁peine	-6101
étiqu	-6102
ume	-6103
▁bate	-6104
▁offer	-6105
Afrique	-6106
angement	-6107
▁Sécurité	-6108
▁puisqu	-6109
▁chasse	-6110
▁1993	-6111
▁limitée	-6112
▁Sp	-6113
ressions	-6114
▁Étant	-6115
▁approches	-6116
▁lié	-6117
▁scru	-6118
▁transmis	-6119
▁directeurs	-6120
dy	-6121
▁gros	-6122
▁intérim	-6123
▁médecin	-6124
▁climatiques	-6125
▁400	-6126
quées	-6127
▁couverture	-6128
▁MO	-6129
31	-6130
ber	-6131
hum	-6132
atrième	-6133
atell	-6134
▁énum	-6135
▁horiz	-6136
▁Protocole	-6137
▁exemplaires	-6138
▁98	-6139
▁loin	-6140
▁combusti	-6141
ition	-6142
▁hon	-6143
line	-6144
▁réd	-6145
▁éduc	-6146
▁culturels	-6147
ik	-6148
▁Conform	-6149
▁tâche	-6150
▁privil	-6151
▁concernés	-6152
▁Jeux	-6153
▁complexes	-6154
▁titulaires	-6155
▁teneur	-6156
▁exposés	-6157
▁entrepris	-6158
▁étrangère	-6159
▁collective	-6160
▁David	-6161
▁annuels	-6162
uyer	-6163
▁organes	-6164
▁aven	-6165
▁réelles	-6166
▁préciser	-6167
▁meilleurs	-6168
▁profil	-6169
▁Ber	-6170
▁prévisions	-6171
▁with	-6172
alisés	-6173
▁ouvert	-6174
jectifs	-6175
▁justifi	-6176
▁perspectives	-6177
▁améliorations	-6178
▁Parties	-6179
▁finale	-6180
▁choisir	-6181
étudi	-6182
igh	-6183
idic	-6184
dam	-6185
▁existantes	-6186
▁0,0	-6187
▁chargée	-6188
▁dispar	-6189
▁menace	-6190
▁science	-6191
▁conseiller	-6192
▁INC	-6193
▁Utilis	-6194
▁anciens	-6195
UD	-6196
roissement	-6197
▁autorisée	-6198
▁Bib	-6199
indem	-6200
▁6.	-6201
▁Coun	-6202
▁appels	-6203
▁1992	-6204
▁rôles	-6205
ades	-6206
▁conserver	-6207
▁gestionnaire	-6208
ety	-6209
▁siège	-6210
▁démarche	-6211
▁largement	-6212
arrêt	-6213
▁gouvernementale	-6214
▁58	-6215
▁constituer	-6216
▁requises	-6217
▁Modi	-6218
▁profonde	-6219
▁équitable	-6220
▁sti	-6221
▁corri	-6222
▁compétitivité	-6223
▁Mr	-6224
▁Indiens	-6225
own	-6226
▁envisag	-6227
▁outil	-6228
ribunaux	-6229
▁auxquelles	-6230
exclusion	-6231
▁facilement	-6232
▁budgétaires	-6233
▁susc	-6234
raine	-6235
issons	-6236
].	-6237
▁Gén	-6238
rich	-6239
alisme	-6240
any	-6241
▁humain	-6242
FF	-6243
▁by	-6244
alif	-6245
▁externes	-6246
BC	-6247
▁soutient	-6248
▁exprim	-6249
▁graves	-6250
▁lettres	-6251
office	-6252
intemps	-6253
▁faudrait	-6254
6/	-6255
▁PIB	-6256
▁symp	-6257
▁historiques	-6258
▁Limited	-6259
Canada	-6260
▁reconnaître	-6261
▁possède	-6262
▁participent	-6263
oncer	-6264
▁sections	-6265
ctique	-6266
▁Voici	-6267
▁technologique	-6268
▁ferro	-6269
▁double	-6270
▁fréquence	-6271
▁nutrition	-6272
uation	-6273
▁provinciale	-6274
existe	-6275
▁modifiant	-6276
▁atmosph	-6277
▁Forum	-6278
▁ordre	-6279
▁tribunaux	-6280
▁considérés	-6281
▁SCT	-6282
▁automob	-6283
orge	-6284
▁plas	-6285
▁climat	-6286
▁chômage	-6287
île	-6288
▁performance	-6289
PT	-6290
▁Gra	-6291
▁dériv	-6292
▁Calgary	-6293
▁descrip	-6294
▁limiter	-6295
▁démocratique	-6296
▁Premier	-6297
▁avantage	-6298
▁délinqu	-6299
appelante	-6300
▁réussite	-6301
sant	-6302
▁sold	-6303
Initiative	-6304
▁terrorisme	-6305
▁payé	-6306
▁réel	-6307
▁correspondant	-6308
▁perç	-6309
▁surv	-6310
▁hypoth	-6311
▁manifes	-6312
▁million	-6313
▁9,	-6314
▁devons	-6315
▁preuves	-6316
▁choses	-6317
▁résidents	-6318
49	-6319
excellence	-6320
▁Ca	-6321
▁registre	-6322
emar	-6323
▁Intro	-6324
▁Musée	-6325
▁livraison	-6326
▁compati	-6327
accomp	-6328
▁biologique	-6329
ingt	-6330
▁aller	-6331
▁vitesse	-6332
GL	-6333
▁démocratie	-6334
▁savoirs	-6335
▁souhaite	-6336
▁phénom	-6337
▁Mexique	-6338
▁Journal	-6339
▁provo	-6340
▁remer	-6341
▁gains	-6342
appare	-6343
xy	-6344
▁inspec	-6345
ailleurs	-6346
▁portent	-6347
▁800	-6348
▁parent	-6349
▁Ban	-6350
▁mots	-6351
rire	-6352
▁entraîner	-6353
▁(198	-6354
▁bassin	-6355
▁professe	-6356
▁administrative	-6357
ws	-6358
agnies	-6359
▁enfant	-6360
▁appréci	-6361
usement	-6362
▁périodi	-6363
isp	-6364
▁vice	-6365
attribu	-6366
▁économie	-6367
▁CNRC	-6368
riques	-6369
▁chaîne	-6370
▁réalisé	-6371
▁Val	-6372
▁monétaire	-6373
▁permanente	-6374
▁Aucune	-6375
▁séance	-6376
▁écos	-6377
▁résistance	-6378
ory	-6379
guer	-6380
▁servi	-6381
▁Bay	-6382
▁maî	-6383
▁Véri	-6384
▁codes	-6385
▁Adresse	-6386
▁unité	-6387
▁désignés	-6388
attend	-6389
▁fondées	-6390
introduction	-6391
-1-	-6392
poque	-6393
▁bienf	-6394
▁réalité	-6395
▁fera	-6396
▁ajouté	-6397
dies	-6398
onner	-6399
▁rurales	-6400
▁ferrovi	-6401
▁2002-200	-6402
▁endroits	-6403
▁UN	-6404
▁rub	-6405
▁repos	-6406
fghan	-6407
▁notes	-6408
▁renseignement	-6409
▁navire	-6410
▁Wh	-6411
▁pétrole	-6412
▁Vi	-6413
actif	-6414
alifax	-6415
▁ultéri	-6416
▁Pendant	-6417
▁scolaire	-6418
ider	-6419
▁pharmaceu	-6420
▁montrent	-6421
▁territoriaux	-6422
▁Gre	-6423
▁juridic	-6424
▁\	-6425
▁1996,	-6426
▁traditionnelles	-6427
TIONS	-6428
▁Territoires	-6429
▁prévoy	-6430
nie	-6431
▁front	-6432
▁mené	-6433
demment	-6434
▁division	-6435
▁pont	-6436
▁banque	-6437
▁résoudre	-6438
▁bienfaisance	-6439
▁67	-6440
▁parcs	-6441
intermédiaire	-6442
▁Vic	-6443
34	-6444
▁progres	-6445
▁Sommaire	-6446
Le	-6447
ORM	-6448
▁Mari	-6449
▁Introduction	-6450
EX	-6451
▁livre	-6452
▁aéronefs	-6453
▁âgées	-6454
▁Fédération	-6455
▁administratifs	-6456
▁sor	-6457
▁observé	-6458
▁Rich	-6459
▁rétro	-6460
▁frontières	-6461
toire	-6462
▁seconde	-6463
▁livres	-6464
▁requér	-6465
▁location	-6466
▁continuera	-6467
orteurs	-6468
▁convenu	-6469
▁externe	-6470
lacements	-6471
ARC	-6472
▁salaire	-6473
▁destination	-6474
68	-6475
▁Bri	-6476
truire	-6477
dev	-6478
▁dra	-6479
▁dommages	-6480
▁97	-6481
▁longtemps	-6482
▁déplacement	-6483
pdf	-6484
euros	-6485
▁récol	-6486
▁recons	-6487
▁composés	-6488
▁IS	-6489
▁climatique	-6490
▁spati	-6491
▁Résumé	-6492
▁relevant	-6493
eld	-6494
▁fortement	-6495
roalimentaire	-6496
▁Avec	-6497
▁pièce	-6498
ulé	-6499
▁équipes	-6500
▁attentes	-6501
DA	-6502
▁bac	-6503
èdent	-6504
▁nu	-6505
▁Programmes	-6506
▁façons	-6507
▁devient	-6508
ôte	-6509
▁témoign	-6510
▁milliers	-6511
igure	-6512
▁recommande	-6513
▁rétablissement	-6514
ores	-6515
▁dirigeants	-6516
cession	-6517
▁préjud	-6518
▁apportées	-6519
▁mouvement	-6520
▁faune	-6521
▁intéressées	-6522
▁AL	-6523
▁cu	-6524
▁Est	-6525
▁Quel	-6526
▁1991	-6527
douard	-6528
▁partis	-6529
▁donnent	-6530
▁précédent	-6531
rages	-6532
▁sécur	-6533
▁vivant	-6534
-18	-6535
avons	-6536
▁établit	-6537
ombe	-6538
ignation	-6539
▁déposée	-6540
▁statistique	-6541
esprit	-6542
tiles	-6543
feuille	-6544
▁physiques	-6545
bes	-6546
▁49	-6547
▁défici	-6548
1/	-6549
▁Norm	-6550
TIC	-6551
▁quar	-6552
▁reconnaiss	-6553
▁57	-6554
ga	-6555
▁femme	-6556
▁lancé	-6557
▁be	-6558
▁explique	-6559
▁familiale	-6560
mêmes	-6561
étape	-6562
▁semblent	-6563
)(	-6564
▁indiquant	-6565
▁affaire	-6566
▁rencontre	-6567
▁intéressés	-6568
▁mérite	-6569
▁tonnes	-6570
▁Directive	-6571
aisons	-6572
idation	-6573
▁futures	-6574
▁minéra	-6575
▁Chapitre	-6576
IQUE	-6577
▁bal	-6578
ustralie	-6579
▁perspective	-6580
lée	-6581
▁mété	-6582
▁entendu	-6583
▁Institut	-6584
▁financer	-6585
0)	-6586
▁BCE	-6587
▁dynamique	-6588
▁utilisent	-6589
▁linguistique	-6590
▁scrutin	-6591
▁partiel	-6592
▁auraient	-6593
▁compagnies	-6594
harmon	-6595
▁élevées	-6596
▁central	-6597
Bas	-6598
▁facile	-6599
ica	-6600
ventaire	-6601
▁poursuite	-6602
yp	-6603
▁Améli	-6604
élev	-6605
▁indépendant	-6606
▁Secteur	-6607
▁Régime	-6608
Internet	-6609
▁fichier	-6610
▁mater	-6611
▁impliqu	-6612
monton	-6613
▁volonté	-6614
▁moyennes	-6615
▁mot	-6616
nouveau	-6617
▁allant	-6618
▁essentielles	-6619
▁alinéa	-6620
▁récup	-6621
▁fournissent	-6622
▁lacunes	-6623
ology	-6624
▁3)	-6625
▁Cabinet	-6626
▁opportun	-6627
▁incluant	-6628
▁transfér	-6629
▁train	-6630
▁canada	-6631
omo	-6632
▁licenci	-6633
▁détaillée	-6634
32	-6635
▁tourn	-6636
▁satell	-6637
▁englob	-6638
évé	-6639
émie	-6640
▁aériens	-6641
55	-6642
OSCE	-6643
conom	-6644
▁divulgation	-6645
idée	-6646
▁voyageurs	-6647
▁enseignants	-6648
ciens	-6649
istant	-6650
▁musique	-6651
iliers	-6652
▁idées	-6653
▁distric	-6654
Ind	-6655
▁luc	-6656
▁vols	-6657
▁spéciale	-6658
▁sûreté	-6659
itées	-6660
▁prennent	-6661
▁Fondation	-6662
▁potentiels	-6663
▁PA	-6664
▁stand	-6665
▁diversi	-6666
▁accessible	-6667
udence	-6668
▁séances	-6669
▁conférences	-6670
4/	-6671
▁Conta	-6672
▁PN	-6673
▁Rou	-6674
appar	-6675
▁Afrique	-6676
mber	-6677
▁cru	-6678
▁chose	-6679
▁anglaise	-6680
▁composantes	-6681
▁entier	-6682
▁cum	-6683
▁américains	-6684
▁Retour	-6685
▁accessibles	-6686
octro	-6687
▁mortalité	-6688
▁ferme	-6689
êtements	-6690
▁biotechn	-6691
▁recueillir	-6692
▁récep	-6693
▁personnelles	-6694
▁ap	-6695
▁conseillers	-6696
42	-6697
èvement	-6698
▁satisfais	-6699
▁métaux	-6700
GE	-6701
▁Gaz	-6702
▁Phot	-6703
▁virus	-6704
▁reçoit	-6705
▁situés	-6706
▁messages	-6707
▁SE	-6708
▁lucra	-6709
▁motiv	-6710
▁superfic	-6711
▁opérationnel	-6712
▁technologiques	-6713
pect	-6714
rons	-6715
tuel	-6716
utation	-6717
▁message	-6718
▁réfugiés	-6719
▁propriétaire	-6720
dra	-6721
▁réclam	-6722
ren	-6723
▁ST	-6724
▁CRTC	-6725
▁requête	-6726
tauration	-6727
▁3.1	-6728
▁royale	-6729
▁CRDI	-6730
Prince	-6731
▁QU	-6732
▁conçu	-6733
uve	-6734
▁BC	-6735
cevoir	-6736
▁secrétaire	-6737
▁prioritaires	-6738
aéro	-6739
▁lour	-6740
go	-6741
▁espèce	-6742
angl	-6743
élarg	-6744
▁cy	-6745
yth	-6746
êté	-6747
▁Certaines	-6748
latéra	-6749
▁jeunesse	-6750
▁légi	-6751
enfants	-6752
▁estimé	-6753
▁prochain	-6754
TVH	-6755
▁pren	-6756
entend	-6757
up	-6758
▁mens	-6759
▁vend	-6760
ormais	-6761
▁industriel	-6762
▁dâ	-6763
ensus	-6764
effectuer	-6765
▁âgés	-6766
fghanistan	-6767
▁résultant	-6768
▁essentielle	-6769
▁York	-6770
▁excl	-6771
opinion	-6772
▁associées	-6773
▁87	-6774
▁printemps	-6775
▁universitaire	-6776
gies	-6777
▁trimestre	-6778
Ottawa	-6779
▁occasions	-6780
ek	-6781
▁bro	-6782
intérêts	-6783
▁fiscale	-6784
emplacement	-6785
ural	-6786
▁minor	-6787
igu	-6788
▁servent	-6789
▁totales	-6790
▁SERV	-6791
▁Durée	-6792
▁applications	-6793
{\	-6794
▁Dan	-6795
▁human	-6796
présent	-6797
▁naissance	-6798
▁atlantique	-6799
▁kil	-6800
▁Recommandation	-6801
▁ol	-6802
▁Conformément	-6803
▁conten	-6804
▁diminué	-6805
▁systématique	-6806
onie	-6807
▁accueil	-6808
sh	-6809
ppe	-6810
▁̈re	-6811
▁ache	-6812
▁autonom	-6813
▁significative	-6814
(1	-6815
IEN	-6816
▁Sm	-6817
▁permettront	-6818
▁Né	-6819
▁remis	-6820
▁génétiques	-6821
▁socio	-6822
QUES	-6823
▁courriel	-6824
▁récentes	-6825
▁paramètres	-6826
▁électorale	-6827
▁thèmes	-6828
▁motif	-6829
▁indiennes	-6830
="	-6831
▁nomin	-6832
▁forêts	-6833
▁2.1	-6834
▁chang	-6835
▁associé	-6836
iner	-6837
keting	-6838
▁civil	-6839
▁regroup	-6840
▁récente	-6841
▁it	-6842
▁solide	-6843
▁journée	-6844
▁53	-6845
idents	-6846
ortées	-6847
▁Revenu	-6848
ty	-6849
▁!	-6850
▁intégré	-6851
▁cér	-6852
▁examine	-6853
▁extérieur	-6854
ÉE	-6855
êter	-6856
▁crise	-6857
culaire	-6858
▁déposant	-6859
Col	-6860
▁Sc	-6861
▁bourses	-6862
▁secondaires	-6863
▁assi	-6864
tements	-6865
▁pointe	-6866
velopment	-6867
▁Fab	-6868
endro	-6869
▁dépistage	-6870
OTAN	-6871
▁autour	-6872
Ch	-6873
ulf	-6874
▁mines	-6875
▁78	-6876
▁calendrier	-6877
▁Droits	-6878
étis	-6879
ensement	-6880
▁Nor	-6881
▁Réunion	-6882
▁constru	-6883
▁considérable	-6884
améric	-6885
▁gross	-6886
(3)	-6887
▁03	-6888
▁vérifications	-6889
▁administration	-6890
▁réformes	-6891
ondes	-6892
▁autorisation	-6893
▁privés	-6894
▁appropriés	-6895
▁stade	-6896
▁inférieure	-6897
ock	-6898
réd	-6899
inéas	-6900
▁minutes	-6901
▁fabricants	-6902
▁Lignes	-6903
▁stip	-6904
▁multilatéra	-6905
▁sexes	-6906
▁considérer	-6907
oin	-6908
rits	-6909
▁tôt	-6910
▁ajoutée	-6911
▁comparativement	-6912
▁commencer	-6913
ére	-6914
▁dose	-6915
▁PC	-6916
location	-6917
▁suivent	-6918
atteindre	-6919
▁préjudice	-6920
▁traduction	-6921
outer	-6922
▁acte	-6923
automne	-6924
▁Compagnie	-6925
IO	-6926
.).	-6927
▁from	-6928
URE	-6929
avec	-6930
turb	-6931
▁613	-6932
▁68	-6933
▁éventail	-6934
da	-6935
TON	-6936
▁mettant	-6937
view	-6938
▁modernisation	-6939
▁procure	-6940
▁causes	-6941
mentionn	-6942
-15	-6943
hiver	-6944
▁pens	-6945
▁recev	-6946
-20	-6947
▁parler	-6948
trait	-6949
▁Examen	-6950
pol	-6951
▁Fac	-6952
▁quantités	-6953
hor	-6954
▁surveiller	-6955
avaient	-6956
▁bandes	-6957
cidences	-6958
▁bour	-6959
▁substitu	-6960
▁arts	-6961
▁chlor	-6962
▁instructions	-6963
LES	-6964
▁$.	-6965
haus	-6966
▁intitul	-6967
▁argu	-6968
agisme	-6969
▁66	-6970
▁forum	-6971
▁consi	-6972
encontre	-6973
▁Mod	-6974
▁revue	-6975
alisé	-6976
entité	-6977
▁arbit	-6978
ÉT	-6979
▁irré	-6980
▁intégra	-6981
▁perturb	-6982
uellement	-6983
▁CL	-6984
▁serre	-6985
▁Robert	-6986
▁futurs	-6987
▁investi	-6988
▁annexe	-6989
èses	-6990
▁Hong	-6991
▁bâtiment	-6992
appuyer	-6993
▁menaces	-6994
▁universitaires	-6995
éviter	-6996
▁Source	-6997
▁Valeur	-6998
▁charges	-6999
ceptions	-7000
▁capitaux	-7001
pard	-7002
▁parallè	-7003
▁Contribu	-7004
▁US	-7005
énat	-7006
quipe	-7007
▁Halifax	-7008
▁transit	-7009
to	-7010
▁médical	-7011
▁rappro	-7012
omes	-7013
épend	-7014
▁fournie	-7015
▁répondu	-7016
▁CP	-7017
▁notification	-7018
▁revendications	-7019
▁énoncés	-7020
uni	-7021
▁SEC	-7022
▁interro	-7023
ousse	-7024
▁êtes	-7025
RL	-7026
▁activement	-7027
▁désir	-7028
▁acteurs	-7029
ack	-7030
voi	-7031
▁Ministres	-7032
▁côte	-7033
▁appuie	-7034
▁(7	-7035
Édouard	-7036
▁souligner	-7037
▁présentant	-7038
▁textes	-7039
DS	-7040
▁menée	-7041
înés	-7042
ômes	-7043
▁end	-7044
▁crime	-7045
▁américain	-7046
▁normalement	-7047
ONN	-7048
▁démontré	-7049
▁Lib	-7050
affir	-7051
▁exercer	-7052
▁Défin	-7053
▁appartenant	-7054
DR	-7055
▁examens	-7056
▁variables	-7057
affectation	-7058
ouse	-7059
▁solides	-7060
président	-7061
ttes	-7062
▁sémin	-7063
▁concernées	-7064
▁fruits	-7065
èges	-7066
▁Eff	-7067
▁Parten	-7068
▁former	-7069
▁nucléaire	-7070
▁reçoivent	-7071
▁directrice	-7072
▁réalisations	-7073
@@@@	-7074
▁diss	-7075
octroi	-7076
▁susmentionn	-7077
▁fabricant	-7078
▁orientations	-7079
▁présentations	-7080
▁da	-7081
▁Slo	-7082
estation	-7083
▁bénévoles	-7084
quant	-7085
▁1.1	-7086
accise	-7087
rac	-7088
cupe	-7089
▁07	-7090
▁cam	-7091
▁redev	-7092
▁artistes	-7093
▁endroit	-7094
▁7.	-7095
▁51	-7096
▁opérationnelle	-7097
loration	-7098
OH	-7099
▁décider	-7100
énari	-7101
expansion	-7102
▁Allemagne	-7103
▁1999.	-7104
▁allem	-7105
▁NO	-7106
▁porté	-7107
▁lucratif	-7108
▁enregistre	-7109
▁éth	-7110
▁préf	-7111
▁procédés	-7112
▁devaient	-7113
▁francophones	-7114
XE	-7115
▁domin	-7116
▁chances	-7117
▁77	-7118
▁étroite	-7119
▁fournies	-7120
▁profiter	-7121
▁constitué	-7122
9/	-7123
▁Nouvelles	-7124
▁transactions	-7125
ld	-7126
XX	-7127
toires	-7128
encour	-7129
▁maîtr	-7130
▁servant	-7131
MR	-7132
▁Arr	-7133
▁requise	-7134
▁joue	-7135
▁Titre	-7136
▁salaires	-7137
▁bénéfices	-7138
▁désormais	-7139
▁Paris	-7140
▁danger	-7141
▁montré	-7142
▁Présent	-7143
WA	-7144
▁Office	-7145
▁vont	-7146
▁alli	-7147
▁critère	-7148
▁fixé	-7149
HC	-7150
osi	-7151
▁Type	-7152
▁tarifs	-7153
▁classement	-7154
▁Accord	-7155
▁météor	-7156
io	-7157
▁doc	-7158
▁prosp	-7159
▁énoncées	-7160
▁diagnostic	-7161
▁thème	-7162
▁fro	-7163
▁struct	-7164
▁automatique	-7165
manie	-7166
▁totalité	-7167
▁Consid	-7168
▁révélé	-7169
▁comprom	-7170
▁concentre	-7171
deur	-7172
▁fum	-7173
▁spécialisés	-7174
▁contribuable	-7175
timis	-7176
autonomie	-7177
▁comprenant	-7178
AUX	-7179
▁actif	-7180
%)	-7181
▁personnelle	-7182
▁nommé	-7183
▁rural	-7184
▁grave	-7185
▁dommage	-7186
▁Particip	-7187
2]	-7188
▁600	-7189
▁clau	-7190
ony	-7191
lang	-7192
▁neu	-7193
▁séqu	-7194
▁tête	-7195
ôpital	-7196
▁péril	-7197
▁Bulletin	-7198
lue	-7199
ilier	-7200
▁détec	-7201
▁gri	-7202
▁graph	-7203
▁nécessairement	-7204
ated	-7205
lements	-7206
▁listes	-7207
▁gratu	-7208
équilibre	-7209
▁linguistiques	-7210
ASFC	-7211
instruction	-7212
▁52	-7213
▁critique	-7214
▁menac	-7215
▁Contactez	-7216
uxelles	-7217
▁conven	-7218
▁Paiements	-7219
▁végét	-7220
▁Frais	-7221
▁dumping	-7222
▁adoptées	-7223
lige	-7224
▁Esc	-7225
▁certification	-7226
▁Aucun	-7227
opter	-7228
emplois	-7229
▁rédaction	-7230
▁μ	-7231
▁régissant	-7232
TIF	-7233
▁Tari	-7234
▁visites	-7235
▁informé	-7236
▁Fonction	-7237
▁ateliers	-7238
ICES	-7239
▁croy	-7240
tenance	-7241
▁Company	-7242
▁impossible	-7243
vé	-7244
yer	-7245
▁64	-7246
ago	-7247
▁biling	-7248
Allemagne	-7249
▁feuilles	-7250
▁plaf	-7251
▁tax	-7252
infection	-7253
▁TP	-7254
▁consensus	-7255
AGE	-7256
▁Gl	-7257
▁extrême	-7258
▁désignation	-7259
▁questionnaire	-7260
liques	-7261
▁précises	-7262
▁blessures	-7263
▁susceptible	-7264
▁impact	-7265
▁contrôler	-7266
Aut	-7267
ara	-7268
39	-7269
▁ém	-7270
▁franch	-7271
▁patient	-7272
▁complémentaires	-7273
isté	-7274
▁Travaux	-7275
▁occident	-7276
▁AV	-7277
▁11,	-7278
▁reçues	-7279
AE	-7280
ases	-7281
▁Médi	-7282
ova	-7283
▁REL	-7284
▁cig	-7285
▁numéros	-7286
▁propriétaires	-7287
expiration	-7288
▁rich	-7289
▁opérationnels	-7290
toria	-7291
▁prot	-7292
▁appelé	-7293
▁déploi	-7294
▁Radi	-7295
riture	-7296
▁semblable	-7297
iz	-7298
▁recour	-7299
▁écrite	-7300
pub	-7301
▁SU	-7302
ulteurs	-7303
▁ladite	-7304
▁support	-7305
▁continuent	-7306
▁déficience	-7307
▁conventions	-7308
stroph	-7309
▁métal	-7310
élément	-7311
▁Labrador	-7312
TRE	-7313
▁1995,	-7314
▁accepté	-7315
▁présents	-7316
▁Hist	-7317
paravant	-7318
ala	-7319
▁préval	-7320
▁vidéo	-7321
association	-7322
▁écologique	-7323
giques	-7324
▁Malgré	-7325
▁enregistrés	-7326
▁ONG	-7327
▁cibles	-7328
▁faudra	-7329
▁évidence	-7330
ool	-7331
▁El	-7332
▁ord	-7333
▁repose	-7334
▁Secrétaire	-7335
▁comportant	-7336
ordi	-7337
▁250	-7338
▁évalué	-7339
▁Inuits	-7340
▁malgré	-7341
arti	-7342
▁tabagisme	-7343
▁SP	-7344
▁moteur	-7345
▁Uni	-7346
ame	-7347
▁entités	-7348
▁multip	-7349
▁duquel	-7350
▁Contact	-7351
Ag	-7352
▁SO	-7353
▁élar	-7354
ham	-7355
▁survie	-7356
▁Lond	-7357
olesc	-7358
▁Dou	-7359
▁blanc	-7360
▁longueur	-7361
▁bâtiments	-7362
assade	-7363
▁cumul	-7364
▁accorder	-7365
▁médicale	-7366
▁conformer	-7367
attribution	-7368
▁transferts	-7369
KO	-7370
mins	-7371
▁150	-7372
▁3.2	-7373
▁4.1	-7374
ospit	-7375
▁aides	-7376
▁cible	-7377
▁démontrer	-7378
illets	-7379
▁récip	-7380
▁potable	-7381
▁témoins	-7382
▁rendue	-7383
▁lecture	-7384
ING	-7385
MENT	-7386
obtention	-7387
sb	-7388
▁den	-7389
DD	-7390
▁Commentaires	-7391
▁défaut	-7392
▁Bruxelles	-7393
▁difficulté	-7394
▁indépendants	-7395
auf	-7396
lines	-7397
▁tenus	-7398
▁saison	-7399
▁biom	-7400
▁constate	-7401
▁cata	-7402
HE	-7403
▁Moy	-7404
▁étranger	-7405
OG	-7406
▁chambre	-7407
▁quelles	-7408
▁législatif	-7409
▁territoriales	-7410
▁Administration	-7411
iteurs	-7412
mil	-7413
.),	-7414
▁croire	-7415
▁méthod	-7416
▁engagés	-7417
▁Amérique	-7418
bo	-7419
▁Taux	-7420
▁bactéri	-7421
▁différends	-7422
ANCE	-7423
intement	-7424
▁composante	-7425
▁Fre	-7426
▁augmente	-7427
▁om	-7428
▁CFP	-7429
▁stress	-7430
▁accru	-7431
▁transporteur	-7432
▁'	-7433
attants	-7434
▁chauff	-7435
▁littéra	-7436
▁Organisation	-7437
Ac	-7438
▁cell	-7439
▁considérées	-7440
▁Passer	-7441
▁positive	-7442
▁offrant	-7443
▁remplacé	-7444
▁Resp	-7445
▁invite	-7446
▁Oui	-7447
quement	-7448
▁définis	-7449
▁1987	-7450
▁voix	-7451
▁placement	-7452
lage	-7453
▁située	-7454
opposition	-7455
▁conclut	-7456
▁intitulée	-7457
▁réalisées	-7458
▁stations	-7459
▁propriétés	-7460
▁vieil	-7461
▁concr	-7462
pour	-7463
▁évolu	-7464
▁réflex	-7465
▁remplis	-7466
▁vient	-7467
▁cm	-7468
▁primaire	-7469
APP	-7470
▁dispositif	-7471
▁Agriculture	-7472
▁formulaires	-7473
RP	-7474
▁MAR	-7475
▁terminé	-7476
▁échelle	-7477
êtres	-7478
▁pertinence	-7479
effor	-7480
▁trib	-7481
▁échange	-7482
▁personn	-7483
▁incidences	-7484
▁Lang	-7485
attén	-7486
▁débu	-7487
DP	-7488
APEC	-7489
issait	-7490
jac	-7491
▁concert	-7492
▁remplacer	-7493
▁scénari	-7494
▁détection	-7495
▁autrement	-7496
▁Salle	-7497
▁sectori	-7498
chant	-7499
ortiss	-7500
▁primaires	-7501
▁précisément	-7502
▁entrepreneurs	-7503
▁Tel	-7504
▁fémin	-7505
▁mauvais	-7506
agner	-7507
leurs	-7508
car	-7509
fiées	-7510
3/	-7511
ound	-7512
ico	-7513
▁file	-7514
▁résident	-7515
▁déduction	-7516
OCDE	-7517
▁délivrance	-7518
lore	-7519
▁Camp	-7520
▁bout	-7521
▁condam	-7522
▁vivent	-7523
▁plate	-7524
▁agences	-7525
tablir	-7526
▁changer	-7527
▁stockage	-7528
née	-7529
veau	-7530
▁sédi	-7531
▁chrom	-7532
▁atteinte	-7533
Lab	-7534
▁RH	-7535
▁pouss	-7536
▁mm	-7537
▁pâ	-7538
▁iden	-7539
▁sols	-7540
▁explic	-7541
▁préparé	-7542
▁catastroph	-7543
▁ro	-7544
▁quels	-7545
▁collègues	-7546
▁descriptif	-7547
oient	-7548
▁flux	-7549
▁illé	-7550
▁toxiques	-7551
estiv	-7552
▁affili	-7553
▁contacts	-7554
▁quatrième	-7555
▁exc	-7556
autés	-7557
ologies	-7558
▁répert	-7559
▁cohésion	-7560
▁génie	-7561
▁stab	-7562
▁tableaux	-7563
▁versement	-7564
▁Produits	-7565
low	-7566
▁1.2	-7567
itaux	-7568
▁publiés	-7569
▁obligation	-7570
▁diab	-7571
▁troubles	-7572
stra	-7573
▁2.2	-7574
itude	-7575
istribu	-7576
▁2010	-7577
▁conjointement	-7578
▁Bell	-7579
ispens	-7580
▁effectivement	-7581
▁1.3	-7582
▁majeure	-7583
▁mobilité	-7584
▁Bibliothèque	-7585
iciens	-7586
▁immigrants	-7587
▁municipalités	-7588
▁Tex	-7589
tension	-7590
▁1/	-7591
▁mère	-7592
▁Micha	-7593
exemple	-7594
▁2000-200	-7595
▁tol	-7596
▁engagé	-7597
▁transfront	-7598
pi	-7599
▁amor	-7600
urants	-7601
▁thérapeu	-7602
▁Institute	-7603
▁pouvaient	-7604
▁seuls	-7605
▁subséqu	-7606
▁probable	-7607
ORS	-7608
tonie	-7609
effici	-7610
▁salle	-7611
oux	-7612
ford	-7613
▁LT	-7614
oyage	-7615
▁constante	-7616
61	-7617
▁Exemp	-7618
▁favorable	-7619
entrepren	-7620
gin	-7621
▁courrier	-7622
▁Bur	-7623
▁cont	-7624
▁partenaire	-7625
▁Lieu	-7626
SH	-7627
aqu	-7628
▁exces	-7629
▁2001-200	-7630
expertise	-7631
▁travaillé	-7632
▁ministériel	-7633
▁Ques	-7634
ologne	-7635
▁individuels	-7636
▁pose	-7637
▁seuil	-7638
▁députés	-7639
▁carburant	-7640
▁octro	-7641
▁proposés	-7642
ajor	-7643
▁Lis	-7644
▁Prix	-7645
▁immun	-7646
▁soldats	-7647
▁attribuable	-7648
▁transmettre	-7649
ésira	-7650
▁garanties	-7651
▁symb	-7652
▁River	-7653
▁collabor	-7654
▁suff	-7655
▁frontière	-7656
▁ministériels	-7657
▁débou	-7658
▁subi	-7659
▁consacré	-7660
▁indésira	-7661
amil	-7662
eries	-7663
ibres	-7664
▁portu	-7665
▁reflé	-7666
▁trouvé	-7667
ONU	-7668
▁RES	-7669
▁initial	-7670
▁navigation	-7671
irs	-7672
▁Amer	-7673
▁autorisés	-7674
▁administrateurs	-7675
rets	-7676
▁Suède	-7677
▁exécutif	-7678
▁chimique	-7679
▁machines	-7680
▁dens	-7681
▁district	-7682
▁puissance	-7683
▁biotechnologie	-7684
ros	-7685
entra	-7686
▁indispens	-7687
▁allégations	-7688
anche	-7689
▁combinaison	-7690
▁consommateur	-7691
MP	-7692
▁déplac	-7693
▁étudier	-7694
▁fonctionnaire	-7695
pore	-7696
▁polici	-7697
▁chargés	-7698
▁dessins	-7699
▁Victoria	-7700
▁amélioration	-7701
▁stable	-7702
▁compétentes	-7703
gements	-7704
▁candidature	-7705
▁relevé	-7706
▁lancement	-7707
illon	-7708
▁euro	-7709
▁pairs	-7710
Colombie	-7711
▁informer	-7712
▁web	-7713
gure	-7714
▁pilotes	-7715
▁regroupe	-7716
fre	-7717
▁facul	-7718
allé	-7719
▁GES	-7720
oulement	-7721
▁confront	-7722
avi	-7723
▁Peter	-7724
▁rajus	-7725
▁nett	-7726
▁éloi	-7727
▁Paul	-7728
▁lutter	-7729
62	-7730
▁préserver	-7731
▁ajus	-7732
ocuité	-7733
▁corruption	-7734
yste	-7735
▁violation	-7736
ouvrir	-7737
▁retourn	-7738
▁décideurs	-7739
▁interdit	-7740
Administration	-7741
▁exprimé	-7742
isée	-7743
▁afric	-7744
▁intégrés	-7745
▁sauvetage	-7746
▁mâ	-7747
▁lacs	-7748
▁adresse	-7749
▁identifier	-7750
hors	-7751
ott	-7752
over	-7753
▁ANNE	-7754
second	-7755
exploration	-7756
urées	-7757
▁aperçu	-7758
▁Turquie	-7759
▁Ko	-7760
▁Chef	-7761
partie	-7762
culaires	-7763
▁Commissaire	-7764
▁définit	-7765
▁ordonnance	-7766
▁portefeuille	-7767
▁atteints	-7768
▁câ	-7769
▁Main	-7770
atteinte	-7771
▁Prai	-7772
▁requérant	-7773
ican	-7774
▁aînés	-7775
cf	-7776
▁59	-7777
05	-7778
▁GR	-7779
▁routes	-7780
▁affirmé	-7781
▁buts	-7782
▁demandeurs	-7783
▁intervention	-7784
▁54	-7785
▁civils	-7786
▁annonce	-7787
▁américaine	-7788
dule	-7789
▁chev	-7790
Arctique	-7791
▁logiciels	-7792
▁Port	-7793
▁exportateurs	-7794
▁transporteurs	-7795
là	-7796
▁Fabrication	-7797
rlande	-7798
▁souples	-7799
▁JO	-7800
fond	-7801
▁dépôts	-7802
▁notion	-7803
▁passant	-7804
▁Relations	-7805
agé	-7806
▁gre	-7807
▁Sans	-7808
anique	-7809
▁Grands	-7810
▁cigare	-7811
▁mettent	-7812
▁marge	-7813
▁exhaus	-7814
▁disposer	-7815
▁tiennent	-7816
▁constater	-7817
▁comportements	-7818
▁offices	-7819
▁retrait	-7820
▁réalisée	-7821
▁soumises	-7822
▁uniforme	-7823
ailles	-7824
istent	-7825
▁conte	-7826
ORD	-7827
Pro	-7828
▁°	-7829
▁er	-7830
extra	-7831
▁ration	-7832
▁variations	-7833
oeuvre	-7834
▁acceptable	-7835
▁définitions	-7836
▁investisseurs	-7837
▁Seu	-7838
▁libéra	-7839
VA	-7840
▁axé	-7841
▁oeu	-7842
▁Ke	-7843
INE	-7844
▁[5	-7845
▁Act	-7846
▁ressort	-7847
▁supr	-7848
▁stric	-7849
▁privées	-7850
▁financés	-7851
▁accus	-7852
▁rappelle	-7853
mat	-7854
▁permettrait	-7855
image	-7856
▁Mots	-7857
▁incomp	-7858
▁réactions	-7859
▁touche	-7860
▁continent	-7861
▁Development	-7862
MAN	-7863
oise	-7864
inions	-7865
umin	-7866
▁restru	-7867
Labrador	-7868
ancien	-7869
▁écosystèmes	-7870
Ex	-7871
▁magn	-7872
▁étudié	-7873
▁commence	-7874
▁suspension	-7875
▁raisonnables	-7876
▁63	-7877
▁12,	-7878
▁ratta	-7879
▁habitats	-7880
▁ministérielle	-7881
éber	-7882
tilité	-7883
▁−	-7884
ufact	-7885
▁expliquer	-7886
nités	-7887
olumb	-7888
▁Questions	-7889
▁remarquer	-7890
▁opérationnelles	-7891
▁SERVICES	-7892
▁discrimin	-7893
aucune	-7894
▁demeurent	-7895
ev	-7896
sieur	-7897
▁signalé	-7898
und	-7899
▁procès	-7900
ECH	-7901
ÈRE	-7902
▁dangereux	-7903
▁habitants	-7904
▁distinction	-7905
▁Ro	-7906
sier	-7907
▁avan	-7908
▁pressions	-7909
▁imprimable	-7910
iii	-7911
▁délinquants	-7912
ôpitaux	-7913
▁dégra	-7914
▁effectifs	-7915
85	-7916
▁PPE	-7917
rient	-7918
▁fiscales	-7919
▁ressource	-7920
CL	-7921
acquit	-7922
▁délégations	-7923
▁intérimaire	-7924
▁chiffre	-7925
ordonnance	-7926
▁pertinente	-7927
▁approfondie	-7928
▁Cre	-7929
▁clari	-7930
▁désire	-7931
angements	-7932
▁Nos	-7933
onnés	-7934
▁OF	-7935
▁logiciel	-7936
cole	-7937
istait	-7938
▁observer	-7939
▁1994,	-7940
01-00	-7941
▁Coût	-7942
▁veulent	-7943
ney	-7944
▁61	-7945
▁accum	-7946
anglais	-7947
▁erreur	-7948
▁immeub	-7949
▁désigne	-7950
▁rigoure	-7951
▁pouvons	-7952
▁fils	-7953
▁affirme	-7954
▁particules	-7955
employés	-7956
▁véritable	-7957
ust	-7958
▁intr	-7959
endroit	-7960
méth	-7961
▁sympt	-7962
Industrie	-7963
▁accomplis	-7964
▁fondamentales	-7965
▁promoteur	-7966
▁And	-7967
▁chin	-7968
▁empêcher	-7969
▁génération	-7970
âtre	-7971
▁due	-7972
▁laisse	-7973
carb	-7974
tens	-7975
gènes	-7976
▁jugé	-7977
▁moderne	-7978
ministrateur	-7979
apport	-7980
▁chercher	-7981
veg	-7982
▁anticip	-7983
▁normale	-7984
hom	-7985
▁appliquée	-7986
Asie	-7987
▁formé	-7988
▁cinqu	-7989
.1)	-7990
▁Puis	-7991
▁fiscal	-7992
▁Society	-7993
▁drogue	-7994
tuellement	-7995
▁concernent	-7996
▁commissions	-7997
▁(4)	-7998
▁APP	-7999
ISION	-8000
▁détenus	-8001
▁2005-2006	-8002
▁fournitures	-8003
▁Bra	-8004
▁mac	-8005
▁incap	-8006
atrimoni	-8007
▁centrales	-8008
pir	-8009
provin	-8010
timent	-8011
▁accorde	-8012
▁directs	-8013
PD	-8014
INS	-8015
çon	-8016
▁traditionnel	-8017
▁desqu	-8018
▁Instru	-8019
▁access	-8020
▁détente	-8021
▁jugement	-8022
▁dépendance	-8023
lam	-8024
▁86	-8025
▁fili	-8026
▁régulière	-8027
gen	-8028
.6	-8029
▁Mor	-8030
illiam	-8031
▁exposé	-8032
lège	-8033
▁dév	-8034
▁$)	-8035
▁Columb	-8036
▁mémoire	-8037
▁corré	-8038
▁libération	-8039
▁posséd	-8040
▁blé	-8041
▁Public	-8042
duite	-8043
ester	-8044
ressé	-8045
▁Communication	-8046
ël	-8047
▁ouverte	-8048
▁Vis	-8049
▁divul	-8050
▁dépasse	-8051
▁continué	-8052
▁partager	-8053
▁indications	-8054
▁flex	-8055
▁monn	-8056
onald	-8057
jection	-8058
quemment	-8059
▁associée	-8060
EI	-8061
écart	-8062
▁évolution	-8063
-17	-8064
ercer	-8065
rante	-8066
▁déployés	-8067
▁intégrer	-8068
▁supérieures	-8069
▁Belgique	-8070
AIRES	-8071
▁débit	-8072
▁versé	-8073
▁renfer	-8074
ida	-8075
vergure	-8076
▁Organis	-8077
▁plafond	-8078
ières	-8079
▁allou	-8080
▁Analyse	-8081
▁législative	-8082
▁sûr	-8083
▁verser	-8084
▁énoncé	-8085
▁Edmonton	-8086
ix	-8087
▁âge	-8088
ciale	-8089
▁bons	-8090
▁1998.	-8091
▁Deuxième	-8092
▁désignée	-8093
▁milliard	-8094
▁employeur	-8095
▁therm	-8096
▁vraiment	-8097
▁présidence	-8098
tish	-8099
intend	-8100
▁bateaux	-8101
innocuité	-8102
▁Note	-8103
▁migra	-8104
ERN	-8105
▁joué	-8106
▁élarg	-8107
▁géographiques	-8108
MS	-8109
▁pense	-8110
▁sanctions	-8111
▁invités	-8112
▁contiennent	-8113
▁poser	-8114
▁Bos	-8115
▁impacts	-8116
.);	-8117
eté	-8118
▁renvoi	-8119
éléments	-8120
▁fiscaux	-8121
▁exclusivement	-8122
,00	-8123
harmonisation	-8124
▁Ceci	-8125
hypoth	-8126
▁accidents	-8127
échantillon	-8128
iteur	-8129
gner	-8130
érateurs	-8131
▁exploiter	-8132
alk	-8133
crite	-8134
▁ANNEXE	-8135
▁confirmé	-8136
▁discours	-8137
UT	-8138
ola	-8139
▁brut	-8140
▁annuelles	-8141
▁influence	-8142
▁dil	-8143
▁DANS	-8144
▁vingt	-8145
Laurent	-8146
alistes	-8147
way	-8148
épar	-8149
ocats	-8150
augmenter	-8151
▁définitive	-8152
▁Fe	-8153
▁claire	-8154
▁Ju	-8155
▁MA	-8156
▁éloign	-8157
lèvement	-8158
influence	-8159
▁décrites	-8160
▁précision	-8161
02	-8162
DO	-8163
▁proxim	-8164
▁ultérieure	-8165
▁TC	-8166
▁pou	-8167
itants	-8168
▁durables	-8169
▁exercices	-8170
andu	-8171
▁douane	-8172
▁Gazette	-8173
▁antérieures	-8174
▁extrêmement	-8175
▁juridiction	-8176
by	-8177
▁instance	-8178
kg	-8179
▁sch	-8180
▁gouverneur	-8181
▁1990,	-8182
▁alinéas	-8183
▁existant	-8184
UBL	-8185
chée	-8186
▁Bus	-8187
▁qual	-8188
▁colonne	-8189
▁invo	-8190
▁entraîne	-8191
-31	-8192
▁baie	-8193
▁exac	-8194
érable	-8195
gov	-8196
▁Alb	-8197
angers	-8198
miques	-8199
▁décret	-8200
▁concerné	-8201
▁destruction	-8202
▁Conse	-8203
ONT	-8204
oug	-8205
▁autor	-8206
▁compétente	-8207
adapter	-8208
itables	-8209
▁jouent	-8210
▁marketing	-8211
▁agriculteurs	-8212
▁Corée	-8213
▁substanti	-8214
▁efficacité	-8215
spec	-8216
aliste	-8217
tination	-8218
▁investissement	-8219
émor	-8220
kraine	-8221
ataires	-8222
▁fichiers	-8223
▁intention	-8224
▁déclare	-8225
▁étroitement	-8226
ovis	-8227
▁devenu	-8228
▁diplom	-8229
▁prescrit	-8230
▁polluants	-8231
▁colon	-8232
importe	-8233
▁positifs	-8234
▁traitées	-8235
▁vêtements	-8236
▁coordonner	-8237
▁faisait	-8238
▁néanmoins	-8239
liance	-8240
▁PRÉ	-8241
lètes	-8242
adopter	-8243
uxemb	-8244
▁Quand	-8245
▁dangereuses	-8246
▁extérieures	-8247
▁répondent	-8248
▁salub	-8249
▁cultiv	-8250
▁infractions	-8251
▁industrielles	-8252
▁tu	-8253
▁collection	-8254
▁perception	-8255
▁1-8	-8256
▁déro	-8257
▁juges	-8258
▁William	-8259
gué	-8260
▁association	-8261
cal	-8262
▁rouge	-8263
▁considérant	-8264
57	-8265
▁94	-8266
▁sexuelle	-8267
▁vulnérables	-8268
▁séjour	-8269
▁obligatoires	-8270
▁[...	-8271
iliation	-8272
itecture	-8273
▁installation	-8274
ym	-8275
Esp	-8276
▁Mad	-8277
▁moindre	-8278
▁infraction	-8279
-14	-8280
▁nuit	-8281
▁2007-200	-8282
itions	-8283
▁participe	-8284
ardi	-8285
▁hor	-8286
▁pond	-8287
acide	-8288
ardeau	-8289
▁2006-2007	-8290
▁scolaires	-8291
oriser	-8292
validité	-8293
OUV	-8294
rains	-8295
▁Projets	-8296
identifier	-8297
▁recensement	-8298
érité	-8299
▁Lacs	-8300
▁relè	-8301
▁scène	-8302
mentation	-8303
▁commandant	-8304
sives	-8305
▁égal	-8306
▁recouvrement	-8307
▁tre	-8308
▁Fait	-8309
▁sort	-8310
▁rendus	-8311
▁profondeur	-8312
▁ferroviaire	-8313
cons	-8314
▁litige	-8315
▁sauvages	-8316
▁établissant	-8317
bec	-8318
▁complex	-8319
▁biblioth	-8320
▁disposent	-8321
▁appliquées	-8322
ULT	-8323
appu	-8324
ducteurs	-8325
lité	-8326
▁Group	-8327
▁PO	-8328
tile	-8329
oxyde	-8330
▁CONS	-8331
avocat	-8332
▁Ville	-8333
▁Europé	-8334
▁mentionnés	-8335
▁Environment	-8336
try	-8337
▁Supp	-8338
▁débats	-8339
PM	-8340
▁int	-8341
clure	-8342
ozone	-8343
▁champs	-8344
▁Sciences	-8345
▁Outre	-8346
▁varie	-8347
▁Quoi	-8348
▁superficie	-8349
▁volontaire	-8350
▁inu	-8351
èlement	-8352
▁variation	-8353
▁collaborer	-8354
cée	-8355
▁Conf	-8356
▁Id	-8357
▁coûte	-8358
▁120	-8359
▁précisé	-8360
▁calculer	-8361
▁indépendante	-8362
▁fixer	-8363
offres	-8364
▁James	-8365
▁Gouver	-8366
▁couvrir	-8367
▁Roumanie	-8368
▁minimale	-8369
▁concurrenti	-8370
ciplin	-8371
ige	-8372
arriv	-8373
accroissement	-8374
▁URL	-8375
▁entrée	-8376
▁références	-8377
▁Constitution	-8378
/10	-8379
▁ACC	-8380
▁Méth	-8381
analys	-8382
LO	-8383
TH	-8384
ive	-8385
▁Net	-8386
rières	-8387
▁réelle	-8388
▁kg	-8389
▁fol	-8390
▁sac	-8391
▁circu	-8392
▁solde	-8393
▁définies	-8394
▁Jo	-8395
isés	-8396
▁mas	-8397
oulent	-8398
▁légèrement	-8399
PDF	-8400
cil	-8401
▁Données	-8402
▁accéder	-8403
émissions	-8404
▁organisée	-8405
▁aquatiques	-8406
▁méd	-8407
▁frau	-8408
▁recycl	-8409
▁œuvres	-8410
avancement	-8411
▁différente	-8412
évent	-8413
▁vété	-8414
▁restruct	-8415
ano	-8416
inage	-8417
▁sauveg	-8418
-25	-8419
▁DR	-8420
▁he	-8421
▁Stu	-8422
ataire	-8423
ampleur	-8424
▁Michael	-8425
▁combler	-8426
▁formuler	-8427
▁entrevues	-8428
▁Mi	-8429
▁possession	-8430
rÃ	-8431
▁réparation	-8432
▁mat	-8433
▁Index	-8434
▁future	-8435
▁pénale	-8436
gel	-8437
▁(«	-8438
▁cre	-8439
aculture	-8440
iversaire	-8441
▁équilibre	-8442
Tra	-8443
▁invité	-8444
▁option	-8445
▁pharmaceutiques	-8446
3]	-8447
▁retenue	-8448
▁versées	-8449
▁marins	-8450
▁versés	-8451
▁Jusqu	-8452
agré	-8453
▁201	-8454
▁Disc	-8455
▁payés	-8456
ted	-8457
▁Pet	-8458
▁existent	-8459
▁Fourn	-8460
▁inqui	-8461
▁RELATI	-8462
▁phosph	-8463
▁candidates	-8464
▁intra	-8465
▁saumon	-8466
▁%).	-8467
▁hôpitaux	-8468
▁ressortiss	-8469
▁environnemental	-8470
▁72	-8471
▁Bu	-8472
▁signes	-8473
cédemment	-8474
▁©	-8475
/05	-8476
▁étiqu	-8477
▁Réponse	-8478
▁TIC	-8479
résil	-8480
intimé	-8481
agissant	-8482
▁fréquent	-8483
Les	-8484
▁positif	-8485
▁rapporteur	-8486
▁peuple	-8487
▁excédent	-8488
78	-8489
▁Lou	-8490
▁standard	-8491
▁positions	-8492
▁suprême	-8493
épendance	-8494
▁Néanmoins	-8495
-=	-8496
▁entour	-8497
▁Formation	-8498
avance	-8499
▁Quant	-8500
▁précédemment	-8501
JET	-8502
▁signe	-8503
▁déposer	-8504
▁reflète	-8505
bonne	-8506
▁ATTEN	-8507
▁domes	-8508
▁2004-2005	-8509
▁approuvés	-8510
▁produisent	-8511
▁rapportant	-8512
▁judiciaires	-8513
▁suffisante	-8514
100	-8515
▁Av	-8516
▁Accès	-8517
▁réflexion	-8518
▁autorisations	-8519
▁84	-8520
seur	-8521
emark	-8522
immun	-8523
▁penser	-8524
▁postsecond	-8525
▁fardeau	-8526
▁mouvements	-8527
ispr	-8528
onneur	-8529
▁Finlande	-8530
▁1988	-8531
alisée	-8532
▁proposer	-8533
▁réexamen	-8534
▁médicales	-8535
-30	-8536
/01	-8537
éter	-8538
▁ath	-8539
▁dates	-8540
▁donnant	-8541
triche	-8542
▁diplôme	-8543
▁diam	-8544
▁dépar	-8545
endrait	-8546
institu	-8547
▁fusion	-8548
▁adolesc	-8549
▁quantita	-8550
if	-8551
▁courte	-8552
ertés	-8553
FM	-8554
idémi	-8555
▁that	-8556
▁délib	-8557
artis	-8558
▁décrire	-8559
▁citoyenneté	-8560
▁profes	-8561
▁répondant	-8562
}\	-8563
▁pp	-8564
▁attén	-8565
▁quelcon	-8566
▁Mark	-8567
▁faute	-8568
▁phénomène	-8569
▁96	-8570
▁5.1	-8571
▁étage	-8572
▁douani	-8573
▁souter	-8574
ashington	-8575
▁favorise	-8576
▁exposition	-8577
▁foi	-8578
actifs	-8579
▁vérificateur	-8580
nées	-8581
▁laboratoires	-8582
▁puits	-8583
▁acides	-8584
accessibilité	-8585
œur	-8586
tifié	-8587
▁synthèse	-8588
.7	-8589
urait	-8590
posage	-8591
▁achats	-8592
▁report	-8593
▁communiqué	-8594
▁criminalité	-8595
▁62	-8596
▁73	-8597
▁Fort	-8598
▁excell	-8599
étiquetage	-8600
inv	-8601
▁compren	-8602
▁destinée	-8603
-13	-8604
-28	-8605
▁Point	-8606
▁Portu	-8607
▁Sommet	-8608
▁respira	-8609
▁autorité	-8610
▁obtenues	-8611
▁Transport	-8612
nex	-8613
aucun	-8614
▁dénom	-8615
▁fermet	-8616
mique	-8617
▁déterminées	-8618
osystème	-8619
▁couleur	-8620
▁correspondance	-8621
."	-8622
:00	-8623
▁emprun	-8624
▁flexib	-8625
▁révisée	-8626
▁entendre	-8627
▁maritimes	-8628
▁représenter	-8629
▁vaccin	-8630
▁Columbia	-8631
éance	-8632
▁1989	-8633
▁copies	-8634
▁appliqué	-8635
ram	-8636
ouris	-8637
▁activ	-8638
▁SR	-8639
▁Marine	-8640
▁objets	-8641
▁Montant	-8642
▁effectif	-8643
torat	-8644
▁sait	-8645
▁British	-8646
▁déclarer	-8647
▁proximité	-8648
▁circonscription	-8649
oct	-8650
▁dent	-8651
omique	-8652
▁amendements	-8653
▁Eur	-8654
▁pla	-8655
équival	-8656
▁contraintes	-8657
▁dehors	-8658
▁variété	-8659
▁Communautés	-8660
HV	-8661
exercer	-8662
))	-8663
▁neur	-8664
allage	-8665
attente	-8666
agence	-8667
▁Respons	-8668
▁budgets	-8669
▁Afghanistan	-8670
aller	-8671
▁manufact	-8672
importantes	-8673
▁vieillissement	-8674
.»	-8675
▁industrie	-8676
▁$,	-8677
▁Coordonn	-8678
▁expliqué	-8679
onné	-8680
▁usées	-8681
▁cohérence	-8682
▁confirmer	-8683
▁travaillant	-8684
apit	-8685
▁Figure	-8686
/8	-8687
FI	-8688
▁1997.	-8689
▁[...]	-8690
▁résidus	-8691
ayant	-8692
▁vraise	-8693
euses	-8694
▁plomb	-8695
▁pêcheurs	-8696
▁greff	-8697
-16	-8698
END	-8699
▁mètres	-8700
dir	-8701
▁CT	-8702
osent	-8703
▁express	-8704
impression	-8705
▁Rom	-8706
▁Objectifs	-8707
▁considérables	-8708
eral	-8709
ajout	-8710
indic	-8711
▁Prov	-8712
liquez	-8713
Air	-8714
EMENTS	-8715
▁Contra	-8716
▁Pologne	-8717
▁supervise	-8718
grédi	-8719
▁noté	-8720
▁pesti	-8721
▁réels	-8722
▁couvre	-8723
▁erreurs	-8724
▁immobiliers	-8725
▁équipements	-8726
endice	-8727
▁reçue	-8728
▁visibles	-8729
▁justifier	-8730
----------------	-8731
▁Pi	-8732
isses	-8733
▁ATTENDU	-8734
▁reconnus	-8735
Emp	-8736
ITS	-8737
atie	-8738
▁égale	-8739
▁toxicom	-8740
▁registres	-8741
▁76	-8742
azote	-8743
▁témoin	-8744
▁requérante	-8745
▁expressions	-8746
▁Gro	-8747
▁[2]	-8748
▁vues	-8749
▁Sénat	-8750
▁Suisse	-8751
▁informatique	-8752
▁Brésil	-8753
▁auparavant	-8754
▁Ali	-8755
▁Wor	-8756
▁Appro	-8757
▁ciném	-8758
▁renouvelables	-8759
▁gl	-8760
▁inclut	-8761
▁hauteur	-8762
▁quotidien	-8763
▁viabilité	-8764
ko	-8765
▁ryth	-8766
▁similaire	-8767
interdiction	-8768
bur	-8769
opéra	-8770
▁mentionnées	-8771
▁But	-8772
▁lanc	-8773
▁urbain	-8774
▁difficiles	-8775
▁certificats	-8776
▁McG	-8777
gramme	-8778
ling	-8779
▁olymp	-8780
▁comptabilité	-8781
▁Votre	-8782
▁George	-8783
▁correspondent	-8784
▁Hy	-8785
▁Mil	-8786
outils	-8787
▁aband	-8788
▁dispens	-8789
▁populaire	-8790
atrices	-8791
▁protéines	-8792
▁détaillées	-8793
▁OT	-8794
▁Contexte	-8795
▁diminuer	-8796
▁libertés	-8797
▁prévoient	-8798
-19	-8799
▁aires	-8800
▁orientation	-8801
bon	-8802
ÉRI	-8803
omen	-8804
▁cérém	-8805
▁défav	-8806
▁fondement	-8807
▁naturelle	-8808
▁britannique	-8809
fice	-8810
▁axés	-8811
▁path	-8812
▁basée	-8813
▁courants	-8814
▁suffisant	-8815
▁producteur	-8816
▁quelconque	-8817
▁aigu	-8818
ologues	-8819
▁souches	-8820
▁critiques	-8821
-27	-8822
ache	-8823
▁MIN	-8824
▁Syn	-8825
▁commandes	-8826
ICATION	-8827
▁Italie	-8828
▁rejets	-8829
▁diabète	-8830
work	-8831
▁Notes	-8832
▁incombe	-8833
▁réductions	-8834
▁sensibiliser	-8835
▁Etat	-8836
▁2008.	-8837
▁métab	-8838
appareil	-8839
tagne	-8840
▁accepter	-8841
▁AUX	-8842
▁futur	-8843
▁retrouve	-8844
endes	-8845
▁PARTI	-8846
isprudence	-8847
▁nominations	-8848
opt	-8849
▁Durant	-8850
▁desserv	-8851
▁protégées	-8852
▁AS	-8853
ough	-8854
▁probabilité	-8855
▁maîtrise	-8856
entraînement	-8857
▁péd	-8858
▁tal	-8859
▁mixte	-8860
▁sommaire	-8861
échantillonnage	-8862
acier	-8863
époque	-8864
▁bilan	-8865
▁euros	-8866
▁fondés	-8867
09	-8868
ilib	-8869
lets	-8870
▁forêt	-8871
atelier	-8872
http	-8873
▁changé	-8874
lène	-8875
orial	-8876
▁Chris	-8877
tieuses	-8878
▁ajouter	-8879
médiaires	-8880
▁opinions	-8881
ols	-8882
▁RS	-8883
neau	-8884
▁vac	-8885
▁conçus	-8886
▁arriver	-8887
▁arrêt	-8888
▁contrôleur	-8889
▁échantillon	-8890
▁81	-8891
▁mam	-8892
▁agir	-8893
▁envoyé	-8894
▁électeurs	-8895
▁dimensions	-8896
▁combattants	-8897
0.	-8898
undi	-8899
▁COS	-8900
arrivée	-8901
GI	-8902
oon	-8903
▁lancer	-8904
utilisateur	-8905
58	-8906
▁Financement	-8907
19)	-8908
▁dessin	-8909
▁possèdent	-8910
▁mou	-8911
▁rus	-8912
▁prélev	-8913
atténuation	-8914
cad	-8915
sta	-8916
▁13,	-8917
▁retomb	-8918
▁comptables	-8919
BR	-8920
▁admis	-8921
▁entité	-8922
lissements	-8923
▁salubrité	-8924
hal	-8925
▁XX	-8926
ities	-8927
▁Medic	-8928
▁repas	-8929
▁Réserve	-8930
LC	-8931
▁glace	-8932
▁major	-8933
▁Danemark	-8934
▁soumissionn	-8935
▁RN	-8936
▁̈s	-8937
▁Devis	-8938
▁tenues	-8939
OMS	-8940
▁MC	-8941
▁illég	-8942
/06	-8943
▁sil	-8944
▁lire	-8945
▁remettre	-8946
▁film	-8947
apporter	-8948
▁densité	-8949
▁Surveill	-8950
▁stimuler	-8951
▁symptômes	-8952
▁ˆ	-8953
estimation	-8954
▁Rapporteur	-8955
▁migration	-8956
▁Sy	-8957
appréci	-8958
▁OR	-8959
▁Peu	-8960
▁gagn	-8961
▁sollic	-8962
▁Vérification	-8963
▁4.2	-8964
wn	-8965
idu	-8966
▁Considérant	-8967
ject	-8968
▁lev	-8969
▁vendu	-8970
▁aspect	-8971
▁INTER	-8972
▁Général	-8973
hc	-8974
▁83	-8975
imer	-8976
▁fibres	-8977
▁marine	-8978
▁Bre	-8979
▁obstacle	-8980
ics	-8981
▁situées	-8982
▁assistance	-8983
def	-8984
-=-=	-8985
▁député	-8986
▁escomp	-8987
événement	-8988
▁Lisbonne	-8989
▁Washington	-8990
iterran	-8991
▁reliés	-8992
▁Council	-8993
▁Cer	-8994
ultan	-8995
▁émer	-8996
▁Trois	-8997
▁vivre	-8998
▁kilom	-8999
▁déficit	-9000
▁1992,	-9001
▁conjointe	-9002
isées	-9003
uxembourg	-9004
ene	-9005
mbler	-9006
▁accident	-9007
ung	-9008
▁Statistiques	-9009
COM	-9010
▁700	-9011
▁pror	-9012
tières	-9013
aniques	-9014
▁mélange	-9015
▁privilégi	-9016
▁nourriture	-9017
▁anniversaire	-9018
▁Union	-9019
▁ouest	-9020
▁adéquate	-9021
▁relèvent	-9022
ébergement	-9023
▁infectieuses	-9024
OPIC	-9025
▁EUROP	-9026
▁logements	-9027
infra	-9028
▁mine	-9029
assification	-9030
jets	-9031
▁couche	-9032
▁diplôm	-9033
▁satellite	-9034
ÉD	-9035
▁±	-9036
EST	-9037
▁3.3	-9038
▁célé	-9039
élargissement	-9040
▁Sus	-9041
▁2008,	-9042
▁Objectif	-9043
▁construc	-9044
▁rubrique	-9045
ACIA	-9046
▁considérations	-9047
0\	-9048
por	-9049
▁Vol	-9050
▁Alors	-9051
▁sommet	-9052
▁publiée	-9053
▁indiqués	-9054
▁disparition	-9055
▁indésirables	-9056
▁résulte	-9057
▁détaillé	-9058
▁EC	-9059
matiques	-9060
▁construire	-9061
▁infirmières	-9062
ATS	-9063
APECA	-9064
▁qualifiés	-9065
▁scolarité	-9066
▁Faire	-9067
▁intégrante	-9068
rob	-9069
▁15,	-9070
▁tch	-9071
▁souhaitent	-9072
▁proviennent	-9073
▁Let	-9074
partement	-9075
isement	-9076
▁indiquée	-9077
▁validité	-9078
▁illustr	-9079
▁contaminants	-9080
▁iii	-9081
▁optim	-9082
▁ingrédi	-9083
Re	-9084
VI	-9085
cis	-9086
ave	-9087
▁préci	-9088
▁Grande	-9089
▁Prairies	-9090
CHE	-9091
▁Jac	-9092
▁vétérin	-9093
▁négatifs	-9094
▁99	-9095
▁2.3	-9096
▁Téléc	-9097
▁ménages	-9098
▁terroristes	-9099
miner	-9100
éronef	-9101
▁expliqu	-9102
▁compléter	-9103
▁AP	-9104
▁saine	-9105
▁maisons	-9106
▁Portugal	-9107
▁éventuels	-9108
▁individuelles	-9109
xx	-9110
cton	-9111
▁ports	-9112
▁contenus	-9113
▁prévision	-9114
▁GI	-9115
arme	-9116
▁Asie	-9117
▁1993,	-9118
disciplin	-9119
▁CANADIEN	-9120
▁complexité	-9121
▁Gé	-9122
▁jeune	-9123
▁Martin	-9124
▁affectés	-9125
(4)	-9126
allait	-9127
▁fixés	-9128
avantages	-9129
▁We	-9130
ENCE	-9131
major	-9132
▁Laur	-9133
▁Genève	-9134
▁exigence	-9135
dium	-9136
▁NON	-9137
▁oui	-9138
équip	-9139
▁humides	-9140
▁laisser	-9141
▁spectre	-9142
gy	-9143
▁devoir	-9144
issariat	-9145
▁minière	-9146
▁officiellement	-9147
▁ronde	-9148
▁avenir	-9149
aliments	-9150
▁chemins	-9151
▁pesticides	-9152
berg	-9153
▁enfin	-9154
ya	-9155
arn	-9156
▁Sol	-9157
▁épr	-9158
/2006	-9159
▁arbres	-9160
▁correctement	-9161
▁cesse	-9162
inclusion	-9163
▁détermine	-9164
▁préoccupation	-9165
▁justif	-9166
atisation	-9167
▁---	-9168
▁contrac	-9169
▁capitale	-9170
▁électrique	-9171
▁8.	-9172
▁rati	-9173
▁Grèce	-9174
exigence	-9175
▁biodi	-9176
▁classes	-9177
▁entraîné	-9178
▁Communiqués	-9179
▁confidentialité	-9180
oï	-9181
▁Ol	-9182
UCTION	-9183
utée	-9184
▁lait	-9185
▁Travail	-9186
▁recueillies	-9187
TAWA	-9188
▁Syste	-9189
tocoles	-9190
▁révisé	-9191
▁seules	-9192
▁joindre	-9193
RS	-9194
sur	-9195
AINC	-9196
▁fur	-9197
orpor	-9198
▁rythme	-9199
initiatives	-9200
▁Management	-9201
08	-9202
ami	-9203
empê	-9204
▁magas	-9205
▁suggestions	-9206
Cl	-9207
aurer	-9208
▁tomb	-9209
▁migrants	-9210
▁publiées	-9211
▁favorisant	-9212
▁présidente	-9213
▁jurisprudence	-9214
▁93	-9215
▁trim	-9216
auvres	-9217
▁commandement	-9218
ADN	-9219
▁sédiments	-9220
▁déploiement	-9221
CA	-9222
ASS	-9223
ison	-9224
▁bio	-9225
▁annonc	-9226
▁évident	-9227
▁examinés	-9228
instrument	-9229
▁numériques	-9230
Comm	-9231
▁rester	-9232
PH	-9233
Eur	-9234
▁FA	-9235
léch	-9236
▁pan	-9237
▁sav	-9238
▁réduite	-9239
▁Canadien	-9240
▁effectue	-9241
▁bénéficient	-9242
▁RÉS	-9243
▁calculé	-9244
▁expressément	-9245
▁consécu	-9246
▁permanents	-9247
JO	-9248
ular	-9249
/2007	-9250
▁affér	-9251
▁Aperçu	-9252
éti	-9253
▁dons	-9254
▁poursuites	-9255
▁terrestres	-9256
▁Del	-9257
ortée	-9258
▁grie	-9259
Annexe	-9260
▁courantes	-9261
icy	-9262
▁TÉ	-9263
▁logique	-9264
ky	-9265
Inde	-9266
diteurs	-9267
▁cerner	-9268
▁tirées	-9269
▁vaccins	-9270
université	-9271
ROU	-9272
▁LC	-9273
anol	-9274
▁Dos	-9275
tième	-9276
▁fumer	-9277
▁avocats	-9278
▁conduit	-9279
▁Monsieur	-9280
▁autorisées	-9281
▁progresser	-9282
63	-9283
locu	-9284
▁Tarif	-9285
▁moteurs	-9286
lay	-9287
crivez	-9288
▁causé	-9289
▁pauvres	-9290
▁officiels	-9291
non	-9292
▁décrits	-9293
phab	-9294
▁Luxembourg	-9295
▁écologiques	-9296
▁194	-9297
▁concepts	-9298
▁sensible	-9299
-99	-9300
cule	-9301
▁Dès	-9302
▁prenant	-9303
opérations	-9304
▁Production	-9305
▁grandement	-9306
élic	-9307
▁viande	-9308
▁Personne	-9309
▁Water	-9310
▁solid	-9311
▁dépens	-9312
▁recourir	-9313
▁Smith	-9314
▁récents	-9315
▁reprises	-9316
hr	-9317
ographies	-9318
▁éducation	-9319
▁caractères	-9320
▁69	-9321
▁Comb	-9322
default	-9323
▁croissante	-9324
▁combustible	-9325
TICLE	-9326
▁chir	-9327
▁audiovis	-9328
▁contractu	-9329
▁professeur	-9330
▁»)	-9331
rale	-9332
▁convaincu	-9333
▁horizont	-9334
économiques	-9335
▁71	-9336
irement	-9337
▁Initiative	-9338
hou	-9339
rome	-9340
▁are	-9341
tants	-9342
aviation	-9343
économique	-9344
sses	-9345
▁leçons	-9346
▁bénéfice	-9347
▁éliminer	-9348
▁redevances	-9349
atin	-9350
▁axées	-9351
▁films	-9352
espèces	-9353
▁précédentes	-9354
▁spécialement	-9355
▁perdu	-9356
orption	-9357
▁engagées	-9358
▁Prince	-9359
ITE	-9360
▁Bon	-9361
▁Men	-9362
encer	-9363
▁intermédiaires	-9364
orb	-9365
▁82	-9366
incer	-9367
venant	-9368
▁amélioré	-9369
▁demeurer	-9370
▁spécialisées	-9371
▁Kos	-9372
▁Sim	-9373
ivant	-9374
clusions	-9375
▁sentiment	-9376
▁intérieure	-9377
▁Pop	-9378
▁soumise	-9379
▁exploitation	-9380
IGN	-9381
▁14,	-9382
garie	-9383
▁Contre	-9384
▁ajoute	-9385
▁tor	-9386
▁fournissant	-9387
geant	-9388
étend	-9389
▁convainc	-9390
▁femelles	-9391
▁sanction	-9392
▁envisager	-9393
▁DÉC	-9394
partment	-9395
▁délégués	-9396
▁infrastructure	-9397
▁%),	-9398
▁[5]	-9399
▁religi	-9400
▁écarts	-9401
▁journaux	-9402
▁supervision	-9403
▁74	-9404
vège	-9405
▁urg	-9406
▁demi	-9407
▁préco	-9408
▁Matéri	-9409
▁offertes	-9410
▁organiques	-9411
▁Département	-9412
GM	-9413
verse	-9414
▁Phili	-9415
▁Couronne	-9416
/5	-9417
opage	-9418
▁dûment	-9419
▁interjet	-9420
▁protégés	-9421
▁approuvée	-9422
▁éventuellement	-9423
NI	-9424
dez	-9425
▁Cas	-9426
▁DORS	-9427
▁entra	-9428
▁corpore	-9429
▁estiment	-9430
▁événement	-9431
agnes	-9432
iness	-9433
▁consultez	-9434
habil	-9435
▁céré	-9436
▁déchar	-9437
▁restent	-9438
04	-9439
▁wh	-9440
▁Niveau	-9441
▁multic	-9442
▁intégrées	-9443
03	-9444
ovine	-9445
alisées	-9446
▁capable	-9447
encourager	-9448
▁retombées	-9449
▁cotisation	-9450
▁communiqués	-9451
▁financé	-9452
▁ethnique	-9453
bal	-9454
uil	-9455
▁concevoir	-9456
▁pÃ	-9457
amine	-9458
▁cœur	-9459
▁aidera	-9460
▁reprise	-9461
▁Documents	-9462
▁formulation	-9463
ignant	-9464
▁communique	-9465
▁conscience	-9466
outh	-9467
▁vent	-9468
urances	-9469
▁ancien	-9470
▁déclin	-9471
▁normal	-9472
intégrer	-9473
articles	-9474
▁déterminés	-9475
▁Mul	-9476
chées	-9477
estival	-9478
▁Observ	-9479
▁exerce	-9480
▁arguments	-9481
___	-9482
▁Indic	-9483
NO	-9484
ÉES	-9485
▁sin	-9486
▁Registre	-9487
▁2003-2004	-9488
▁images	-9489
▁minéraux	-9490
▁restauration	-9491
4]	-9492
ATE	-9493
olue	-9494
énoncé	-9495
▁voire	-9496
plus	-9497
▁(20	-9498
▁lou	-9499
▁tac	-9500
▁issus	-9501
▁officiers	-9502
▁individuelle	-9503
-1,	-9504
ADRC	-9505
▁côtière	-9506
▁limitées	-9507
▁licenciée	-9508
▁pertinent	-9509
gués	-9510
▁devi	-9511
▁exceptions	-9512
▁restriction	-9513
▁contractante	-9514
rol	-9515
▁exon	-9516
▁retenues	-9517
▁éli	-9518
engage	-9519
▁porta	-9520
▁mÃ	-9521
▁armées	-9522
▁nucléaires	-9523
▁générations	-9524
administrateur	-9525
▁mondialisation	-9526
▁Bull	-9527
▁atteintes	-9528
olfe	-9529
▁COR	-9530
▁altern	-9531
▁produites	-9532
▁sensibles	-9533
▁souplesse	-9534
FA	-9535
ANG	-9536
CNRC	-9537
accum	-9538
organisations	-9539
▁subdi	-9540
▁morale	-9541
▁veille	-9542
ainissement	-9543
▁interprétation	-9544
Bre	-9545
▁FIN	-9546
▁mercure	-9547
entrepreneur	-9548
5),	-9549
érie	-9550
▁Jan	-9551
▁contaminés	-9552
▁ministérielles	-9553
▁TI	-9554
▁méta	-9555
▁crédi	-9556
▁COMMUN	-9557
agissait	-9558
▁assumer	-9559
▁simples	-9560
▁variable	-9561
▁hautement	-9562
sa	-9563
TRES	-9564
umes	-9565
▁monnaie	-9566
▁arrive	-9567
▁produite	-9568
▁simultan	-9569
▁législatifs	-9570
▁compensation	-9571
lÃ	-9572
CAN	-9573
années	-9574
▁900	-9575
▁Colle	-9576
▁conversion	-9577
▁durabilité	-9578
▁bibliothèques	-9579
▁proche	-9580
▁Espagne	-9581
▁mondiaux	-9582
72	-9583
-21	-9584
dans	-9585
inves	-9586
▁exigent	-9587
▁matériels	-9588
▁indication	-9589
▁boî	-9590
▁transaction	-9591
/2	-9592
▁CES	-9593
▁apporté	-9594
▁branche	-9595
▁coopératives	-9596
FORM	-9597
▁1,5	-9598
▁tél	-9599
Australie	-9600
▁habil	-9601
effectif	-9602
▁4)	-9603
comme	-9604
▁causer	-9605
▁restructuration	-9606
ug	-9607
▁MM	-9608
esses	-9609
▁OTTAWA	-9610
▁formulées	-9611
isez	-9612
activ	-9613
▁effort	-9614
▁signaler	-9615
▁recyclage	-9616
▁adolescents	-9617
▁Law	-9618
▁Rep	-9619
▁revanche	-9620
▁5.2	-9621
▁veill	-9622
▁Mission	-9623
AIS	-9624
engager	-9625
▁élabore	-9626
ouler	-9627
ôture	-9628
▁paye	-9629
▁récolte	-9630
▁indemnités	-9631
▁indispensable	-9632
▁additionnels	-9633
SEIL	-9634
ajouter	-9635
viation	-9636
▁Membres	-9637
▁diplômés	-9638
▁manuel	-9639
▁Pas	-9640
▁vall	-9641
▁fonctionner	-9642
▁AB	-9643
raser	-9644
atmosph	-9645
▁rejeté	-9646
▁volets	-9647
▁adaptés	-9648
▁connaît	-9649
▁athlètes	-9650
▁fermeture	-9651
▁attribuables	-9652
(2	-9653
▁unies	-9654
▁démons	-9655
▁impôts	-9656
▁Journée	-9657
▁poursuit	-9658
▁assujettis	-9659
▁fondamental	-9660
ajus	-9661
▁atelier	-9662
▁détention	-9663
▁municipalité	-9664
ja	-9665
▁DEO	-9666
▁dangers	-9667
▁illustre	-9668
ands	-9669
▁définie	-9670
▁intervenir	-9671
▁fondamentale	-9672
–200	-9673
▁envisage	-9674
▁Politiques	-9675
▁intermédiaire	-9676
▁**	-9677
▁exiger	-9678
▁fraction	-9679
▁IT	-9680
▁SCR	-9681
judici	-9682
▁cardi	-9683
▁félic	-9684
▁contrepartie	-9685
▁anc	-9686
▁broch	-9687
▁décel	-9688
alogues	-9689
▁ordres	-9690
07	-9691
▁	-9692
territ	-9693
▁Promo	-9694
▁Catégor	-9695
▁grossesse	-9696
▁Utilisation	-9697
omét	-9698
tain	-9699
▁hauts	-9700
▁montrer	-9701
▁viennent	-9702
ban	-9703
▁TM	-9704
▁sen	-9705
▁rares	-9706
▁hospit	-9707
▁photos	-9708
▁profils	-9709
▁attribué	-9710
.1.	-9711
idrc	-9712
▁Règles	-9713
▁furent	-9714
▁normales	-9715
▁travailleur	-9716
▁INT	-9717
MANDE	-9718
▁baiss	-9719
▁rasse	-9720
importants	-9721
-23	-9722
▁NATION	-9723
▁touchent	-9724
ÉG	-9725
IAN	-9726
pre	-9727
agés	-9728
ower	-9729
nergie	-9730
▁océans	-9731
▁billets	-9732
invalidité	-9733
écl	-9734
▁Maj	-9735
▁Glob	-9736
▁collectives	-9737
alo	-9738
/03	-9739
ulose	-9740
▁Normes	-9741
▁Richard	-9742
inflation	-9743
ociations	-9744
▁préservation	-9745
06	-9746
ouvé	-9747
▁discré	-9748
▁Bulgarie	-9749
inventaire	-9750
▁Art	-9751
▁évo	-9752
▁référ	-9753
▁histoire	-9754
▁importés	-9755
entreposage	-9756
▁Tre	-9757
▁Norvège	-9758
itablement	-9759
▁instances	-9760
▁accessoires	-9761
▁complètement	-9762
▁CIC	-9763
▁idé	-9764
ander	-9765
▁nettement	-9766
▁électorales	-9767
▁Dom	-9768
ency	-9769
trans	-9770
cin	-9771
nom	-9772
▁Gar	-9773
▁Ense	-9774
▁Transf	-9775
▁feuille	-9776
ALES	-9777
ader	-9778
▁DOC	-9779
▁pul	-9780
▁Radio	-9781
▁fortes	-9782
▁suivie	-9783
▁Médiateur	-9784
▁différent	-9785
▁reddition	-9786
▁contamination	-9787
▁dérivés	-9788
▁varient	-9789
ENA	-9790
▁panne	-9791
étendue	-9792
▁révèle	-9793
▁mauvaise	-9794
▁examinées	-9795
▁reconstruction	-9796
endront	-9797
échelon	-9798
▁Econom	-9799
▁clause	-9800
▁régulier	-9801
▁décisionnel	-9802
vu	-9803
Man	-9804
▁Guerre	-9805
▁trimest	-9806
▁diffuser	-9807
▁cigarettes	-9808
▁0,5	-9809
▁TOT	-9810
landais	-9811
▁crimes	-9812
▁décenn	-9813
▁parfait	-9814
▁apprendre	-9815
▁̈res	-9816
▁prospérité	-9817
rables	-9818
▁confusion	-9819
gnes	-9820
▁Ses	-9821
▁stu	-9822
▁desc	-9823
▁vert	-9824
aéroport	-9825
▁déplacements	-9826
yr	-9827
▁CONSEIL	-9828
▁saisonn	-9829
▁récupération	-9830
PN	-9831
ovo	-9832
▁cote	-9833
▁vin	-9834
/2005	-9835
▁filles	-9836
▁dépasser	-9837
▁protocoles	-9838
ker	-9839
▁pH	-9840
▁sulf	-9841
ogènes	-9842
▁suggère	-9843
▁télécopieur	-9844
▁blanch	-9845
▁DEMANDE	-9846
▁rencontres	-9847
▁Conclusions	-9848
mo	-9849
TIN	-9850
▁Aus	-9851
immob	-9852
▁Quels	-9853
▁observée	-9854
▁demanderesse	-9855
▁Qui	-9856
▁effective	-9857
▁instituts	-9858
▁humanitaire	-9859
▁Her	-9860
▁journal	-9861
▁blo	-9862
▁Entrepr	-9863
▁racisme	-9864
▁quin	-9865
ignent	-9866
▁Statu	-9867
▁démontre	-9868
▁terminant	-9869
▁jau	-9870
▁harc	-9871
▁trés	-9872
aurait	-9873
élérer	-9874
▁1996.	-9875
▁honor	-9876
▁connue	-9877
sification	-9878
▁croissant	-9879
▁prioritaire	-9880
▁White	-9881
▁rappeler	-9882
▁chroniques	-9883
▁conviennent	-9884
kh	-9885
-24	-9886
▁Steph	-9887
▁désigner	-9888
▁campagnes	-9889
grammes	-9890
▁nommés	-9891
▁assurés	-9892
▁détaillés	-9893
▁comportent	-9894
ûts	-9895
rime	-9896
▁bata	-9897
versité	-9898
locations	-9899
▁sécuritaire	-9900
▁Processus	-9901
▁16,	-9902
assembl	-9903
▁garder	-9904
▁relevés	-9905
▁bag	-9906
charger	-9907
▁quotidienne	-9908
ator	-9909
▁fume	-9910
fiques	-9911
▁quasi	-9912
étudier	-9913
▁glu	-9914
▁nul	-9915
▁convi	-9916
▁courante	-9917
aud	-9918
actu	-9919
irst	-9920
mette	-9921
▁plén	-9922
▁Détermin	-9923
▁favorables	-9924
▁Engagements	-9925
▁Mer	-9926
▁ble	-9927
indice	-9928
▁doses	-9929
▁équilib	-9930
▁infirmiers	-9931
▁rencontrer	-9932
▁my	-9933
▁pes	-9934
▁reliées	-9935
▁fréquemment	-9936
▁Mand	-9937
▁incl	-9938
ossaire	-9939
▁dépense	-9940
▁médiation	-9941
▁î	-9942
AIL	-9943
ulée	-9944
culture	-9945
▁entrer	-9946
▁présentement	-9947
▁SG	-9948
▁incen	-9949
▁Aujourd	-9950
ACC	-9951
▁trente	-9952
▁assurant	-9953
.11	-9954
▁Den	-9955
▁heureux	-9956
▁conduire	-9957
▁exerçant	-9958
▁directions	-9959
▁connaissent	-9960
▁SY	-9961
▁vag	-9962
isible	-9963
▁voulu	-9964
épargne	-9965
▁Collec	-9966
▁2002-2003	-9967
▁espÃ	-9968
▁sén	-9969
▁Diff	-9970
▁profond	-9971
▁retirer	-9972
▁Surveillance	-9973
▁météorologiques	-9974
▁imprimer	-9975
▁nécessite	-9976
ENS	-9977
▁lot	-9978
▁Labor	-9979
ther	-9980
▁voisins	-9981
▁terrains	-9982
▁Communiqué	-9983
MIN	-9984
andon	-9985
▁usines	-9986
▁concernée	-9987
acceptation	-9988
▁reporter	-9989
domad	-9990
igner	-9991
▁Sing	-9992
▁choisis	-9993
aujourd	-9994
utilité	-9995
▁observe	-9996
acquitter	-9997
▁tarifaires	-9998
▁spécifications	-9999
▁nova	-10000
▁constatations	-10001
▁79	-10002
europ	-10003
▁impré	-10004
▁appuyé	-10005
▁marche	-10006
▁village	-10007
RQ	-10008
/02	-10009
▁1985	-10010
▁barre	-10011
▁feront	-10012
▁Conserv	-10013
arbit	-10014
▁Articles	-10015
▁deviennent	-10016
▁Initi	-10017
/199	-10018
▁del	-10019
icien	-10020
▁rats	-10021
▁stagi	-10022
▁automobiles	-10023
SID	-10024
▁crée	-10025
▁Report	-10026
▁déposées	-10027
▁imposées	-10028
▁Department	-10029
▁soumission	-10030
exc	-10031
ilm	-10032
exac	-10033
▁School	-10034
direc	-10035
▁inhib	-10036
alière	-10037
▁congés	-10038
▁Industri	-10039
▁salariés	-10040
▁complémentaire	-10041
ECI	-10042
ridge	-10043
▁adjo	-10044
▁Hongrie	-10045
ABLE	-10046
EPAC	-10047
▁1991,	-10048
▁venti	-10049
GLEMENT	-10050
▁contes	-10051
déc	-10052
▁PP	-10053
-2000	-10054
▁raff	-10055
taient	-10056
▁affecté	-10057
-22	-10058
tons	-10059
▁capables	-10060
▁respecte	-10061
▁patrimoni	-10062
agerie	-10063
formité	-10064
▁comparer	-10065
▁modifiés	-10066
▁thérapeutiques	-10067
64	-10068
▁(5)	-10069
▁terrestre	-10070
▁plaignante	-10071
▁préférence	-10072
aissent	-10073
▁assuré	-10074
accorder	-10075
incertitude	-10076
adie	-10077
ellé	-10078
▁1986	-10079
▁Royal	-10080
▁assembl	-10081
▁évalués	-10082
iert	-10083
▁sév	-10084
essence	-10085
indépendance	-10086
▁combustibles	-10087
▁PUBL	-10088
▁saisie	-10089
▁chinois	-10090
▁identifiés	-10091
▁originaires	-10092
▁Chez	-10093
▁hiver	-10094
▁pieds	-10095
▁parole	-10096
ministéri	-10097
▁concentrer	-10098
▁ang	-10099
▁foss	-10100
▁Inuit	-10101
▁accél	-10102
▁procu	-10103
▁régie	-10104
▁intéressant	-10105
ns	-10106
▁essay	-10107
▁clôture	-10108
><	-10109
venants	-10110
▁audiences	-10111
mblablement	-10112
zy	-10113
vén	-10114
▁dépit	-10115
▁chercheur	-10116
▁nov	-10117
▁Leur	-10118
▁déclen	-10119
▁distincts	-10120
▁enregistrement	-10121
▁soin	-10122
▁Plani	-10123
▁croit	-10124
▁bancaires	-10125
71	-10126
ersion	-10127
▁manip	-10128
ématiques	-10129
Hz	-10130
▁Ken	-10131
▁douze	-10132
▁devenue	-10133
▁corriger	-10134
▁individuel	-10135
▁méthodologie	-10136
armes	-10137
▁plais	-10138
▁Quelles	-10139
▁contenir	-10140
▁appartient	-10141
▁précisions	-10142
riez	-10143
▁Thom	-10144
▁yeux	-10145
ISSION	-10146
▁atten	-10147
ouvelle	-10148
▁interactions	-10149
▁remarqu	-10150
59	-10151
lif	-10152
▁Der	-10153
▁importateurs	-10154
▁manifestations	-10155
EB	-10156
TML	-10157
▁wag	-10158
▁qualit	-10159
nellement	-10160
▁couverts	-10161
▁respectent	-10162
▁91	-10163
▁COMP	-10164
élevage	-10165
▁Renfor	-10166
▁autonome	-10167
efficience	-10168
▁informatiques	-10169
▁gras	-10170
sser	-10171
istiques	-10172
▁liquide	-10173
▁ES	-10174
▁crois	-10175
▁versée	-10176
▁Enquête	-10177
▁conclus	-10178
▁reconnue	-10179
▁indé	-10180
▁̈ces	-10181
otation	-10182
▁rapporte	-10183
▁précédents	-10184
▁rentabilité	-10185
▁Vice	-10186
ECTION	-10187
▁offerte	-10188
▁indiquées	-10189
ordinateurs	-10190
▁représenté	-10191
▁Agroalimentaire	-10192
siers	-10193
▁moléc	-10194
▁annexes	-10195
▁boissons	-10196
amer	-10197
mond	-10198
▁sain	-10199
▁Arrêt	-10200
▁planifier	-10201
▁ratification	-10202
▁DP	-10203
▁Bou	-10204
▁Droit	-10205
▁saisir	-10206
▁vendus	-10207
▁précédant	-10208
▁américaines	-10209
ón	-10210
▁Gend	-10211
▁marquée	-10212
onge	-10213
▁souv	-10214
▁fluctu	-10215
▁hoc	-10216
▁pluri	-10217
____________	-10218
ACI	-10219
uner	-10220
▁105	-10221
▁nit	-10222
/2008	-10223
▁signée	-10224
▁édition	-10225
istribution	-10226
▁opérateurs	-10227
▁expositions	-10228
▁sensiblement	-10229
▁89	-10230
mine	-10231
▁has	-10232
▁créée	-10233
ressource	-10234
ougos	-10235
▁revêt	-10236
▁approxim	-10237
▁marchande	-10238
OB	-10239
ésie	-10240
▁faill	-10241
▁inscrites	-10242
na	-10243
IPO	-10244
riers	-10245
▁Représent	-10246
▁trouverez	-10247
▁témoignage	-10248
assainissement	-10249
▁TOTAL	-10250
eusement	-10251
▁rendent	-10252
mal	-10253
▁10.	-10254
ebdomad	-10255
▁nettoyage	-10256
▁Résolution	-10257
▁ressortissants	-10258
▁17,	-10259
▁image	-10260
tuelles	-10261
▁toxicité	-10262
▁énergétiques	-10263
pa	-10264
lav	-10265
▁92	-10266
▁traditionnelle	-10267
▁Stre	-10268
▁vrai	-10269
▁AUTON	-10270
▁quart	-10271
▁Membre	-10272
▁précon	-10273
carbures	-10274
▁apportés	-10275
▁procurer	-10276
▁automobile	-10277
ost	-10278
▁9.	-10279
glet	-10280
itch	-10281
▁vap	-10282
▁fier	-10283
▁aident	-10284
▁Collège	-10285
▁opinion	-10286
▁spatiale	-10287
atmosphère	-10288
▁graphique	-10289
▁ARTICLE	-10290
▁Décisions	-10291
issue	-10292
▁Personnes	-10293
▁(30	-10294
▁bel	-10295
▁cur	-10296
▁bref	-10297
▁douce	-10298
Espagne	-10299
▁accordés	-10300
▁spécifiquement	-10301
0,00	-10302
▁Fraser	-10303
▁maximal	-10304
▁opposition	-10305
▁justification	-10306
atite	-10307
Orient	-10308
uralisme	-10309
▁Application	-10310
▁Participation	-10311
▁Enregistrement	-10312
WG	-10313
affich	-10314
▁températures	-10315
▁accro	-10316
▁Bosnie	-10317
▁ruisse	-10318
/07	-10319
ITRE	-10320
wood	-10321
▁herb	-10322
▁Ligne	-10323
▁grain	-10324
▁connus	-10325
▁visiter	-10326
▁signification	-10327
RA	-10328
▁avions	-10329
▁soumet	-10330
▁vastes	-10331
87	-10332
▁municipales	-10333
ARD	-10334
ITÉS	-10335
ight	-10336
▁fre	-10337
giène	-10338
Italie	-10339
▁espagn	-10340
▁vendredi	-10341
▁collections	-10342
.200	-10343
aster	-10344
icité	-10345
▁acquérir	-10346
réditation	-10347
▁Présentation	-10348
Fr	-10349
▁marin	-10350
invention	-10351
▁hebdomad	-10352
▁distinctes	-10353
▁affectation	-10354
-29	-10355
INT	-10356
▁Ouest	-10357
ativité	-10358
▁appelle	-10359
▁Question	-10360
▁aériennes	-10361
▁équivalent	-10362
▁préliminaires	-10363
itte	-10364
▁massi	-10365
ébéc	-10366
▁(90	-10367
▁abond	-10368
▁créés	-10369
▁reflètent	-10370
▁Conn	-10371
▁Métis	-10372
▁crises	-10373
▁végétation	-10374
DG	-10375
ser	-10376
tein	-10377
▁DIS	-10378
▁sida	-10379
▁octroy	-10380
▁Demandes	-10381
ulés	-10382
▁oxy	-10383
▁2009	-10384
▁comporter	-10385
▁déterminants	-10386
▁Recommandations	-10387
ITI	-10388
rôle	-10389
value	-10390
▁AUTONUM	-10391
▁Congrès	-10392
▁suppose	-10393
▁American	-10394
▁réguliers	-10395
ACS	-10396
UEL	-10397
▁approuvées	-10398
ime	-10399
▁SM	-10400
ipel	-10401
voyer	-10402
▁voil	-10403
br	-10404
▁sh	-10405
▁incluent	-10406
esté	-10407
▁gauche	-10408
▁rempli	-10409
▁sièges	-10410
▁analyser	-10411
▁enregistrée	-10412
▁qualifications	-10413
▁Dre	-10414
▁Mun	-10415
emballage	-10416
▁comptent	-10417
54	-10418
▁1980	-10419
dumping	-10420
▁ouvrages	-10421
▁renferme	-10422
▁comptable	-10423
indemnisation	-10424
tini	-10425
ortir	-10426
▁South	-10427
▁résidu	-10428
▁habitat	-10429
ANTS	-10430
▁Manuel	-10431
▁fixation	-10432
EA	-10433
tas	-10434
▁PM	-10435
▁(0,	-10436
▁Kosovo	-10437
▁précip	-10438
▁entière	-10439
indemnité	-10440
▁observés	-10441
▁ordinateur	-10442
▁électriques	-10443
▁interministéri	-10444
],	-10445
OMM	-10446
▁Gal	-10447
▁transmet	-10448
▁interprété	-10449
▁AG	-10450
xtes	-10451
▁King	-10452
urrence	-10453
anda	-10454
chau	-10455
▁Arts	-10456
▁prorog	-10457
▁chaleur	-10458
▁envoyer	-10459
▁DÉCISION	-10460
Agriculture	-10461
▁découverte	-10462
▁exploitants	-10463
bis	-10464
▁soufre	-10465
▁formats	-10466
traduction	-10467
▁tchèque	-10468
▁théorie	-10469
▁bourse	-10470
▁précoce	-10471
▁séminaires	-10472
▁secrétariat	-10473
▁droite	-10474
▁exécution	-10475
▁progression	-10476
▁soir	-10477
▁fonci	-10478
▁récent	-10479
▁délivré	-10480
▁rapides	-10481
▁infections	-10482
arth	-10483
acquérir	-10484
▁UE	-10485
▁Cop	-10486
itage	-10487
mbles	-10488
▁refuser	-10489
▁théâtre	-10490
ICE	-10491
▁PS	-10492
▁College	-10493
▁parrain	-10494
erte	-10495
▁Bern	-10496
▁Exig	-10497
inscrit	-10498
▁comparables	-10499
▁contractant	-10500
▁Classification	-10501
▁DÉP	-10502
▁radic	-10503
▁préfér	-10504
attendre	-10505
▁éventuelle	-10506
umés	-10507
▁informés	-10508
▁syndicats	-10509
▁prestataires	-10510
53	-10511
ect	-10512
▁Texte	-10513
▁primes	-10514
-26	-10515
▁art	-10516
▁idée	-10517
▁excéd	-10518
ressent	-10519
▁Mettre	-10520
lantation	-10521
▁vertic	-10522
▁ethniques	-10523
▁approbation	-10524
▁harcèlement	-10525
▁volontaires	-10526
▁cart	-10527
▁mâles	-10528
▁neige	-10529
▁introduit	-10530
▁Définition	-10531
▁biodiversité	-10532
tit	-10533
▁ru	-10534
▁décrite	-10535
▁finance	-10536
obus	-10537
audit	-10538
orique	-10539
▁remédi	-10540
hypothèse	-10541
▁chauffage	-10542
▁té	-10543
valle	-10544
▁cardia	-10545
▁obtenue	-10546
ERT	-10547
▁Fax	-10548
essais	-10549
▁Carte	-10550
▁pédago	-10551
agrément	-10552
▁forment	-10553
▁facilité	-10554
▁département	-10555
▁[1	-10556
faits	-10557
▁menu	-10558
▁êtres	-10559
▁demandent	-10560
écéd	-10561
▁RSS	-10562
▁Wind	-10563
▁(819)	-10564
▁subir	-10565
conseil	-10566
▁validation	-10567
ink	-10568
▁attirer	-10569
▁criminel	-10570
LI	-10571
osés	-10572
▁SCRS	-10573
gmentation	-10574
▁suppression	-10575
▁temporaires	-10576
iez	-10577
▁fallait	-10578
onnée	-10579
▁0,00	-10580
▁Olymp	-10581
▁incidents	-10582
élè	-10583
▁18,	-10584
▁Kar	-10585
▁Part	-10586
▁World	-10587
▁Inform	-10588
▁Gouverne	-10589
▁trouvera	-10590
▁administre	-10591
Au	-10592
esel	-10593
▁tiendra	-10594
▁implique	-10595
.01	-10596
/12	-10597
énég	-10598
▁marines	-10599
▁aéroports	-10600
▁combustion	-10601
▁gradu	-10602
▁Employ	-10603
▁sortie	-10604
▁charbon	-10605
▁litiges	-10606
▁respectifs	-10607
▁LTC	-10608
Homme	-10609
ather	-10610
▁visait	-10611
▁compétent	-10612
▁intégration	-10613
▁bibliothèque	-10614
▁el	-10615
faire	-10616
▁Suite	-10617
▁sucre	-10618
▁accompli	-10619
▁minimales	-10620
▁refusé	-10621
aquaculture	-10622
▁composants	-10623
▁renouvelable	-10624
▁McC	-10625
▁ara	-10626
▁patr	-10627
▁ponc	-10628
▁accue	-10629
▁souci	-10630
▁chance	-10631
▁publier	-10632
▁consulté	-10633
▁Subventions	-10634
den	-10635
▁sep	-10636
▁récré	-10637
▁cinquième	-10638
▁fonctionne	-10639
▁coordonnateur	-10640
MB	-10641
ora	-10642
▁victime	-10643
▁Province	-10644
jan	-10645
obs	-10646
▁semi	-10647
▁grains	-10648
▁détient	-10649
▁Matériel	-10650
▁découlent	-10651
▁kilomètres	-10652
▁Slov	-10653
▁aval	-10654
gional	-10655
▁Pierre	-10656
▁succes	-10657
▁Escadre	-10658
▁CA	-10659
icon	-10660
▁ence	-10661
▁modé	-10662
▁comptab	-10663
▁négative	-10664
bs	-10665
▁Base	-10666
▁amén	-10667
▁musées	-10668
achèvement	-10669
▁Pap	-10670
▁peau	-10671
▁itali	-10672
enza	-10673
▁classés	-10674
▁légumes	-10675
édicaments	-10676
▁Améliorer	-10677
51	-10678
ISE	-10679
▁spir	-10680
▁artif	-10681
▁essai	-10682
▁déposés	-10683
▁pharmaci	-10684
▁sensibilité	-10685
ward	-10686
▁enqu	-10687
▁bancaire	-10688
amendement	-10689
▁concurrentiel	-10690
enda	-10691
▁auxili	-10692
▁majeur	-10693
où	-10694
TEUR	-10695
▁Crit	-10696
informer	-10697
▁passation	-10698
▁Fish	-10699
▁Madrid	-10700
▁rurale	-10701
▁textiles	-10702
56	-10703
76	-10704
▁’	-10705
▁CI	-10706
▁ur	-10707
▁Pan	-10708
▁Moyen	-10709
alition	-10710
arbitrage	-10711
▁riv	-10712
parti	-10713
inscrire	-10714
▁améliore	-10715
▁efficient	-10716
▁atmosphériques	-10717
ça	-10718
VEN	-10719
inst	-10720
gibles	-10721
▁graines	-10722
▁refléter	-10723
▁extérieure	-10724
ACT	-10725
icide	-10726
▁amis	-10727
▁qualifié	-10728
▁distincte	-10729
▁équipement	-10730
installations	-10731
52	-10732
▁Hol	-10733
accords	-10734
▁Person	-10735
▁concrètes	-10736
ENTS	-10737
▁bat	-10738
luents	-10739
▁Pourcentage	-10740
▁Andre	-10741
▁retenu	-10742
ino	-10743
▁SCC	-10744
▁élu	-10745
▁longues	-10746
▁périodiques	-10747
OD	-10748
ISS	-10749
tics	-10750
▁pur	-10751
▁case	-10752
sbourg	-10753
▁Island	-10754
▁GÉN	-10755
opath	-10756
▁Telec	-10757
▁ajout	-10758
▁espace	-10759
▁apparaît	-10760
▁déclarés	-10761
extraction	-10762
▁mandataire	-10763
▁partiellement	-10764
ARS	-10765
▁hi	-10766
phén	-10767
étal	-10768
oseph	-10769
Employ	-10770
▁conju	-10771
▁arbitral	-10772
▁gain	-10773
▁éclai	-10774
occuper	-10775
▁métabol	-10776
▁fiabilité	-10777
▁immobilisations	-10778
▁FI	-10779
▁PI	-10780
▁tradu	-10781
▁Science	-10782
▁donateurs	-10783
▁Â	-10784
ducteur	-10785
ancienne	-10786
▁contenues	-10787
▁prévalence	-10788
▁rayonnement	-10789
▁téléphonique	-10790
ho	-10791
▁aidé	-10792
ospital	-10793
▁traduit	-10794
▁LTD	-10795
▁noir	-10796
▁Format	-10797
▁latine	-10798
ADUCTION	-10799
▁appelée	-10800
▁constituée	-10801
▁additionnelles	-10802
itue	-10803
▁dig	-10804
faces	-10805
▁sérieux	-10806
▁urbaines	-10807
▁immédiate	-10808
appréciation	-10809
orgie	-10810
othérap	-10811
▁posent	-10812
▁inscrire	-10813
▁LOI	-10814
heures	-10815
▁Marie	-10816
éné	-10817
▁Ger	-10818
oral	-10819
▁magaz	-10820
▁préven	-10821
▁positives	-10822
extr	-10823
occupe	-10824
▁Garde	-10825
▁Press	-10826
▁formés	-10827
▁suggéré	-10828
▁appliqués	-10829
interaction	-10830
ize	-10831
▁liné	-10832
▁ratio	-10833
▁fondant	-10834
▁complets	-10835
▁demandée	-10836
▁décennie	-10837
▁arrangements	-10838
▁hôte	-10839
▁payée	-10840
▁quelqu	-10841
▁touchés	-10842
élicopt	-10843
▁Lettre	-10844
▁adéquat	-10845
▁appuient	-10846
▁territoriale	-10847
▁détéri	-10848
talement	-10849
▁réputation	-10850
▁Commissariat	-10851
▁raisonnablement	-10852
ylène	-10853
▁soup	-10854
▁éclair	-10855
▁pharmac	-10856
▁développé	-10857
▁sanitaires	-10858
EU	-10859
ility	-10860
▁tiré	-10861
▁Contin	-10862
▁fiduci	-10863
▁confirm	-10864
alisations	-10865
▁organiser	-10866
▁poursuivi	-10867
▁inférieurs	-10868
lez	-10869
▁[3]	-10870
▁Beau	-10871
▁fixées	-10872
▁fiables	-10873
exemption	-10874
▁participantes	-10875
▁Lég	-10876
▁constamment	-10877
▁automatiquement	-10878
lim	-10879
▁Sk	-10880
▁tru	-10881
ogène	-10882
▁injus	-10883
ilières	-10884
annulation	-10885
▁chronique	-10886
▁municipaux	-10887
▁frontaliers	-10888
▁tissu	-10889
▁dirigé	-10890
▁mobiles	-10891
▁élection	-10892
▁identifié	-10893
▁Bru	-10894
▁Fich	-10895
▁Rail	-10896
▁tuberc	-10897
▁imparti	-10898
▁identiques	-10899
▁démonstration	-10900
▁démographiques	-10901
▁LM	-10902
▁COSEPAC	-10903
▁liquides	-10904
▁ordinaires	-10905
▁minoritaire	-10906
▁entreprendre	-10907
mm	-10908
cel	-10909
enzie	-10910
▁Année	-10911
▁inhér	-10912
▁suffit	-10913
oque	-10914
ervice	-10915
▁Culture	-10916
▁mineurs	-10917
/04	-10918
▁110	-10919
▁REN	-10920
▁Mess	-10921
▁Micro	-10922
oiseaux	-10923
▁Résultat	-10924
▁prévoyant	-10925
▁touristique	-10926
ha	-10927
▁fumée	-10928
▁sauvegarde	-10929
▁0,1	-10930
▁lés	-10931
▁nordi	-10932
ray	-10933
tacles	-10934
▁cessation	-10935
6),	-10936
▁2.4	-10937
ologation	-10938
▁supprimer	-10939
▁familiales	-10940
▁visibilité	-10941
▁déterminant	-10942
ssant	-10943
useum	-10944
▁stimul	-10945
exploiter	-10946
▁désignées	-10947
▁généralis	-10948
▁normalisation	-10949
/9	-10950
auto	-10951
▁BPC	-10952
▁Red	-10953
autor	-10954
▁renvoy	-10955
▁englobe	-10956
VP	-10957
▁TEL	-10958
▁réagir	-10959
▁Sources	-10960
▁favorisent	-10961
▁antidumping	-10962
▁Kings	-10963
INRP	-10964
▁pat	-10965
ordinateur	-10966
▁observées	-10967
▁policiers	-10968
▁coordonnées	-10969
▁MON	-10970
▁frapp	-10971
▁phases	-10972
▁portes	-10973
▁élaborés	-10974
▁restreint	-10975
▁fréquences	-10976
Par	-10977
aver	-10978
▁ami	-10979
▁signaux	-10980
▁uniques	-10981
▁partielle	-10982
▁discipline	-10983
▁totaux	-10984
▁diriger	-10985
▁découle	-10986
▁revient	-10987
▁négocier	-10988
QW	-10989
▁Rég	-10990
isson	-10991
▁cycles	-10992
▁soulevées	-10993
▁démocratiques	-10994
▁125	-10995
▁gel	-10996
etown	-10997
▁RAPP	-10998
▁canal	-10999
▁mutuelle	-11000
▁acceptables	-11001
▁CF	-11002
huile	-11003
▁embau	-11004
hôpital	-11005
épatite	-11006
▁pilotage	-11007
▁ingrédients	-11008
GA	-11009
Armée	-11010
armée	-11011
ennies	-11012
▁épidémi	-11013
▁placements	-11014
▁disciplines	-11015
▁pratiquement	-11016
4-	-11017
▁marqué	-11018
▁compose	-11019
▁logistique	-11020
avril	-11021
▁îles	-11022
▁laiti	-11023
▁tirés	-11024
▁Jeunes	-11025
▁stipule	-11026
▁débouchés	-11027
▁Excellence	-11028
▁Hum	-11029
▁mut	-11030
asile	-11031
original	-11032
écédents	-11033
▁European	-11034
▁OUI	-11035
▁fasse	-11036
▁sangu	-11037
otiques	-11038
▁recommander	-11039
▁utilisations	-11040
DH	-11041
cro	-11042
▁CAD	-11043
▁Ris	-11044
entis	-11045
ssent	-11046
▁Compar	-11047
▁engagée	-11048
▁Activité	-11049
ïs	-11050
instruments	-11051
III	-11052
oulée	-11053
▁éman	-11054
▁acier	-11055
▁énergie	-11056
▁biomasse	-11057
▁Environmental	-11058
cor	-11059
AAAA	-11060
▁Nav	-11061
▁Inst	-11062
lementation	-11063
mor	-11064
▁CIB	-11065
immeub	-11066
▁correctives	-11067
Je	-11068
itt	-11069
andum	-11070
▁Étude	-11071
▁accepte	-11072
▁concurrents	-11073
▁reconnaissent	-11074
▁enregistrements	-11075
ck	-11076
ft	-11077
iens	-11078
▁20,	-11079
▁confirme	-11080
▁versements	-11081
Is	-11082
▁OB	-11083
▁connexe	-11084
▁Hay	-11085
▁volu	-11086
▁autorise	-11087
▁entourant	-11088
▁intérieures	-11089
▁4.3	-11090
▁Sign	-11091
ertion	-11092
▁office	-11093
▁estimation	-11094
▁Initiatives	-11095
▁inspections	-11096
hen	-11097
▁froid	-11098
oxygène	-11099
▁sondages	-11100
ECT	-11101
▁Hu	-11102
▁Mill	-11103
▁vallée	-11104
▁chromos	-11105
▁Conditions	-11106
▁instituant	-11107
▁considèrent	-11108
ett	-11109
▁rom	-11110
right	-11111
gments	-11112
enfance	-11113
▁Regina	-11114
▁Soutien	-11115
▁accomplir	-11116
▁imposable	-11117
▁mentionne	-11118
▁exemplaire	-11119
▁dégradation	-11120
▁Bank	-11121
▁rédigé	-11122
▁Conseils	-11123
▁modernes	-11124
▁candidate	-11125
hu	-11126
▁précède	-11127
accessible	-11128
▁Promotion	-11129
▁extraordin	-11130
▁corrélation	-11131
▁plant	-11132
entrevue	-11133
▁antérieurs	-11134
▁séparément	-11135
▁minoritaires	-11136
▁ÉT	-11137
▁révél	-11138
Enquête	-11139
▁troupes	-11140
▁approuve	-11141
▁énumérés	-11142
▁jeux	-11143
Nouvelle	-11144
▁découvrir	-11145
▁enregistrées	-11146
MES	-11147
ONS	-11148
dés	-11149
nal	-11150
▁Wood	-11151
▁abouti	-11152
▁mettra	-11153
▁Stephen	-11154
▁Australie	-11155
entification	-11156
VES	-11157
▁abu	-11158
élève	-11159
▁cens	-11160
ocument	-11161
▁touchées	-11162
Traduction	-11163
▁promoteurs	-11164
▁mène	-11165
▁souris	-11166
▁religion	-11167
▁bilingues	-11168
▁cérémonie	-11169
ÁÁ	-11170
agr	-11171
▁09	-11172
.199	-11173
École	-11174
ffiche	-11175
▁souver	-11176
▁catalogue	-11177
▁indirectement	-11178
nÃ	-11179
▁Land	-11180
▁Mack	-11181
Ukraine	-11182
section	-11183
▁immeubles	-11184
bri	-11185
▁Déta	-11186
groupe	-11187
honneur	-11188
▁passif	-11189
orations	-11190
▁angloph	-11191
▁apporte	-11192
▁indemnité	-11193
fices	-11194
▁offres	-11195
▁exposées	-11196
fa	-11197
▁homme	-11198
▁2007-2008	-11199
▁REC	-11200
▁meu	-11201
asses	-11202
tisme	-11203
▁péné	-11204
GRAM	-11205
▁lundi	-11206
ètement	-11207
envergure	-11208
▁apparent	-11209
▁inég	-11210
isibles	-11211
octobre	-11212
▁consign	-11213
▁faisaient	-11214
▁recueillis	-11215
▁SCI	-11216
▁gènes	-11217
▁causés	-11218
▁wagons	-11219
▁combattre	-11220
ull	-11221
étant	-11222
▁1995.	-11223
ict	-11224
▁CM	-11225
inture	-11226
▁voter	-11227
▁fiable	-11228
jections	-11229
▁décennies	-11230
▁administré	-11231
voy	-11232
▁Lo	-11233
lack	-11234
▁Hel	-11235
▁POL	-11236
europa	-11237
▁expédi	-11238
▁libellé	-11239
▁versions	-11240
▁éventuel	-11241
mail	-11242
▁REER	-11243
▁insta	-11244
équation	-11245
▁négatif	-11246
▁hypothèses	-11247
▁Wil	-11248
▁schém	-11249
▁minorité	-11250
▁qualifiée	-11251
▁organisées	-11252
▁Consultations	-11253
armerie	-11254
▁informe	-11255
▁Commande	-11256
▁Slovénie	-11257
▁Glossaire	-11258
▁Opérations	-11259
vient	-11260
èlent	-11261
étail	-11262
effort	-11263
▁remet	-11264
▁absolu	-11265
▁importées	-11266
▁Loc	-11267
▁céd	-11268
▁appareil	-11269
exactitude	-11270
▁faisabilité	-11271
82	-11272
▁30,	-11273
TOPIC	-11274
▁sent	-11275
▁divid	-11276
arbitre	-11277
▁Londres	-11278
▁bénéficié	-11279
▁réellement	-11280
▁provisoires	-11281
mons	-11282
▁risquent	-11283
▁portion	-11284
▁vendeur	-11285
▁préparés	-11286
from	-11287
▁perd	-11288
▁situe	-11289
amilton	-11290
annonce	-11291
▁artifici	-11292
▁conserve	-11293
▁Élaborer	-11294
▁ressortir	-11295
▁invent	-11296
▁évaluées	-11297
▁catastrophes	-11298
euro	-11299
▁Arm	-11300
▁2008-200	-11301
▁développés	-11302
▁observateurs	-11303
▁contractantes	-11304
olique	-11305
animaux	-11306
▁VII	-11307
▁adh	-11308
▁avenue	-11309
▁néglig	-11310
▁BEI	-11311
▁Met	-11312
▁coun	-11313
hygiène	-11314
▁attitudes	-11315
raël	-11316
ution	-11317
ulsion	-11318
▁donnés	-11319
▁fraude	-11320
▁propag	-11321
OY	-11322
▁QC	-11323
outs	-11324
▁FON	-11325
overn	-11326
water	-11327
▁100,	-11328
version	-11329
▁Puisque	-11330
PF	-11331
rose	-11332
/2004	-11333
tuels	-11334
▁prud	-11335
-201-1-	-11336
▁adoptés	-11337
▁récepteur	-11338
États	-11339
▁impu	-11340
▁père	-11341
▁occupe	-11342
▁Centres	-11343
▁directes	-11344
▁partagés	-11345
ELS	-11346
aug	-11347
▁ouvre	-11348
▁distinct	-11349
▁familial	-11350
▁conjoints	-11351
▁professions	-11352
abri	-11353
▁air	-11354
▁Hill	-11355
emprun	-11356
▁Green	-11357
▁animale	-11358
▁cession	-11359
▁procède	-11360
/08	-11361
▁doter	-11362
inclure	-11363
▁spiritu	-11364
▁expertise	-11365
électri	-11366
▁Adoption	-11367
tur	-11368
▁gravité	-11369
▁surmont	-11370
▁remédier	-11371
▁francophone	-11372
3-	-11373
.12	-11374
▁gal	-11375
▁van	-11376
▁basé	-11377
▁Common	-11378
▁occupé	-11379
▁réputée	-11380
▁gouvernemental	-11381
——	-11382
▁She	-11383
Employeur	-11384
▁("	-11385
▁NE	-11386
gnent	-11387
▁Situ	-11388
ouille	-11389
▁resse	-11390
▁prépare	-11391
▁électro	-11392
Ne	-11393
▁mè	-11394
▁bail	-11395
▁GÉNÉR	-11396
▁félicite	-11397
▁dépendent	-11398
▁Amélioration	-11399
▁Contributions	-11400
ypes	-11401
▁sports	-11402
▁prétend	-11403
infraction	-11404
▁escomptés	-11405
▁manifeste	-11406
Her	-11407
occ	-11408
▁2,5	-11409
▁brû	-11410
▁gagner	-11411
▁doub	-11412
onique	-11413
érarch	-11414
▁2001-2002	-11415
▁Saskatoon	-11416
▁revendication	-11417
emmes	-11418
▁fixée	-11419
▁coopérative	-11420
▁Gestionnaire	-11421
▁fal	-11422
▁exclus	-11423
▁précieux	-11424
▁tolérance	-11425
▁législations	-11426
▁×	-11427
date	-11428
romp	-11429
alide	-11430
ommun	-11431
▁incor	-11432
▁modernis	-11433
▁scénario	-11434
Con	-11435
▁Ve	-11436
▁Cat	-11437
▁édi	-11438
▁Food	-11439
▁contro	-11440
▁valable	-11441
▁correctionnel	-11442
LÉ	-11443
▁secours	-11444
▁finalement	-11445
LT	-11446
CIP	-11447
cles	-11448
élande	-11449
▁orale	-11450
anciers	-11451
▁Mandat	-11452
▁chaînes	-11453
▁prononc	-11454
▁libéralisation	-11455
idées	-11456
▁enrich	-11457
▁horizon	-11458
▁Quelques	-11459
▁répertoire	-11460
mpor	-11461
quet	-11462
▁RPC	-11463
▁Aussi	-11464
▁acide	-11465
▁urbains	-11466
LA	-11467
▁noy	-11468
Manitoba	-11469
▁payable	-11470
admission	-11471
▁parallèle	-11472
▁spécialisée	-11473
ella	-11474
tone	-11475
▁macro	-11476
za	-11477
▁Disp	-11478
▁identité	-11479
▁additionnel	-11480
▁distributeurs	-11481
▁HTML	-11482
heureusement	-11483
agu	-11484
mif	-11485
sor	-11486
▁stabilisation	-11487
ado	-11488
ocy	-11489
▁pure	-11490
▁Champ	-11491
apacité	-11492
▁éthique	-11493
▁bilingue	-11494
▁compétition	-11495
▁bl	-11496
▁abro	-11497
▁détru	-11498
ISATION	-11499
indique	-11500
▁réputé	-11501
▁RELATIF	-11502
▁accordées	-11503
▁Strasbourg	-11504
▁indépendantes	-11505
aî	-11506
▁~	-11507
uves	-11508
▁5.3	-11509
▁hiérarch	-11510
▁antécédents	-11511
50)	-11512
ALENA	-11513
adies	-11514
▁télés	-11515
▁étendu	-11516
▁General	-11517
▁optimis	-11518
▁praticiens	-11519
drome	-11520
expéri	-11521
tifiée	-11522
allocation	-11523
▁Community	-11524
▁bactéries	-11525
▁rapportent	-11526
▁acquit	-11527
▁Pourquoi	-11528
▁migrations	-11529
▁progressivement	-11530
▁Board	-11531
▁PROJET	-11532
▁Statut	-11533
vabilité	-11534
▁régulation	-11535
fficier	-11536
tionnaire	-11537
▁Business	-11538
▁Exigences	-11539
▁Référence	-11540
illus	-11541
oyers	-11542
▁Ceux	-11543
▁recl	-11544
▁annon	-11545
veloppe	-11546
▁mobile	-11547
▁étendue	-11548
intendant	-11549
▁fournira	-11550
▁améliorée	-11551
▁passeport	-11552
oto	-11553
▁Van	-11554
▁typ	-11555
dites	-11556
▁lign	-11557
▁maïs	-11558
appels	-11559
priété	-11560
▁élargi	-11561
▁avancée	-11562
▁collectif	-11563
aska	-11564
▁Crédit	-11565
▁migrateurs	-11566
ep	-11567
ILLE	-11568
▁engend	-11569
▁exercé	-11570
▁signer	-11571
▁retenir	-11572
▁incorpor	-11573
▁travaill	-11574
/7	-11575
onte	-11576
ituanie	-11577
▁urbaine	-11578
▁original	-11579
▁ordinaire	-11580
▁CAR	-11581
ulées	-11582
apitres	-11583
▁bétail	-11584
▁quitter	-11585
▁contribuables	-11586
pé	-11587
oft	-11588
arri	-11589
▁fle	-11590
▁Parc	-11591
▁ouvertes	-11592
▁précisés	-11593
▁Agent	-11594
▁PRODU	-11595
ference	-11596
▁usagers	-11597
▁collabore	-11598
▁(10	-11599
▁assister	-11600
importateur	-11601
▁exhaustive	-11602
ITY	-11603
zég	-11604
****	-11605
oign	-11606
▁bra	-11607
▁Objet	-11608
▁acheter	-11609
▁calculs	-11610
apparition	-11611
▁dirigeant	-11612
▁soutiennent	-11613
6]	-11614
ows	-11615
adame	-11616
êtement	-11617
▁céréales	-11618
▁financées	-11619
gs	-11620
▁350	-11621
▁First	-11622
▁débar	-11623
▁rehau	-11624
▁Policy	-11625
▁issues	-11626
▁visitez	-11627
▁assujetties	-11628
89	-11629
key	-11630
▁Bal	-11631
▁ign	-11632
abond	-11633
envoi	-11634
intim	-11635
▁Thomas	-11636
▁adopte	-11637
▁appris	-11638
▁cuivre	-11639
zégovine	-11640
▁satisfaits	-11641
▁Gendarmerie	-11642
▁atmosphérique	-11643
ama	-11644
eri	-11645
ELLE	-11646
amor	-11647
▁Park	-11648
▁Derni	-11649
▁acquise	-11650
▁partagée	-11651
▁Bas	-11652
▁pomp	-11653
▁basse	-11654
▁Import	-11655
▁habitant	-11656
▁Appr	-11657
▁Phase	-11658
▁nourr	-11659
▁école	-11660
▁assurée	-11661
▁autonomes	-11662
▁blanchiment	-11663
▁DS	-11664
▁6.1	-11665
▁Anne	-11666
▁choc	-11667
▁London	-11668
▁Quelle	-11669
▁organisés	-11670
▁PAS	-11671
▁adapté	-11672
▁réfléch	-11673
▁définitif	-11674
▁accompagné	-11675
▁convergence	-11676
jou	-11677
▁bor	-11678
ocarb	-11679
▁Compr	-11680
▁chargées	-11681
▁exécuter	-11682
▁Education	-11683
▁sportives	-11684
assure	-11685
▁micros	-11686
▁composée	-11687
▁démarches	-11688
▁QUE	-11689
▁prendra	-11690
▁augmentations	-11691
abus	-11692
rist	-11693
agisse	-11694
▁Action	-11695
▁réunir	-11696
▁couvert	-11697
▁centraux	-11698
ammon	-11699
etteur	-11700
gieuses	-11701
attaquer	-11702
▁imposer	-11703
▁habitudes	-11704
accréditation	-11705
▁SN	-11706
illé	-11707
gents	-11708
▁déver	-11709
▁valide	-11710
gleterre	-11711
équipage	-11712
▁modifiées	-11713
▁bilatéraux	-11714
architecture	-11715
▁spécialiste	-11716
▁postsecondaire	-11717
gar	-11718
islation	-11719
▁Hamilton	-11720
▁ceci	-11721
▁config	-11722
▁Études	-11723
▁Géorgie	-11724
▁révèlent	-11725
▁reconnues	-11726
▁téléphoniques	-11727
▁Éc	-11728
▁paie	-11729
▁Citoy	-11730
▁bassins	-11731
▁plaisir	-11732
▁rendues	-11733
▁totalement	-11734
▁descriptions	-11735
▁(-	-11736
alie	-11737
biens	-11738
▁fact	-11739
ancier	-11740
▁fonde	-11741
▁routier	-11742
▁découvert	-11743
ESS	-11744
ophy	-11745
▁19,	-11746
useurs	-11747
▁inscrite	-11748
▁Directrice	-11749
73	-11750
irait	-11751
▁Dani	-11752
données	-11753
▁argent	-11754
▁pluriann	-11755
▁compatibles	-11756
AUT	-11757
cées	-11758
▁doté	-11759
▁ouverts	-11760
▁justific	-11761
▁transférer	-11762
▁consultatifs	-11763
▁caractéristique	-11764
ende	-11765
▁cos	-11766
▁étal	-11767
▁diesel	-11768
▁libres	-11769
▁suffisantes	-11770
69	-11771
ums	-11772
▁Cher	-11773
▁prête	-11774
▁terminée	-11775
▁indicateur	-11776
▁progressive	-11777
▁RÈ	-11778
erci	-11779
sauf	-11780
▁commémor	-11781
▁défendre	-11782
▁ruisseau	-11783
dification	-11784
expédition	-11785
83	-11786
rss	-11787
▁Fer	-11788
▁SOCI	-11789
▁Tour	-11790
▁mascul	-11791
▁servira	-11792
▁commençant	-11793
.03	-11794
▁Off	-11795
▁marqu	-11796
▁mères	-11797
▁tension	-11798
▁hu	-11799
▁3.4	-11800
achet	-11801
▁paras	-11802
▁récipi	-11803
hépatite	-11804
▁existante	-11805
▁démontrent	-11806
▁ral	-11807
tiens	-11808
▁Clar	-11809
▁Inde	-11810
▁épre	-11811
▁délégué	-11812
▁prouver	-11813
▁détenteurs	-11814
▁exigé	-11815
▁imposée	-11816
▁variétés	-11817
▁bulletins	-11818
cra	-11819
ual	-11820
éton	-11821
▁Vers	-11822
▁incit	-11823
▁inond	-11824
▁pénur	-11825
▁Produc	-11826
▁inconn	-11827
▁adressée	-11828
.02	-11829
ELL	-11830
nec	-11831
▁Rév	-11832
▁consenti	-11833
ij	-11834
▁‘	-11835
RIB	-11836
ypre	-11837
▁DRO	-11838
▁Méd	-11839
▁tuy	-11840
▁légal	-11841
américain	-11842
▁cohérente	-11843
▁OM	-11844
terie	-11845
▁folk	-11846
▁gran	-11847
▁voud	-11848
▁céléb	-11849
▁Postes	-11850
▁Croatie	-11851
▁Crédits	-11852
▁citoyen	-11853
▁figurer	-11854
organiser	-11855
▁Ess	-11856
iterrané	-11857
oper	-11858
▁cité	-11859
▁zéro	-11860
▁ouvrir	-11861
tisation	-11862
=1	-11863
lerie	-11864
▁1-800	-11865
▁parle	-11866
tensité	-11867
▁United	-11868
▁Revenus	-11869
habitation	-11870
atures	-11871
▁attra	-11872
▁Décret	-11873
▁forfait	-11874
partition	-11875
▁maternelle	-11876
aute	-11877
▁Hab	-11878
issaires	-11879
▁civiles	-11880
▁chambres	-11881
▁confirmation	-11882
")	-11883
arib	-11884
rine	-11885
▁Déb	-11886
▁menés	-11887
▁impose	-11888
▁réside	-11889
▁Network	-11890
▁électoral	-11891
▁tuberculose	-11892
TPS	-11893
▁Don	-11894
▁bri	-11895
▁deg	-11896
▁RNCan	-11897
▁assurance	-11898
hébergement	-11899
▁Chypre	-11900
▁québéc	-11901
▁Irlande	-11902
▁bénévole	-11903
lifération	-11904
▁Instituts	-11905
▁respectées	-11906
▁allocations	-11907
cy	-11908
bli	-11909
obe	-11910
enez	-11911
▁24,	-11912
avion	-11913
▁Stoc	-11914
agents	-11915
▁Intel	-11916
▁japon	-11917
▁évalue	-11918
▁PROGRAM	-11919
influenza	-11920
▁agissant	-11921
▁classées	-11922
▁féminine	-11923
▁stagiaires	-11924
▁(60	-11925
▁globales	-11926
▁ASS	-11927
▁nets	-11928
▁concré	-11929
▁Catégorie	-11930
▁procureur	-11931
▁séparation	-11932
▁Tun	-11933
▁ambi	-11934
assent	-11935
▁guides	-11936
Herzégovine	-11937
▁allégation	-11938
20\	-11939
App	-11940
aus	-11941
rira	-11942
▁coh	-11943
duites	-11944
TRADUCTION	-11945
▁préjudici	-11946
▁scénarios	-11947
▁nationalité	-11948
POR	-11949
uss	-11950
▁LCPE	-11951
▁quan	-11952
▁délic	-11953
Zélande	-11954
▁Michel	-11955
ministres	-11956
▁Lituanie	-11957
▁Alex	-11958
▁Serb	-11959
▁Perspec	-11960
▁fumeurs	-11961
▁signale	-11962
▁voilure	-11963
▁Systèmes	-11964
homologation	-11965
▁Ta	-11966
aïbes	-11967
méthyl	-11968
▁permission	-11969
▁Planification	-11970
2-	-11971
▁As	-11972
▁11.	-11973
▁coeur	-11974
▁trousse	-11975
▁Maladies	-11976
▁spécialisé	-11977
▁consolidation	-11978
ESC	-11979
aïd	-11980
▁iv	-11981
▁COL	-11982
▁océ	-11983
exécu	-11984
autant	-11985
alières	-11986
▁Discours	-11987
▁séminaire	-11988
Es	-11989
domin	-11990
▁impéra	-11991
▁Recettes	-11992
▁interculture	-11993
ÉC	-11994
▁noci	-11995
▁MINIST	-11996
▁Festival	-11997
▁doctorat	-11998
▁institutionnel	-11999
▁PRE	-12000
▁Chili	-12001
▁Coûts	-12002
▁aborder	-12003
FORMATION	-12004
▁2000-2001	-12005
▁nutritifs	-12006
▁TER	-12007
zation	-12008
acteurs	-12009
▁canaux	-12010
▁nettes	-12011
jonction	-12012
▁loisirs	-12013
▁élaborées	-12014
▁significatif	-12015
now	-12016
▁Dés	-12017
▁saisi	-12018
▁module	-12019
▁attribués	-12020
▁détaillants	-12021
▁DIR	-12022
ittee	-12023
▁Temp	-12024
▁atténuer	-12025
▁contribuera	-12026
illons	-12027
▁photo	-12028
▁bateau	-12029
▁chauss	-12030
▁membran	-12031
▁paysage	-12032
objectifs	-12033
▁mentionnée	-12034
▁Construction	-12035
.2)	-12036
▁Ord	-12037
alifor	-12038
▁fixes	-12039
▁subdivision	-12040
émin	-12041
noncé	-12042
▁plénière	-12043
▁dérogation	-12044
cien	-12045
▁mariage	-12046
▁comptant	-12047
.:	-12048
▁IMP	-12049
genti	-12050
▁recr	-12051
▁Women	-12052
▁ingén	-12053
▁Street	-12054
▁passée	-12055
▁Régions	-12056
▁adoption	-12057
▁Personnel	-12058
▁éloignées	-12059
ota	-12060
▁SH	-12061
cycl	-12062
uline	-12063
▁Appel	-12064
▁Explo	-12065
▁jugée	-12066
éliminer	-12067
▁SECTION	-12068
▁végétales	-12069
▁annuellement	-12070
xt	-12071
phy	-12072
▁Feder	-12073
▁Investis	-12074
▁adaptées	-12075
▁mobilières	-12076
▁Org	-12077
▁CRSH	-12078
▁phyt	-12079
don	-12080
acteur	-12081
iformes	-12082
▁syndicat	-12083
▁Coopération	-12084
▁21,	-12085
▁WIPO	-12086
▁attendus	-12087
▁rétroaction	-12088
nez	-12089
agan	-12090
ible	-12091
▁1994.	-12092
▁Prépar	-12093
▁voiture	-12094
▁apportée	-12095
▁accueilli	-12096
zz	-12097
’«	-12098
▁Rog	-12099
▁1985,	-12100
▁coupe	-12101
▁revoir	-12102
▁handicapés	-12103
▁Partenariat	-12104
EF	-12105
NA	-12106
▁Log	-12107
ésité	-12108
▁gère	-12109
▁this	-12110
▁publie	-12111
▁récomp	-12112
▁aideront	-12113
▁clarifier	-12114
▁Sem	-12115
▁High	-12116
▁panc	-12117
▁joint	-12118
accéder	-12119
▁Analys	-12120
▁claires	-12121
ouissement	-12122
86	-12123
TIFS	-12124
fran	-12125
▁Chac	-12126
issage	-12127
▁verre	-12128
illages	-12129
▁légale	-12130
▁Fournir	-12131
intensité	-12132
▁insuffisant	-12133
field	-12134
effets	-12135
▁resta	-12136
▁style	-12137
▁ultra	-12138
isitions	-12139
utention	-12140
▁Suivant	-12141
▁assurent	-12142
▁répartis	-12143
▁fondation	-12144
▁salariale	-12145
▁Hall	-12146
▁phén	-12147
▁usine	-12148
▁tenter	-12149
▁traitée	-12150
ressources	-12151
▁centaines	-12152
▁conservés	-12153
▁continueront	-12154
PIC	-12155
▁Ben	-12156
▁Sar	-12157
▁dues	-12158
▁Reine	-12159
▁Museum	-12160
▁époque	-12161
79	-12162
▁Us	-12163
argu	-12164
redi	-12165
▁Pat	-12166
▁émet	-12167
▁McGill	-12168
@@@@@@@@	-12169
▁rappelé	-12170
▁parcours	-12171
▁indétermin	-12172
▁Technologies	-12173
▁nuire	-12174
▁susciter	-12175
▁interjeté	-12176
▁remercier	-12177
▁respectives	-12178
orerie	-12179
▁613-9	-12180
▁Oblig	-12181
▁précau	-12182
ICATIONS	-12183
aissances	-12184
▁rentable	-12185
▁pne	-12186
inson	-12187
▁fleuve	-12188
embauche	-12189
positifs	-12190
▁déduire	-12191
▁allemand	-12192
▁rivières	-12193
▁signalés	-12194
▁végétaux	-12195
▁incompati	-12196
van	-12197
▁191	-12198
▁prime	-12199
istants	-12200
▁problé	-12201
appareils	-12202
▁respecté	-12203
RH	-12204
TIT	-12205
▁5)	-12206
zerb	-12207
▁PER	-12208
▁rayons	-12209
▁côtières	-12210
▁aptitudes	-12211
▁littérature	-12212
▁modifie	-12213
▁Structure	-12214
▁autoriser	-12215
▁certainement	-12216
tia	-12217
▁mains	-12218
▁surpr	-12219
tableau	-12220
▁conclue	-12221
▁consacrer	-12222
▁Formulaire	-12223
▁artistique	-12224
ura	-12225
▁193	-12226
alter	-12227
heimer	-12228
ambassade	-12229
▁Modification	-12230
/6	-12231
OLOG	-12232
radi	-12233
▁slo	-12234
aimer	-12235
droit	-12236
▁bloc	-12237
▁phil	-12238
▁compil	-12239
▁réussir	-12240
▁volumes	-12241
▁faillite	-12242
▁intellig	-12243
▁constituait	-12244
▁transporter	-12245
▁py	-12246
▁via	-12247
usine	-12248
▁envir	-12249
▁exprimées	-12250
▁Vari	-12251
▁aver	-12252
charge	-12253
▁latitude	-12254
▁traditions	-12255
aph	-12256
laci	-12257
▁Joseph	-12258
▁esprit	-12259
▁Équipe	-12260
▁détecter	-12261
▁primordi	-12262
▁disciplin	-12263
AY	-12264
asc	-12265
aude	-12266
lever	-12267
▁remerci	-12268
▁multipli	-12269
indicateurs	-12270
SIF	-12271
▁Lu	-12272
▁Ser	-12273
conne	-12274
▁guér	-12275
chauff	-12276
▁sélec	-12277
visions	-12278
▁Location	-12279
▁rétablir	-12280
▁Citoyenneté	-12281
▁métalliques	-12282
3),	-12283
gues	-12284
▁San	-12285
▁russe	-12286
▁PERS	-12287
alumin	-12288
abandon	-12289
▁arrêté	-12290
▁cesser	-12291
nationale	-12292
absorption	-12293
▁Précédent	-12294
▁cellulaire	-12295
▁transformer	-12296
▁Conservation	-12297
▁DM	-12298
éron	-12299
ality	-12300
▁faux	-12301
▁saurait	-12302
▁compromis	-12303
▁mondiales	-12304
▁Pal	-12305
▁Long	-12306
chômage	-12307
interro	-12308
▁diminue	-12309
▁machine	-12310
▁mandats	-12311
▁rédiger	-12312
▁Caraïbes	-12313
▁Transfert	-12314
anth	-12315
▁FOR	-12316
▁How	-12317
▁RAPPORT	-12318
▁pencher	-12319
▁évaluée	-12320
ulturalisme	-12321
▁compatible	-12322
▁accompagnée	-12323
3).	-12324
ériode	-12325
▁lecteur	-12326
insertion	-12327
▁incendies	-12328
▁Er	-12329
▁25,	-12330
entielle	-12331
▁entrent	-12332
▁compétents	-12333
▁desquelles	-12334
▁démographique	-12335
inqui	-12336
▁assign	-12337
▁langage	-12338
▁Aviation	-12339
▁demandés	-12340
▁incluses	-12341
kes	-12342
immer	-12343
▁analy	-12344
▁antim	-12345
▁actives	-12346
▁territorial	-12347
OUS	-12348
▁Mold	-12349
▁feux	-12350
alestini	-12351
▁consistant	-12352
▁impliquant	-12353
▁simplifier	-12354
▁satisfaisante	-12355
74	-12356
sidi	-12357
télé	-12358
arter	-12359
▁1984	-12360
atineau	-12361
▁néglige	-12362
INC	-12363
▁Mag	-12364
NATION	-12365
▁(2005)	-12366
▁stades	-12367
▁portait	-12368
NS	-12369
.2.	-12370
UTION	-12371
▁monop	-12372
Irlande	-12373
▁Divers	-12374
Am	-12375
lise	-12376
osée	-12377
émis	-12378
ineux	-12379
▁benz	-12380
▁câble	-12381
accepter	-12382
▁posséder	-12383
▁bilatérales	-12384
▁Oct	-12385
▁FORM	-12386
▁Lois	-12387
▁entrées	-12388
▁racines	-12389
▁énoncée	-12390
▁sessions	-12391
▁souhaitable	-12392
▁Élaboration	-12393
but	-12394
▁Mur	-12395
▁[4]	-12396
▁circul	-12397
aillants	-12398
▁influent	-12399
▁contempor	-12400
▁Traitement	-12401
▁Médicaments	-12402
▁déroulement	-12403
▁professeurs	-12404
oke	-12405
ots	-12406
mann	-12407
▁cessé	-12408
▁Sujets	-12409
▁grippe	-12410
▁confère	-12411
▁limitation	-12412
ONG	-12413
▁SI	-12414
iconque	-12415
▁Quatre	-12416
▁Majesté	-12417
▁postéri	-12418
étiquette	-12419
▁négatives	-12420
▁consacrées	-12421
.;	-12422
▁nÃ	-12423
▁acquises	-12424
▁décentra	-12425
▁Établissement	-12426
▁fen	-12427
▁tur	-12428
plain	-12429
tienne	-12430
▁décéd	-12431
▁perdre	-12432
▁analogues	-12433
▁consacrée	-12434
▁maternité	-12435
▁structurels	-12436
▁subséquente	-12437
▁dic	-12438
ating	-12439
▁nommer	-12440
▁calculée	-12441
▁soutenue	-12442
▁divisions	-12443
▁maintenance	-12444
▁présélection	-12445
▁Sco	-12446
▁Black	-12447
▁assujetti	-12448
▁novatrices	-12449
▁transmises	-12450
▁adéquatement	-12451
/11	-12452
EMB	-12453
ICH	-12454
gon	-12455
▁192	-12456
lière	-12457
▁Barb	-12458
▁écrites	-12459
▁protégée	-12460
ÔT	-12461
▁Bl	-12462
▁TV	-12463
tils	-12464
▁dign	-12465
▁degrés	-12466
appropri	-12467
▁Lettonie	-12468
▁adéquates	-12469
▁affectées	-12470
▁vaccination	-12471
▁gratuitement	-12472
▁ISO	-12473
exige	-12474
fient	-12475
▁pare	-12476
▁Emploi	-12477
▁vapeur	-12478
▁traitent	-12479
tifications	-12480
▁différenci	-12481
ye	-12482
AFE	-12483
INI	-12484
▁̈ce	-12485
▁Prom	-12486
▁recue	-12487
interpr	-12488
▁protégé	-12489
▁Contrôle	-12490
▁développements	-12491
vey	-12492
abeth	-12493
antis	-12494
▁AUTRES	-12495
▁élargie	-12496
▁examinée	-12497
▁terminer	-12498
occupation	-12499
▁possédant	-12500
▁manutention	-12501
▁(9	-12502
▁placé	-12503
▁Associ	-12504
▁supprim	-12505
▁Avantages	-12506
▁employées	-12507
ACE	-12508
itez	-12509
apour	-12510
▁bruit	-12511
▁PARTIE	-12512
▁ménage	-12513
▁viable	-12514
▁Modifier	-12515
▁orientale	-12516
▁solidarité	-12517
sez	-12518
▁fo	-12519
peci	-12520
spati	-12521
▁turb	-12522
▁municipal	-12523
▁vétérinaires	-12524
gouvernementales	-12525
▁22,	-12526
▁séro	-12527
▁Procéd	-12528
▁incomb	-12529
▁optique	-12530
▁forestière	-12531
▁innovations	-12532
ôtel	-12533
▁assis	-12534
▁sauvage	-12535
ritanniques	-12536
▁trésorerie	-12537
opro	-12538
▁tes	-12539
▁Zone	-12540
erreur	-12541
▁fruit	-12542
▁avocat	-12543
▁paliers	-12544
▁provient	-12545
olf	-12546
cules	-12547
ochim	-12548
▁adulte	-12549
▁organe	-12550
▁attendre	-12551
▁bénéficie	-12552
▁flexibilité	-12553
▁nécessitent	-12554
▁contrairement	-12555
TP	-12556
nia	-12557
▁chaud	-12558
▁allait	-12559
▁oblige	-12560
▁sodium	-12561
▁Mackenzie	-12562
financement	-12563
▁monétaires	-12564
indiquer	-12565
▁mécanique	-12566
EURS	-12567
▁Dun	-12568
honie	-12569
▁Rome	-12570
▁Étab	-12571
▁Sport	-12572
zheimer	-12573
indication	-12574
▁diversification	-12575
▁Mt	-12576
▁lin	-12577
▁voc	-12578
étéro	-12579
▁Carol	-12580
▁arché	-12581
▁criminels	-12582
etés	-12583
▁(6)	-12584
▁115	-12585
▁agit	-12586
▁race	-12587
▁music	-12588
▁roulant	-12589
abondance	-12590
▁Conclusion	-12591
▁Population	-12592
▁toxicomanie	-12593
▁parts	-12594
▁minimal	-12595
▁voitures	-12596
informatique	-12597
▁modélisation	-12598
BN	-12599
do	-12600
▁Sw	-12601
▁posé	-12602
vaquie	-12603
▁audit	-12604
ercredi	-12605
istrict	-12606
▁Western	-12607
▁majeurs	-12608
▁automatis	-12609
▁dentaires	-12610
▁réduisant	-12611
▁Technology	-12612
ricul	-12613
uréat	-12614
▁incon	-12615
▁décriv	-12616
exprimer	-12617
▁concord	-12618
▁éditeurs	-12619
▁consacrés	-12620
▁effluents	-12621
▁forestiers	-12622
kin	-12623
▁CAS	-12624
tical	-12625
avérer	-12626
tateurs	-12627
▁obtient	-12628
▁surfaces	-12629
▁nécessiter	-12630
chlor	-12631
▁CESE	-12632
▁assisté	-12633
▁récipro	-12634
▁collèges	-12635
▁légitime	-12636
▁ved	-12637
▁postale	-12638
▁originale	-12639
▁rencontré	-12640
▁initialement	-12641
ÉEN	-12642
ÈRES	-12643
▁0,2	-12644
▁réuni	-12645
▁tenté	-12646
▁exigés	-12647
▁Autriche	-12648
▁affiliée	-12649
▁qualification	-12650
KE	-12651
fas	-12652
énaire	-12653
▁absence	-12654
▁croient	-12655
▁facture	-12656
▁desquels	-12657
enregistre	-12658
▁chargement	-12659
▁ordinateurs	-12660
osa	-12661
▁(1,	-12662
▁Conc	-12663
▁Profil	-12664
▁Charles	-12665
habilitation	-12666
▁EM	-12667
▁prai	-12668
▁comté	-12669
▁routière	-12670
▁Mu	-12671
▁Sam	-12672
ramme	-12673
urité	-12674
aïdjan	-12675
▁explor	-12676
▁mammif	-12677
▁toucher	-12678
hydrogène	-12679
▁Northern	-12680
▁facilite	-12681
événements	-12682
▁augmentent	-12683
▁continuité	-12684
cés	-12685
osta	-12686
▁Équ	-12687
▁arme	-12688
Saskat	-12689
ciales	-12690
▁1989,	-12691
efficient	-12692
▁remplies	-12693
▁sanitaire	-12694
▁éventuelles	-12695
▁segment	-12696
zerbaïdjan	-12697
▁comprenait	-12698
▁délibérations	-12699
vol	-12700
aises	-12701
empêcher	-12702
▁adapter	-12703
▁appelés	-12704
▁succurs	-12705
▁distinguer	-12706
ita	-12707
POSI	-12708
▁Info	-12709
▁chevau	-12710
▁archives	-12711
▁investir	-12712
▁richesse	-12713
GH	-12714
CSM	-12715
▁MP	-12716
▁Expl	-12717
▁pand	-12718
▁grade	-12719
▁avancées	-12720
▁préalables	-12721
Ob	-12722
▁béb	-12723
/2002	-12724
▁avancé	-12725
▁réaffir	-12726
▁rémunéré	-12727
▁journalistes	-12728
''	-12729
▁Remar	-12730
▁antic	-12731
▁monta	-12732
▁chirur	-12733
▁quartier	-12734
▁rarement	-12735
▁inférieures	-12736
▁Contribution	-12737
avez	-12738
enir	-12739
SEIGN	-12740
▁délim	-12741
▁échel	-12742
▁sonore	-12743
▁inciter	-12744
▁EUROPÉEN	-12745
▁phénomènes	-12746
▁contribuant	-12747
lave	-12748
▁(19	-12749
▁Lan	-12750
laçant	-12751
▁Stand	-12752
▁riche	-12753
▁avancer	-12754
▁Atlantique	-12755
Inf	-12756
PER	-12757
mie	-12758
▁RÃ	-12759
▁Sond	-12760
ortait	-12761
▁Child	-12762
gestion	-12763
▁revues	-12764
▁soumissions	-12765
▁regroupement	-12766
UEO	-12767
▁Creek	-12768
▁impôt	-12769
sibilité	-12770
écosystème	-12771
▁discriminatoire	-12772
rak	-12773
venues	-12774
gentine	-12775
érosion	-12776
▁agence	-12777
▁varier	-12778
▁conçues	-12779
▁concrets	-12780
▁identique	-12781
▁thermique	-12782
iat	-12783
minés	-12784
▁Mars	-12785
▁bient	-12786
▁1998-199	-12787
▁Présence	-12788
▁touristiques	-12789
▁gÃ	-12790
glas	-12791
▁rotation	-12792
▁chapitres	-12793
▁pharmaceutique	-12794
DM	-12795
▁éb	-12796
▁Albert	-12797
▁Troisième	-12798
▁comparative	-12799
▁prescriptions	-12800
uvi	-12801
phal	-12802
▁23,	-12803
angle	-12804
▁rare	-12805
associ	-12806
▁fiche	-12807
▁préavis	-12808
▁Création	-12809
▁surmonter	-12810
▁PH	-12811
iaire	-12812
▁pierre	-12813
▁folklore	-12814
▁supprimé	-12815
▁consister	-12816
▁réadaptation	-12817
-2,	-12818
gile	-12819
SCIAN	-12820
▁légère	-12821
équivalent	-12822
vage	-12823
▁Liv	-12824
▁cyt	-12825
▁porc	-12826
optimis	-12827
overnment	-12828
appartenance	-12829
▁BR	-12830
rase	-12831
appuie	-12832
▁Committee	-12833
▁olympique	-12834
▁2004-2005,	-12835
'«	-12836
SA	-12837
ducti	-12838
▁microbi	-12839
▁hydrograph	-12840
7]	-12841
81	-12842
oo	-12843
▁har	-12844
▁Nova	-12845
▁pourvu	-12846
aimerais	-12847
▁affiché	-12848
▁voulons	-12849
▁carburants	-12850
▁Kong	-12851
▁genres	-12852
▁énonce	-12853
▁adaptée	-12854
▁Établir	-12855
oundation	-12856
▁audience	-12857
▁dénomination	-12858
Arr	-12859
▁IND	-12860
▁Nic	-12861
▁enc	-12862
▁Mary	-12863
▁cerve	-12864
ularité	-12865
échéance	-12866
▁questionnaires	-12867
atom	-12868
▁conçue	-12869
▁habilité	-12870
▁envisagées	-12871
▁quotidiennes	-12872
euf	-12873
▁largeur	-12874
▁précisant	-12875
▁énumérées	-12876
sct	-12877
enqu	-12878
trom	-12879
taine	-12880
œuvres	-12881
▁States	-12882
▁denrées	-12883
▁devises	-12884
WL	-12885
inspec	-12886
projet	-12887
▁pipel	-12888
▁quinze	-12889
▁renforcé	-12890
estime	-12891
ommage	-12892
▁avion	-12893
▁parlé	-12894
▁Cliquez	-12895
▁avancés	-12896
▁cinémat	-12897
▁envoyée	-12898
▁indigènes	-12899
ere	-12900
720\	-12901
idés	-12902
▁(197	-12903
▁Mati	-12904
▁sole	-12905
▁Scott	-12906
▁matin	-12907
▁amende	-12908
▁Comptes	-12909
▁Gatineau	-12910
Interprétation	-12911
▁THE	-12912
▁tire	-12913
entrer	-12914
▁salles	-12915
▁faculta	-12916
▁étudiant	-12917
▁parlements	-12918
quin	-12919
tera	-12920
comité	-12921
▁Mondi	-12922
▁Social	-12923
▁Volume	-12924
▁résidant	-12925
▁attribuée	-12926
▁comparable	-12927
▁créativité	-12928
orn	-12929
▁CB	-12930
sell	-12931
▁130	-12932
▁bov	-12933
ordon	-12934
Alliance	-12935
▁Exemple	-12936
▁intrants	-12937
▁témoigne	-12938
▁souverain	-12939
▁mentionner	-12940
OCI	-12941
medi	-12942
▁UNE	-12943
rions	-12944
automob	-12945
▁Project	-12946
▁bientôt	-12947
▁demandant	-12948
▁conviendrait	-12949
ML	-12950
▁CIO	-12951
▁aim	-12952
▁Unité	-12953
▁margin	-12954
issements	-12955
▁Destination	-12956
disciplinaire	-12957
▁Hen	-12958
▁INS	-12959
▁renf	-12960
▁piles	-12961
▁secret	-12962
▁vacances	-12963
▁suggèrent	-12964
Ed	-12965
VAL	-12966
olat	-12967
▁Sainte	-12968
▁envoyés	-12969
ajustement	-12970
▁retrouver	-12971
▁ferroviaires	-12972
▁lu	-12973
ouge	-12974
/2003	-12975
Entente	-12976
aéronefs	-12977
▁avantag	-12978
▁moléculaire	-12979
visionnements	-12980
TMÃ	-12981
ovas	-12982
▁140	-12983
▁Île	-12984
hydra	-12985
outil	-12986
▁aire	-12987
▁calci	-12988
▁retards	-12989
▁horizontale	-12990
ql	-12991
The	-12992
lon	-12993
▁Ky	-12994
▁Care	-12995
▁corpor	-12996
▁souple	-12997
▁rejetée	-12998
▁couvrant	-12999
▁2-	-13000
▁CCS	-13001
▁revendi	-13002
▁prononcé	-13003
▁productions	-13004
uth	-13005
▁Sen	-13006
▁lip	-13007
▁élus	-13008
▁House	-13009
▁connues	-13010
▁retenus	-13011
aluminium	-13012
▁retourner	-13013
dép	-13014
-198	-13015
▁sté	-13016
▁affré	-13017
▁payées	-13018
adresser	-13019
▁arrivée	-13020
▁réservé	-13021
immunisation	-13022
▁Indicateurs	-13023
▁Dispositions	-13024
▁documentaire	-13025
▁indépendamment	-13026
GAN	-13027
gare	-13028
▁12.	-13029
▁MHz	-13030
OURCES	-13031
aéronef	-13032
▁menant	-13033
▁Dossier	-13034
▁universel	-13035
▁motivation	-13036
Saskatchewan	-13037
▁SMA	-13038
▁Bill	-13039
iction	-13040
émique	-13041
expliquer	-13042
uffisance	-13043
▁Confédération	-13044
esc	-13045
▁combien	-13046
▁congrès	-13047
▁planète	-13048
/4	-13049
▁Work	-13050
Équipe	-13051
▁Diver	-13052
▁griefs	-13053
▁placés	-13054
raux	-13055
▁Lar	-13056
▁représentante	-13057
TES	-13058
rapp	-13059
oques	-13060
umeurs	-13061
▁Macéd	-13062
orateur	-13063
▁forage	-13064
▁enceintes	-13065
▁Deuxièmement	-13066
ould	-13067
▁TVA	-13068
osant	-13069
▁défen	-13070
▁promen	-13071
▁cabinet	-13072
▁Critères	-13073
institutions	-13074
▁constituant	-13075
▁comparaisons	-13076
iso	-13077
sen	-13078
tan	-13079
ords	-13080
▁Kir	-13081
incen	-13082
▁PROT	-13083
aspect	-13084
▁entré	-13085
▁quitté	-13086
▁riches	-13087
▁élargir	-13088
▁antérieur	-13089
▁rapprochement	-13090
MM	-13091
rans	-13092
▁Eli	-13093
▁cab	-13094
▁sph	-13095
rence	-13096
▁inad	-13097
▁tardi	-13098
▁applique	-13099
▁exigeant	-13100
▁construit	-13101
▁homologues	-13102
▁imposables	-13103
accumulation	-13104
199	-13105
dules	-13106
▁Lind	-13107
▁Pharm	-13108
▁sains	-13109
▁peines	-13110
▁indices	-13111
▁commencent	-13112
the	-13113
▁(1999)	-13114
▁Airlines	-13115
▁Capacité	-13116
▁artistiques	-13117
▁ça	-13118
2005	-13119
ally	-13120
▁MAECI	-13121
▁places	-13122
▁sécher	-13123
▁malades	-13124
▁compenser	-13125
IX	-13126
▁SK	-13127
bury	-13128
▁dét	-13129
▁géré	-13130
▁Points	-13131
▁Entente	-13132
incapacité	-13133
▁COMMISSION	-13134
▁Immigration	-13135
immobilisations	-13136
▁MB	-13137
onci	-13138
▁CER	-13139
grais	-13140
itons	-13141
▁Human	-13142
▁exercent	-13143
▁maintenu	-13144
▁fonctionnelle	-13145
00,	-13146
teg	-13147
liss	-13148
▁rat	-13149
▁pénal	-13150
entendre	-13151
▁attendu	-13152
▁limités	-13153
▁interview	-13154
▁préparations	-13155
▁1.4	-13156
▁Pen	-13157
▁cant	-13158
▁venant	-13159
▁Kingston	-13160
▁Singapour	-13161
▁domestique	-13162
▁prolongation	-13163
▁confidentiels	-13164
▁antérieurement	-13165
2).	-13166
orgi	-13167
▁180	-13168
ickel	-13169
point	-13170
▁plur	-13171
▁1987,	-13172
▁sable	-13173
▁Serbie	-13174
▁quinqu	-13175
locution	-13176
▁bataille	-13177
▁traitant	-13178
▁(50	-13179
▁May	-13180
▁Sun	-13181
▁Effec	-13182
▁(2002)	-13183
▁Outils	-13184
▁dénomm	-13185
▁passés	-13186
▁seuils	-13187
individu	-13188
assemblée	-13189
extension	-13190
▁prenantes	-13191
▁Foundation	-13192
▁gouverneurs	-13193
▁Instructions	-13194
ball	-13195
çait	-13196
udson	-13197
▁City	-13198
▁envah	-13199
issantes	-13200
▁influen	-13201
▁démarrage	-13202
▁allocation	-13203
▁).	-13204
▁accréd	-13205
▁discuté	-13206
▁complètes	-13207
▁souffrant	-13208
▁POS	-13209
▁chute	-13210
▁citer	-13211
▁€	-13212
■■	-13213
yme	-13214
atti	-13215
▁Pau	-13216
▁stér	-13217
▁dudit	-13218
uraient	-13219
▁créant	-13220
▁respectant	-13221
▁commissaires	-13222
▁(->	-13223
▁190	-13224
▁1981	-13225
▁cuis	-13226
▁Intég	-13227
▁Porte	-13228
▁trouvant	-13229
▁cardiaque	-13230
▁exploitations	-13231
FL	-13232
accus	-13233
▁forts	-13234
▁fructu	-13235
▁acceptée	-13236
▁panneaux	-13237
▁prudence	-13238
▁approuver	-13239
▁fonctionnels	-13240
84	-13241
fé	-13242
ouvrage	-13243
▁Freder	-13244
▁diverg	-13245
▁substra	-13246
▁illicite	-13247
▁INTERNATION	-13248
▁indéterminée	-13249
MT	-13250
PAR	-13251
ena	-13252
▁PT	-13253
▁NCSM	-13254
▁perçu	-13255
Article	-13256
▁Exemples	-13257
▁cherchent	-13258
▁potentiellement	-13259
tbs	-13260
adron	-13261
▁inst	-13262
▁déclarée	-13263
intervenants	-13264
rey	-13265
avère	-13266
▁empi	-13267
▁flot	-13268
▁écart	-13269
autique	-13270
issante	-13271
▁dirigée	-13272
▁Macédoine	-13273
▁antimicro	-13274
/2001	-13275
ender	-13276
inscri	-13277
animité	-13278
▁exacte	-13279
▁remplace	-13280
▁Principes	-13281
▁concertation	-13282
▁représentaient	-13283
cose	-13284
▁Charlo	-13285
▁redres	-13286
▁stables	-13287
essentiel	-13288
tissements	-13289
▁déclarées	-13290
▁intérieurs	-13291
▁FMI	-13292
raines	-13293
▁TABLE	-13294
▁charte	-13295
▁séries	-13296
galement	-13297
▁Moncton	-13298
▁assemblées	-13299
▁phrase	-13300
analyser	-13301
▁MAN	-13302
anadi	-13303
▁dilig	-13304
essment	-13305
ological	-13306
▁Message	-13307
▁manuels	-13308
▁magasins	-13309
▁comprises	-13310
▁défavoris	-13311
▁superviseur	-13312
▁parfaitement	-13313
▁RMR	-13314
▁bic	-13315
▁not	-13316
estes	-13317
▁soleil	-13318
▁légales	-13319
▁passées	-13320
▁proches	-13321
▁protéine	-13322
▁reprendre	-13323
▁exactement	-13324
▁multination	-13325
▁abus	-13326
résident	-13327
affichage	-13328
▁milliaire	-13329
▁Premièrement	-13330
OHMI	-13331
▁ger	-13332
▁fret	-13333
▁rive	-13334
▁corro	-13335
▁Évalu	-13336
étendre	-13337
▁télévis	-13338
▁Priorités	-13339
▁Actuellement	-13340
▁DD	-13341
▁SA	-13342
▁101	-13343
▁Mob	-13344
▁pel	-13345
êteur	-13346
▁____	-13347
▁1988,	-13348
▁austra	-13349
officier	-13350
▁subordonn	-13351
▁contenants	-13352
URES	-13353
▁AND	-13354
habitu	-13355
▁énorm	-13356
entiels	-13357
▁volati	-13358
▁couleurs	-13359
▁requiert	-13360
▁barrières	-13361
▁Changement	-13362
▁explications	-13363
▁surintendant	-13364
ÈS	-13365
ouss	-13366
▁6.2	-13367
▁Cra	-13368
▁sels	-13369
▁assor	-13370
▁relié	-13371
▁tente	-13372
etteurs	-13373
▁blanche	-13374
▁diamètre	-13375
▁fabriqués	-13376
fra	-13377
fiant	-13378
▁tables	-13379
explique	-13380
▁renseigner	-13381
▁vulnérabilité	-13382
.]	-13383
TK	-13384
UB	-13385
vée	-13386
anet	-13387
ïdes	-13388
▁dus	-13389
▁TRAV	-13390
▁Tend	-13391
▁reliée	-13392
▁GESTION	-13393
▁subsidi	-13394
▁Resources	-13395
▁voisinage	-13396
▁2005-2006,	-13397
▁formations	-13398
▁correspondants	-13399
ee	-13400
▁PRI	-13401
▁fir	-13402
France	-13403
▁ramen	-13404
orables	-13405
▁voulant	-13406
▁séquences	-13407
▁Prestation	-13408
zip	-13409
olus	-13410
pers	-13411
▁enzy	-13412
impose	-13413
▁Industries	-13414
▁Cir	-13415
opédi	-13416
ologue	-13417
sifier	-13418
▁collo	-13419
▁dissu	-13420
▁foyer	-13421
▁hydra	-13422
▁basées	-13423
itz	-13424
▁OP	-13425
rise	-13426
▁Rock	-13427
▁auto	-13428
▁adjac	-13429
▁datée	-13430
▁métro	-13431
▁soupç	-13432
orisations	-13433
▁consultant	-13434
▁mentionnons	-13435
▁fluctuations	-13436
actes	-13437
▁révé	-13438
▁mardi	-13439
Bretagne	-13440
▁espaces	-13441
othérapie	-13442
▁manufactur	-13443
▁Perspectives	-13444
ways	-13445
well	-13446
issez	-13447
iennes	-13448
▁Spéci	-13449
▁néfas	-13450
abilités	-13451
▁crucial	-13452
▁occupent	-13453
▁contingent	-13454
(5)	-13455
mens	-13456
▁1,0	-13457
▁Lic	-13458
▁Brown	-13459
▁béton	-13460
▁réviser	-13461
▁diffèrent	-13462
▁initiales	-13463
▁Principaux	-13464
▁occidentale	-13465
▁souterraines	-13466
5).	-13467
Loi	-13468
ids	-13469
▁(%)	-13470
▁1990.	-13471
▁décri	-13472
▁assume	-13473
▁étudie	-13474
▁semences	-13475
▁prélèvement	-13476
▁Observations	-13477
▁conditionnelle	-13478
étale	-13479
▁Miss	-13480
▁Livre	-13481
Organis	-13482
imposent	-13483
▁Califor	-13484
▁métiers	-13485
▁soulève	-13486
étudiants	-13487
▁séquence	-13488
Commission	-13489
▁serviront	-13490
▁réservoirs	-13491
▁identifiées	-13492
▁représentés	-13493
▁additionnelle	-13494
UMÉ	-13495
UST	-13496
bell	-13497
▁côt	-13498
▁TELUS	-13499
▁Ãatre	-13500
contrac	-13501
▁imposé	-13502
▁comprise	-13503
▁transmissib	-13504
ILL	-13505
▁Ev	-13506
▁Tim	-13507
▁uns	-13508
▁recon	-13509
onniers	-13510
▁posées	-13511
▁clauses	-13512
▁partagent	-13513
▁Distribution	-13514
▁accroissement	-13515
dont	-13516
ning	-13517
▁(40	-13518
▁hui	-13519
agées	-13520
▁GROU	-13521
▁fermes	-13522
▁Informations	-13523
2),	-13524
IDE	-13525
tum	-13526
▁SDD	-13527
▁Vir	-13528
veurs	-13529
▁erron	-13530
▁capture	-13531
▁horaire	-13532
▁plastique	-13533
entreprendre	-13534
Net	-13535
...)	-13536
envis	-13537
trage	-13538
▁crist	-13539
▁morph	-13540
▁réunit	-13541
▁délivrer	-13542
▁énergies	-13543
▁amendement	-13544
▁manifestement	-13545
TIV	-13546
USION	-13547
▁CONC	-13548
▁Règle	-13549
▁Trade	-13550
étations	-13551
▁financée	-13552
▁Slovaquie	-13553
▁prononcer	-13554
Jean	-13555
orat	-13556
uage	-13557
▁agi	-13558
▁Frank	-13559
▁Export	-13560
▁émanant	-13561
▁formules	-13562
▁respectu	-13563
▁Situation	-13564
▁significatives	-13565
ef	-13566
ini	-13567
tid	-13568
▁Laval	-13569
▁Systems	-13570
▁formulé	-13571
▁constant	-13572
▁respiratoire	-13573
2006	-13574
soit	-13575
èvre	-13576
▁Queen	-13577
▁course	-13578
▁variabilité	-13579
▁manifestation	-13580
Co	-13581
ompe	-13582
▁mini	-13583
SIDENT	-13584
ousses	-13585
▁décro	-13586
obésité	-13587
ultural	-13588
▁guider	-13589
▁plante	-13590
excédent	-13591
▁survenus	-13592
▁Propriété	-13593
▁crédibilité	-13594
▁juridictions	-13595
▁explicitement	-13596
2,5	-13597
ALL	-13598
ASE	-13599
enu	-13600
▁RC	-13601
inten	-13602
▁rand	-13603
ichlor	-13604
▁gérés	-13605
▁réduits	-13606
▁désirent	-13607
▁Inscrivez	-13608
▁administrés	-13609
▁potentielle	-13610
investissements	-13611
gre	-13612
▁GC	-13613
deux	-13614
DUCTION	-13615
▁2007-03	-13616
unanimité	-13617
▁transféré	-13618
▁Instruments	-13619
40-	-13620
anies	-13621
▁Mesure	-13622
▁inaccep	-13623
▁remplit	-13624
▁attribuer	-13625
▁saillants	-13626
▁consolider	-13627
▁équivalents	-13628
.8	-13629
YS	-13630
ops	-13631
▁5.4	-13632
▁clar	-13633
▁chutes	-13634
▁ciblées	-13635
▁contacter	-13636
▁2003-2004,	-13637
▁propagation	-13638
mit	-13639
▁FM	-13640
épre	-13641
▁BFC	-13642
érons	-13643
▁Sauf	-13644
▁abré	-13645
▁cerc	-13646
▁lots	-13647
cureur	-13648
▁piste	-13649
▁voient	-13650
▁revenir	-13651
▁architec	-13652
▁Européens	-13653
▁2006-2007,	-13654
▁établissent	-13655
▁GH	-13656
▁104	-13657
cular	-13658
▁créances	-13659
▁fauteuil	-13660
▁imprimée	-13661
invitation	-13662
▁trimestri	-13663
oe	-13664
ortium	-13665
êteurs	-13666
▁Medical	-13667
▁permanence	-13668
▁appartiennent	-13669
▁Mé	-13670
main	-13671
toral	-13672
▁TECH	-13673
▁Hydro	-13674
▁incer	-13675
▁équiv	-13676
▁lancée	-13677
ématique	-13678
▁africains	-13679
▁excessive	-13680
(1),	-13681
▁TÉU	-13682
gypte	-13683
▁ledit	-13684
aissant	-13685
érateur	-13686
▁Scotia	-13687
▁pommes	-13688
▁passent	-13689
▁Réduction	-13690
instauration	-13691
▁asi	-13692
ancer	-13693
▁MODI	-13694
▁néer	-13695
▁venus	-13696
▁Daniel	-13697
▁Municip	-13698
▁engager	-13699
▁justifie	-13700
▁RÈGLEMENT	-13701
▁hebdomadaire	-13702
ACH	-13703
▁27,	-13704
▁ACT	-13705
▁LIM	-13706
images	-13707
▁jeudi	-13708
▁chanti	-13709
▁compteurs	-13710
▁ensembles	-13711
▁honoraires	-13712
trer	-13713
▁Moun	-13714
▁tôles	-13715
efforce	-13716
éthanol	-13717
▁endomm	-13718
▁quotas	-13719
Autriche	-13720
▁distribuer	-13721
▁récepteurs	-13722
RIP	-13723
ône	-13724
▁160	-13725
▁sel	-13726
mbour	-13727
valles	-13728
▁ponts	-13729
imposer	-13730
Organisme	-13731
▁affecter	-13732
▁violations	-13733
▁Év	-13734
▁Bir	-13735
▁Dém	-13736
osoph	-13737
illère	-13738
maladie	-13739
▁disent	-13740
▁écrits	-13741
▁contrôlée	-13742
▁coordonnée	-13743
▁respiratoires	-13744
▁précipitations	-13745
uns	-13746
Acte	-13747
adjud	-13748
alphab	-13749
▁jaune	-13750
▁attest	-13751
▁donnera	-13752
exploitant	-13753
▁cardiovas	-13754
▁éducatifs	-13755
.20	-13756
/09	-13757
iew	-13758
▁Harb	-13759
▁Capit	-13760
univers	-13761
▁affirm	-13762
▁pourtant	-13763
▁élaborée	-13764
▁renforcée	-13765
▁mammifères	-13766
▁Diversification	-13767
Ph	-13768
▁ME	-13769
▁Day	-13770
▁math	-13771
▁lourds	-13772
▁émises	-13773
▁prescrits	-13774
▁rembourser	-13775
▁subsistance	-13776
SF	-13777
▁Aj	-13778
▁Pak	-13779
▁Tri	-13780
▁gon	-13781
▁Maur	-13782
▁poul	-13783
▁2006)	-13784
▁hyper	-13785
▁moral	-13786
enquêtes	-13787
▁éthiques	-13788
▁transitoire	-13789
dg	-13790
ONE	-13791
▁Por	-13792
▁Bour	-13793
▁CENT	-13794
▁OMPI	-13795
ilisés	-13796
▁aiguë	-13797
aisseur	-13798
▁Semaine	-13799
▁anglophones	-13800
▁catastrophe	-13801
▁domestiques	-13802
gÃ	-13803
excell	-13804
inerie	-13805
▁parcour	-13806
▁Coordonnées	-13807
▁coefficient	-13808
▁diplomatique	-13809
▁encourageant	-13810
OPE	-13811
chef	-13812
▁(41	-13813
▁Beso	-13814
▁coutu	-13815
▁soulevé	-13816
▁Intellec	-13817
▁contrôlé	-13818
▁excellent	-13819
▁correspondre	-13820
▁_	-13821
angs	-13822
wealth	-13823
▁Photos	-13824
▁Jacques	-13825
▁Sondage	-13826
▁dignité	-13827
▁fassent	-13828
▁District	-13829
▁adéquats	-13830
▁résidants	-13831
▁simultanément	-13832
/6/	-13833
anz	-13834
▁Amb	-13835
ELLES	-13836
Terre	-13837
▁MATI	-13838
▁entrep	-13839
▁inspir	-13840
▁ingénie	-13841
▁composer	-13842
▁employée	-13843
▁entrevue	-13844
▁appelants	-13845
▁examinera	-13846
▁justifiée	-13847
▁municipale	-13848
▁rechercher	-13849
gouvernementale	-13850
fu	-13851
guée	-13852
▁GDE	-13853
▁insec	-13854
ogrammes	-13855
▁immeuble	-13856
▁vocation	-13857
▁contrôlées	-13858
▁mobilisation	-13859
▁extraordinaire	-13860
▁ultérieurement	-13861
erty	-13862
▁Ath	-13863
▁Sup	-13864
▁tubes	-13865
▁expose	-13866
▁pensionn	-13867
développement	-13868
SD	-13869
▁McM	-13870
▁PAC	-13871
ights	-13872
▁Road	-13873
▁mesuré	-13874
▁présum	-13875
▁Laurier	-13876
▁Français	-13877
▁vieilles	-13878
▁absolument	-13879
▁recommandée	-13880
océ	-13881
clés	-13882
luor	-13883
page	-13884
▁East	-13885
▁innovation	-13886
▁Î	-13887
Rép	-13888
glais	-13889
▁News	-13890
▁flotte	-13891
▁suicide	-13892
autoriser	-13893
▁PRÉSIDENT	-13894
▁Télécharger	-13895
▁religieuses	-13896
TIL	-13897
▁Ti	-13898
▁Jim	-13899
optique	-13900
▁Améric	-13901
intervalle	-13902
▁équitables	-13903
▁explication	-13904
SR	-13905
ouc	-13906
sous	-13907
▁fid	-13908
iront	-13909
▁visible	-13910
▁Jeunesse	-13911
▁champign	-13912
▁garantit	-13913
crimination	-13914
ulté	-13915
▁sép	-13916
▁top	-13917
▁DRHC	-13918
▁Louis	-13919
▁drain	-13920
▁Modèle	-13921
immeuble	-13922
▁prochains	-13923
▁provision	-13924
OV	-13925
aves	-13926
▁Mel	-13927
▁CHAP	-13928
▁polym	-13929
▁leaders	-13930
▁techniciens	-13931
▁mL	-13932
tacle	-13933
▁Photo	-13934
▁tétra	-13935
Nouveau	-13936
▁savons	-13937
▁acceptées	-13938
▁profondes	-13939
dan	-13940
oile	-13941
otox	-13942
▁RPP	-13943
▁foie	-13944
▁Malte	-13945
▁dévou	-13946
ouilles	-13947
élargir	-13948
▁Nature	-13949
aptitude	-13950
notamment	-13951
▁AF	-13952
▁COV	-13953
▁itin	-13954
organe	-13955
▁Power	-13956
armement	-13957
incendie	-13958
▁calcium	-13959
▁dépassé	-13960
▁forestier	-13961
ATT	-13962
lai	-13963
yan	-13964
▁>>	-13965
ycle	-13966
▁1,2	-13967
▁pav	-13968
▁ppm	-13969
▁AINC	-13970
▁refro	-13971
▁clairs	-13972
▁dopage	-13973
▁souche	-13974
▁descend	-13975
▁exclusif	-13976
▁Conference	-13977
▁attribuées	-13978
▁dividendes	-13979
▁informatis	-13980
▁inquiétudes	-13981
▁Collectivités	-13982
%09	-13983
%09&	-13984
tude	-13985
▁PSN	-13986
immig	-13987
▁bras	-13988
▁peux	-13989
▁Moins	-13990
▁Norme	-13991
▁molécu	-13992
▁Philipp	-13993
▁vivants	-13994
▁théorique	-13995
risonnement	-13996
▁7.1	-13997
▁Ate	-13998
▁Tom	-13999
▁visa	-14000
▁tonne	-14001
▁exclusive	-14002
.04	-14003
PSN	-14004
▁Gi	-14005
bres	-14006
▁103	-14007
▁STR	-14008
excéd	-14009
▁manqu	-14010
▁savent	-14011
acuation	-14012
▁Assurer	-14013
▁estimer	-14014
▁remercie	-14015
▁traduire	-14016
▁portuaire	-14017
▁Présidente	-14018
▁extérieurs	-14019
▁régulières	-14020
vus	-14021
▁Rem	-14022
▁avisé	-14023
▁guère	-14024
▁laissé	-14025
▁compare	-14026
▁majeures	-14027
▁réchauff	-14028
▁centralis	-14029
Eurosystème	-14030
▁Olympiques	-14031
SO	-14032
bert	-14033
▁Éta	-14034
émité	-14035
onible	-14036
▁Celle	-14037
▁bâtir	-14038
▁instal	-14039
▁irrégu	-14040
▁recens	-14041
▁réservoir	-14042
▁découvertes	-14043
win	-14044
ÉNA	-14045
▁os	-14046
jeuner	-14047
▁nat	-14048
ierie	-14049
pièce	-14050
▁vaut	-14051
endaire	-14052
▁Beaucoup	-14053
▁certitude	-14054
Afghanistan	-14055
7/	-14056
▁GE	-14057
▁Fra	-14058
enrich	-14059
audition	-14060
istraire	-14061
▁Windsor	-14062
▁prolongée	-14063
▁préférable	-14064
tifiés	-14065
▁hybri	-14066
▁assimil	-14067
▁totalis	-14068
territori	-14069
▁Conseillers	-14070
.9	-14071
lose	-14072
xion	-14073
▁TPMD	-14074
▁longs	-14075
▁pulmon	-14076
conseils	-14077
▁accrues	-14078
▁linéaire	-14079
▁transmise	-14080
▁concession	-14081
▁Commonwealth	-14082
UX	-14083
AMP	-14084
dien	-14085
▁0,3	-14086
▁107	-14087
▁Ach	-14088
alise	-14089
deurs	-14090
▁Place	-14091
▁agréé	-14092
▁jugées	-14093
▁choisie	-14094
▁couches	-14095
▁torture	-14096
▁accélérer	-14097
▁ventilation	-14098
▁GT	-14099
▁Go	-14100
▁gas	-14101
▁sat	-14102
▁Sand	-14103
accala	-14104
▁Créer	-14105
▁Reconn	-14106
accompag	-14107
▁Promouvoir	-14108
▁Consultation	-14109
▁agroalimentaire	-14110
▁perçus	-14111
▁Parallè	-14112
▁isolats	-14113
▁affectations	-14114
IER	-14115
▁TH	-14116
sias	-14117
▁(70	-14118
islam	-14119
▁quai	-14120
▁tron	-14121
▁vécu	-14122
person	-14123
▁ENTRE	-14124
ilatéra	-14125
▁adjointe	-14126
▁interprètes	-14127
ope	-14128
ceau	-14129
sect	-14130
hyper	-14131
onnance	-14132
▁ciblés	-14133
efforcer	-14134
▁cerveau	-14135
résidents	-14136
▁pénalité	-14137
▁classique	-14138
▁organique	-14139
▁consulaires	-14140
▁observation	-14141
▁ordonnances	-14142
▁coordonnateurs	-14143
ïn	-14144
▁UK	-14145
▁RÉG	-14146
▁coli	-14147
▁Appare	-14148
▁Christ	-14149
inguisme	-14150
▁suspendre	-14151
Arrangement	-14152
▁intervalles	-14153
▁projections	-14154
▁candidatures	-14155
▁configuration	-14156
infrastructures	-14157
▁FAC	-14158
▁alig	-14159
figure	-14160
▁expert	-14161
▁foyers	-14162
▁feuillet	-14163
▁Renforcer	-14164
▁étiquettes	-14165
OW	-14166
▁MD	-14167
▁***	-14168
▁Roms	-14169
unités	-14170
▁injec	-14171
éditions	-14172
▁Conseiller	-14173
▁inspection	-14174
▁ko	-14175
diff	-14176
acquis	-14177
alibre	-14178
▁répété	-14179
▁résume	-14180
▁faisons	-14181
▁brochure	-14182
▁espagnol	-14183
▁exprimés	-14184
▁emplacements	-14185
gni	-14186
ila	-14187
mod	-14188
▁819	-14189
▁Passe	-14190
▁postal	-14191
▁vedette	-14192
▁améliorant	-14193
▁remarquable	-14194
-2006	-14195
▁Haye	-14196
Autres	-14197
▁(604)	-14198
▁livrer	-14199
▁nommée	-14200
▁garçons	-14201
immersion	-14202
▁envisagé	-14203
▁payables	-14204
provincial	-14205
▁Inv	-14206
chage	-14207
▁Anti	-14208
mension	-14209
opportu	-14210
▁indice	-14211
▁viables	-14212
▁civilisations	-14213
▁organisationnel	-14214
▁Six	-14215
infec	-14216
▁verb	-14217
▁céréb	-14218
▁causée	-14219
▁touché	-14220
▁étudiés	-14221
▁formelle	-14222
▁urgences	-14223
▁1999-2000	-14224
▁détenteur	-14225
▁Parallèlement	-14226
▁hydrocarbures	-14227
RT	-14228
AAC	-14229
PPE	-14230
sim	-14231
rats	-14232
yles	-14233
ennal	-14234
▁2005)	-14235
▁boîte	-14236
▁guich	-14237
▁Police	-14238
▁débuté	-14239
▁devenus	-14240
▁complété	-14241
▁Directives	-14242
▁recommandées	-14243
▁périodiquement	-14244
SM	-14245
hier	-14246
îner	-14247
▁RAD	-14248
▁monu	-14249
ièrent	-14250
accalauréat	-14251
▁nécessitant	-14252
▁multilatérales	-14253
dar	-14254
▁957	-14255
▁[6]	-14256
▁intèg	-14257
▁francs	-14258
▁sixième	-14259
▁statuts	-14260
▁roulement	-14261
▁olympiques	-14262
▁concurrentielle	-14263
IES	-14264
▁CV	-14265
▁EL	-14266
idae	-14267
▁Guy	-14268
▁Indem	-14269
▁Install	-14270
▁interdis	-14271
1).	-14272
CON	-14273
▁Ha	-14274
urch	-14275
▁Plans	-14276
▁Global	-14277
▁pénales	-14278
programme	-14279
▁Regional	-14280
▁réalités	-14281
▁distribué	-14282
▁limitations	-14283
ANTÉ	-14284
aies	-14285
▁Nat	-14286
▁pin	-14287
▁souha	-14288
▁surve	-14289
ervices	-14290
▁Répert	-14291
▁neutra	-14292
dictions	-14293
terroris	-14294
▁ouvrage	-14295
▁supports	-14296
▁dépassent	-14297
▁consistent	-14298
▁communiquez	-14299
▁permanentes	-14300
▁élaboration	-14301
▁détérioration	-14302
levé	-14303
▁Dar	-14304
▁PNUD	-14305
▁chen	-14306
▁embry	-14307
▁ambiti	-14308
▁conces	-14309
▁forums	-14310
▁plaques	-14311
occurrence	-14312
▁prévoyait	-14313
▁poursuivent	-14314
▁simplification	-14315
téb	-14316
▁vitro	-14317
housias	-14318
▁CANAFE	-14319
▁engage	-14320
▁isolés	-14321
▁meubles	-14322
▁laissent	-14323
▁reposent	-14324
andissement	-14325
canada	-14326
ompson	-14327
▁stage	-14328
▁mesurée	-14329
▁laitiers	-14330
▁philosoph	-14331
▁périodique	-14332
▁transférés	-14333
▁potentielles	-14334
▁■	-14335
ERG	-14336
aib	-14337
00:00	-14338
endum	-14339
▁Préc	-14340
▁rach	-14341
▁Banff	-14342
▁miner	-14343
▁Concer	-14344
▁Israël	-14345
▁contenue	-14346
▁2008-2009	-14347
▁Répartition	-14348
▁stationnement	-14349
./	-14350
4),	-14351
VIR	-14352
ams	-14353
▁IC	-14354
ople	-14355
sans	-14356
ètent	-14357
▁mémor	-14358
▁stages	-14359
isements	-14360
▁révéler	-14361
▁religieux	-14362
▁expression	-14363
échantillons	-14364
ogén	-14365
▁Ray	-14366
▁Baie	-14367
▁Remp	-14368
+00:00	-14369
Pierre	-14370
▁(1999	-14371
▁juger	-14372
▁mesur	-14373
▁guérison	-14374
▁segments	-14375
rég	-14376
▁Éch	-14377
ienne	-14378
▁Bruce	-14379
▁patron	-14380
▁finales	-14381
▁poussée	-14382
▁biologie	-14383
▁Finalement	-14384
▁dynamiques	-14385
▁Laboratoire	-14386
▁actionnaires	-14387
ergy	-14388
atory	-14389
océan	-14390
▁Camb	-14391
▁index	-14392
▁roches	-14393
▁optimale	-14394
▁poursuivra	-14395
▁sectorielles	-14396
▁3/	-14397
alls	-14398
émer	-14399
▁4.4	-14400
▁COUR	-14401
▁réag	-14402
▁Examin	-14403
▁égales	-14404
apprendre	-14405
▁CHAPITRE	-14406
▁mélanges	-14407
▁permette	-14408
▁sportive	-14409
▁Amériques	-14410
▁pancanadi	-14411
▁commentaire	-14412
oeu	-14413
itor	-14414
▁All	-14415
istry	-14416
ouche	-14417
▁1982	-14418
▁mill	-14419
espoir	-14420
▁morue	-14421
attache	-14422
▁retiré	-14423
produits	-14424
▁PERSONN	-14425
▁Solutions	-14426
▁collectifs	-14427
▁Programmation	-14428
noc	-14429
▁sÃ	-14430
inée	-14431
▁paci	-14432
▁vrac	-14433
forces	-14434
onésie	-14435
▁MAINC	-14436
▁antid	-14437
▁appren	-14438
▁brutes	-14439
▁créées	-14440
ongement	-14441
videmment	-14442
▁Pakistan	-14443
▁alimentation	-14444
▁représentait	-14445
rel	-14446
sol	-14447
▁Cours	-14448
▁arrivé	-14449
▁sportif	-14450
▁diligence	-14451
▁restreinte	-14452
▁réclamations	-14453
OIR	-14454
akh	-14455
▁Sin	-14456
ESSION	-14457
▁propice	-14458
▁sexuels	-14459
▁immédiat	-14460
▁sportifs	-14461
allégation	-14462
▁maximiser	-14463
AMA	-14464
Mar	-14465
▁sm	-14466
benz	-14467
▁hyd	-14468
▁acheté	-14469
▁connec	-14470
▁demain	-14471
▁surplus	-14472
▁vigoure	-14473
▁emplacement	-14474
▁Contrairement	-14475
sub	-14476
▁Fi	-14477
▁LI	-14478
info	-14479
▁pros	-14480
opédie	-14481
argument	-14482
▁déceler	-14483
▁consacre	-14484
▁Condition	-14485
▁dépression	-14486
▁susmentionnées	-14487
▁interprétations	-14488
▁{	-14489
opie	-14490
▁mit	-14491
▁dure	-14492
▁1993.	-14493
éthylène	-14494
▁officier	-14495
▁prédomin	-14496
▁promenade	-14497
▁Malheureusement	-14498
oma	-14499
pin	-14500
▁ID	-14501
orce	-14502
▁187	-14503
urity	-14504
▁morts	-14505
▁réjou	-14506
▁surviv	-14507
▁voulait	-14508
▁comptait	-14509
▁recruter	-14510
établissements	-14511
level	-14512
▁SYST	-14513
▁capt	-14514
icides	-14515
▁réunis	-14516
▁estimée	-14517
▁imprimés	-14518
▁remplacée	-14519
▁prorogation	-14520
▁souveraineté	-14521
orps	-14522
▁Jas	-14523
▁Sum	-14524
▁Codes	-14525
▁tirée	-14526
▁Vienne	-14527
▁déplacer	-14528
▁distinctif	-14529
▁q	-14530
ylv	-14531
▁28,	-14532
▁Afric	-14533
▁Maroc	-14534
▁coûteux	-14535
▁colonies	-14536
▁lecteurs	-14537
▁étudiées	-14538
▁pathogènes	-14539
SNG	-14540
side	-14541
▁CCG	-14542
inité	-14543
ourner	-14544
▁brève	-14545
▁chôme	-14546
▁calibre	-14547
▁créance	-14548
▁isolées	-14549
▁rejeter	-14550
Éducation	-14551
▁Pourtant	-14552
▁magistra	-14553
américaine	-14554
▁provoquer	-14555
▁Innovation	-14556
TV	-14557
nam	-14558
▁KGM	-14559
ualité	-14560
▁Enter	-14561
▁convo	-14562
▁marges	-14563
▁remont	-14564
▁allemande	-14565
▁progressé	-14566
[...]
